{
  "version": "1.0",
  "truncation": null,
  "padding": null,
  "added_tokens": [
    {
      "id": 0,
      "content": "[UNK]",
      "single_word": false,
      "lstrip": false,
      "rstrip": false,
      "normalized": false,
      "special": true
    },
    {
      "id": 1,
      "content": "[CLS]",
      "single_word": false,
      "lstrip": false,
      "rstrip": false,
      "normalized": false,
      "special": true
    },
    {
      "id": 2,
      "content": "[SEP]",
      "single_word": false,
      "lstrip": false,
      "rstrip": false,
      "normalized": false,
      "special": true
    },
    {
      "id": 3,
      "content": "[PAD]",
      "single_word": false,
      "lstrip": false,
      "rstrip": false,
      "normalized": false,
      "special": true
    },
    {
      "id": 4,
      "content": "[MASK]",
      "single_word": false,
      "lstrip": false,
      "rstrip": false,
      "normalized": false,
      "special": true
    }
  ],
  "normalizer": null,
  "pre_tokenizer": {
    "type": "Whitespace"
  },
  "post_processor": null,
  "decoder": null,
  "model": {
    "type": "BPE",
    "dropout": null,
    "unk_token": "[UNK]",
    "continuing_subword_prefix": null,
    "end_of_word_suffix": null,
    "fuse_unk": false,
    "byte_fallback": false,
    "vocab": {
      "[UNK]": 0,
      "[CLS]": 1,
      "[SEP]": 2,
      "[PAD]": 3,
      "[MASK]": 4,
      "!": 5,
      "\"": 6,
      "#": 7,
      "$": 8,
      "%": 9,
      "&": 10,
      "'": 11,
      "(": 12,
      ")": 13,
      "*": 14,
      "+": 15,
      ",": 16,
      "-": 17,
      ".": 18,
      "/": 19,
      "0": 20,
      "1": 21,
      "2": 22,
      "3": 23,
      "4": 24,
      "5": 25,
      "6": 26,
      "7": 27,
      "8": 28,
      "9": 29,
      ":": 30,
      ";": 31,
      "<": 32,
      "=": 33,
      ">": 34,
      "?": 35,
      "@": 36,
      "A": 37,
      "B": 38,
      "C": 39,
      "D": 40,
      "E": 41,
      "F": 42,
      "G": 43,
      "H": 44,
      "I": 45,
      "J": 46,
      "K": 47,
      "L": 48,
      "M": 49,
      "N": 50,
      "O": 51,
      "P": 52,
      "Q": 53,
      "R": 54,
      "S": 55,
      "T": 56,
      "U": 57,
      "V": 58,
      "W": 59,
      "X": 60,
      "Y": 61,
      "Z": 62,
      "[": 63,
      "]": 64,
      "^": 65,
      "_": 66,
      "`": 67,
      "a": 68,
      "b": 69,
      "c": 70,
      "d": 71,
      "e": 72,
      "f": 73,
      "g": 74,
      "h": 75,
      "i": 76,
      "j": 77,
      "k": 78,
      "l": 79,
      "m": 80,
      "n": 81,
      "o": 82,
      "p": 83,
      "q": 84,
      "r": 85,
      "s": 86,
      "t": 87,
      "u": 88,
      "v": 89,
      "w": 90,
      "x": 91,
      "y": 92,
      "z": 93,
      "{": 94,
      "~": 95,
      "£": 96,
      "¥": 97,
      "©": 98,
      "«": 99,
      "®": 100,
      "°": 101,
      "²": 102,
      "¶": 103,
      "»": 104,
      "¼": 105,
      "½": 106,
      "¾": 107,
      "Á": 108,
      "Å": 109,
      "×": 110,
      "à": 111,
      "á": 112,
      "ã": 113,
      "ä": 114,
      "ç": 115,
      "è": 116,
      "é": 117,
      "ê": 118,
      "ì": 119,
      "í": 120,
      "ï": 121,
      "ñ": 122,
      "ó": 123,
      "ö": 124,
      "÷": 125,
      "ø": 126,
      "ü": 127,
      "ā": 128,
      "ē": 129,
      "ě": 130,
      "š": 131,
      "ˎ": 132,
      "˙": 133,
      "·": 134,
      "Σ": 135,
      "α": 136,
      "β": 137,
      "γ": 138,
      "θ": 139,
      "φ": 140,
      "ω": 141,
      "а": 142,
      "к": 143,
      "л": 144,
      "ย": 145,
      "ร": 146,
      "อ": 147,
      "่": 148,
      "–": 149,
      "—": 150,
      "―": 151,
      "•": 152,
      "…": 153,
      "‧": 154,
      "€": 155,
      "℃": 156,
      "™": 157,
      "Ⅱ": 158,
      "−": 159,
      "∙": 160,
      "⋯": 161,
      "─": 162,
      "▪": 163,
      "♡": 164,
      "♪": 165,
      "♫": 166,
      "✔": 167,
      "〈": 168,
      "〉": 169,
      "「": 170,
      "」": 171,
      "『": 172,
      "』": 173,
      "【": 174,
      "】": 175,
      "〔": 176,
      "〕": 177,
      "ム": 178,
      "・": 179,
      "ㄧ": 180,
      "﹐": 181,
      "﹔": 182,
      "﹕": 183,
      "﹖": 184,
      "﹣": 185,
      "﻿": 186,
      "！": 187,
      "＂": 188,
      "％": 189,
      "（": 190,
      "）": 191,
      "＋": 192,
      "－": 193,
      "．": 194,
      "／": 195,
      "０": 196,
      "１": 197,
      "２": 198,
      "３": 199,
      "５": 200,
      "６": 201,
      "７": 202,
      "８": 203,
      "９": 204,
      "＝": 205,
      "＠": 206,
      "Ｃ": 207,
      "Ｍ": 208,
      "Ｕ": 209,
      "［": 210,
      "］": 211,
      "｀": 212,
      "｛": 213,
      "｝": 214,
      "～": 215,
      "｡": 216,
      "｢": 217,
      "｣": 218,
      "･": 219,
      "￥": 220,
      "￼": 221,
      "ee": 222,
      "ea": 223,
      "ai": 224,
      "et": 225,
      "oo": 226,
      "aiee": 227,
      "eai": 228,
      "to": 229,
      "ta": 230,
      "tn": 231,
      "eea": 232,
      "ot": 233,
      "taiee": 234,
      "eaie": 235,
      "etn": 236,
      "as": 237,
      "ts": 238,
      "eae": 239,
      "er": 240,
      "oee": 241,
      "asee": 242,
      "eto": 243,
      "tso": 244,
      "lo": 245,
      "taieetso": 246,
      "eaiee": 247,
      "erd": 248,
      "uto": 249,
      "eaa": 250,
      "oooo": 251,
      "th": 252,
      "aie": 253,
      "wn": 254,
      "tt": 255,
      "oe": 256,
      "aa": 257,
      "eato": 258,
      "tc": 259,
      "ead": 260,
      "aieeea": 261,
      "own": 262,
      "eta": 263,
      "erduto": 264,
      "too": 265,
      "aiea": 266,
      "oeeeaie": 267,
      "sa": 268,
      "terduto": 269,
      "oh": 270,
      "rto": 271,
      "te": 272,
      "ooh": 273,
      "aieeeaetn": 274,
      "ll": 275,
      "hr": 276,
      "hn": 277,
      "etc": 278,
      "llo": 279,
      "taieea": 280,
      "etaiee": 281,
      "taieeaasee": 282,
      "eer": 283,
      "ood": 284,
      "st": 285,
      "teea": 286,
      "ote": 287,
      "uoo": 288,
      "lloooo": 289,
      "ie": 290,
      "tea": 291,
      "mtn": 292,
      "oeeeaieown": 293,
      "sac": 294,
      "ouoo": 295,
      "iee": 296,
      "pa": 297,
      "eaaee": 298,
      "oto": 299,
      "tta": 300,
      "gte": 301,
      "aieee": 302,
      "eead": 303,
      "etaeae": 304,
      "oeeeai": 305,
      "aieaaiee": 306,
      "taaieaaiee": 307,
      "oteaiee": 308,
      "see": 309,
      "eatn": 310,
      "etasee": 311,
      "teato": 312,
      "ar": 313,
      "aiet": 314,
      "ero": 315,
      "teeae": 316,
      "toto": 317,
      "ho": 318,
      "aiaa": 319,
      "oet": 320,
      "eero": 321,
      "aee": 322,
      "tti": 323,
      "ieea": 324,
      "tath": 325,
      "hre": 326,
      "fa": 327,
      "etao": 328,
      "soooo": 329,
      "ae": 330,
      "tn1": 331,
      "elo": 332,
      "oeeeae": 333,
      "eaieea": 334,
      "tee": 335,
      "eee": 336,
      "ieeaasee": 337,
      "oha": 338,
      "etoto": 339,
      "aieae": 340,
      "otee": 341,
      "tathrto": 342,
      "eaier": 343,
      "taieee": 344,
      "tasac": 345,
      "aieai": 346,
      "thn": 347,
      "oeaie": 348,
      "taoeeeae": 349,
      "eaiaa": 350,
      "tetn": 351,
      "gg": 352,
      "iec": 353,
      "eloead": 354,
      "etaieeeto": 355,
      "taea": 356,
      "atn": 357,
      "eloeadar": 358,
      "tttn": 359,
      "tneai": 360,
      "llollo": 361,
      "aead": 362,
      "etas": 363,
      "moto": 364,
      "aeadtc": 365,
      "oeaierto": 366,
      "ieb": 367,
      "aieeetc": 368,
      "tsee": 369,
      "aoteaiee": 370,
      "ktttn": 371,
      "eaieeeto": 372,
      "gt": 373,
      "eeae": 374,
      "eatoo": 375,
      "isoooo": 376,
      "tootti": 377,
      "toottiisoooo": 378,
      "eaieeaee": 379,
      "htn": 380,
      "etotoatn": 381,
      "eas": 382,
      "aietc": 383,
      "oest": 384,
      "tj": 385,
      "loasee": 386,
      "teaiee": 387,
      "eaea": 388,
      "ets": 389,
      "otoh": 390,
      "etco": 391,
      "tctc": 392,
      "oeaiertoetco": 393,
      "oeoteaiee": 394,
      "teote": 395,
      "loaseetctc": 396,
      "aii": 397,
      "tneaiaoteaiee": 398,
      "oteea": 399,
      "etn1": 400,
      "aeadtcee": 401,
      "aotoh": 402,
      "eaetaiee": 403,
      "tseea": 404,
      "oeto": 405,
      "etaieee": 406,
      "aieeeto": 407,
      "eaiaae": 408,
      "tv": 409,
      "tpa": 410,
      "seetpa": 411,
      "eatoaieee": 412,
      "taee": 413,
      "eaieeea": 414,
      "hot": 415,
      "eetn": 416,
      "ooa": 417,
      "etasaa": 418,
      "od": 419,
      "ettea": 420,
      "eatoeatn": 421,
      "aieto": 422,
      "eaiaaegte": 423,
      "eaaeed": 424,
      "oeeeaietn": 425,
      "easa": 426,
      "aieeeaeero": 427,
      "oohtc": 428,
      "thoo": 429,
      "eaelo": 430,
      "otd": 431,
      "eaeee": 432,
      "thot": 433,
      "aieeee": 434,
      "teatoaie": 435,
      "teoteo": 436,
      "teeae1": 437,
      "eeadero": 438,
      "eaae": 439,
      "duto": 440,
      "aaote": 441,
      "stt": 442,
      "ttiettea": 443,
      "oeteatoeatn": 444,
      "etktttn": 445,
      "eaieduto": 446,
      "asa": 447,
      "tneaie": 448,
      "aietetn": 449,
      "tae": 450,
      "ieeoh": 451,
      "eaeaetn": 452,
      "aiaaee": 453,
      "oeo": 454,
      "ttea": 455,
      "iet": 456,
      "aec": 457,
      "oel": 458,
      "iaec": 459,
      "oeteatoeatnllo": 460,
      "gteaie": 461,
      "totoieeoh": 462,
      "taeetotoieeoh": 463,
      "thotho": 464,
      "eeta": 465,
      "os": 466,
      "ieer": 467,
      "ttaiee": 468,
      "eaiea": 469,
      "tn2": 470,
      "tjho": 471,
      "oeeeaietnaietc": 472,
      "uo": 473,
      "toh": 474,
      "teetaieee": 475,
      "teaee": 476,
      "oshtn": 477,
      "eatoaieeeouoo": 478,
      "tmtn": 479,
      "eeadaieeetc": 480,
      "aieown": 481,
      "aieee1": 482,
      "oeai": 483,
      "ieem": 484,
      "eatooteeae": 485,
      "ia": 486,
      "ttaieemtn": 487,
      "tead": 488,
      "toown": 489,
      "eatooteeaeoshtn": 490,
      "aiias": 491,
      "oteeadero": 492,
      "aaoteoteeadero": 493,
      "ohaoooo": 494,
      "aietoe": 495,
      "eohaoooo": 496,
      "faet": 497,
      "aiiasaieown": 498,
      "eadsac": 499,
      "taaieee1": 500,
      "ooooo": 501,
      "etsuto": 502,
      "etmtn": 503,
      "eaieetn": 504,
      "faa": 505,
      "oeote": 506,
      "eaieieer": 507,
      "oeeeaiet": 508,
      "eaetaieepa": 509,
      "eaeaie": 510,
      "tf": 511,
      "othn": 512,
      "hottn": 513,
      "iebtjho": 514,
      "hottniebtjho": 515,
      "easee": 516,
      "eeasoooo": 517,
      "em": 518,
      "fs": 519,
      "oohetktttn": 520,
      "aieaieae": 521,
      "teaieeeae": 522,
      "otetaieee": 523,
      "tnoo": 524,
      "oesttnoo": 525,
      "oeaieeaee": 526,
      "oeaieeaeetmtn": 527,
      "oohto": 528,
      "ttt": 529,
      "ggg": 530,
      "aieeeero": 531,
      "ttaaieeeero": 532,
      "toouoo": 533,
      "tec": 534,
      "oteato": 535,
      "teatoteaieeeae": 536,
      "llothn": 537,
      "ttallothn": 538,
      "taeaaietetn": 539,
      "teeaea": 540,
      "aetn": 541,
      "aotohaieaieae": 542,
      "htec": 543,
      "fsoeo": 544,
      "aieea": 545,
      "fia": 546,
      "fiaeaieeeto": 547,
      "oeeeaiee": 548,
      "taeetotoieeohhre": 549,
      "hre0": 550,
      "aehtec": 551,
      "faafa": 552,
      "eaaeedhn": 553,
      "oeot": 554,
      "tnst": 555,
      "toeea": 556,
      "etnooooo": 557,
      "thooetnooooo": 558,
      "etouto": 559,
      "eaitf": 560,
      "oohfiaeaieeeto": 561,
      "gggeae": 562,
      "tateaee": 563,
      "aiaaeeaiet": 564,
      "aieaeo": 565,
      "llolloetouto": 566,
      "oetod": 567,
      "toeeaotd": 568,
      "eaeero": 569,
      "eaet": 570,
      "eaeae": 571,
      "otetaieeeown": 572,
      "eaaieeee": 573,
      "tstt": 574,
      "aiaae": 575,
      "eeaeasee": 576,
      "eaaeeeto": 577,
      "thnaie": 578,
      "teeto": 579,
      "tahn": 580,
      "aieeeatn2": 581,
      "thtn": 582,
      "eadst": 583,
      "eao": 584,
      "gtehre": 585,
      "oodts": 586,
      "egggeae": 587,
      "aseaie": 588,
      "tho": 589,
      "llorto": 590,
      "oeoteaieeouoo": 591,
      "oodtshn": 592,
      "ieeaaseeeeta": 593,
      "aietktttn": 594,
      "ao": 595,
      "tto": 596,
      "ohao": 597,
      "ohn": 598,
      "eerto": 599,
      "oeeeaieea": 600,
      "easeea": 601,
      "aeeeaeee": 602,
      "tjhn": 603,
      "llooooegggeae": 604,
      "aieeeaaeedhn": 605,
      "aieaieduto": 606,
      "aieaiedutoe": 607,
      "oestt": 608,
      "hrd": 609,
      "oteaa": 610,
      "staie": 611,
      "me": 612,
      "teadtstt": 613,
      "oteeetaieee": 614,
      "aiaaeeaietm": 615,
      "aiaaeeaietmtoown": 616,
      "oeotee": 617,
      "etno": 618,
      "llollof": 619,
      "ieeaaseeaiee": 620,
      "etot": 621,
      "otea": 622,
      "ttatoto": 623,
      "ttatotoaetn": 624,
      "aeaie": 625,
      "etaie": 626,
      "oeeae": 627,
      "oeeea": 628,
      "aieeaee": 629,
      "eetc": 630,
      "tasee": 631,
      "tefsoeo": 632,
      "easaee": 633,
      "etoo": 634,
      "teetoaie": 635,
      "ttaeer": 636,
      "tno": 637,
      "aieaead": 638,
      "oeltto": 639,
      "teaieeeadst": 640,
      "easeear": 641,
      "thtseea": 642,
      "ieeaaseeaie": 643,
      "eaieeeaa": 644,
      "eaieeeaaetmtn": 645,
      "tatc": 646,
      "oeeeaielloooo": 647,
      "oeeeaielloooolloooo": 648,
      "oeaieaieeeaaetmtn": 649,
      "eaeeasoooo": 650,
      "aieasa": 651,
      "oteaaote": 652,
      "aotohaieasa": 653,
      "eaed": 654,
      "teaeaie": 655,
      "ohasee": 656,
      "aiiohasee": 657,
      "oeeeaieoeaieaieeeaaetmtn": 658,
      "euto": 659,
      "erto": 660,
      "oodeaelo": 661,
      "aieaetn": 662,
      "eaaaiee": 663,
      "tnoh": 664,
      "aieaaee": 665,
      "aieaie": 666,
      "loaie": 667,
      "etaiaa": 668,
      "etaiaaeee": 669,
      "saie": 670,
      "eaieai": 671,
      "eaeaetniec": 672,
      "st1": 673,
      "oeeeaielloooollooootetn": 674,
      "eaaie": 675,
      "ooateeae": 676,
      "oeoteerto": 677,
      "eatollolloetouto": 678,
      "gtet": 679,
      "eaaeeetot": 680,
      "eaaeaiee": 681,
      "erdiaec": 682,
      "eaaef": 683,
      "emtc": 684,
      "thooero": 685,
      "faetthooero": 686,
      "oero": 687,
      "aieeaiea": 688,
      "eteaie": 689,
      "ohatoh": 690,
      "ohatohtahn": 691,
      "oteeea": 692,
      "aieote": 693,
      "aieaaeeaieote": 694,
      "eaaaieai": 695,
      "eaaaieaieta": 696,
      "ieemtn": 697,
      "oteaed": 698,
      "aieeeaetnetaieeeto": 699,
      "oteaedoooo": 700,
      "oteaseear": 701,
      "tk": 702,
      "aioteaedoooo": 703,
      "eetn0": 704,
      "odthtn": 705,
      "eaeeemtn": 706,
      "rhtn": 707,
      "aito": 708,
      "teatn": 709,
      "ieeaaseellollof": 710,
      "ieeaaseellolloftaea": 711,
      "erdoeote": 712,
      "oeoteaie": 713,
      "ooaeeaeasee": 714,
      "eae2": 715,
      "gtetetn": 716,
      "aiiohaseeaieaaeeaieote": 717,
      "aieeaieagtetetn": 718,
      "eloeae": 719,
      "teaieeaee": 720,
      "aieee0": 721,
      "taoeeeaeown": 722,
      "eeadaieeaee": 723,
      "aioteaedooooaeaie": 724,
      "tathaietktttn": 725,
      "ieba": 726,
      "oetta": 727,
      "taeee": 728,
      "taeeex": 729,
      "utoouoo": 730,
      "taieerto": 731,
      "gtesac": 732,
      "ettaieerto": 733,
      "tot": 734,
      "eteaieutoouoo": 735,
      "tootoh": 736,
      "aietn": 737,
      "eaaieeeeto": 738,
      "ta0": 739,
      "aieaetnta0": 740,
      "tat": 741,
      "oeeeaies": 742,
      "tneeae": 743,
      "oteeaeetn": 744,
      "ieemo": 745,
      "toot": 746,
      "taeiee": 747,
      "eahn": 748,
      "taeaier": 749,
      "teeaaa": 750,
      "eatoaieee2": 751,
      "stteea": 752,
      "thtseeastteea": 753,
      "teer": 754,
      "eaetn": 755,
      "hoh": 756,
      "eaitfee": 757,
      "aseea": 758,
      "llooootneaie": 759,
      "ieet": 760,
      "teaaie": 761,
      "eeawn": 762,
      "oeoteertottea": 763,
      "tn0": 764,
      "oea": 765,
      "hoaseea": 766,
      "ooheaetn": 767,
      "aieteetn": 768,
      "taoeeeaie": 769,
      "eohaooooetasaa": 770,
      "oeoteaiepa": 771,
      "taseeet": 772,
      "jhn": 773,
      "eatne": 774,
      "etstt": 775,
      "eaitfe": 776,
      "oef": 777,
      "taoeeea": 778,
      "aieae1": 779,
      "eadtv": 780,
      "easatoto": 781,
      "oetmtn": 782,
      "eaieaf": 783,
      "oeteaae": 784,
      "gteloaie": 785,
      "etaiaaee": 786,
      "etaiaaeeouoo": 787,
      "eaieeatn": 788,
      "taaieteetn": 789,
      "eaietn": 790,
      "taeaietn": 791,
      "iec0": 792,
      "dtno": 793,
      "oeteaaehn": 794,
      "aieec": 795,
      "taeeexaieeeto": 796,
      "aeoooo": 797,
      "teeaaaaeoooo": 798,
      "tthn": 799,
      "el": 800,
      "eaieaieaie": 801,
      "eeto": 802,
      "easeaa": 803,
      "iettc": 804,
      "eohaooooaieec": 805,
      "oeeeaiestoouoo": 806,
      "eaietoto": 807,
      "tneaieaietoto": 808,
      "hohr": 809,
      "eaee": 810,
      "iod": 811,
      "asad": 812,
      "oeoteaieeuto": 813,
      "taoeeeaeouoo": 814,
      "oettataoeeeaeouoo": 815,
      "oesttetn": 816,
      "iebat": 817,
      "eaiaaeaieeeto": 818,
      "oodteaaie": 819,
      "eterduto": 820,
      "afa": 821,
      "tnlo": 822,
      "otaiee": 823,
      "aieetsee": 824,
      "iec1": 825,
      "aieeeae": 826,
      "hoaseeaown": 827,
      "tme": 828,
      "otc": 829,
      "oteatoetoo": 830,
      "oteatoetooetaieeeto": 831,
      "oeota": 832,
      "aieeeaieeaee": 833,
      "aieie": 834,
      "atot": 835,
      "ieeea": 836,
      "ieeeeawn": 837,
      "otai": 838,
      "ooheetc": 839,
      "etho": 840,
      "twn": 841,
      "aieeetstt": 842,
      "taei": 843,
      "staie0": 844,
      "oeaieas": 845,
      "saa": 846,
      "uoto": 847,
      "teeasaa": 848,
      "teeasaar": 849,
      "teaeaieown": 850,
      "teadeaeero": 851,
      "eaieeeaown": 852,
      "oteeaeterduto": 853,
      "ma": 854,
      "eaeasee": 855,
      "eeaduo": 856,
      "oeaieasaie": 857,
      "teoteoiebat": 858,
      "eeaa": 859,
      "eaaeeetottea": 860,
      "otaiaoteaiee": 861,
      "etasa": 862,
      "oelotc": 863,
      "teea1": 864,
      "ethoar": 865,
      "eaieaieaief": 866,
      "teatoar": 867,
      "taeetotoieeohaieeetc": 868,
      "oeeeaietjhn": 869,
      "erdoeotegte": 870,
      "teev": 871,
      "eaieaeto": 872,
      "llooooeaeaie": 873,
      "eaieetno": 874,
      "ouoto": 875,
      "eaaeee": 876,
      "aeae": 877,
      "etteeae": 878,
      "etneae": 879,
      "aieaeouoo": 880,
      "hrdoeltto": 881,
      "aiaiee": 882,
      "eaieotd": 883,
      "taeuo": 884,
      "tootohhn": 885,
      "eaaeeetneae": 886,
      "tsiec": 887,
      "oohtoeae": 888,
      "eaaeto": 889,
      "aieeoeaierto": 890,
      "teatoaieeeae": 891,
      "asado": 892,
      "teatoo": 893,
      "ttaeatoo": 894,
      "ttaeatooeer": 895,
      "eeaetmtn": 896,
      "etero": 897,
      "oeeeaietasee": 898,
      "oeeeaietaseeetero": 899,
      "llolloeatn": 900,
      "eaieeae": 901,
      "taieellolloeatn": 902,
      "oeeeaietneaseaa": 903,
      "llooooas": 904,
      "oeeeaieteea": 905,
      "otto": 906,
      "oeeeaieteaaie": 907,
      "hrdtetn": 908,
      "teatoooea": 909,
      "eeaderodtno": 910,
      "eaduo": 911,
      "tateea1": 912,
      "taoeeeaehn": 913,
      "aieeetoar": 914,
      "eaaemtn": 915,
      "eaieeaeoero": 916,
      "ieteaaemtn": 917,
      "easto": 918,
      "sto": 919,
      "aieee2": 920,
      "eaieeetc": 921,
      "taoeote": 922,
      "aitoe": 923,
      "erdaieeeaetn": 924,
      "tasaie": 925,
      "tar": 926,
      "etn0": 927,
      "aieaieetno": 928,
      "eaeto": 929,
      "eaaaieeetn": 930,
      "gteea": 931,
      "neerto": 932,
      "thooh": 933,
      "thoohneerto": 934,
      "tai": 935,
      "thoao": 936,
      "aiaieee": 937,
      "aiaieea": 938,
      "aiaieeaaiaieee": 939,
      "eaeead": 940,
      "eaethrdtetn": 941,
      "taeaaeaiee": 942,
      "oetoetteeae": 943,
      "gggt": 944,
      "gggtaitoe": 945,
      "aiear": 946,
      "aaoteotee": 947,
      "eaieeeae": 948,
      "eaaaieeasado": 949,
      "aieaieetnoaieaie": 950,
      "oetoto": 951,
      "ietn0": 952,
      "taaiee": 953,
      "oetotn": 954,
      "tseegggtaitoe": 955,
      "tateae": 956,
      "oetodeasto": 957,
      "aaoteoteeeatn": 958,
      "tetn0": 959,
      "taa": 960,
      "oodietn0": 961,
      "tllorto": 962,
      "ouoothn": 963,
      "lloooooelotc": 964,
      "taeaaeaieeeae": 965,
      "oi": 966,
      "tooieet": 967,
      "tooieetaiear": 968,
      "mtetn0": 969,
      "iemtetn0": 970,
      "odto": 971,
      "oooh": 972,
      "erdeahn": 973,
      "aieaieaieeea": 974,
      "astn": 975,
      "eaaaieaietaoeeea": 976,
      "eaaaieaietaoeeeaeaieeetc": 977,
      "lolo": 978,
      "taeieetc": 979,
      "eaaetc": 980,
      "ohasa": 981,
      "eaaetcohasa": 982,
      "aieiettc": 983,
      "etaieeeta": 984,
      "etaoeeeae": 985,
      "eaetoeadtv": 986,
      "oohtotv": 987,
      "ert": 988,
      "ohtaoeeeae": 989,
      "etaieohtaoeeeae": 990,
      "ooohaieie": 991,
      "eaaeaieeeto": 992,
      "ieemto": 993,
      "oeeeaieeeaduo": 994,
      "hotsaie": 995,
      "thothotsaie": 996,
      "meu": 997,
      "star": 998,
      "aieaieeeto": 999,
      "ea1": 1000,
      "aiestar": 1001,
      "aiestar0": 1002,
      "aieaiee": 1003,
      "aieeteeae": 1004,
      "taaieeatn": 1005,
      "eadaieeetstt": 1006,
      "toeatn": 1007,
      "thntv": 1008,
      "aehtecthntv": 1009,
      "teaeeouoo": 1010,
      "htahn": 1011,
      "eeead": 1012,
      "eaaeeeeead": 1013,
      "ohaoeae": 1014,
      "eaaeeeeeadetaiaaeeouoo": 1015,
      "taoeeeaeea": 1016,
      "aeaea": 1017,
      "aeaeatt": 1018,
      "thaietktttn": 1019,
      "teaetc": 1020,
      "oteatoo": 1021,
      "aieaeoooo": 1022,
      "thaieaeoooo": 1023,
      "etoown": 1024,
      "totototo": 1025,
      "eaead": 1026,
      "mtsee": 1027,
      "oemtsee": 1028,
      "oemtseeeeae": 1029,
      "etno0": 1030,
      "erdeuto": 1031,
      "oheaieeeaown": 1032,
      "oetn": 1033,
      "thoaie": 1034,
      "eaaeaieeetotaoeeeae": 1035,
      "eeerto": 1036,
      "eaiaaeeerto": 1037,
      "tkt": 1038,
      "ieemosa": 1039,
      "sahn": 1040,
      "aeaiee": 1041,
      "aieaieaie": 1042,
      "oohgte": 1043,
      "etoasa": 1044,
      "etoasatotototo": 1045,
      "eaeoteea": 1046,
      "aieeoeaiertottt": 1047,
      "eotea": 1048,
      "oeeeaieoeoteaieeuto": 1049,
      "oteoef": 1050,
      "llooooasoteoef": 1051,
      "tac": 1052,
      "oeeeaieoeltto": 1053,
      "oteaie": 1054,
      "eaaietc": 1055,
      "erdaehtec": 1056,
      "erdaehtecetktttn": 1057,
      "thiaec": 1058,
      "dtn": 1059,
      "oeoteaieetc": 1060,
      "oeasa": 1061,
      "tneea": 1062,
      "mtc": 1063,
      "tsoe": 1064,
      "oelo": 1065,
      "eeaeoteea": 1066,
      "oodtefsoeo": 1067,
      "oteeeaown": 1068,
      "llooooaieee": 1069,
      "oell": 1070,
      "ethn": 1071,
      "eaieato": 1072,
      "st0": 1073,
      "aieeetc1": 1074,
      "xx": 1075,
      "eaeoteeeaown": 1076,
      "llooootaoeeeae": 1077,
      "xxeae": 1078,
      "ro": 1079,
      "ohaoaieeetc": 1080,
      "thoe": 1081,
      "taithoe": 1082,
      "thaietc": 1083,
      "eaaeasaee": 1084,
      "oeeeaieeeaaeasaee": 1085,
      "otoao": 1086,
      "otoaoa": 1087,
      "eb": 1088,
      "iemeu": 1089,
      "eaieotdetaieeeto": 1090,
      "tm": 1091,
      "aieeaeeasoooo": 1092,
      "etahre": 1093,
      "aieeteeae0": 1094,
      "taathn": 1095,
      "otaieerto": 1096,
      "aiest0": 1097,
      "aslo": 1098,
      "tneaiesa": 1099,
      "eaeeasooootneaieaietoto": 1100,
      "eaeadtetn": 1101,
      "eaieta": 1102,
      "teoteoeaeero": 1103,
      "aeaieel": 1104,
      "teaieethn": 1105,
      "hottneaie": 1106,
      "tnoho": 1107,
      "hottneaieote": 1108,
      "ohato": 1109,
      "eaexxeae": 1110,
      "tcaiee": 1111,
      "taie": 1112,
      "eaaeeetotsee": 1113,
      "teevoteato": 1114,
      "taieeeouoo": 1115,
      "eetattt": 1116,
      "ttsoe": 1117,
      "aiaaeeaeoteea": 1118,
      "eaaietetn": 1119,
      "oeeeaiettea": 1120,
      "oeeeaietteao": 1121,
      "aotasee": 1122,
      "aot": 1123,
      "oestte": 1124,
      "ohtoeatn": 1125,
      "taithoeouoo": 1126,
      "eaieaee": 1127,
      "teoteooohaieie": 1128,
      "oeeeaieiec": 1129,
      "eatoeaaaieeetn": 1130,
      "oodooh": 1131,
      "ohaoaieea": 1132,
      "taethoar": 1133,
      "etoeaier": 1134,
      "iodiod": 1135,
      "taeaieeaeoero": 1136,
      "eaaeedho": 1137,
      "erder": 1138,
      "eae1": 1139,
      "oodooheaieaeto": 1140,
      "tetneaeae": 1141,
      "eaieatotetneaeae": 1142,
      "eaeaetnem": 1143,
      "eaeaetnemuto": 1144,
      "tooe": 1145,
      "eeaaeasaee": 1146,
      "eadetaieeeto": 1147,
      "aieed": 1148,
      "ottn": 1149,
      "oelotac": 1150,
      "taieerhtn": 1151,
      "pathoohneerto": 1152,
      "erdeaeero": 1153,
      "aiaaets": 1154,
      "aiaaetsaieaeo": 1155,
      "eaats": 1156,
      "toetasa": 1157,
      "aieedst": 1158,
      "tsto": 1159,
      "ottoot": 1160,
      "aie0": 1161,
      "ieciec": 1162,
      "tnaie": 1163,
      "oohtooe": 1164,
      "taieeeoohtooe": 1165,
      "stown": 1166,
      "taieeeoohtooestown": 1167,
      "oeaieoh": 1168,
      "ieetaie": 1169,
      "odthtnaieeeto": 1170,
      "aieestaie": 1171,
      "tnoieemto": 1172,
      "eteeto": 1173,
      "eteetof": 1174,
      "tjhoeaitfee": 1175,
      "eteetoftjhoeaitfee": 1176,
      "aieestaieoooo": 1177,
      "eaaetoown": 1178,
      "iecieceaaetoown": 1179,
      "aieaeadthnaie": 1180,
      "ieemopa": 1181,
      "ellollof": 1182,
      "llolloellollof": 1183,
      "oohhre": 1184,
      "llooooaieae1": 1185,
      "aotetc": 1186,
      "aieiaec": 1187,
      "tttetaieeeto": 1188,
      "aieiaec0": 1189,
      "eaeaiaaeaieeeto": 1190,
      "aieaieaieeeae": 1191,
      "aieaieaieeeaeuto": 1192,
      "tootieer": 1193,
      "hoe": 1194,
      "ethot": 1195,
      "ethotc": 1196,
      "aieeeeta": 1197,
      "teoteoaieeeeta": 1198,
      "eetaar": 1199,
      "oeeeaieeaa": 1200,
      "sod": 1201,
      "oteatn": 1202,
      "aieaieeeto0": 1203,
      "oodoelotac": 1204,
      "ottoottn": 1205,
      "eeatn0": 1206,
      "ttaetaiaaeeouoo": 1207,
      "tootohouoothn": 1208,
      "aieeeeto": 1209,
      "aiesa": 1210,
      "totoaiesa": 1211,
      "etaseaa": 1212,
      "eaeia": 1213,
      "eaeiaet": 1214,
      "tjhneaaeee": 1215,
      "eaeiaettjhneaaeee": 1216,
      "tteaaieeeto": 1217,
      "tteatteaaieeeto": 1218,
      "lh": 1219,
      "llooootso": 1220,
      "eatoeaiaaeeerto": 1221,
      "tnttt": 1222,
      "mta": 1223,
      "llollomta": 1224,
      "eaaeedllollomta": 1225,
      "eaaeedllollomtaae": 1226,
      "dc": 1227,
      "llooootaithoeouoo": 1228,
      "oodettaieerto": 1229,
      "aiema": 1230,
      "ooaietn": 1231,
      "oodaieeetoar": 1232,
      "llooootaieerhtn": 1233,
      "teeasaaroetmtn": 1234,
      "ec": 1235,
      "tneeaote": 1236,
      "etteato": 1237,
      "etteatoteatn": 1238,
      "eaaaietn": 1239,
      "oeotd": 1240,
      "iebeaeeemtn": 1241,
      "paeaier": 1242,
      "aieaeadieemtn": 1243,
      "faaslo": 1244,
      "taathnerto": 1245,
      "teo": 1246,
      "eaieafteo": 1247,
      "totoeae": 1248,
      "oetofaaslo": 1249,
      "ieeasa": 1250,
      "eaatsaietetn": 1251,
      "toieemopa": 1252,
      "lltoieemopa": 1253,
      "oeeeaieottoottn": 1254,
      "eaeaieoteaie": 1255,
      "matetn": 1256,
      "mn": 1257,
      "eetaareae": 1258,
      "sttmn": 1259,
      "oeotasttmn": 1260,
      "eaettc": 1261,
      "asotea": 1262,
      "etteatoteatnaeae": 1263,
      "oodloaie": 1264,
      "eaatatc": 1265,
      "eaaeeeatn": 1266,
      "eaeaieta": 1267,
      "eaeaietatoown": 1268,
      "oeeeaie0": 1269,
      "emst": 1270,
      "erotaiee": 1271,
      "eaeeaderotaiee": 1272,
      "eaeeaderotaieeasa": 1273,
      "rt": 1274,
      "aieeaee1": 1275,
      "oetaieeeto": 1276,
      "etneea": 1277,
      "eaeteb": 1278,
      "ost": 1279,
      "teoteoieeaaseeaiee": 1280,
      "taieaeo": 1281,
      "oeoteaieeaee": 1282,
      "oteaee": 1283,
      "eeaeaieeeto": 1284,
      "aiaaeeaietmtn": 1285,
      "eeadaiaaeeaietmtn": 1286,
      "oteaeeoooo": 1287,
      "dtc": 1288,
      "oodoeeae": 1289,
      "teetn0": 1290,
      "ttaa": 1291,
      "taieieeasa": 1292,
      "oeeeaieeaieaie": 1293,
      "iebta": 1294,
      "aiehoe": 1295,
      "hraiehoe": 1296,
      "ief": 1297,
      "eief": 1298,
      "eatohraiehoe": 1299,
      "eaieead": 1300,
      "eaieeeaeaieead": 1301,
      "eaieeeaeaieeadoero": 1302,
      "haetn": 1303,
      "hoetaieeeto": 1304,
      "ieeeaeaiee": 1305,
      "tooieem": 1306,
      "eaieaieae": 1307,
      "fatjhn": 1308,
      "eaieeeafatjhn": 1309,
      "tteaown": 1310,
      "aieello": 1311,
      "lloooooetaieeeto": 1312,
      "aieellolloooooetaieeeto": 1313,
      "eaaaieaietaoee": 1314,
      "eaethtn": 1315,
      "eaaaieaietaoeeeaethtn": 1316,
      "tvtaieaeo": 1317,
      "ottoo": 1318,
      "aiee0": 1319,
      "oetofaaslotaoeeeae": 1320,
      "seaie": 1321,
      "toohoetaieeeto": 1322,
      "ttsoeot": 1323,
      "otetaieeeownero": 1324,
      "eatoeeaaeasaee": 1325,
      "oodotoaoa": 1326,
      "etoe": 1327,
      "oohgteea": 1328,
      "oohgteeatn": 1329,
      "oeteaa": 1330,
      "oeltc": 1331,
      "dtjhn": 1332,
      "tsee1": 1333,
      "taeedtjhn": 1334,
      "oeloasee": 1335,
      "vto": 1336,
      "tota": 1337,
      "aieaee": 1338,
      "tvtota": 1339,
      "vtotvtota": 1340,
      "taieetc": 1341,
      "pt": 1342,
      "eaeaieotd": 1343,
      "eaaieeea": 1344,
      "oietaseaa": 1345,
      "eaaaieaietaoeeeae": 1346,
      "lltoieemopaoeoteaiee": 1347,
      "todc": 1348,
      "eaaeeetof": 1349,
      "taiaa": 1350,
      "etatttn": 1351,
      "taiaaetatttn": 1352,
      "oodaotasee": 1353,
      "taoeeae": 1354,
      "ieblo": 1355,
      "iebloaieaeo": 1356,
      "oodaietc": 1357,
      "eetc0": 1358,
      "ieemoeltc": 1359,
      "eaieeeatn": 1360,
      "oodto": 1361,
      "oeotasttmntaee": 1362,
      "tsoooo": 1363,
      "eaeaetneaaeedho": 1364,
      "taeieetsoooo": 1365,
      "lhero": 1366,
      "faeteae": 1367,
      "thnoo": 1368,
      "iodiodtaiee": 1369,
      "eadoeoteaieetc": 1370,
      "oteatoooea": 1371,
      "oohtaeieetsoooo": 1372,
      "faar": 1373,
      "asoteafaar": 1374,
      "taieeeto": 1375,
      "eadetsuto": 1376,
      "ttaoeeeae": 1377,
      "rodto": 1378,
      "tasa": 1379,
      "aiaaehn": 1380,
      "eaieafteoaiaae": 1381,
      "he": 1382,
      "eutoeuto": 1383,
      "aieero": 1384,
      "eatoieemtn": 1385,
      "erdtcaiee": 1386,
      "toeeaotdeaaeaiee": 1387,
      "eaieae": 1388,
      "aieaest": 1389,
      "aietn1": 1390,
      "tseesahn": 1391,
      "aieseetpa": 1392,
      "llooooeaeaiaaeaieeeto": 1393,
      "oeotoh": 1394,
      "aitf": 1395,
      "aitfe": 1396,
      "ttooh": 1397,
      "lotnttt": 1398,
      "oeoteertoaieeetc": 1399,
      "lololotnttt": 1400,
      "oetototetn": 1401,
      "taieetclo": 1402,
      "taoeeeaeeatn": 1403,
      "eaaeaieea": 1404,
      "lherodtn": 1405,
      "ieeeaeaieaee": 1406,
      "eteaeasee": 1407,
      "ottoottooh": 1408,
      "tneerto": 1409,
      "teec": 1410,
      "oohtotnaie": 1411,
      "aieeaiaaehn": 1412,
      "oeteaaeaieaeto": 1413,
      "eaieaeaier": 1414,
      "aieeeaa": 1415,
      "oouoo": 1416,
      "tseaeaie": 1417,
      "tmeuo": 1418,
      "aiaaeea": 1419,
      "eatothnaie": 1420,
      "iebtaaieeeto": 1421,
      "eoteea": 1422,
      "teetoh": 1423,
      "ohaetn": 1424,
      "oela": 1425,
      "teetohohaetn": 1426,
      "oeoteea": 1427,
      "oesttehre": 1428,
      "toteato": 1429,
      "aioteaeeoooo": 1430,
      "oeeeaiets": 1431,
      "erdth": 1432,
      "aeaee": 1433,
      "ttuto": 1434,
      "teattuto": 1435,
      "eteaeaseeown": 1436,
      "aeaeeteattuto": 1437,
      "teatotoo": 1438,
      "aieeeea": 1439,
      "oeeeaieoteeaeterduto": 1440,
      "ooheloeae": 1441,
      "elhe": 1442,
      "tmesa": 1443,
      "eaeaetnstaie": 1444,
      "faetetno": 1445,
      "etnotaieerto": 1446,
      "ieba1": 1447,
      "oeeeaiehottneaieote": 1448,
      "tasaee": 1449,
      "teatotootasaee": 1450,
      "aieaeoaieaeo": 1451,
      "eaaood": 1452,
      "taeaa": 1453,
      "etaseea": 1454,
      "taeaaetaseea": 1455,
      "aieetstt": 1456,
      "eatoeaaaieaietaoeeeae": 1457,
      "todcto": 1458,
      "taeeaieaie": 1459,
      "oodohtoeatn": 1460,
      "taeaieetn": 1461,
      "oodoeotasttmntaee": 1462,
      "erodtno": 1463,
      "ieeeto": 1464,
      "taeeaieaieieeeto": 1465,
      "oteeea0": 1466,
      "ieetaieoteeea0": 1467,
      "oteatoeeaeasee": 1468,
      "lloooothnoo": 1469,
      "oettaero": 1470,
      "eadeaieduto": 1471,
      "eaieatoo": 1472,
      "eaieatoown": 1473,
      "erdoell": 1474,
      "ef": 1475,
      "oeti": 1476,
      "taeaaieeee": 1477,
      "taeaaeto": 1478,
      "tthnst": 1479,
      "hohrtthnst": 1480,
      "oodtaoeeeaeea": 1481,
      "oetodetnotaieerto": 1482,
      "taeaiaaeaieeeto": 1483,
      "ietotaiaoteaiee": 1484,
      "aedtc": 1485,
      "elrt": 1486,
      "oohouoto": 1487,
      "lloooooeoteaieeuto": 1488,
      "etnrodto": 1489,
      "toar": 1490,
      "eatoieemoeltc": 1491,
      "tamoto": 1492,
      "llolloellollofttea": 1493,
      "oodeaa": 1494,
      "eeea": 1495,
      "aeaieela": 1496,
      "loaseetctcouoo": 1497,
      "oiet": 1498,
      "paeteaeaseeown": 1499,
      "oeeeaietseaeaie": 1500,
      "toeeaotdeutoeuto": 1501,
      "eoooo": 1502,
      "toter": 1503,
      "aieeeieemtn": 1504,
      "erdoellttaoeeeae": 1505,
      "eetoaieeetc": 1506,
      "oodtaiee": 1507,
      "oeotas": 1508,
      "etaoaie": 1509,
      "oeotdaeaie": 1510,
      "oeeeaieeeaeasee": 1511,
      "aiaaeeaaieeee": 1512,
      "teeafa": 1513,
      "oodeeaeasee": 1514,
      "oodtoea": 1515,
      "faeteaeoetmtn": 1516,
      "teoteotneaie": 1517,
      "oeeeaieeaataoeeeaehn": 1518,
      "paot": 1519,
      "eadotaiaoteaiee": 1520,
      "erdaiaaeeaeoteea": 1521,
      "erdoohtoeae": 1522,
      "etaieea": 1523,
      "oeta": 1524,
      "tseetsee": 1525,
      "teoteoieemosa": 1526,
      "oteetn": 1527,
      "aieetstt1": 1528,
      "oettmeuo": 1529,
      "erdtjhn": 1530,
      "ytetn": 1531,
      "faetytetn": 1532,
      "ttaafaetytetn": 1533,
      "teoteot": 1534,
      "eaewn": 1535,
      "aieeeatn0": 1536,
      "eaoh": 1537,
      "iehn": 1538,
      "ertotaoeeeae": 1539,
      "hohretaieeeto": 1540,
      "oetotoertotaoeeeae": 1541,
      "etk": 1542,
      "oeaiaa": 1543,
      "eaodto": 1544,
      "oeaiaaeaodto": 1545,
      "oeaiaaeaodtotmtn": 1546,
      "taero": 1547,
      "oodtaieeoesttetn": 1548,
      "eaeoteeasahn": 1549,
      "tnohouoo": 1550,
      "paotetktttn": 1551,
      "aeea": 1552,
      "oietoe": 1553,
      "oietoest": 1554,
      "stoaie": 1555,
      "oetodeaeae": 1556,
      "oesttehreown": 1557,
      "eaieafhn": 1558,
      "etktt": 1559,
      "ohatoteaieethn": 1560,
      "eooooaiaae": 1561,
      "oheloeae": 1562,
      "eaeaieoheloeae": 1563,
      "fat": 1564,
      "aehtectv": 1565,
      "oodeaaeasatoto": 1566,
      "eaioteato": 1567,
      "oelloodtoea": 1568,
      "oeoteetsto": 1569,
      "eoteea0": 1570,
      "oeoteetstoeoteea0": 1571,
      "oeelo": 1572,
      "eaaeaetoeadtv": 1573,
      "eaaeaetoeadtvoeelo": 1574,
      "eaieas": 1575,
      "eaieeaoero": 1576,
      "taoeoteaieeouoo": 1577,
      "ete": 1578,
      "oteeet": 1579,
      "eloeadtetn": 1580,
      "teatnaieae": 1581,
      "eaataoeeeaehn": 1582,
      "aiaaellooootaoeeeae": 1583,
      "eteer": 1584,
      "tneaieteer": 1585,
      "eaieote": 1586,
      "tseetsiec": 1587,
      "tcteetohohaetn": 1588,
      "tmost": 1589,
      "eeeaie": 1590,
      "eaetoeadtvooooo": 1591,
      "oeotastoaie": 1592,
      "oeatn": 1593,
      "aiiaeaieel": 1594,
      "aiiaeaieelae": 1595,
      "teaewn": 1596,
      "stiaec": 1597,
      "lloooostiaec": 1598,
      "ooheea": 1599,
      "eerodtn": 1600,
      "taieaee": 1601,
      "eeadeetc": 1602,
      "taieaeeiehn": 1603,
      "aieeeaaetnrodto": 1604,
      "etotn": 1605,
      "eatnaieee0": 1606,
      "etsc": 1607,
      "aeae1": 1608,
      "eae0": 1609,
      "oelttoar": 1610,
      "oteaaoteaiee": 1611,
      "teoteotetn": 1612,
      "metaieeeto": 1613,
      "ttaoeeae": 1614,
      "ooet": 1615,
      "eatooetotn": 1616,
      "oohthoohneerto": 1617,
      "oheaieeea": 1618,
      "eaieasotea": 1619,
      "eaataieellolloeatn": 1620,
      "eroe": 1621,
      "eaieeeaegggeae": 1622,
      "taeeexaiee": 1623,
      "aieeeetn": 1624,
      "eeado": 1625,
      "ieeouoo": 1626,
      "aieaieeado": 1627,
      "aieaieeadoeroe": 1628,
      "teatothotho": 1629,
      "tkteaataoeeeaehn": 1630,
      "aieeae": 1631,
      "eeaellorto": 1632,
      "llooooiec": 1633,
      "ttaeaeero": 1634,
      "ooheaieaieae": 1635,
      "eaatsaietetneaeeasoooo": 1636,
      "oohouotoafa": 1637,
      "ooheeaaetn": 1638,
      "erdeaa": 1639,
      "tsaie": 1640,
      "patneaieaietoto": 1641,
      "aieeeetnotaieerto": 1642,
      "patneerto": 1643,
      "easeeao": 1644,
      "oeaiehre": 1645,
      "meuo": 1646,
      "baehtectv": 1647,
      "aieebaehtectv": 1648,
      "ttsoeotjhn": 1649,
      "aieato": 1650,
      "aet": 1651,
      "eeeaaie": 1652,
      "ooheeeaaie": 1653,
      "etaie1": 1654,
      "tatmeuo": 1655,
      "aieeea0": 1656,
      "teetn": 1657,
      "ettaieertoetaieeeto": 1658,
      "aeeao": 1659,
      "oown": 1660,
      "erdtaoeeeae": 1661,
      "tooteatn": 1662,
      "toeeaotdlherodtn": 1663,
      "eeaaee": 1664,
      "thaietco": 1665,
      "ieeead": 1666,
      "lloooothnaie": 1667,
      "eaohllorto": 1668,
      "totn2": 1669,
      "ieeeadaieero": 1670,
      "tmostaieae": 1671,
      "oeeeaieeaeaiaaeaieeeto": 1672,
      "taetaiee": 1673,
      "aeaeattetaieeeto": 1674,
      "stetn": 1675,
      "paooheetc": 1676,
      "tsts": 1677,
      "thetsc": 1678,
      "eaieeeafatjhnteer": 1679,
      "eaieaed": 1680,
      "taeeexaieeetneea": 1681,
      "gtehn": 1682,
      "oeaieoher": 1683,
      "aietsee": 1684,
      "oteeeteae": 1685,
      "aieeaasee": 1686,
      "aieae0": 1687,
      "eaaeedtetn": 1688,
      "ieeohasa": 1689,
      "aiaaeaieeeto": 1690,
      "eeaefsoeo": 1691,
      "oetieerodtn": 1692,
      "pathn": 1693,
      "aieemtc": 1694,
      "teoteoeadtv": 1695,
      "teoteoeadtvoeatn": 1696,
      "aieemtcthaietco": 1697,
      "thaieemtcthaietco": 1698,
      "lloooothaieemtcthaietco": 1699,
      "thaieeeto": 1700,
      "oohtoetno": 1701,
      "ieeeaeaieaed": 1702,
      "ieeeaeaieaedar": 1703,
      "totn": 1704,
      "taieeeeawn": 1705,
      "aaee": 1706,
      "taoeaieoher": 1707,
      "erdohtoeatn": 1708,
      "aehteceaieotd": 1709,
      "aehteceaieotdeuto": 1710,
      "ex": 1711,
      "eaaieeaasee": 1712,
      "erdaeeeaeee": 1713,
      "eaaieeaaseeeaioteato": 1714,
      "ohouoothn": 1715,
      "toteatoaiaaeeaeoteea": 1716,
      "tooieemot": 1717,
      "oohthnaie": 1718,
      "aieeeeastetn": 1719,
      "etaieeasee": 1720,
      "sodsod": 1721,
      "aieemtn": 1722,
      "tatllorto": 1723,
      "etaieeaseeetno": 1724,
      "aieoeoteea": 1725,
      "oeeeaieseaie": 1726,
      "iaee": 1727,
      "eadtvoouoo": 1728,
      "ettoo": 1729,
      "ettooeeeaie": 1730,
      "oettotoeae": 1731,
      "afaetasaa": 1732,
      "oetodteetn": 1733,
      "eatoee": 1734,
      "oeeeaietaoeeeae": 1735,
      "ietaieoeoteea": 1736,
      "llooootwn": 1737,
      "eeaaeto": 1738,
      "aieaeeaaeto": 1739,
      "ato": 1740,
      "aieeetot": 1741,
      "easeeex": 1742,
      "easeeexec": 1743,
      "eaaieown": 1744,
      "oeotaseaaieown": 1745,
      "tktaiaaetsaieaeo": 1746,
      "eaeaieeaoero": 1747,
      "erdtaiee": 1748,
      "asadoown": 1749,
      "tmeu": 1750,
      "aitoetn": 1751,
      "aieatoe": 1752,
      "eaaoodthnaie": 1753,
      "eemtn": 1754,
      "eteemtn": 1755,
      "vo": 1756,
      "thr": 1757,
      "oeaieaieae": 1758,
      "tatnst": 1759,
      "efa": 1760,
      "eatooown": 1761,
      "oeeeaieero": 1762,
      "easeeexeceee": 1763,
      "oeotohasa": 1764,
      "afa1": 1765,
      "faee": 1766,
      "aeaieeea": 1767,
      "oodaieae0": 1768,
      "aietwn": 1769,
      "toeeaotdoeoteaieeaee": 1770,
      "aieaeoo": 1771,
      "oteeetno": 1772,
      "oteeetnoieemto": 1773,
      "eaaeeeeaaee": 1774,
      "eaaeeeeaaeed": 1775,
      "aieeoeaierto0": 1776,
      "eaieeeaoetotn": 1777,
      "eaeaieotdero": 1778,
      "eaaet": 1779,
      "fet": 1780,
      "eaieaeaierthtn": 1781,
      "eaaeeeeaaeedeaaeee": 1782,
      "toteatnaieae": 1783,
      "ela": 1784,
      "eaieafuto": 1785,
      "feteaieafuto": 1786,
      "teetoaieaiee": 1787,
      "eaeeeaeee": 1788,
      "eaaetfeteaieafuto": 1789,
      "eatoeaaieeee": 1790,
      "pathnela": 1791,
      "erdeaaeeeeaaeedeaaeee": 1792,
      "llooooasto": 1793,
      "ooheer": 1794,
      "iebod": 1795,
      "ttaieeeea": 1796,
      "tstof": 1797,
      "oom": 1798,
      "taieet": 1799,
      "eadtaieetclo": 1800,
      "aaeemtc": 1801,
      "staieea": 1802,
      "oou": 1803,
      "oomoou": 1804,
      "eaas": 1805,
      "aietcaiee": 1806,
      "paieemtn": 1807,
      "oohtoelrt": 1808,
      "oeoteaieeea": 1809,
      "eaieaaeaiee": 1810,
      "thn0": 1811,
      "oetteaewn": 1812,
      "gteeaeeasoooo": 1813,
      "ieteloeae": 1814,
      "tatn": 1815,
      "aitoeaiaae": 1816,
      "thon": 1817,
      "tateaiee": 1818,
      "tateaieeetstt": 1819,
      "eteaieuto": 1820,
      "eaeieeouoo": 1821,
      "oodoteeea": 1822,
      "tooteaeieeouoo": 1823,
      "ohaoeaieaieae": 1824,
      "oetathon": 1825,
      "toerto": 1826,
      "toertotjhn": 1827,
      "oieemtn": 1828,
      "aehtecaieaeouoo": 1829,
      "oodeteaieuto": 1830,
      "on": 1831,
      "tapt": 1832,
      "aieaieeth": 1833,
      "lloooollolloellollof": 1834,
      "taseeetero": 1835,
      "paaieeetstt": 1836,
      "eaasoteea": 1837,
      "teaieaieaie": 1838,
      "ttateaieethn": 1839,
      "eaieafteaieaieaie": 1840,
      "erdaeaieeea": 1841,
      "ieteaaie": 1842,
      "etm": 1843,
      "taieeesoooo": 1844,
      "eetn1": 1845,
      "aotohaietcaiee": 1846,
      "taiaae": 1847,
      "tsc": 1848,
      "eaeetc": 1849,
      "aiepaeaier": 1850,
      "teemtn": 1851,
      "aieaaeeteemtn": 1852,
      "taoetmtn": 1853,
      "oohaieae": 1854,
      "oeoteai": 1855,
      "erdtoteatnaieae": 1856,
      "aieethaietc": 1857,
      "gteuto": 1858,
      "eeetn": 1859,
      "etegteuto": 1860,
      "aieethaietc1": 1861,
      "erdtooteatn": 1862,
      "teetoeaieote": 1863,
      "eeb": 1864,
      "erdthaitoetn": 1865,
      "oodaitoeaiaae": 1866,
      "oodtv": 1867,
      "oodtveatn": 1868,
      "teethn": 1869,
      "ieemtoown": 1870,
      "tktt": 1871,
      "eatoeeetneea": 1872,
      "aeeeatn": 1873,
      "etaiehtahn": 1874,
      "etaieeaseeetnoeae": 1875,
      "aieaieetheaaeedtetn": 1876,
      "teatoeeaeaieeeto": 1877,
      "aieaiea": 1878,
      "tooteethn": 1879,
      "dtoo": 1880,
      "erodtoo": 1881,
      "erodtootetn": 1882,
      "eadoeaiaaeaodtotmtn": 1883,
      "oethohr": 1884,
      "erdtodcto": 1885,
      "llooootmeu": 1886,
      "eaieeeafatjhnllorto": 1887,
      "oodhtahn": 1888,
      "aieteer": 1889,
      "aotohaieteer": 1890,
      "etoaiaae": 1891,
      "aiaeaieela": 1892,
      "oetv": 1893,
      "eatneatoeatn": 1894,
      "eaatn": 1895,
      "ttaiaeaieela": 1896,
      "taieeaeooooaiaae": 1897,
      "oodatot": 1898,
      "ttaiaeaieelaeer": 1899,
      "easatn": 1900,
      "tvo": 1901,
      "aietneaie": 1902,
      "otetoaiaae": 1903,
      "aietaoeeeae": 1904,
      "eaioteatn": 1905,
      "aieeasadoown": 1906,
      "oteeeaoteaie": 1907,
      "eatoeaeaieotdero": 1908,
      "toeeaotdea": 1909,
      "tktsc": 1910,
      "eaieeetn": 1911,
      "ietao": 1912,
      "dto": 1913,
      "eaeaieotdeahn": 1914,
      "erdthettooeeeaie": 1915,
      "teta": 1916,
      "eaieatn": 1917,
      "eaeeadeaeetc": 1918,
      "oodteev": 1919,
      "ooataiee": 1920,
      "gtehnst": 1921,
      "tatttn": 1922,
      "eaaeedhotatttn": 1923,
      "aedtcasee": 1924,
      "oeeeaieaieeeatn": 1925,
      "oohaieie": 1926,
      "eatooel": 1927,
      "eatooeltto": 1928,
      "ietaodto": 1929,
      "aeaeasee": 1930,
      "otefat": 1931,
      "tmsa": 1932,
      "oeeeaieaieeetn": 1933,
      "eatoert": 1934,
      "eaieeeattea": 1935,
      "erdteaaie": 1936,
      "tseaeaieown": 1937,
      "eaaietsee": 1938,
      "astoto": 1939,
      "ooaaieeaiaaehn": 1940,
      "eaetoeadtvost": 1941,
      "teoteoeasatn": 1942,
      "thtseeaaiaaetsaieaeo": 1943,
      "aieaieaiea": 1944,
      "oetodaieaieaiea": 1945,
      "oetodaieaieaieafa": 1946,
      "toe": 1947,
      "aieeemtc": 1948,
      "otefattsee": 1949,
      "iaaeemtc": 1950,
      "eteae1": 1951,
      "eaioeai": 1952,
      "ooetiaaeemtc": 1953,
      "eaioeaiooetiaaeemtc": 1954,
      "oeoteaseeexeceee": 1955,
      "oeotohoest": 1956,
      "tooieemo": 1957,
      "taetasa": 1958,
      "hreee": 1959,
      "teaeaieaee": 1960,
      "erdeaaaieae": 1961,
      "hreeehtn": 1962,
      "teaeaieaeeeaeee": 1963,
      "ED": 1964,
      "an": 1965,
      "eteetn": 1966,
      "aieaieaouoo": 1967,
      "sc": 1968,
      "efametaieeeto": 1969,
      "toeeaotdoeoteaieetc": 1970,
      "etaieeaeeasoooo": 1971,
      "ottoottoohaieaie": 1972,
      "tnoieetaie": 1973,
      "etaie0": 1974,
      "tooieemooohaieie": 1975,
      "oestteteetn": 1976,
      "oteetoown": 1977,
      "erdoetv": 1978,
      "tttmtn": 1979,
      "oesttetmtn": 1980,
      "ooheerto": 1981,
      "eatotthn": 1982,
      "llooooeae": 1983,
      "oesttesac": 1984,
      "aieeeato": 1985,
      "eaieee": 1986,
      "aieaieaieeatn": 1987,
      "totoe": 1988,
      "taoeoteaie": 1989,
      "aehtecetktt": 1990,
      "eaieaieaiefthtn": 1991,
      "aehtecetktttoar": 1992,
      "eaieeatotoe": 1993,
      "aieaieaieeatotoe": 1994,
      "eohaooooaieaieaieeatotoe": 1995,
      "eiee": 1996,
      "in": 1997,
      "eretaieeeto": 1998,
      "aieaeoaieaeoaieaeo": 1999,
      "tnaietc": 2000,
      "eaaieeeatneea": 2001,
      "erdttea": 2002,
      "eaieeeas": 2003,
      "teoteoeaieeeas": 2004,
      "easeetetn": 2005,
      "teoteoeaieeeasc": 2006,
      "lot": 2007,
      "hneae": 2008,
      "odrhtn": 2009,
      "eaieafhnllorto": 2010,
      "oteeta": 2011,
      "ooahneae": 2012,
      "eaeeelot": 2013,
      "ieeeea": 2014,
      "ttaeaeead": 2015,
      "ttaeaeeadeer": 2016,
      "eadaieee1": 2017,
      "TED": 2018,
      "aieaeaieta": 2019,
      "aieaeaietatoe": 2020,
      "tv0": 2021,
      "emtctaiee": 2022,
      "taetaieeohouoothn": 2023,
      "hoela": 2024,
      "teeaaaaet": 2025,
      "teeaaaaethoela": 2026,
      "taito": 2027,
      "teatoetn": 2028,
      "tatneaseaa": 2029,
      "taitoteatoetn": 2030,
      "ftcaiee": 2031,
      "tmeftcaiee": 2032,
      "eftmeftcaiee": 2033,
      "aiteato": 2034,
      "eaaaiteato": 2035,
      "eaaaiteatoe": 2036,
      "eteaaaieeasado": 2037,
      "taieie": 2038,
      "llooooiaee": 2039,
      "oteetnsc": 2040,
      "aieaae": 2041,
      "oteatoown": 2042,
      "tnta": 2043,
      "toeeaotdieeeeawn": 2044,
      "teoteoo": 2045,
      "ttie": 2046,
      "oodeftmeftcaiee": 2047,
      "ohatost": 2048,
      "taieieown": 2049,
      "oetodhoaseea": 2050,
      "ottohottneaieote": 2051,
      "toothr": 2052,
      "aieaeaieeeto": 2053,
      "gteeaaeeeatn": 2054,
      "etaoeeeaehn": 2055,
      "ietaodtoaiaaetsaieaeo": 2056,
      "taathnttt": 2057,
      "jaie": 2058,
      "tns": 2059,
      "taoeeeaetaoeeeaehn": 2060,
      "oeeeaieeaetaiee": 2061,
      "otellollo": 2062,
      "paoest": 2063,
      "tataiee": 2064,
      "aieaieaeo": 2065,
      "ttsoeotjaie": 2066,
      "aieaieaeotaoeeeae": 2067,
      "llooooeaioteatn": 2068,
      "eadeer": 2069,
      "ttateaiee": 2070,
      "ttateaieeeadeer": 2071,
      "tnstaieeeto": 2072,
      "taeitthn": 2073,
      "oeotdafaetasaa": 2074,
      "lloooooietaseaa": 2075,
      "tnohaie": 2076,
      "otefattseeeae": 2077,
      "aieeetotetn": 2078,
      "aieasaie": 2079,
      "thoela": 2080,
      "eaieeeathtn": 2081,
      "iets": 2082,
      "eaaaiaae": 2083,
      "eaaaiaaeoh": 2084,
      "taoee": 2085,
      "ooheeaaetnaieeeto": 2086,
      "tetnaieasaie": 2087,
      "eaaaiaaeohtho": 2088,
      "eaatsaietetnoeeeaie": 2089,
      "town": 2090,
      "staieeatn": 2091,
      "aieeetoo": 2092,
      "tnaeae": 2093,
      "ttan": 2094,
      "iebaieaieaieeea": 2095,
      "ietsaie": 2096,
      "eaeeelottt": 2097,
      "eaeeae": 2098,
      "tefs": 2099,
      "oeotetn": 2100,
      "tefsoeotetn": 2101,
      "eeatn": 2102,
      "eaaeedoeoteaieeuto": 2103,
      "eaitfeeiec": 2104,
      "eaieeeatneaseear": 2105,
      "aieetstof": 2106,
      "tn3": 2107,
      "eaeloaiaae": 2108,
      "oeeeaieeotea": 2109,
      "ooatn": 2110,
      "erdoohgte": 2111,
      "eear": 2112,
      "eeaeaduo": 2113,
      "afaet": 2114,
      "toeatnhaetn": 2115,
      "oeeeaieeaaetaie": 2116,
      "etaieeatoeatnhaetn": 2117,
      "safa": 2118,
      "taieeesafa": 2119,
      "oeeeaietaa": 2120,
      "eaaeedaieeeae": 2121,
      "eaetetn": 2122,
      "ttaafaee": 2123,
      "ttaafaeeeaetetn": 2124,
      "oteaitfee": 2125,
      "eatoeato": 2126,
      "oeaieohtv": 2127,
      "patooteaeieeouoo": 2128,
      "eeaaeea": 2129,
      "ietn1": 2130,
      "eatoeatohaetn": 2131,
      "tsfat": 2132,
      "aieaeadtodcto": 2133,
      "heaee": 2134,
      "heaeeaieero": 2135,
      "eaaeeaaeea": 2136,
      "aiaaeaeeeaeee": 2137,
      "oietaseaaown": 2138,
      "eaaeaeloaiaae": 2139,
      "eteaaaieeasadost": 2140,
      "aieaaeto": 2141,
      "aieaeto": 2142,
      "paemtctaiee": 2143,
      "eaaeeaieaeto": 2144,
      "eatotneaieaietoto": 2145,
      "ieeaaseeeaaeee": 2146,
      "aehtecaiea": 2147,
      "aieaeadtsiec": 2148,
      "loteetn": 2149,
      "faietn": 2150,
      "teeafaietn": 2151,
      "tkto": 2152,
      "eaststs": 2153,
      "eaststst": 2154,
      "tootho": 2155,
      "toothoaslo": 2156,
      "totnaie": 2157,
      "taiaeaieela": 2158,
      "eaaeaaie": 2159,
      "taoeeeaee": 2160,
      "oteeae": 2161,
      "aieaethn": 2162,
      "aieeet": 2163,
      "aieaethnaie0": 2164,
      "easaoooo": 2165,
      "aieeoeoteaiee": 2166,
      "tsod": 2167,
      "eadtsod": 2168,
      "ooaoeaiaaeaodtotmtn": 2169,
      "taseeetieb": 2170,
      "gteato": 2171,
      "oiettetn": 2172,
      "gteatot": 2173,
      "eaatneaie": 2174,
      "toteatoaieae": 2175,
      "oodeaier": 2176,
      "oodaseaie": 2177,
      "oiettaoeeeaee": 2178,
      "oiettaoeeeaeetaieeeto": 2179,
      "eadeaatneaie": 2180,
      "oiettetnaie": 2181,
      "toteatoaieaesodsod": 2182,
      "tootktt": 2183,
      "oohtotaseeetieb": 2184,
      "oter": 2185,
      "aietoter": 2186,
      "eaieafhneae": 2187,
      "eelo": 2188,
      "ieeaeooooaiaae": 2189,
      "eaieasoteaaieaeo": 2190,
      "lrt": 2191,
      "NA": 2192,
      "eaaeaieafteoaiaae": 2193,
      "teaae": 2194,
      "eaaieeeatsee": 2195,
      "teaaedtc": 2196,
      "oodeaitfee": 2197,
      "eeadoteeae": 2198,
      "rtoouoo": 2199,
      "eaapa": 2200,
      "aethoh": 2201,
      "ieeaatn": 2202,
      "oteatoeaieaaeaiee": 2203,
      "erdeaseeao": 2204,
      "ietaieoeoteeaown": 2205,
      "astoto1": 2206,
      "etntaoeeea": 2207,
      "etntaoeeeaeaieae": 2208,
      "oeotetteeae": 2209,
      "efe": 2210,
      "eeetneeto": 2211,
      "taeloeadar": 2212,
      "ieeaaseeto": 2213,
      "toeai": 2214,
      "tas": 2215,
      "othneeea": 2216,
      "aea": 2217,
      "oodaieeemtc": 2218,
      "etlo": 2219,
      "lloooolherodtn": 2220,
      "eadloteetn": 2221,
      "etottn": 2222,
      "eaapaoeotetteeae": 2223,
      "otnoieemto": 2224,
      "asaeaieaieae": 2225,
      "tteaaieee": 2226,
      "aethohotnoieemto": 2227,
      "aotohaieeae": 2228,
      "teoteoieeeea": 2229,
      "eaetrto": 2230,
      "oetaeaie": 2231,
      "taieetea": 2232,
      "etaiea": 2233,
      "eatoero": 2234,
      "ieeahn": 2235,
      "eatottea": 2236,
      "eaieeetoown": 2237,
      "aieaeaieeetoown": 2238,
      "eaeeelo": 2239,
      "taeieeahn": 2240,
      "eaexxeaeouoo": 2241,
      "eaeea": 2242,
      "ttsoeooet": 2243,
      "ttsoeooetv": 2244,
      "eaataoeeea": 2245,
      "etaeiee": 2246,
      "eaataoeeeaetaeiee": 2247,
      "faetottn": 2248,
      "taaetaieeeto": 2249,
      "etaieafaetottn": 2250,
      "etotoetoto": 2251,
      "oodtttmtn": 2252,
      "teatolo": 2253,
      "aieaeadeief": 2254,
      "aieeaieagte": 2255,
      "oodeaieeeattea": 2256,
      "oeeeaieeaeero": 2257,
      "tkteeae": 2258,
      "etotoetotofa": 2259,
      "eieea": 2260,
      "llos": 2261,
      "tev": 2262,
      "gtefsoeo": 2263,
      "oeaiehrd": 2264,
      "ottoottoohst": 2265,
      "ohaoo": 2266,
      "oeftac": 2267,
      "faetthooeroetno": 2268,
      "oohtaetaiee": 2269,
      "tseetotoaiesa": 2270,
      "haetnaieaeo": 2271,
      "aeaetotoetotofa": 2272,
      "oodthnaie": 2273,
      "odtnoho": 2274,
      "gteieeohasa": 2275,
      "satoto": 2276,
      "aieeetoert": 2277,
      "taeieem": 2278,
      "taeieemoomoou": 2279,
      "eaeaaee": 2280,
      "eeaeaeea": 2281,
      "oteeatn": 2282,
      "eohaooootnoho": 2283,
      "eadeb": 2284,
      "oteetar": 2285,
      "tvooooo": 2286,
      "oeaiehrdtvooooo": 2287,
      "ptown": 2288,
      "eaaeaetaiee": 2289,
      "thneeea": 2290,
      "teatnptown": 2291,
      "ooheeaaetneae": 2292,
      "iebodiebod": 2293,
      "etktttoown": 2294,
      "eaaeeatn": 2295,
      "oeloeaaeeatn": 2296,
      "hoc": 2297,
      "erdtcteetohohaetn": 2298,
      "ooaeaa": 2299,
      "toothoaslohoc": 2300,
      "aieeaa": 2301,
      "aieaeeto": 2302,
      "toeeaotdieemtn": 2303,
      "aieeeteaeaaee": 2304,
      "ethno": 2305,
      "etneaeeelo": 2306,
      "aieaeown": 2307,
      "tktaiee": 2308,
      "ohaoouoto": 2309,
      "etta": 2310,
      "eadoeoteaie": 2311,
      "eatoaieeaieagte": 2312,
      "eaitfeeaieeteeae": 2313,
      "teevoteeea": 2314,
      "tseetneaieaietoto": 2315,
      "oeeeaietnttt": 2316,
      "eaaaieeea": 2317,
      "paaieee": 2318,
      "aieaeothneeea": 2319,
      "eaaaieeeto": 2320,
      "eatototn": 2321,
      "aiethtn": 2322,
      "emoomoou": 2323,
      "gggaito": 2324,
      "ertothtn": 2325,
      "eaeeertothtn": 2326,
      "eatototntho": 2327,
      "gggaitoemoomoou": 2328,
      "thaieaeeto": 2329,
      "oodete": 2330,
      "ttathaieaeeto": 2331,
      "teatoatot": 2332,
      "ottouto": 2333,
      "oodeteottouto": 2334,
      "ttathaieaeetoeer": 2335,
      "eeeato": 2336,
      "eaaetotoatn": 2337,
      "gtetmeu": 2338,
      "gtetmeuaiee": 2339,
      "eaiaaetta": 2340,
      "eaiaaettateaieethn": 2341,
      "erdaieaieaieeatn": 2342,
      "oeeeaieoest": 2343,
      "ooaoeoteaieeouoo": 2344,
      "oetotoea": 2345,
      "tktaieeteeae": 2346,
      "eaaeaseetetn": 2347,
      "eatotoeai": 2348,
      "eatotoeaiaiee": 2349,
      "eeaeeta": 2350,
      "oeaieohteec": 2351,
      "tneer": 2352,
      "oodaieeaiaaehn": 2353,
      "tneertoown": 2354,
      "vea": 2355,
      "oeeeaieeae": 2356,
      "mon": 2357,
      "tseetnaietc": 2358,
      "taoteea": 2359,
      "oeeeaieeaeouoo": 2360,
      "faeteatotoeaiaiee": 2361,
      "thaieaeooooaiee": 2362,
      "aieeeatn": 2363,
      "teaetcaieeeto": 2364,
      "ohaoaieee": 2365,
      "eaieeeatneaseaa": 2366,
      "erdtootohhn": 2367,
      "ooheead": 2368,
      "teeafaaieeeto": 2369,
      "ooheeadteeafaaieeeto": 2370,
      "ieeaaie": 2371,
      "eeeaieetno": 2372,
      "ottoteaee": 2373,
      "ottothooetnooooo": 2374,
      "eaaaieeetnasa": 2375,
      "tktoeeeaieetno": 2376,
      "eaeoteeatvo": 2377,
      "totniaec": 2378,
      "ieeaaseeert": 2379,
      "eaeheaeeaieero": 2380,
      "taaeaie": 2381,
      "taoietaseaa": 2382,
      "lloooollorto": 2383,
      "aieaieeaiee": 2384,
      "ic": 2385,
      "oodoieemtn": 2386,
      "oetodtjhn": 2387,
      "ietaseaa": 2388,
      "oodoetathon": 2389,
      "ooheaieee": 2390,
      "aieeeaiee": 2391,
      "taeitaieetea": 2392,
      "etmoeoteai": 2393,
      "oeoteaietmoeoteai": 2394,
      "oeoteaietmoeoteaietc": 2395,
      "dhohr": 2396,
      "erdoeteaaeaieaeto": 2397,
      "faeteatn": 2398,
      "aieeaedhohr": 2399,
      "ohtv": 2400,
      "teeaeasee": 2401,
      "paeaeto": 2402,
      "eohaooooeteemtn": 2403,
      "tkteeaeasee": 2404,
      "paeaetoeae": 2405,
      "DNA": 2406,
      "eaieatothaieeeto": 2407,
      "ooaaieeeaiee": 2408,
      "ooaaieeeaieeetaoeeeae": 2409,
      "eaaeaieeast": 2410,
      "easatoar": 2411,
      "taieesoooo": 2412,
      "tohn": 2413,
      "tseeeaaetfeteaieafuto": 2414,
      "tkttsaie": 2415,
      "aioteetnsc": 2416,
      "aioteetnsce": 2417,
      "taeaaie": 2418,
      "taemetaieeeto": 2419,
      "en": 2420,
      "oodohtv": 2421,
      "emvo": 2422,
      "tasaietetn": 2423,
      "oetrto": 2424,
      "ottoaieeeaaetnrodto": 2425,
      "toeeaotdaotasee": 2426,
      "etaieeohouoothn": 2427,
      "aieterduto": 2428,
      "aietoeouoo": 2429,
      "oteatoetn": 2430,
      "aiaaeaieeetc": 2431,
      "aieeeeeaeasee": 2432,
      "oefouoo": 2433,
      "eaieafteoaiaaeaieeetc": 2434,
      "fwn": 2435,
      "taefwn": 2436,
      "oteatotnst": 2437,
      "oteatooteeae": 2438,
      "etlotaoeeeae": 2439,
      "oteatooteeaeoooo": 2440,
      "etneeb": 2441,
      "eeaeaseetootieer": 2442,
      "paoeoteaieeea": 2443,
      "eeadafaetasaa": 2444,
      "lloooooohtaetaiee": 2445,
      "oteetnst": 2446,
      "ttsoeotjhnaiaae": 2447,
      "erdoeaieasaie": 2448,
      "eieeagte": 2449,
      "taoteeaeterduto": 2450,
      "eaaeedtaithoeouoo": 2451,
      "ooaeaateaieeaee": 2452,
      "eaaoeotohasa": 2453,
      "oetodtvtaieaeo": 2454,
      "la": 2455,
      "ast": 2456,
      "ttaegggeae": 2457,
      "tooteato": 2458,
      "ooaeai": 2459,
      "tooteatottt": 2460,
      "eaaieeeatev": 2461,
      "teeaeterduto": 2462,
      "taiei": 2463,
      "aieaeooteeaeterduto": 2464,
      "tefsoeotetnllorto": 2465,
      "tllo": 2466,
      "aafaee": 2467,
      "ietoteeta": 2468,
      "aeeeaeeeouoo": 2469,
      "aieeeaaeea": 2470,
      "eeeaee": 2471,
      "tathrtoouoo": 2472,
      "aieaietoe": 2473,
      "eeaeaeeaer": 2474,
      "eaieeeaea": 2475,
      "eatototo": 2476,
      "ieemot": 2477,
      "eaieeeaeasatoto": 2478,
      "erdaieaieeeto": 2479,
      "thooteeafa": 2480,
      "eeeaeeeaiee": 2481,
      "oieemot": 2482,
      "eohaooooaieae": 2483,
      "oieemotsee": 2484,
      "eeaee": 2485,
      "taieeown": 2486,
      "llooooeaeeadeaeetc": 2487,
      "aieaioteaeeoooo": 2488,
      "aieaietoeouoo": 2489,
      "aieetaieeeto": 2490,
      "oohtho": 2491,
      "eeeatoteec": 2492,
      "oohthoaieetaieeeto": 2493,
      "etpa": 2494,
      "eadtaoeeeae": 2495,
      "oeteaieeea": 2496,
      "thaieaeooooteatn": 2497,
      "eet": 2498,
      "eeetpa": 2499,
      "eatoeaaeaiee": 2500,
      "aseetctc": 2501,
      "uooetmtn": 2502,
      "aiaaelo": 2503,
      "teoteotaero": 2504,
      "taeuooetmtn": 2505,
      "aiaaeloaseetctc": 2506,
      "aehteceaieasotea": 2507,
      "aehteceaieasoteaetno": 2508,
      "tsa": 2509,
      "eatotnoieetaie": 2510,
      "oodotellollo": 2511,
      "tmtsa": 2512,
      "aioteaedooooetno": 2513,
      "ttahtahn": 2514,
      "ttmon": 2515,
      "oodeaiaaeeerto": 2516,
      "erdtsiec": 2517,
      "eaeadieeohasa": 2518,
      "taieieaeadieeohasa": 2519,
      "eatoeatneerto": 2520,
      "or": 2521,
      "oetao": 2522,
      "aieeast": 2523,
      "hoaieeast": 2524,
      "elr": 2525,
      "toothrdc": 2526,
      "oetaotasaietetn": 2527,
      "ethoaroooo": 2528,
      "bta": 2529,
      "tseeieemtoown": 2530,
      "aehtecaafaee": 2531,
      "aieeaaeee": 2532,
      "ohaoaieaaeeaieote": 2533,
      "ooatneaie": 2534,
      "tstto": 2535,
      "oeeeaieai": 2536,
      "oeloaseetetn": 2537,
      "eote": 2538,
      "eaaeedtmtsa": 2539,
      "eaeeadero": 2540,
      "pataero": 2541,
      "eohaooooaieaeadthnaie": 2542,
      "erdoheaieeea": 2543,
      "erdtaeieeahn": 2544,
      "taoohetktttn": 2545,
      "tatcaieeeto": 2546,
      "eaieeeaaieeaaeee": 2547,
      "eaieaaeaieeown": 2548,
      "oeeeaieaieaeasee": 2549,
      "eaieeead": 2550,
      "aieeeauto": 2551,
      "tseeoteetnst": 2552,
      "eaeeaieeeauto": 2553,
      "oteatooet": 2554,
      "toeeaotdeaeaieeead": 2555,
      "toeeaotdeaeaieeeaduto": 2556,
      "thieeouoo": 2557,
      "hrhtn": 2558,
      "ttatteaaieee": 2559,
      "ooaetasa": 2560,
      "tathoela": 2561,
      "tathoelaeatn": 2562,
      "eatotnlo": 2563,
      "oodtsiec": 2564,
      "oteatooetieeaaie": 2565,
      "taoeeeaieeaetaiee": 2566,
      "gtee": 2567,
      "le": 2568,
      "tooooo": 2569,
      "erdieteloeae": 2570,
      "etaieoteaaote": 2571,
      "lloooostaie": 2572,
      "eadtjhn": 2573,
      "aieeetoaieeeto": 2574,
      "taeieeeadtjhn": 2575,
      "oetoet": 2576,
      "asoteafa": 2577,
      "lotc": 2578,
      "oetoettttetaieeeto": 2579,
      "eaeeelotttethno": 2580,
      "aeaetotoetotofatnoho": 2581,
      "taottn": 2582,
      "llooooeaetaiee": 2583,
      "paeaieasotea": 2584,
      "eaeeeaeeeduto": 2585,
      "aieaeadetneeb": 2586,
      "oteaitfeeero": 2587,
      "tothn": 2588,
      "aieeetoeeaaeasaee": 2589,
      "teoteooietaseaa": 2590,
      "eth": 2591,
      "lotothn": 2592,
      "teoteoeatoaieee": 2593,
      "oohtoteatnaieae": 2594,
      "oodaiiohasee": 2595,
      "tetn1": 2596,
      "oodteaetc": 2597,
      "etaietc": 2598,
      "etaietcteetohohaetn": 2599,
      "llooootneaiaoteaiee": 2600,
      "thtaeiee": 2601,
      "ieeaaseetoaietc": 2602,
      "oheet": 2603,
      "oheetktttn": 2604,
      "aieaellorto": 2605,
      "eaathaieaeooooteatn": 2606,
      "otiebat": 2607,
      "erdtooteethn": 2608,
      "aieeetoaieeetogte": 2609,
      "eetoeetn": 2610,
      "iodiodtaoeeeae": 2611,
      "oello": 2612,
      "eetoeetnaiee": 2613,
      "oodsac": 2614,
      "erdemtc": 2615,
      "ietteec": 2616,
      "oodeeb": 2617,
      "aeaieeeatn": 2618,
      "tsttouoo": 2619,
      "oodeeb1": 2620,
      "dpa": 2621,
      "teaeaae": 2622,
      "teaeaaedpa": 2623,
      "gggottn": 2624,
      "oeotasttmnta": 2625,
      "taoeeeaeaie": 2626,
      "erdoeoteaieeaee": 2627,
      "hoeuto": 2628,
      "aiiasaie": 2629,
      "aieeeatoetaieeeto": 2630,
      "eaaieaiee": 2631,
      "oeeeaielloooollooooouoo": 2632,
      "oteatooeote": 2633,
      "staie1": 2634,
      "eeetnaiee": 2635,
      "ifa": 2636,
      "etaieeethn": 2637,
      "ethoaroetmtn": 2638,
      "ethoeuto": 2639,
      "ooe": 2640,
      "staieeaeeasoooo": 2641,
      "ethoeutoeuto": 2642,
      "msa": 2643,
      "teatotooteaeieeouoo": 2644,
      "tatmsa": 2645,
      "ifaea": 2646,
      "eeeaeeeaieeouoo": 2647,
      "heaaeedtetn": 2648,
      "teatoaotasee": 2649,
      "eaeeasooooaietn1": 2650,
      "erdttan": 2651,
      "oohaieee": 2652,
      "teaetm": 2653,
      "teaetmteaetcaieeeto": 2654,
      "ethoteeatn": 2655,
      "aieeetoaeaie": 2656,
      "eaeeasooooeaieaieaief": 2657,
      "oefaietsee": 2658,
      "oesttehaetn": 2659,
      "taaieaetn": 2660,
      "oteieeaatn": 2661,
      "oeeeaielloooollooooieb": 2662,
      "eaitfeeteaeaie": 2663,
      "taeatn": 2664,
      "oeotasttmntaeear": 2665,
      "iaeaiee": 2666,
      "aieeetotvo": 2667,
      "oefaietseeaieeetotvo": 2668,
      "eatoetoeaier": 2669,
      "taeaeto": 2670,
      "oeteatoeatnteer": 2671,
      "atotaieee": 2672,
      "taeieeeadtjhn0": 2673,
      "tjaie": 2674,
      "oohero": 2675,
      "oeteatoeatntaieetclo": 2676,
      "ooafiaeaieeeto": 2677,
      "ooaeaiooe": 2678,
      "taieeoh": 2679,
      "erdaiaaeloaseetctc": 2680,
      "tseeiaec": 2681,
      "taieeohhn": 2682,
      "taterduto": 2683,
      "gtept": 2684,
      "taoeeeaeoooo": 2685,
      "eaaefeatn": 2686,
      "aieeaieee0": 2687,
      "ottoottooheatn": 2688,
      "ststs": 2689,
      "tasee0": 2690,
      "aieaeadttatotoaetn": 2691,
      "stststasee0": 2692,
      "is": 2693,
      "eafa": 2694,
      "eaaetaie": 2695,
      "oethottniebtjho": 2696,
      "pathtaeiee": 2697,
      "toeeaotdeaieeeaown": 2698,
      "aieasee": 2699,
      "eaaeedpa": 2700,
      "tahre": 2701,
      "erdteaewn": 2702,
      "eaaoheetktttn": 2703,
      "eeadeaeeasoooo": 2704,
      "tmsaown": 2705,
      "erdtec": 2706,
      "erdtec0": 2707,
      "toothre": 2708,
      "ietfaafa": 2709,
      "iodiodtnttt": 2710,
      "aiaieaieeeto": 2711,
      "erdieeohasa": 2712,
      "teea0": 2713,
      "aiaieaieeetoe": 2714,
      "eafs": 2715,
      "thoeafs": 2716,
      "thaieaeoooooteeea": 2717,
      "eatototothoeafs": 2718,
      "erdaieae": 2719,
      "tstse": 2720,
      "eetauto": 2721,
      "ethoeaaieeee": 2722,
      "todctoown": 2723,
      "tseeeahn": 2724,
      "tjeatn": 2725,
      "eaear": 2726,
      "eaieaieaear": 2727,
      "afaeteea": 2728,
      "aieetn": 2729,
      "aieeaieee": 2730,
      "taieeoestt": 2731,
      "oodeea": 2732,
      "oeeeaieaiaa": 2733,
      "taieeoesttetoown": 2734,
      "oeeeaieaiaaeeaeoteea": 2735,
      "aieaeadoetrto": 2736,
      "eeeaaee": 2737,
      "taeeifaea": 2738,
      "tooieemotneerto": 2739,
      "eeeaaeeeafa": 2740,
      "etaieoetotoea": 2741,
      "tnoheelo": 2742,
      "eeadtstse": 2743,
      "oeteaaeeeeeadetaiaaeeouoo": 2744,
      "taiebta": 2745,
      "elrttaoeeeae": 2746,
      "eadtetn1": 2747,
      "tseetjhn": 2748,
      "aieaieetstof": 2749,
      "teeatn": 2750,
      "tootllo": 2751,
      "aehtecaieaeasee": 2752,
      "etototn": 2753,
      "teatnaiee": 2754,
      "oodoesttehre": 2755,
      "teatngte": 2756,
      "tottt": 2757,
      "taieeatottt": 2758,
      "etaieeaieetn": 2759,
      "oodeeaaeasaee": 2760,
      "teatotaieeatottt": 2761,
      "teatnouoo": 2762,
      "ottoetaieeeto": 2763,
      "rd": 2764,
      "erdtmsa": 2765,
      "lloouoo": 2766,
      "llolloouoo": 2767,
      "otellolloouoo": 2768,
      "ttaoeloaseetetn": 2769,
      "ecefe": 2770,
      "lhetktttn": 2771,
      "eaeouoo": 2772,
      "aotasaie": 2773,
      "oodtoothre": 2774,
      "teatnpt": 2775,
      "htectv": 2776,
      "eaatooteatn": 2777,
      "aioteaeeooooeae": 2778,
      "taaieeasado": 2779,
      "taaieea": 2780,
      "tneaseear": 2781,
      "aieeatn": 2782,
      "patnoheelo": 2783,
      "eohaooooiee": 2784,
      "ttae": 2785,
      "erdafa": 2786,
      "oohouotoaieaeo": 2787,
      "eaieee1": 2788,
      "toteatnouoo": 2789,
      "oeeeaieta": 2790,
      "asataiee": 2791,
      "tst": 2792,
      "lloooolhetktttn": 2793,
      "teaaedtctoar": 2794,
      "teeeea": 2795,
      "teeteeeea": 2796,
      "toeeeaie": 2797,
      "thos": 2798,
      "oodaeaeatt": 2799,
      "oeoteetoeeeaie": 2800,
      "ottoeaeeadeaeetc": 2801,
      "ohatoeaseeao": 2802,
      "efac": 2803,
      "oeoteetoeeeaieoeoteea": 2804,
      "etaieotellollo": 2805,
      "htectvown": 2806,
      "ttaehtectvown": 2807,
      "eaaaieae1": 2808,
      "ttaniaec": 2809,
      "aehtecaieaeaiaae": 2810,
      "mvo": 2811,
      "ou": 2812,
      "aieaieeecefe": 2813,
      "oeaiee": 2814,
      "oteetae": 2815,
      "oeteatoeatnetaie": 2816,
      "oteetaemvo": 2817,
      "eeatn1": 2818,
      "oodtetn": 2819,
      "ooaoef": 2820,
      "etsutoaiaae": 2821,
      "eeeaaeeeafaeaieote": 2822,
      "thosc": 2823,
      "eaaeaaefeatn": 2824,
      "afathneeea": 2825,
      "efwn": 2826,
      "oeeeaietaefwn": 2827,
      "afathneeea0": 2828,
      "ra": 2829,
      "aieaeaiea": 2830,
      "eaieeeatv": 2831,
      "teaaedtctn": 2832,
      "taoest": 2833,
      "oteatothoela": 2834,
      "ieeaaseeeaioteato": 2835,
      "eeadeaaietsee": 2836,
      "oohtotaithoe": 2837,
      "oteatothoelapa": 2838,
      "fatc": 2839,
      "oodtjaie": 2840,
      "gteaieee1": 2841,
      "aotohaieaioteaeeoooo": 2842,
      "hrdttmon": 2843,
      "iaeaieela": 2844,
      "tktgggaitoemoomoou": 2845,
      "tsfattsfat": 2846,
      "eaaaieae": 2847,
      "erdeaaeaseetetn": 2848,
      "aieetooteethn": 2849,
      "ttsoeo": 2850,
      "eaeaiea": 2851,
      "aieelrt": 2852,
      "eaataeaier": 2853,
      "eeaaetouto": 2854,
      "eaaeaieeaeaeeae": 2855,
      "eaeaieaeeaaetouto": 2856,
      "oeeeaieelrt": 2857,
      "erdaieasee": 2858,
      "aehtecefe": 2859,
      "eot": 2860,
      "eaaaeeeaeee": 2861,
      "eaeaetntsfattsfat": 2862,
      "tootktteaaaieae": 2863,
      "eoteaseeexeceee": 2864,
      "rtoown": 2865,
      "eadoeote": 2866,
      "eadtwn": 2867,
      "llooootooteethn": 2868,
      "tseeteaieeeae": 2869,
      "eaeaieeeto": 2870,
      "tvo1": 2871,
      "eatn0": 2872,
      "ieeataeeifaea": 2873,
      "tooieemothtn": 2874,
      "gteeeatn0": 2875,
      "tsuto": 2876,
      "oeeeaieoteaaoteaiee": 2877,
      "oeeeaieetsuto": 2878,
      "aieerd": 2879,
      "erdetaieeohouoothn": 2880,
      "eohaooooeelo": 2881,
      "erdhrhtn": 2882,
      "thettooeeeaie": 2883,
      "erdhrhtne": 2884,
      "tktot": 2885,
      "erdtmeuo": 2886,
      "oeaiehrdtetn": 2887,
      "aieeeae0": 2888,
      "ooaetottn": 2889,
      "aieaeadiodiodtaoeeeae": 2890,
      "tnrodto": 2891,
      "oetodtmostaieae": 2892,
      "taoiet": 2893,
      "eaeoh": 2894,
      "eatotetnaieasaie": 2895,
      "llooooefac": 2896,
      "taoiettaoeeeae": 2897,
      "eaeai": 2898,
      "ttaeaeaetn": 2899,
      "hrdtllo": 2900,
      "atoetn": 2901,
      "hrdtllortoown": 2902,
      "eaetnoh": 2903,
      "eeaeeeaetnoh": 2904,
      "eaeaaaieeeto": 2905,
      "eaaaieeetc": 2906,
      "ooheaaaieeetc": 2907,
      "ooheaaaieeetco": 2908,
      "aieaeoeaeeasoooo": 2909,
      "erdeaatneaie": 2910,
      "oodtohn": 2911,
      "eaaeaieeetoieemtn": 2912,
      "aieerdoeote": 2913,
      "touto": 2914,
      "tseetaieerhtn": 2915,
      "aieeetoeeaeaduo": 2916,
      "tnsodsod": 2917,
      "aotohaieaieeeto": 2918,
      "eaaieeeatnsodsod": 2919,
      "tooieemotthn": 2920,
      "aietc0": 2921,
      "eaaieaieemtn": 2922,
      "stoouoo": 2923,
      "tatneaseear": 2924,
      "aietaie": 2925,
      "aioteatoetn": 2926,
      "tseetttmtn": 2927,
      "totetn": 2928,
      "aietaioteatoetn": 2929,
      "eaaaieeetn1": 2930,
      "tnasee": 2931,
      "oeeeaievea": 2932,
      "tneaieaiaae": 2933,
      "toeeaotdeaaieeeeto": 2934,
      "odtotnasee": 2935,
      "erdc": 2936,
      "teoteoto": 2937,
      "erdeteemtn": 2938,
      "ha": 2939,
      "etotaoeeeae": 2940,
      "oodeeea": 2941,
      "stllorto": 2942,
      "tootlloetotaoeeeae": 2943,
      "oodeeeastllorto": 2944,
      "aiehohr": 2945,
      "oodeaaieeeatsee": 2946,
      "totoaiethtn": 2947,
      "toeeaaiehohr": 2948,
      "toeeaotdasoteafa": 2949,
      "tseaeai": 2950,
      "aieaeooetn": 2951,
      "eaeeelottteatotnlo": 2952,
      "oodeaaaieeetn": 2953,
      "hohoh": 2954,
      "erdeief": 2955,
      "teieeaatn": 2956,
      "oettaeroastoto": 2957,
      "aieeetooteieeaatn": 2958,
      "tseaeaietaoeeeae": 2959,
      "thre": 2960,
      "oeoteaseeexeceeeoetmtn": 2961,
      "eatooh": 2962,
      "eaaaieeasadoown": 2963,
      "aieaeeeaeee": 2964,
      "ietaieoeoteeaasee": 2965,
      "aiestaie": 2966,
      "eaaeeeatoeaaeaiee": 2967,
      "rtohn": 2968,
      "aeertohn": 2969,
      "tseetv0": 2970,
      "aieeaeaaaieeeto": 2971,
      "aieaeemtn": 2972,
      "aieeeatothotho": 2973,
      "eaallollo": 2974,
      "oohteea": 2975,
      "tneaseearouoo": 2976,
      "otaiato": 2977,
      "otaiatotetn": 2978,
      "etaieoeteaaeaieaeto": 2979,
      "oeotaseaaietetn": 2980,
      "erdttsoeotjhn": 2981,
      "taeaeeae": 2982,
      "oohetoeaier": 2983,
      "eatoeetauto": 2984,
      "ne": 2985,
      "etaieeesoooo": 2986,
      "eaitfeelotothn": 2987,
      "oodatotthaieaeoooo": 2988,
      "eeaelo": 2989,
      "teatnhre": 2990,
      "gtehnouoo": 2991,
      "aieaeaieaeaieae": 2992,
      "aietaiee": 2993,
      "oeeeaieeaaoeftac": 2994,
      "erdtteaaie": 2995,
      "llost": 2996,
      "thaieaeoooooeaierto": 2997,
      "oeteaaeasa": 2998,
      "veaown": 2999,
      "eeetnrodto": 3000,
      "aseaa": 3001,
      "eaaoeftac": 3002,
      "ttaeiee": 3003,
      "toaie": 3004,
      "erdeaaeaiee": 3005,
      "aieeaet": 3006,
      "taaieeatneae": 3007,
      "oeotaseaaie": 3008,
      "ohaieee": 3009,
      "oodaieetstof": 3010,
      "eeadhtahn": 3011,
      "totoeoteea": 3012,
      "etasaaero": 3013,
      "oeeeaietec": 3014,
      "oeoteetotoeoteea": 3015,
      "aieaeaieaeaieaeohaieee": 3016,
      "CA": 3017,
      "erdthooteeafa": 3018,
      "eohaooootaoeeeae": 3019,
      "eatoetao": 3020,
      "tseeeasa": 3021,
      "pthre": 3022,
      "eaeaetnaieeeea": 3023,
      "oodiet": 3024,
      "tseeiodiodtnttt": 3025,
      "hrdc": 3026,
      "afatseetsee": 3027,
      "aieeaietn": 3028,
      "tseethetsc": 3029,
      "aieea2": 3030,
      "ietasaa": 3031,
      "erdstaie1": 3032,
      "aieetseeaiaae": 3033,
      "ietasaar": 3034,
      "eatottt": 3035,
      "eatoteeafa": 3036,
      "tooooofatc": 3037,
      "eatoohtooooofatc": 3038,
      "eatoteeafaeatoohtooooofatc": 3039,
      "eatoteeafaeatoohtooooofatcttt": 3040,
      "otaiatotetnasa": 3041,
      "oheetc": 3042,
      "gteseetpa": 3043,
      "aieeeiemeu": 3044,
      "etasaagte": 3045,
      "tktoteaitfee": 3046,
      "aieetmsa": 3047,
      "eaafaeteae": 3048,
      "oeaieetmtn": 3049,
      "oestteeaaee": 3050,
      "taieeesoooo0": 3051,
      "oestteeaaeeeto": 3052,
      "terdutotaieeesoooo0": 3053,
      "hohrt": 3054,
      "taaieeetoar": 3055,
      "aieeeerto": 3056,
      "eaeeasoooooietaseaa": 3057,
      "tkttaieteetn": 3058,
      "eaatnst": 3059,
      "eaieeeaaieae": 3060,
      "erdeaaaieeetn": 3061,
      "oodtootieer": 3062,
      "oeaieohetktttn": 3063,
      "ooaeaeaaaieeeto": 3064,
      "ac": 3065,
      "seear": 3066,
      "eatoeaaeeaieaeto": 3067,
      "teaseear": 3068,
      "oetiaaeemtc": 3069,
      "teoteooteaseear": 3070,
      "al": 3071,
      "eatotaiee": 3072,
      "ietaieoeoteeaeae": 3073,
      "dutoouoo": 3074,
      "eattaiee": 3075,
      "eaiedutoouoo": 3076,
      "erdtea": 3077,
      "oohtn": 3078,
      "eaeohet": 3079,
      "eattaieeeto": 3080,
      "etcf": 3081,
      "eaieeeatteaaiee": 3082,
      "erdpt": 3083,
      "tcthtseea": 3084,
      "oeaiaieeaieee": 3085,
      "aieaeadtcthtseea": 3086,
      "eatoot": 3087,
      "eaetaoeeeae": 3088,
      "eeadtnttt": 3089,
      "eaetaoeeeaeuto": 3090,
      "eaetothn": 3091,
      "aieeeteemtn": 3092,
      "eaef": 3093,
      "eatoeeeaef": 3094,
      "tohthoela": 3095,
      "eaaoodatot": 3096,
      "aieeetootohthoela": 3097,
      "eteeae": 3098,
      "oteatnthoela": 3099,
      "pathneteeae": 3100,
      "taaieeeeto": 3101,
      "oefaieee": 3102,
      "ohatoaieae": 3103,
      "taaieeeeto0": 3104,
      "thooteeafaown": 3105,
      "oodeaaeaiee": 3106,
      "teatotst": 3107,
      "ohaoaietc": 3108,
      "oodeaaeaieeetn": 3109,
      "teatotsttnrodto": 3110,
      "eadeaaieeeeto": 3111,
      "otasa": 3112,
      "hno": 3113,
      "oodoeeeaielloooollooooieb": 3114,
      "otasatotetn": 3115,
      "re": 3116,
      "llooooooheerto": 3117,
      "odsod": 3118,
      "taioteatoetn": 3119,
      "aiaaeeaetaiee": 3120,
      "etkttto": 3121,
      "oeeeaieoeeae": 3122,
      "llooootaoeeeaeown": 3123,
      "teatotnaietc": 3124,
      "aiaaellooootaoeeeaeown": 3125,
      "oelloaieae": 3126,
      "rod": 3127,
      "erdtnst": 3128,
      "oodaieeetstt": 3129,
      "tteathtn": 3130,
      "erdiodiodtaiee": 3131,
      "oetoeoteaseeexeceee": 3132,
      "taeiee0": 3133,
      "hohohoeatn": 3134,
      "erdteataeiee0": 3135,
      "eaateatoar": 3136,
      "toottaeiee": 3137,
      "afaetaie": 3138,
      "roo": 3139,
      "oeeeaieeaaeeeatn": 3140,
      "ooheeea": 3141,
      "eatotefsoeo": 3142,
      "eaaaeaeattetaieeeto": 3143,
      "aieaeadeutoeuto": 3144,
      "taoeeeaeasto": 3145,
      "erdafataoeeeaeasto": 3146,
      "erdafataoeeeaeastoaie": 3147,
      "toeaeeeaeeeduto": 3148,
      "teaeai": 3149,
      "eaeeadao": 3150,
      "eggg": 3151,
      "ear": 3152,
      "tseeloaie": 3153,
      "aotaieeeto": 3154,
      "oodoeto": 3155,
      "aietmtn": 3156,
      "aeeatohn": 3157,
      "oodoetoaietmtn": 3158,
      "aeeatohnaieee": 3159,
      "erdoteeta": 3160,
      "oodtaioteatoetn": 3161,
      "eeadoetofaaslo": 3162,
      "iebtn": 3163,
      "taafa": 3164,
      "loaseetctcoooo": 3165,
      "oeeeaieteatn": 3166,
      "eaaieeeetoetaieeeto": 3167,
      "ooheeeaaiear": 3168,
      "eh": 3169,
      "afaeaieotd": 3170,
      "teoteototoeaeeeaeeeduto": 3171,
      "rooo": 3172,
      "oeeeaieteatnpt": 3173,
      "om": 3174,
      "etnaieec": 3175,
      "erdtv": 3176,
      "aieaeadeeaeaieeeto": 3177,
      "erdtvst1": 3178,
      "oodtneerto": 3179,
      "totoeaeeeaeeeduto": 3180,
      "etntaoee": 3181,
      "etntaoeeeaeero": 3182,
      "hi": 3183,
      "erdte": 3184,
      "erdtootieer": 3185,
      "taeuto": 3186,
      "tooieemoaieaeaieeeto": 3187,
      "erdtesac": 3188,
      "otsa": 3189,
      "oodiettc": 3190,
      "lloooottatotoaetn": 3191,
      "oeaiehr": 3192,
      "tmotsa": 3193,
      "afaeaieotdtv": 3194,
      "taeuoaieeeto": 3195,
      "oodieteasaoooo": 3196,
      "aieaeoteeatn": 3197,
      "eaiaaeeto": 3198,
      "iecown": 3199,
      "aieea3": 3200,
      "eaeeasooooetoeaier": 3201,
      "oeeeaietsaiee": 3202,
      "oodtneertoeae": 3203,
      "eaiaaeetoiecown": 3204,
      "eaaethotc": 3205,
      "tstofa": 3206,
      "eaaethotceta": 3207,
      "lloooototoeaeeeaeeeduto": 3208,
      "oteeetiaee": 3209,
      "eaieuto": 3210,
      "aaeh": 3211,
      "teoteoee": 3212,
      "eaaeeetothtn": 3213,
      "lhe": 3214,
      "oetiaaeh": 3215,
      "thneeeaown": 3216,
      "oetiaaehouoothn": 3217,
      "am": 3218,
      "ieerodtn": 3219,
      "mtouto": 3220,
      "eaeoet": 3221,
      "ohaieeeatn": 3222,
      "llooooeeaeaieeeto": 3223,
      "tseetcaiee": 3224,
      "eaieaeeta": 3225,
      "lheohaieeeatn": 3226,
      "eaeoetmtouto": 3227,
      "otasee": 3228,
      "taieeeaieaeeta": 3229,
      "aieeaeeae": 3230,
      "hrdst": 3231,
      "eaohhrdst": 3232,
      "ed": 3233,
      "toeerto": 3234,
      "gtegte": 3235,
      "eaaoodeaieeaoero": 3236,
      "teoteoeeeatoeaaeaiee": 3237,
      "toeertotetn": 3238,
      "aieaeadtoottaeiee": 3239,
      "aiaieeown": 3240,
      "erdeaeeadao": 3241,
      "oodottoottn": 3242,
      "tseeoteea": 3243,
      "toeeaotdteaetmteaetcaieeeto": 3244,
      "etktttoeaetaiee": 3245,
      "aieoeteatoeatn": 3246,
      "aieeaetrto": 3247,
      "eatootiebat": 3248,
      "eroown": 3249,
      "eatoaotohaieaieae": 3250,
      "oeteaeaieotdero": 3251,
      "tooieemoterduto": 3252,
      "oteaitfeeeroown": 3253,
      "erdaieetstof": 3254,
      "oohaiee": 3255,
      "paeaieeea": 3256,
      "etaieoeotohoest": 3257,
      "oodthaieaeoooo": 3258,
      "aiiohaseeeteaeaseeown": 3259,
      "aietneaseear": 3260,
      "etaieehre": 3261,
      "teadtetn": 3262,
      "oeeeaiear": 3263,
      "gteai": 3264,
      "eeaestt": 3265,
      "aiaaeoeeeaiear": 3266,
      "ing": 3267,
      "aieeaetrtoeaetrto": 3268,
      "paetaiee": 3269,
      "eeetnaieeaieaeoaieaeo": 3270,
      "aieeteaee": 3271,
      "asaeaeeemtn": 3272,
      "oetodthnoo": 3273,
      "gteaietoe": 3274,
      "Al": 3275,
      "es": 3276,
      "teaieuto": 3277,
      "tclo": 3278,
      "toeeaotdar": 3279,
      "tmosttoeeaotdar": 3280,
      "erdoohto": 3281,
      "oodthtn": 3282,
      "paeaieeatn": 3283,
      "ieeaaseetsee": 3284,
      "ostaieeeto": 3285,
      "oietasee": 3286,
      "tmostaieeeto": 3287,
      "erdoohtov": 3288,
      "teoteoeaeheaeeaieero": 3289,
      "totoaiethtnouoo": 3290,
      "etniec": 3291,
      "tseeeaaaieeetn": 3292,
      "aieeeatottea": 3293,
      "tllortoouoo": 3294,
      "aieeeertotllortoouoo": 3295,
      "ter": 3296,
      "erdaieeetstt": 3297,
      "tmotsao": 3298,
      "etsodsod": 3299,
      "oteatoeaaietsee": 3300,
      "taieeeeae": 3301,
      "ooheattaieeeto": 3302,
      "aeadeahn": 3303,
      "oetodaehtecefe": 3304,
      "erdietfaafa": 3305,
      "oodeaaef": 3306,
      "ohtoeea": 3307,
      "oodoeotaseaaie": 3308,
      "lloooooetn": 3309,
      "eatooeeae": 3310,
      "aieaeoaieaieeecefe": 3311,
      "eeaeeeae": 3312,
      "ub": 3313,
      "otefa": 3314,
      "odeaeeasoooo": 3315,
      "hrdtllorto": 3316,
      "iaeaieelaown": 3317,
      "otefatown": 3318,
      "tthoo": 3319,
      "erdaieaetn": 3320,
      "etaiellolloetouto": 3321,
      "eeaesttetn": 3322,
      "eeaeeeaeouoto": 3323,
      "tthoown": 3324,
      "ill": 3325,
      "tseeetktttn": 3326,
      "ietrhtn": 3327,
      "tooieemoteasa": 3328,
      "aietaieetea": 3329,
      "oeaiea": 3330,
      "seea": 3331,
      "ooaieemtn": 3332,
      "eaaoesttnoo": 3333,
      "otaieetclo": 3334,
      "us": 3335,
      "ytjhn": 3336,
      "eaatsteeafa": 3337,
      "eaatseaseeao": 3338,
      "ottootto": 3339,
      "eaeohetytjhn": 3340,
      "iP": 3341,
      "taiet": 3342,
      "eeaieeea": 3343,
      "aieeasad": 3344,
      "aeeeaee": 3345,
      "tootktttaieetc": 3346,
      "aieeasadoouoo": 3347,
      "aeai": 3348,
      "oog": 3349,
      "etaieeaee": 3350,
      "tseetstofa": 3351,
      "eaieeeaeaieeea": 3352,
      "gteeaaie": 3353,
      "hoo": 3354,
      "nd": 3355,
      "oohthosc": 3356,
      "oetodtneaseearouoo": 3357,
      "rhtnaiee": 3358,
      "aotetm": 3359,
      "ottoottn0": 3360,
      "aeeeaeeeeaieeea": 3361,
      "oteatoaieee": 3362,
      "erdoeaiaieeaieee": 3363,
      "oodeaaietsee": 3364,
      "oetieea": 3365,
      "oodthtnaiaae": 3366,
      "oetieeaseea": 3367,
      "eel": 3368,
      "oodeaaaieaietaoeeeae": 3369,
      "tseeoeotohoest": 3370,
      "eatoooh": 3371,
      "toeeaotdaotaieeeto": 3372,
      "aietn3": 3373,
      "etaietaoeeeae": 3374,
      "taeaie": 3375,
      "etaietaoeeeaeoooo": 3376,
      "id": 3377,
      "eatohoaseea": 3378,
      "teoteotneaieaietoto": 3379,
      "ur": 3380,
      "eatoeb": 3381,
      "oohaietaie": 3382,
      "aieaeadrhtnaiee": 3383,
      "oheetcero": 3384,
      "eelotaieetclo": 3385,
      "teatoaieee": 3386,
      "oetoteieeaatn": 3387,
      "oteaseearst": 3388,
      "ottoeaaeeeatn": 3389,
      "eaetrtoeaetrto": 3390,
      "oteieea": 3391,
      "teevegggeae": 3392,
      "atothtn": 3393,
      "oteieeaatothtn": 3394,
      "haead": 3395,
      "aieeaseea": 3396,
      "oodoshtn": 3397,
      "ouooaiaa": 3398,
      "ooalololotnttt": 3399,
      "haeadoelotac": 3400,
      "aieeaseeao": 3401,
      "ouooaiaaeer": 3402,
      "eaaohn": 3403,
      "oodaehtecaieaeouoo": 3404,
      "oodeaaeaieeetotaoeeeae": 3405,
      "oodaiaaeeaeoteea": 3406,
      "tseegggaitoemoomoou": 3407,
      "eaatsaietetnteer": 3408,
      "ooatneaseear": 3409,
      "mteaetcaieeeto": 3410,
      "oodoeteaaehn": 3411,
      "eaiaaeeae": 3412,
      "oeeeaieteaet": 3413,
      "oeeeaieer": 3414,
      "taafataoeeeae": 3415,
      "oogle": 3416,
      "oeeeaieteaetmteaetcaieeeto": 3417,
      "aieetno": 3418,
      "aieeaiee0": 3419,
      "eaaodthtn": 3420,
      "aieieeasa": 3421,
      "eatoeerto": 3422,
      "eadoeaieaieeeaaetmtn": 3423,
      "oteatoaeaie": 3424,
      "eaieaietoto": 3425,
      "eatoeertoieerodtn": 3426,
      "oodhoaieeast": 3427,
      "xetn": 3428,
      "oodaieaeaieeeto": 3429,
      "odeaieeatn": 3430,
      "teadteeae": 3431,
      "eaeeasooooeaaeedhotatttn": 3432,
      "ottoeaiaaeeae": 3433,
      "eood": 3434,
      "it": 3435,
      "oodtmosttoeeaotdar": 3436,
      "taoeeeaef": 3437,
      "eoodtaoeeeaef": 3438,
      "ay": 3439,
      "aieefa": 3440,
      "aieeaaee": 3441,
      "oodieeeea": 3442,
      "teaeaaee": 3443,
      "gteaiexetn": 3444,
      "eatotnlo0": 3445,
      "aieefametaieeeto": 3446,
      "Google": 3447,
      "oodaieaaeeteemtn": 3448,
      "teatotoetasa": 3449,
      "taoteeta": 3450,
      "eatoeieeagte": 3451,
      "oeeeaieoteeea": 3452,
      "eaaouoo": 3453,
      "aeadem": 3454,
      "aieeetoeaeeemtn": 3455,
      "odeaetothn": 3456,
      "eaitfeeoetotoea": 3457,
      "erdtteao": 3458,
      "aeademtaoeeeae": 3459,
      "ik": 3460,
      "eteaeeae": 3461,
      "aieeteaieuto": 3462,
      "aieaieaieaee": 3463,
      "odtcteetohohaetn": 3464,
      "eteemtnero": 3465,
      "aieaieaieaeeaieetno": 3466,
      "SA": 3467,
      "eeadeatoeatn": 3468,
      "tseethettooeeeaie": 3469,
      "eetno": 3470,
      "oodaieee0": 3471,
      "ohaoaiiasaie": 3472,
      "ietaodtoteea": 3473,
      "ieteaetaiee": 3474,
      "ieteerto": 3475,
      "hohrteatn": 3476,
      "iodiodaieaeeaaeto": 3477,
      "aieeaieeaiee0": 3478,
      "erdoeotasttmntaee": 3479,
      "tooieemoo": 3480,
      "odeaeeasooooouoo": 3481,
      "erdiaee": 3482,
      "eaaoeoteertottea": 3483,
      "Mar": 3484,
      "erdoteetnsc": 3485,
      "oodieeaasee": 3486,
      "oodotefattsee": 3487,
      "llooooaieaieeecefe": 3488,
      "teeta": 3489,
      "tooieemooteeta": 3490,
      "eeaar": 3491,
      "eadhtahn": 3492,
      "oodieeaaseeeeae": 3493,
      "ad": 3494,
      "tseeoteetn": 3495,
      "etothtn": 3496,
      "eaaeaieeetothtn": 3497,
      "aieeeeaetaiee": 3498,
      "eaatnerto": 3499,
      "hrodto": 3500,
      "tseeaieeetstt": 3501,
      "taieetcloeeatn": 3502,
      "eaaoodaieaieaieeatn": 3503,
      "oodeaaetniec": 3504,
      "ooatnaietc": 3505,
      "hrodtofa": 3506,
      "eaieaieeatn": 3507,
      "aieaieaieaieeatn": 3508,
      "oteatoaieeeaieeaee": 3509,
      "oetaieeetoar": 3510,
      "thoscouoo": 3511,
      "ttsoeotaeieeahn": 3512,
      "tatv": 3513,
      "erdtnoieetaie": 3514,
      "eaaoelloaieae": 3515,
      "eatoeaieeatn": 3516,
      "oodeaieafteoaiaae": 3517,
      "teaaieeaaee": 3518,
      "etaotasaie": 3519,
      "taseeetaotasaie": 3520,
      "elrttaieeesoooo": 3521,
      "tatveasa": 3522,
      "eadaieeaee": 3523,
      "ottoeaeteb": 3524,
      "tooieemotv": 3525,
      "eaieeeaeaseeao": 3526,
      "aaoteoteea": 3527,
      "ieemoero": 3528,
      "ohaoeaeheaeeaieero": 3529,
      "oohouooaiaaeer": 3530,
      "oeotdaieetstof": 3531,
      "ieteertoer": 3532,
      "allollo": 3533,
      "oetodpatooteaeieeouoo": 3534,
      "taietsaie": 3535,
      "allollofa": 3536,
      "tteaie": 3537,
      "gteiettc": 3538,
      "eaieeeaeaieaieae": 3539,
      "oetodtcteetohohaetn": 3540,
      "taseeettjeatn": 3541,
      "eaeaieotdttt": 3542,
      "aietaieeesoooo": 3543,
      "erdaotohaieaieae": 3544,
      "eatoaieeeatn": 3545,
      "oohetlo": 3546,
      "toeeaotdeaseeao": 3547,
      "eaieafteaeai": 3548,
      "ooheeaaetnoo": 3549,
      "toooooeaiaae": 3550,
      "eaieafteaeaitoooooeaiaae": 3551,
      "son": 3552,
      "eaeta": 3553,
      "aeadtcllorto": 3554,
      "tseeeea": 3555,
      "and": 3556,
      "oetiaaeemtceae": 3557,
      "ieaee": 3558,
      "ob": 3559,
      "lloooothneeeaown": 3560,
      "eeadteeatn": 3561,
      "aieaeoaieaellorto": 3562,
      "tktoieemtn": 3563,
      "oohaieeasado": 3564,
      "etothn": 3565,
      "eadeaetaiee": 3566,
      "ohaot": 3567,
      "aitoetothn": 3568,
      "tataitoetothn": 3569,
      "egggeadst": 3570,
      "ellollo": 3571,
      "aieeeai": 3572,
      "aieeeeaa": 3573,
      "erdethno": 3574,
      "oodellollo": 3575,
      "etotoea": 3576,
      "tkthr": 3577,
      "ieaeeiehn": 3578,
      "oodellolloeae": 3579,
      "tkthreaiaae": 3580,
      "Chr": 3581,
      "aiiohaseethnaie": 3582,
      "ohaottea": 3583,
      "vtaieaeo": 3584,
      "erdseetpa": 3585,
      "odthtngte": 3586,
      "ttaafaeeeaetetnouoo": 3587,
      "ab": 3588,
      "dtoar": 3589,
      "tatotnaie": 3590,
      "etneaeta": 3591,
      "astoaie": 3592,
      "oeeeaieetn": 3593,
      "eaaetot": 3594,
      "eaahrhtn": 3595,
      "eatoieeaaseeeaioteato": 3596,
      "eadsa": 3597,
      "eadeaaeeetof": 3598,
      "teeaeadsa": 3599,
      "aieth": 3600,
      "oetoieemopa": 3601,
      "ooohtc": 3602,
      "lherodtoar": 3603,
      "ieteertoeroouoo": 3604,
      "oeeeaieetneeb": 3605,
      "eaaetotjhn": 3606,
      "eaahrhtneoooo": 3607,
      "siec": 3608,
      "erdaotoh": 3609,
      "llooooeeetpa": 3610,
      "oetmtnastoaie": 3611,
      "teeafaeaaaieaietaoeeeae": 3612,
      "erdaotohaieelrt": 3613,
      "tntotototo": 3614,
      "ooaoteatnthoela": 3615,
      "ieeohhn": 3616,
      "oeeeaietvtaieaeo": 3617,
      "aotas": 3618,
      "faetthooeroeaitfee": 3619,
      "tntotototoea": 3620,
      "aotaseear": 3621,
      "ol": 3622,
      "erdtteaown": 3623,
      "aieeetoeaetaiee": 3624,
      "ottoieeaaseeeaioteato": 3625,
      "ottoottoohottn": 3626,
      "aieetstofthtn": 3627,
      "im": 3628,
      "tseeeaeeemtn": 3629,
      "etaief": 3630,
      "oetotopa": 3631,
      "toothoaslohoo": 3632,
      "toothoaslohooeoteea": 3633,
      "eotoh": 3634,
      "il": 3635,
      "eteatoeb": 3636,
      "taetno": 3637,
      "aietstt": 3638,
      "oteeaeteatoeb": 3639,
      "eaieeaeoouoo": 3640,
      "eotohoest": 3641,
      "oteeaeteatoebuto": 3642,
      "You": 3643,
      "etnoeeeaie": 3644,
      "hreaiaae": 3645,
      "aieaeotee": 3646,
      "taiaoteaiee": 3647,
      "taeeexaieeetnoeeeaie": 3648,
      "tooieemoaieaeemtn": 3649,
      "aieeetootaiaoteaiee": 3650,
      "aieaeoteetoaie": 3651,
      "eeetneea": 3652,
      "ook": 3653,
      "eaaeedouoo": 3654,
      "ul": 3655,
      "oodeteaeeae": 3656,
      "teadoteeaeteatoebuto": 3657,
      "toeeaotdeaieafteoaiaae": 3658,
      "ietaodtoteeaown": 3659,
      "taeeaeaieeeto": 3660,
      "erdaie": 3661,
      "eatoeae0": 3662,
      "eeadoeto": 3663,
      "ietethotc": 3664,
      "oteatnaieaeeaaeto": 3665,
      "aieaeooieemopa": 3666,
      "eeadoetoeeae": 3667,
      "tieer": 3668,
      "ick": 3669,
      "oeaieatmtn": 3670,
      "aiethaitoetn": 3671,
      "otetc": 3672,
      "aieaeoeaieaieae": 3673,
      "aier": 3674,
      "oodieeohhn": 3675,
      "ieeaaseeaieaieaieeea": 3676,
      "eeaeo": 3677,
      "tooieemotsiec": 3678,
      "aieeetotthn": 3679,
      "ooaa": 3680,
      "ttaoest": 3681,
      "gggaieeeatn": 3682,
      "toeeaotdiaee": 3683,
      "ch": 3684,
      "etaiethtn": 3685,
      "taeeaesttetn": 3686,
      "taaieeaiee": 3687,
      "totneaaeedpa": 3688,
      "ube": 3689,
      "eeaeo0": 3690,
      "DP": 3691,
      "av": 3692,
      "ard": 3693,
      "ooaeaaeaiee": 3694,
      "eohaoooohohrtthnst": 3695,
      "etaieeaeeae": 3696,
      "un": 3697,
      "ooea": 3698,
      "aieeeeae": 3699,
      "taaietaie": 3700,
      "eadaeae": 3701,
      "oodeetn": 3702,
      "eaieeetof": 3703,
      "teoteoeaieafteoaiaae": 3704,
      "eaieaeaieeetof": 3705,
      "oteatooetotoea": 3706,
      "aieaeooietaseaa": 3707,
      "tootktttso": 3708,
      "erdafataoeeeae": 3709,
      "oodeetnrooo": 3710,
      "at": 3711,
      "aieaieeeaaetmtn": 3712,
      "eteaieeea": 3713,
      "taoetieeaseea": 3714,
      "tooeteaieeea": 3715,
      "ohaieaieeeaaetmtn": 3716,
      "llooootnst": 3717,
      "ohatooeteaieeea": 3718,
      "aieaehn": 3719,
      "tteao": 3720,
      "oeaieasaieaehn": 3721,
      "aieatot": 3722,
      "itt": 3723,
      "eaaieeeai": 3724,
      "aieeetaoeeeae": 3725,
      "tnrod": 3726,
      "eatoetn": 3727,
      "eatotnrod": 3728,
      "oeeeaieoteatoown": 3729,
      "ttatjhn": 3730,
      "tseeeatotnrod": 3731,
      "eaieaohaieaieeeaaetmtn": 3732,
      "oietetno": 3733,
      "eatototoeatoetn": 3734,
      "eaaieeeaiaeaieela": 3735,
      "aieeetaoeeeaeoooo": 3736,
      "tseeeatotnrodoo": 3737,
      "erdloaie": 3738,
      "eadtaieesoooo": 3739,
      "oodoietetno": 3740,
      "taeasatoto": 3741,
      "ian": 3742,
      "thaieaeooootsiec": 3743,
      "tneeaaie": 3744,
      "tastaie0": 3745,
      "aieaeooohtc": 3746,
      "Chris": 3747,
      "erdeieea": 3748,
      "oetieeaaie": 3749,
      "aieeaaieeetstt": 3750,
      "aieaeoeaeeae": 3751,
      "erdeieeaetn": 3752,
      "tseeeaeaieotdttt": 3753,
      "asaaieeaieee": 3754,
      "eeta1": 3755,
      "aiiohaseeeaaethotceta": 3756,
      "eaaaieeetneae": 3757,
      "afaooheerto": 3758,
      "man": 3759,
      "mtctaiee": 3760,
      "toeer": 3761,
      "erdoohthoohneerto": 3762,
      "toooea": 3763,
      "tseeteaieethn": 3764,
      "aaoteoteeaeaaeedhn": 3765,
      "toeertoooea": 3766,
      "PS": 3767,
      "ey": 3768,
      "ooaeteaieutoouoo": 3769,
      "oeeeaieemtctaiee": 3770,
      "eeaaetaief": 3771,
      "ooaeaieaie": 3772,
      "eroeasa": 3773,
      "eeaeaeeaeroeasa": 3774,
      "eaaieaieeaieaiee": 3775,
      "eatotaieeasa": 3776,
      "eatototoeatoetnteer": 3777,
      "ttaafa": 3778,
      "oelloohteea": 3779,
      "GDP": 3780,
      "ry": 3781,
      "eer1": 3782,
      "ieeaaseeoodteaaie": 3783,
      "tseeoest": 3784,
      "oetodieemtn": 3785,
      "ebook": 3786,
      "tkttaieieeasa": 3787,
      "afaetottn": 3788,
      "ptho": 3789,
      "eaieaieaeown": 3790,
      "pthoaiaae": 3791,
      "toeaieaietoto": 3792,
      "aieaouoo": 3793,
      "oohtoietfaafa": 3794,
      "oeteaaeoooo": 3795,
      "oodtotnaie": 3796,
      "erdetaie": 3797,
      "eaatnoieetaie": 3798,
      "hone": 3799,
      "eetnaie": 3800,
      "aiaaeieemoero": 3801,
      "tootaiaaeieemoero": 3802,
      "atotst": 3803,
      "aotetmiodiodtaoeeeae": 3804,
      "torod": 3805,
      "taeaeoteea": 3806,
      "taeae0": 3807,
      "oodeer": 3808,
      "teatotorod": 3809,
      "ooaeaie": 3810,
      "aieaeoieaeeiehn": 3811,
      "oietsodsod": 3812,
      "eaieaeeaieaee": 3813,
      "aieeeea1": 3814,
      "eeeastetn": 3815,
      "ich": 3816,
      "elrtpa": 3817,
      "teatotorodooaeaie": 3818,
      "Br": 3819,
      "aieeeer1": 3820,
      "eatothaietktttn": 3821,
      "llooooma": 3822,
      "ttaoodeer": 3823,
      "teatoeaataoeeeaehn": 3824,
      "teatooeaieas": 3825,
      "aaoteoteeetn": 3826,
      "teatooeaieasaie": 3827,
      "Fac": 3828,
      "ow": 3829,
      "erdhottniebtjho": 3830,
      "aiebta": 3831,
      "ttaiebta": 3832,
      "eatoeahn": 3833,
      "afaetototn": 3834,
      "oeeeaieeaaeaieeeae": 3835,
      "ip": 3836,
      "ud": 3837,
      "taieeeetno": 3838,
      "tsteeafa": 3839,
      "paoeoteaie": 3840,
      "aiaaea": 3841,
      "ieeaaseeaieaieaie": 3842,
      "eatooeotohoest": 3843,
      "eaeeelotttea": 3844,
      "etaieeaieeae": 3845,
      "oetodhtahn": 3846,
      "afaasoteafa": 3847,
      "erdoelloodtoea": 3848,
      "aiaaeaeaieeea": 3849,
      "etaieeaieeaeoero": 3850,
      "oodhrodtofa": 3851,
      "eahnsodsod": 3852,
      "toeaieaietotoar": 3853,
      "Facebook": 3854,
      "eaeeelottteaaietsee": 3855,
      "oodiebeaeeemtn": 3856,
      "tseeoohtoeae": 3857,
      "teoteoeatne": 3858,
      "tseeoteetneaeeasoooo": 3859,
      "las": 3860,
      "oetodeaaeaieeetotaoeeeae": 3861,
      "ttsoeoteaewn": 3862,
      "gtegtegte": 3863,
      "And": 3864,
      "ap": 3865,
      "erdthaietc": 3866,
      "eeadeaeetc": 3867,
      "aieeeae1": 3868,
      "eaaaieeetnst": 3869,
      "teecottootto": 3870,
      "af": 3871,
      "ieero": 3872,
      "tneaseaa": 3873,
      "toottn": 3874,
      "tootgte": 3875,
      "eaitfeetaieetclo": 3876,
      "aieeaexxeae": 3877,
      "ag": 3878,
      "ottooe": 3879,
      "tsfa": 3880,
      "erdteeaaaaeoooo": 3881,
      "oodeutoeuto": 3882,
      "tsfattsfa": 3883,
      "toeeaotdeeaetmtn": 3884,
      "oeaiehroooo": 3885,
      "eatoooheerto": 3886,
      "erdetnaieec": 3887,
      "thaitoetn": 3888,
      "aieoodtefsoeo": 3889,
      "aieeeatsee": 3890,
      "aieeaaieeeatsee": 3891,
      "iPhone": 3892,
      "RI": 3893,
      "taieeasa": 3894,
      "ttateeaeadsa": 3895,
      "eaaeedtnoho": 3896,
      "gteteeae": 3897,
      "eaieaftn": 3898,
      "stoo": 3899,
      "aieaeasee": 3900,
      "oeeeaieodthtn": 3901,
      "etceaieafteoaiaae": 3902,
      "etctnta": 3903,
      "oodeatoeatn": 3904,
      "tototnaie": 3905,
      "ohatototnaie": 3906,
      "ooatefsoeo": 3907,
      "oeeeaieodthtnaie": 3908,
      "etceaieafteoaiaae1": 3909,
      "GPS": 3910,
      "ttaeaeae": 3911,
      "eaaaieeaiaaehn": 3912,
      "eaaeaieeeadst": 3913,
      "gteeaeeae": 3914,
      "etteatoteatnaiee": 3915,
      "aiaec": 3916,
      "tatoottiisoooo": 3917,
      "eatoeaieaeaieeetof": 3918,
      "teoteooeoteaseeexeceee": 3919,
      "esoooo": 3920,
      "oodaeaeattetaieeeto": 3921,
      "eaetaieeesoooo": 3922,
      "teoteoaieaaiee": 3923,
      "eaiear": 3924,
      "oeoteaiear": 3925,
      "aieeae1": 3926,
      "org": 3927,
      "itter": 3928,
      "oeteaaeooooown": 3929,
      "ir": 3930,
      "ettc": 3931,
      "eatoaieeeea": 3932,
      "oodea": 3933,
      "eaaeohaoooo": 3934,
      "taoeeeaetaieeesoooo": 3935,
      "eaaeohaooooaieae": 3936,
      "Tw": 3937,
      "ig": 3938,
      "um": 3939,
      "erdottoottoohst": 3940,
      "eatoeea": 3941,
      "eatoeaier": 3942,
      "oodhtahngte": 3943,
      "ttateeaeadsaeerto": 3944,
      "aieeoeto": 3945,
      "aieesodsod": 3946,
      "aieaotasee": 3947,
      "ohaieeoeto": 3948,
      "iecouoo": 3949,
      "iebetoasatotototo": 3950,
      "odtaoeeeae": 3951,
      "aieaeadteetn": 3952,
      "eaeeasooootetnaieasaie": 3953,
      "tooieemoaieaeo": 3954,
      "eeeatoeeta": 3955,
      "otasatotetneta": 3956,
      "stooeatn": 3957,
      "aieaeasee1": 3958,
      "ell": 3959,
      "ut": 3960,
      "eaioteaedoooo": 3961,
      "tolo": 3962,
      "eaahaeadoelotac": 3963,
      "aieeeaeeadeaeetc": 3964,
      "eaeoteeatvoeae": 3965,
      "ttaafaeaioteaedoooo": 3966,
      "toloetaieeeto": 3967,
      "ttaafaeaioteaedooootetn": 3968,
      "iv": 3969,
      "eeaaie": 3970,
      "tseee": 3971,
      "erdaieea": 3972,
      "ieteaaetotjhn": 3973,
      "oeaiaiee": 3974,
      "aietneeaaie": 3975,
      "ottoeaioteatn": 3976,
      "toeaietaieeesoooo": 3977,
      "ttsoeotnoieetaie": 3978,
      "eaieeeaeaieeeaeaieeea": 3979,
      "tseeeiebtn": 3980,
      "CE": 3981,
      "ck": 3982,
      "aieaeeta": 3983,
      "teatoottn": 3984,
      "ooagggtaitoe": 3985,
      "oetodaieaeeta": 3986,
      "teetoeief": 3987,
      "ottoaieaieaieeatn": 3988,
      "tktetototn": 3989,
      "ooaeaaoeftac": 3990,
      "erdaieea1": 3991,
      "com": 3992,
      "moeltc": 3993,
      "ooaiee": 3994,
      "aieetsc": 3995,
      "etneerto": 3996,
      "erdeaaeeetottea": 3997,
      "oohoeoteea": 3998,
      "eatnhre": 3999,
      "tnohaieeeto": 4000,
      "ooaieemoeltc": 4001,
      "ttthn": 4002,
      "oohtec": 4003,
      "oteettthn": 4004,
      "ieboello": 4005,
      "toeeaotdeief": 4006,
      "ohatoaieeeatn": 4007,
      "eaieie": 4008,
      "erdeteaieutoouoo": 4009,
      "oodaiea": 4010,
      "oodeief": 4011,
      "eaelost1": 4012,
      "etaieoteatnthoela": 4013,
      "tooieemoteae": 4014,
      "NASA": 4015,
      "eaieieown": 4016,
      "oodeiefeatn": 4017,
      "etototo": 4018,
      "aieoetotn": 4019,
      "eatolotothn": 4020,
      "gteoieemtn": 4021,
      "eatoood": 4022,
      "ietemtc": 4023,
      "oettataoeeeaetaieeesoooo": 4024,
      "ottoooheetc": 4025,
      "ottoottoohaieaeo": 4026,
      "aieeaexxeaeouoo": 4027,
      "eatooodstooeatn": 4028,
      "Ma": 4029,
      "Tube": 4030,
      "aieaotoh": 4031,
      "eaaeethtn": 4032,
      "teoteothneeea": 4033,
      "ooaeaaieeeeto": 4034,
      "aieeaotetc": 4035,
      "aieaeogggaitoemoomoou": 4036,
      "eaeeasoooooohtc": 4037,
      "afaeaaeethtn": 4038,
      "eaohhre": 4039,
      "tmeuaiee": 4040,
      "teoteothneeeaown": 4041,
      "IT": 4042,
      "ce": 4043,
      "the": 4044,
      "eatotmtn": 4045,
      "eatotoe": 4046,
      "etaieeoesttetn": 4047,
      "llooooeloeadtetn": 4048,
      "eaiaaetaieeoesttetn": 4049,
      "eatoaieeemtc": 4050,
      "eaaeedtetn0": 4051,
      "eohaooooeaaeaieea": 4052,
      "afaaieaieeth": 4053,
      "eaieafhnasee": 4054,
      "oeaieeeatotmtn": 4055,
      "egggeadetaieeeto": 4056,
      "eohaooooeaaeaieeatsee": 4057,
      "afaaieaieetheaaeedtetn0": 4058,
      "eiebtn": 4059,
      "etv": 4060,
      "eaagteeaaie": 4061,
      "tseeoohgte": 4062,
      "oetodthaitoetn": 4063,
      "toeeaotder": 4064,
      "aieeetootieer": 4065,
      "Twitter": 4066,
      "Dav": 4067,
      "ev": 4068,
      "qu": 4069,
      "etneaetaiee": 4070,
      "erdooea": 4071,
      "aieieteloeae": 4072,
      "oeeeaieiodiodtnttt": 4073,
      "oohtoto": 4074,
      "oodeeatn0": 4075,
      "oodlololotnttt": 4076,
      "teatoteetn": 4077,
      "etteaf": 4078,
      "toeeaotdeaioteatn": 4079,
      "tkteaeai": 4080,
      "hnoaieaeo": 4081,
      "oeaiaieeaieed": 4082,
      "tkteaeaietmtn": 4083,
      "toaslo": 4084,
      "taaotohaieaieeeto": 4085,
      "eatoeaeaieoheloeae": 4086,
      "eadaieesodsod": 4087,
      "teatoaeai": 4088,
      "oteeetsodsod": 4089,
      "etaieoelotac": 4090,
      "oodaieeetsttaiaae": 4091,
      "oohtototeatoaeai": 4092,
      "oohtototeatoaeaitoaslo": 4093,
      "\",": 4094,
      "Fr": 4095,
      "dtoown": 4096,
      "hta": 4097,
      "etaietaieetea": 4098,
      "aieeaieato": 4099,
      "tastoaie": 4100,
      "tseeeae0": 4101,
      "teoteoaseaie": 4102,
      "ieerodtoown": 4103,
      "ieerodtoown0": 4104,
      "c0": 4105,
      "ion": 4106,
      "eatoteeatn": 4107,
      "oodeaaeto": 4108,
      "oodeeetneeto": 4109,
      "taieeec0": 4110,
      "asaf": 4111,
      "iaetaieee": 4112,
      "teevottootto": 4113,
      "In": 4114,
      "ber": 4115,
      "eaieaseaa": 4116,
      "toeasatn": 4117,
      "erdaedtcasee": 4118,
      "eaaoeteatoeatnetaie": 4119,
      "eatotnrodto": 4120,
      "etaieeasaf": 4121,
      "oodeatotnrodto": 4122,
      "eeadtaiee": 4123,
      "easatoeasatn": 4124,
      "toeeaotdaseaie": 4125,
      "aieaeadaieetstt": 4126,
      "eaieaieaieaseaa": 4127,
      "gteeaettc": 4128,
      "teoteotoeaieaieaieaseaa": 4129,
      "teoteotoeaieaieaieaseaaetaieeeto": 4130,
      "HI": 4131,
      "ug": 4132,
      "aieieeataeeifaea": 4133,
      "eatoeaaie": 4134,
      "eadoetv": 4135,
      "faetasaa": 4136,
      "eaiaaeouoo": 4137,
      "toeeaotdtnaietc": 4138,
      "ooheeaeaiaaeouoo": 4139,
      "YouTube": 4140,
      "Dan": 4141,
      "eaalloooo": 4142,
      "aieas": 4143,
      "oeeeaielloooollooooaieaeo": 4144,
      "eaallooooaitoeaiaae": 4145,
      "eaaiaec": 4146,
      "taieeetc": 4147,
      "erdoeaierto": 4148,
      "eaataieetclo": 4149,
      "tootaieeetc": 4150,
      "oodstaie0": 4151,
      "oetetaieeethn": 4152,
      "teoteoaieae": 4153,
      "oeeeaieteaee": 4154,
      "tvtaieaeoaieeeeto": 4155,
      "htahoetaieeeto": 4156,
      "PA": 4157,
      "yn": 4158,
      "tofatc": 4159,
      "erdaeae": 4160,
      "eatotaoeeeae": 4161,
      "eaeeeb": 4162,
      "aehtectaoee": 4163,
      "eaethre": 4164,
      "eaitfeeoeaiehre": 4165,
      "paotetktttneae": 4166,
      "ooaaotasee": 4167,
      "aehtectaoeeeaeeeb": 4168,
      "aieeethn": 4169,
      "tslo": 4170,
      "thaito": 4171,
      "eatoeaaeeeto": 4172,
      "llooooeaieafteoaiaaeaieeetc": 4173,
      "teater": 4174,
      "eeadthaito": 4175,
      "teetoteatngte": 4176,
      "eaeeasoooohnoaieaeo": 4177,
      "eaitfeetefsoeo": 4178,
      "aieaotohaietcaiee": 4179,
      "aieeaotetc0": 4180,
      "oeaiaieeaieedetaieeeto": 4181,
      "eeadthaitoaieeethn": 4182,
      "John": 4183,
      "Rob": 4184,
      "pp": 4185,
      "aieaeot": 4186,
      "oohtoaiiasaie": 4187,
      "toeeaotdthneeea": 4188,
      "eaeeasoooooeeae": 4189,
      "aieaeeb": 4190,
      "ica": 4191,
      "iaeaieelas": 4192,
      "tootlloetn": 4193,
      "iaeaieelasto": 4194,
      "Car": 4195,
      "erdtneaie": 4196,
      "aieafaetasaa": 4197,
      "oodeaaetcohasa": 4198,
      "llooootaieeasa": 4199,
      "paeteaeasee": 4200,
      "seest": 4201,
      "tneaieaieai": 4202,
      "ooaoetieerodtn": 4203,
      "gggown": 4204,
      "toeeaotdtneaieaieai": 4205,
      "oetiaaee": 4206,
      "teoteotseest": 4207,
      "aieastn": 4208,
      "toeeaotdtneaieaieaieaseaa": 4209,
      "oetaieeaee": 4210,
      "toeae": 4211,
      "ers": 4212,
      "erdoeotaseaaie": 4213,
      "toott": 4214,
      "oodoohtotnaie": 4215,
      "lloooooetaieeaee": 4216,
      "patsteeafa": 4217,
      "oeeeaietnlo": 4218,
      "etaieoohthosc": 4219,
      "taatetn": 4220,
      "thaieaeooooeaaieaieeaieaiee": 4221,
      "etototototn": 4222,
      "lloooooetaieeaeetoeae": 4223,
      "Ch": 4224,
      "ak": 4225,
      "taieai": 4226,
      "toec": 4227,
      "erdhtahn": 4228,
      "erdeeatn0": 4229,
      "eatotetn1": 4230,
      "eadoeaiaieeaieee": 4231,
      "lloooooello": 4232,
      "ieeiee": 4233,
      "eaaeedaieaeeb": 4234,
      "aieeataieeesoooo": 4235,
      "toeeaotdtjaie": 4236,
      "eaitfeethnaie": 4237,
      "eaitfeeotoaoa": 4238,
      "ind": 4239,
      "taieaitoec": 4240,
      "taieaitoecieeiee": 4241,
      "oot": 4242,
      "eaieoteaie": 4243,
      "erdoeloaseetetn": 4244,
      "aieeeaetntc": 4245,
      "ooataieetclo": 4246,
      "oteatoteaeaieown": 4247,
      "afaeaieeeattea": 4248,
      "eaiaaeeertotvtaieaeo": 4249,
      "oteetnst0": 4250,
      "afaeaieeeattea1": 4251,
      "boooo": 4252,
      "paa": 4253,
      "tsaieae": 4254,
      "eaaoetiaaee": 4255,
      "oohoeoteaseeexeceee": 4256,
      "oohaeertohn": 4257,
      "oodaiiasaie": 4258,
      "oodtoott": 4259,
      "gteoest": 4260,
      "ieeaaseethnaie": 4261,
      "aieeetoetasee": 4262,
      "ohaooooetasaa": 4263,
      "aieaeoaiiasaie": 4264,
      "ottoaehtecaieaeaiaae": 4265,
      "eaaetaieouoo": 4266,
      "CEO": 4267,
      "eaaoetiaaeeboooo": 4268,
      "oodtootteae": 4269,
      "An": 4270,
      "taoteetnsc": 4271,
      "taieeoesttetn": 4272,
      "etnst": 4273,
      "erdtotoeae": 4274,
      "aieoohthnaie": 4275,
      "eatotjhn": 4276,
      "oodetnaieec": 4277,
      "tseeoohthosc": 4278,
      "oseaie": 4279,
      "eaettcaiee": 4280,
      "aieaeadaeae": 4281,
      "tooieemoseaie": 4282,
      "oteetnteer": 4283,
      "eaeoheteatotjhn": 4284,
      "amp": 4285,
      "aotetmoheaieeea": 4286,
      "eoteaiee": 4287,
      "ff": 4288,
      "gteeae": 4289,
      "tatv0": 4290,
      "eatoeaieafteoaiaaeaieeetc": 4291,
      "eatoheaaeedtetn": 4292,
      "aietfaafa": 4293,
      "tttmon": 4294,
      "aieaeadtooteatn": 4295,
      "afaietfaafa": 4296,
      "eoteaieeea": 4297,
      "gteeaexxeae": 4298,
      "afaietfaafa0": 4299,
      "aieerto": 4300,
      "toaieerto": 4301,
      "eeatotetn": 4302,
      "etopa": 4303,
      "eaaaiaaeeaetaiee": 4304,
      "oodtmostaieae": 4305,
      "aieaeoet": 4306,
      "taseeeteaieaieaief": 4307,
      "teevtnst": 4308,
      "iecieceaaeto": 4309,
      "eaeeae1": 4310,
      "afaeteaeeae1": 4311,
      "oteaitfeeetopa": 4312,
      "David": 4313,
      "paatoaieerto": 4314,
      "BM": 4315,
      "di": 4316,
      "eatohottneaieote": 4317,
      "oeeeaieoteieeaatn": 4318,
      "aeadtceatn": 4319,
      "eaaegggeae": 4320,
      "toeeaotdoeotohoest": 4321,
      "aieaieeeb": 4322,
      "aieatotetn": 4323,
      "ine": 4324,
      "gteeaieatotetn": 4325,
      "aseaaar": 4326,
      "aieeaieatoar": 4327,
      "IM": 4328,
      "Sc": 4329,
      "erson": 4330,
      "erdeetn": 4331,
      "erdiecieceaaeto": 4332,
      "eaalololotnttt": 4333,
      "oodoeaierto": 4334,
      "aexxeae": 4335,
      "eaaaieetstof": 4336,
      "thaieaeooooeaettcaiee": 4337,
      "eaeohaexxeae": 4338,
      "Ar": 4339,
      "ooaieeaasee": 4340,
      "taetnotaieerto": 4341,
      "erdfsoeo": 4342,
      "erdaaoteoteeetn": 4343,
      "eadtaieeesoooo": 4344,
      "eadetneeb": 4345,
      "oeeeaieoeaierto": 4346,
      "oodoeote": 4347,
      "oodtootlloetn": 4348,
      "oodeadtaieeesoooo": 4349,
      "llooooeaieeaoero": 4350,
      "asatvo": 4351,
      "odthtnemvo": 4352,
      "afataeeexaieeeto": 4353,
      "tnlosodsod": 4354,
      "taaeaieeeto": 4355,
      "ohatottt": 4356,
      "aiaaeeaeeasoooo": 4357,
      "eaaoodaieeetstt": 4358,
      "aieaeooeoteaieeea": 4359,
      "aieeeertotllorto": 4360,
      "ooaieeaaseeoeto": 4361,
      "erdietn0": 4362,
      "thtahn": 4363,
      "ooder": 4364,
      "tseeeaiaaegte": 4365,
      "tnstaiaae": 4366,
      "toeeaotdtsaie": 4367,
      "eaeeasoooothnaie": 4368,
      "aieeaeoteeeaown": 4369,
      "tvo0": 4370,
      "tktottn": 4371,
      "hohohohn": 4372,
      "aieeeeaaaieae": 4373,
      "--": 4374,
      ".\"": 4375,
      "BC": 4376,
      "CO": 4377,
      "Pa": 4378,
      "The": 4379,
      "oeeeaietneeae": 4380,
      "eaieaeeae": 4381,
      "aietnoh": 4382,
      "aieaeaieaeaieaeeae": 4383,
      "HIV": 4384,
      "eeatotetnetaieeaee": 4385,
      "KB": 4386,
      "tnoetofaaslo": 4387,
      "eaaaiaaee": 4388,
      "eaaotasatotetn": 4389,
      "oeeeaieietn0": 4390,
      "tseeeaieeaoero": 4391,
      "toeeaotdtaeedtjhn": 4392,
      "aotasaietetn": 4393,
      "ttotn": 4394,
      "eaitfeeeaethre": 4395,
      "ley": 4396,
      "oohaieegte": 4397,
      "taatetnouoo": 4398,
      "eaaaiaaeetouto": 4399,
      "Ge": 4400,
      "MIT": 4401,
      "ah": 4402,
      "etaieatot": 4403,
      "eatotodcto": 4404,
      "oetemtc": 4405,
      "oeteaaieeeatsee": 4406,
      "tseethnaie": 4407,
      "etno1": 4408,
      "DH": 4409,
      "taeaieaeeaieaee": 4410,
      "erdloteetn": 4411,
      "eaateaieeaee": 4412,
      "eaaoef": 4413,
      "etaieetaieeeto": 4414,
      "oodouoto": 4415,
      "aieaietv": 4416,
      "asaoeoteaieeuto": 4417,
      "teadsac": 4418,
      "atotaoeeeae": 4419,
      "ang": 4420,
      "eaeeeloieeeea": 4421,
      "BG": 4422,
      "DA": 4423,
      "Mc": 4424,
      "etaier": 4425,
      "taoettaero": 4426,
      "erdeaieeaoero": 4427,
      "eadeaeaaaieeeto": 4428,
      "oodeaeeadeaeetc": 4429,
      "oodaieaieaieeatn": 4430,
      "ieeaaseeouoo": 4431,
      "htn0": 4432,
      "eaieetnteeae": 4433,
      "eaaieoeoteea": 4434,
      "ohatoieetaie": 4435,
      "tsfattsfathtahn": 4436,
      "etaierhtn0": 4437,
      "Ab": 4438,
      "CD": 4439,
      "SP": 4440,
      "Sh": 4441,
      "Su": 4442,
      "op": 4443,
      "aieetc": 4444,
      "aieeaier": 4445,
      "erdtneaieaietoto": 4446,
      "erdtsaie": 4447,
      "eaataoeeeaeoooo": 4448,
      "tcteato": 4449,
      "rtoaieetc": 4450,
      "oodeatn": 4451,
      "ohatooe": 4452,
      "oteertoaieetc": 4453,
      "eaaelrt": 4454,
      "oohtoteaee": 4455,
      "aieaeoeaaefeatn": 4456,
      "ottoaiaaetsaieaeo": 4457,
      "eaaoodoef": 4458,
      "tcteatoetaieeeto": 4459,
      "ohatooeoteertoaieetc": 4460,
      "ky": 4461,
      "ld": 4462,
      "tost": 4463,
      "etneaieaietoto": 4464,
      "oodeaioeaiooetiaaeemtc": 4465,
      "paeasto": 4466,
      "toeeaotdteaieeeae": 4467,
      "toeeaotdtnoho": 4468,
      "tooieemollolloetouto": 4469,
      "tostetaieeeto": 4470,
      "paeastof": 4471,
      "PM": 4472,
      "go": 4473,
      "ni": 4474,
      "aietaieee": 4475,
      "toeatoo": 4476,
      "llooooatot": 4477,
      "gteoohetktttn": 4478,
      "oodtsteeafa": 4479,
      "thtseeastteeaaieaeo": 4480,
      "eaaaieeetnrooo": 4481,
      "paotetktttoown": 4482,
      "——": 4483,
      "taetototn": 4484,
      "erdaieeeae1": 4485,
      "eaeaetnaotasaie": 4486,
      "faetthooeroeatn": 4487,
      "teoteotaieieeasa": 4488,
      "ietaieoeoteeaoeeeaie": 4489,
      "erdtteaoeeeaie": 4490,
      "ent": 4491,
      "oeaieaethn": 4492,
      "ID": 4493,
      "aieeoheaieeea": 4494,
      "eatoeaeaieeeto": 4495,
      "toeeaotdeaeheaeeaieero": 4496,
      "toeeaotdaiiasaie": 4497,
      "aeeeaeeeoetn": 4498,
      "toeatooar": 4499,
      "RNA": 4500,
      "SE": 4501,
      "St": 4502,
      "eaaieea": 4503,
      "aieaeaieieown": 4504,
      "etaieeaa": 4505,
      "oeoteaieeaieaieeeto": 4506,
      "toeeaotdthoaie": 4507,
      "aieaeadaieaieaieeatn": 4508,
      "tootktteaaaieeetn": 4509,
      "ord": 4510,
      "aieeoheaieeea0": 4511,
      "eaaieeataeeifaea": 4512,
      "\".": 4513,
      "Am": 4514,
      "Lin": 4515,
      "MA": 4516,
      "erdtaeetotoieeohaieeetc": 4517,
      "eaathneeeaown": 4518,
      "etaeerto": 4519,
      "etaieeotea": 4520,
      "ttatoeeaotd": 4521,
      "aieaieaee": 4522,
      "ottotsiec": 4523,
      "tmetaieeeto": 4524,
      "oeaieohaieasee": 4525,
      "toooooetneaieaietoto": 4526,
      "aietaieeeetno": 4527,
      "aeaitoooooetneaieaietoto": 4528,
      "ttatoeeaotdeer": 4529,
      "aieaieaeemtn": 4530,
      "Ste": 4531,
      "aw": 4532,
      "cy": 4533,
      "ith": 4534,
      "ri": 4535,
      "aieeeaioeaiooetiaaeemtc": 4536,
      "eaateatngte": 4537,
      "eatoc": 4538,
      "eatotseetsee": 4539,
      "etaoe": 4540,
      "oodaeaie": 4541,
      "oodaieeeae1": 4542,
      "etaoaiaae": 4543,
      "oeaietmtn": 4544,
      "teevoohgte": 4545,
      "gteeahn": 4546,
      "iPod": 4547,
      "BF": 4548,
      "LED": 4549,
      "aoot": 4550,
      "toooo": 4551,
      "eetmetaieeeto": 4552,
      "asaa": 4553,
      "eaaeasatoto": 4554,
      "eatoeaieaieaief": 4555,
      "eadthtn": 4556,
      "oodteaeaie": 4557,
      "eeadaotaieeeto": 4558,
      "toeeaotdaoot": 4559,
      "afalotothn": 4560,
      "tktieemtn": 4561,
      "ttaaeaeaetn": 4562,
      "tevown": 4563,
      "ram": 4564,
      "oodieteaaetotjhn": 4565,
      "aeaitoooo": 4566,
      "Anderson": 4567,
      "BA": 4568,
      "Bar": 4569,
      "Ed": 4570,
      "Ro": 4571,
      "Rich": 4572,
      "Sp": 4573,
      "oeatotoe": 4574,
      "ux": 4575,
      "aieoteatn": 4576,
      "aieaeeae": 4577,
      "ttar": 4578,
      "aieteote": 4579,
      "teeetc": 4580,
      "ooataiaae": 4581,
      "oeoteaseeexec": 4582,
      "aiaae0": 4583,
      "oeoteetttmon": 4584,
      "oodtoteatnaieae": 4585,
      "eaieafhneaieote": 4586,
      "aieaeooteeetc": 4587,
      "etottnaiaae": 4588,
      "aieeaethre": 4589,
      "aieaeeaeheaeeaieero": 4590,
      "aieteoteoeatotoe": 4591,
      "oeoteaseeexecee": 4592,
      "oeoteetttmonoeoteea": 4593,
      "Jos": 4594,
      "Jim": 4595,
      "ootieer": 4596,
      "eaefa": 4597,
      "erdetsc": 4598,
      "eaaeaieaeto": 4599,
      "eaaaiaaellooootaoeeeae": 4600,
      "eadaehtec": 4601,
      "oodoheaieeea": 4602,
      "lloooooest": 4603,
      "gteoetodteetn": 4604,
      "tseeetaoe": 4605,
      "aieeetoaieetstt": 4606,
      "ooaeaieatothaieeeto": 4607,
      "ieteaefa": 4608,
      "eaeeasoooototn": 4609,
      "ottotaeieeeadtjhn": 4610,
      "efeatn": 4611,
      "paeteaeaseeeae": 4612,
      "etaeertouto": 4613,
      "eadaehtecaaote": 4614,
      "Bill": 4615,
      "Cr": 4616,
      "Har": 4617,
      "Stev": 4618,
      "ath": 4619,
      "de": 4620,
      "ph": 4621,
      "erdeaeeadeaeetc": 4622,
      "eaatefsoeo": 4623,
      "tcoooo": 4624,
      "oeeeaieoohaieee": 4625,
      "aieeetohn": 4626,
      "eaieaedtcoooo": 4627,
      "eetuto": 4628,
      "edia": 4629,
      "tseeoteetnrodto": 4630,
      "eatocllorto": 4631,
      "ata": 4632,
      "all": 4633,
      "detaieeeto": 4634,
      "ric": 4635,
      "tuto": 4636,
      "otho": 4637,
      "oeetuto": 4638,
      "eaaeatne": 4639,
      "tooh": 4640,
      "otestaie": 4641,
      "aiethn": 4642,
      "tathotho": 4643,
      "eaiaadetaieeeto": 4644,
      "eaetaieeoooo": 4645,
      "eaeaieotestaie": 4646,
      "oetodtaeieeahn": 4647,
      "eutoar": 4648,
      "tktooh": 4649,
      "totnttea": 4650,
      "tooieemoeaeeadeaeetc": 4651,
      "aehtecaieaeaiaadetaieeeto": 4652,
      "aieeetoeetuto": 4653,
      "gteeiebtn": 4654,
      "Cor": 4655,
      "Em": 4656,
      "Han": 4657,
      "ny": 4658,
      "otastoaie": 4659,
      "pe": 4660,
      "qe": 4661,
      "aieeut": 4662,
      "erdotasatotetn": 4663,
      "erdoteaitfeeetopa": 4664,
      "etcotc": 4665,
      "llooooeetuto": 4666,
      "teatoetcotc": 4667,
      "aieaehtec": 4668,
      "teoteoeaaeaieaeto": 4669,
      "oohtotaieeoesttetn": 4670,
      "aiiohaseeoeltto": 4671,
      "teoteotootieer": 4672,
      "etkttotn": 4673,
      "aeaqe": 4674,
      "erdaiest": 4675,
      "ottooeotastoaie": 4676,
      "tsfattsfattaoeeeae": 4677,
      "teatoetcotcaiee": 4678,
      "Ad": 4679,
      "IBM": 4680,
      "Tom": 4681,
      "li": 4682,
      "per": 4683,
      "teae": 4684,
      "ver": 4685,
      "aieaieeaee": 4686,
      "aieets": 4687,
      "art": 4688,
      "aieeetoeaeaiaaeaieeeto": 4689,
      "ooaeaohhre": 4690,
      "faetgte": 4691,
      "oetodthn": 4692,
      "oetodeaaieeeetoetaieeeto": 4693,
      "ottoatot": 4694,
      "gteeaeaieoteaie": 4695,
      "ins": 4696,
      "aieetsttar": 4697,
      "20": 4698,
      "DV": 4699,
      "Gr": 4700,
      "My": 4701,
      "Ne": 4702,
      "eteae": 4703,
      "taeloeae": 4704,
      "taeteae": 4705,
      "erdatot": 4706,
      "staieaieeeto": 4707,
      "llooooetaiaaeee": 4708,
      "lloooooetotn": 4709,
      "oeeeaieth": 4710,
      "toeeaotdaieetstt": 4711,
      "taie1": 4712,
      "teatotoottaeiee": 4713,
      "teeafaeae": 4714,
      "ooheeaaetnerto": 4715,
      "eaastaie1": 4716,
      "oetrtoeta": 4717,
      "Richard": 4718,
      "tktoohero": 4719,
      "DVD": 4720,
      "MT": 4721,
      "nt": 4722,
      "sha": 4723,
      "eeeaeee": 4724,
      "tofa": 4725,
      "taetaie0": 4726,
      "etnrooo": 4727,
      "erdtneeaaie": 4728,
      "eaaetniec": 4729,
      "eatoeaaeedpa": 4730,
      "ohtotnaie": 4731,
      "eaieeeahohohohn": 4732,
      "ooaotaiaoteaiee": 4733,
      "oeotet": 4734,
      "aieaeoeeaeasee": 4735,
      "aieaeoeaaeasatoto": 4736,
      "oetodteatoar": 4737,
      "toeeaotdtso": 4738,
      "ottothtaeiee": 4739,
      "ottooohtotnaie": 4740,
      "eteemtnasee": 4741,
      "ank": 4742,
      "eeaesttetnoooo": 4743,
      "aieaeoteaewn": 4744,
      "etaieeaaefeatn": 4745,
      "oeeeaiethetsc": 4746,
      "AA": 4747,
      "PC": 4748,
      "RM": 4749,
      "ame": 4750,
      "aieta": 4751,
      "eaiehrd": 4752,
      "erdaieatoe": 4753,
      "eatoaseaa": 4754,
      "tch": 4755,
      "eadoetieeaaie": 4756,
      "oodieemoeltc": 4757,
      "oodaieeeaaetnrodto": 4758,
      "oodotetoaiaae": 4759,
      "oodteae": 4760,
      "eeadetkttotn": 4761,
      "oetoeaiehrd": 4762,
      "ietttateaieethn": 4763,
      "toeeaotdieteaaie": 4764,
      "ttatotoaetneaaeee": 4765,
      "faetthooerorhtn": 4766,
      "ottotaieeeeae": 4767,
      "eatoottn": 4768,
      "Paul": 4769,
      "oodteaeifaea": 4770,
      "oetoeaiehrdpa": 4771,
      "Co": 4772,
      "Ted": 4773,
      "Wik": 4774,
      "bo": 4775,
      "ge": 4776,
      "se": 4777,
      "ve": 4778,
      "erdeaaeaieeetotaoeeeae": 4779,
      "tseeeaohhre": 4780,
      "etaieieerodtn": 4781,
      "aiiohaseeooheaaaieeetco": 4782,
      "ron": 4783,
      "aieeeatot": 4784,
      "ice": 4785,
      "hir": 4786,
      "ike": 4787,
      "Georg": 4788,
      "TK": 4789,
      "io": 4790,
      "tube": 4791,
      "een": 4792,
      "aieeteta": 4793,
      "tatefsoeo": 4794,
      "eatoeaieaaeaiee": 4795,
      "paeaetothn": 4796,
      "tseec": 4797,
      "asaoeoteaieeaee": 4798,
      "eaeeeaeeef": 4799,
      "aieeaaeaieeetn": 4800,
      "nes": 4801,
      "CM": 4802,
      "CRI": 4803,
      "if": 4804,
      "ke": 4805,
      "of": 4806,
      "aieeetnst": 4807,
      "eaioteaeeoooo": 4808,
      "oteer": 4809,
      "ottoto": 4810,
      "eatoieeaasee": 4811,
      "eadeotea": 4812,
      "taieeaee": 4813,
      "oodaieeeatot": 4814,
      "gteoiet": 4815,
      "aietoo": 4816,
      "aietaieteetn": 4817,
      "eatoeatngte": 4818,
      "aehtecoetn": 4819,
      "oetodoteeetnoieemto": 4820,
      "oetodieeaaseetsee": 4821,
      "eaeeasoooosac": 4822,
      "thaietcst": 4823,
      "ohatoeaaaiaaeetouto": 4824,
      "eaaeaieeatatc": 4825,
      "tootkttieemtn": 4826,
      "eaeeatouto": 4827,
      "aieeeeaaoheetktttn": 4828,
      "Linux": 4829,
      "ottotoetasa": 4830,
      "eatoieeaaseeaieaie": 4831,
      "Mich": 4832,
      "Uber": 4833,
      "teaieatn": 4834,
      "ett": 4835,
      "oeeteaieuto": 4836,
      "erdtsteeafa": 4837,
      "eaatseeoteetnrodto": 4838,
      "oeohaooooetasaa": 4839,
      "eatoeaetothn": 4840,
      "eadoest": 4841,
      "paeeta": 4842,
      "ael": 4843,
      "aieaeoeohaooooetasaa": 4844,
      "tvoteer": 4845,
      "emetaieeeto": 4846,
      "oteatoaieaieeadoeroe": 4847,
      "eaaeedhngte": 4848,
      "toeeaotdaieaie": 4849,
      "men": 4850,
      "oeoteeteaieatn": 4851,
      "eaeeasooootaa": 4852,
      "eaeoteeatvoteer": 4853,
      "oodooheattaieeeto": 4854,
      "taiaaeieemoero": 4855,
      "ink": 4856,
      "ottooello": 4857,
      "SPR": 4858,
      "oodeatnaieee": 4859,
      "aeaitoooooeeteaieuto": 4860,
      "aieaehtecaafaee": 4861,
      "aietootaiaaeieemoero": 4862,
      "FO": 4863,
      "Jac": 4864,
      "ht": 4865,
      "ust": 4866,
      "etneaeeae": 4867,
      "eaeb": 4868,
      "erdieeaaseeeaioteato": 4869,
      "eatoeatoottn": 4870,
      "oodiebta": 4871,
      "teaeeasoooo": 4872,
      "oohtoeetoaieeetc": 4873,
      "tkteaeeasoooo": 4874,
      "teatntc": 4875,
      "hohrthaietktttn": 4876,
      "ottotaieellolloeatn": 4877,
      "eaieoteown": 4878,
      "ino": 4879,
      "Steve": 4880,
      "CRISPR": 4881,
      "BI": 4882,
      "CP": 4883,
      "Ev": 4884,
      "Jon": 4885,
      "Le": 4886,
      "Pet": 4887,
      "az": 4888,
      "iz": 4889,
      "aieeetoto": 4890,
      "taetn": 4891,
      "taotaiaoteaiee": 4892,
      "ttoo": 4893,
      "eatotneeae": 4894,
      "eadeaseeao": 4895,
      "san": 4896,
      "ohtc": 4897,
      "oodiebodiebod": 4898,
      "iel": 4899,
      "eeadtetn": 4900,
      "ieeaaseeeaeeasoooo": 4901,
      "teoteoaieeeetn": 4902,
      "taeieeaieaest": 4903,
      "eaitfeeoeaieaieeeaaetmtn": 4904,
      "hohrtastoaie": 4905,
      "teevoeltto": 4906,
      "eaieotdeaeloaiaae": 4907,
      "ottoeaaeto": 4908,
      "lltoieemopatasaie": 4909,
      "eaaeeetofst": 4910,
      "teoteoood": 4911,
      "eeeaaeeeafaeaieotdeaeloaiaae": 4912,
      "ttsoeoeaieafteoaiaae": 4913,
      "ipedia": 4914,
      "eeadtaieeetaie": 4915,
      "aieaeoeteaaaieeasado": 4916,
      "Wikipedia": 4917,
      "aieeetotohn": 4918,
      "Ben": 4919,
      "Net": 4920,
      "pha": 4921,
      "sh": 4922,
      "ull": 4923,
      "aieaaeaiee": 4924,
      "aieeaieaaeaiee": 4925,
      "ott": 4926,
      "erdaieeut": 4927,
      "eatohohrtastoaie": 4928,
      "eadeohaooooeaaeaieeatsee": 4929,
      "llooooiaeaieela": 4930,
      "gteoeaieoher": 4931,
      "oeeeaieaiea": 4932,
      "tseeero": 4933,
      "ooathtseeastteea": 4934,
      "eaitfeetc": 4935,
      "aieaeoeae": 4936,
      "oetodiaec": 4937,
      "etooetoo": 4938,
      "tkteaaaieaietaoeeeae": 4939,
      "tooieemoth": 4940,
      "tkteeaeown": 4941,
      "Abed": 4942,
      "oeeeaieaieaeaieieown": 4943,
      "eaitfeetcaiee": 4944,
      "App": 4945,
      "Pete": 4946,
      "Sha": 4947,
      "ria": 4948,
      "ean": 4949,
      "ton": 4950,
      "tott": 4951,
      "teuto": 4952,
      "teaaiear": 4953,
      "paeaeaetn": 4954,
      "aieeetoeutoeuto": 4955,
      "gteaieouoo": 4956,
      "toeeaotdteaeaaee": 4957,
      "aiiohaseeoetv": 4958,
      "eaieaieaieftjhn": 4959,
      "taeuoaioteaeeoooo": 4960,
      "thaietcoown": 4961,
      "iodiodtott": 4962,
      "eaatseaieaieae": 4963,
      "eaaaieaietaoeeeaest": 4964,
      "eaieafhnaieeeto": 4965,
      "eatoeeetn": 4966,
      "les": 4967,
      "George": 4968,
      "iodiodtottteuto": 4969,
      "Fl": 4970,
      "IP": 4971,
      "Par": 4972,
      "RA": 4973,
      "Ros": 4974,
      "ST": 4975,
      "Sky": 4976,
      "up": 4977,
      "wa": 4978,
      "erdietoteeta": 4979,
      "eatoaeertohn": 4980,
      "aieeeooheeeaaie": 4981,
      "teadeae": 4982,
      "tktaieeaee": 4983,
      "aietn0": 4984,
      "oodoohtaeieetsoooo": 4985,
      "erdtteathtn": 4986,
      "aieeaatn": 4987,
      "our": 4988,
      "Alex": 4989,
      "taietaieoeoteea": 4990,
      "tooieemothtaeiee": 4991,
      "eatoeeetntaeiee": 4992,
      "EC": 4993,
      "El": 4994,
      "La": 4995,
      "OL": 4996,
      "Pan": 4997,
      "TI": 4998,
      "Will": 4999,
      "aieer": 5000,
      "erdeaeteb": 5001,
      "erdtaieeesafa": 5002,
      "eatoeaieafteoaiaae": 5003,
      "teeea": 5004,
      "aieaeadoetotn": 5005,
      "eaeeasoooooeltto": 5006,
      "aietaieesoooo": 5007,
      "rew": 5008,
      "Mary": 5009,
      "JA": 5010,
      "Jo": 5011,
      "Mac": 5012,
      "NG": 5013,
      "OK": 5014,
      "Pr": 5015,
      "She": 5016,
      "ba": 5017,
      "da": 5018,
      "ib": 5019,
      "ker": 5020,
      "mteec": 5021,
      "aieeoeteaaeaieaeto": 5022,
      "eaataithoeouoo": 5023,
      "eaaeaieaedtcoooo": 5024,
      "eadeaieaeeaieaee": 5025,
      "etauto": 5026,
      "oodhottniebtjho": 5027,
      "oodetno0": 5028,
      "ster": 5029,
      "llooooaiaaeeaeoteea": 5030,
      "gteoteieeaatn": 5031,
      "teemteec": 5032,
      "ieeaaseeietaieoeoteea": 5033,
      "iebttmon": 5034,
      "iebeadeaieaeeaieaee": 5035,
      "eaeaetntnttt": 5036,
      "tjhotneeaote": 5037,
      "othnaie": 5038,
      "oeeeaieeetauto": 5039,
      "aieaeoeaaietsee": 5040,
      "toeeaotdeaeb": 5041,
      "hrdtsiec": 5042,
      "eaeeasoooohn": 5043,
      "taeieetjhotneeaote": 5044,
      "oefgte": 5045,
      "afaeaaieeeetoetaieeeto": 5046,
      "oodtoetasee": 5047,
      "teecteemteec": 5048,
      "eff": 5049,
      "aieaeoottoo": 5050,
      "tooieemoeaaeee": 5051,
      "aieeetothnaie": 5052,
      "tneaseearown": 5053,
      "Alpha": 5054,
      "aaoteoteeataeieetjhotneeaote": 5055,
      "CO2": 5056,
      "He": 5057,
      "JC": 5058,
      "Jeff": 5059,
      "Pi": 5060,
      "car": 5061,
      "ko": 5062,
      "ly": 5063,
      "loo": 5064,
      "lan": 5065,
      "ps": 5066,
      "ure": 5067,
      "ain": 5068,
      "eaattaafaetytetn": 5069,
      "oeeeaiehoaseea": 5070,
      "oodtwn": 5071,
      "oodhottneaieote": 5072,
      "llooooafatseetsee": 5073,
      "paoohtc": 5074,
      "otos": 5075,
      "aieeeheaaeedtetn": 5076,
      "eron": 5077,
      "tv1": 5078,
      "ooaaieeetoar": 5079,
      "oeeeaiethoo": 5080,
      "fste": 5081,
      "afaeaieote": 5082,
      "ottotaieeeouoo": 5083,
      "ohatotsiec": 5084,
      "ect": 5085,
      "hen": 5086,
      "eaaeaieeataeaieetn": 5087,
      "ana": 5088,
      "ity": 5089,
      "Youtube": 5090,
      "quot": 5091,
      "Robert": 5092,
      "aieaeoettaieerto": 5093,
      "aieaieeebpa": 5094,
      "aietnohouoo": 5095,
      "SETI": 5096,
      "oeoteaseeexeceeeeae": 5097,
      "ames": 5098,
      "CMU": 5099,
      "Michael": 5100,
      "Peter": 5101,
      "oeeeaiethooteeafa": 5102,
      "Bu": 5103,
      "Bay": 5104,
      "CL": 5105,
      "Jul": 5106,
      "Sto": 5107,
      "Tr": 5108,
      "erdaieeeea": 5109,
      "erdeteaeeae": 5110,
      "erdieeaaseethnaie": 5111,
      "eaaetnrooo": 5112,
      "aieoeltto": 5113,
      "eatosodsod": 5114,
      "oohetaiee": 5115,
      "oodetteatoteatnaeae": 5116,
      "eeadtaieetclo": 5117,
      "teatotaoeeeae": 5118,
      "teatotseaeaie": 5119,
      "eaieeeaooheeeaaie": 5120,
      "aieaeadoteaitfeeero": 5121,
      "gteth": 5122,
      "eck": 5123,
      "taieetcloo": 5124,
      "eaatnta": 5125,
      "tooieemoeaaietsee": 5126,
      "ohaooteeea": 5127,
      "end": 5128,
      "ens": 5129,
      "ore": 5130,
      "Alice": 5131,
      "ive": 5132,
      "athan": 5133,
      "aiethnaie": 5134,
      "tootkttieemtnouoo": 5135,
      "oohetaieeetnst": 5136,
      "taieetcloooea": 5137,
      "00": 5138,
      "AT": 5139,
      "ES": 5140,
      "MRI": 5141,
      "PI": 5142,
      "SD": 5143,
      "Wi": 5144,
      "co": 5145,
      "han": 5146,
      "ji": 5147,
      "ling": 5148,
      "mst": 5149,
      "teaioteaeeoooo": 5150,
      "aieeeeatn0": 5151,
      "tan": 5152,
      "taetoeaier": 5153,
      "eatoeasto": 5154,
      "staieown": 5155,
      "paaieaieeeto": 5156,
      "elotac": 5157,
      "eatooelotac": 5158,
      "ooataoeeeae": 5159,
      "easa0": 5160,
      "aieaeadafatseetsee": 5161,
      "iodiodoetotoea": 5162,
      "ony": 5163,
      "ess": 5164,
      "iPad": 5165,
      "Skype": 5166,
      "Ac": 5167,
      "CT": 5168,
      "DJ": 5169,
      "Lo": 5170,
      "RS": 5171,
      "afaa": 5172,
      "do": 5173,
      "oieemopa": 5174,
      "taiaaeeaeoteea": 5175,
      "eteaeaieotdero": 5176,
      "erdfaafa": 5177,
      "oodeaseeao": 5178,
      "oodaeertohn": 5179,
      "oodeasa0": 5180,
      "llooooiodiodtnttt": 5181,
      "oeteatoaieee": 5182,
      "eatooeteaeaieotdero": 5183,
      "teoteooet": 5184,
      "iam": 5185,
      "oeotetkttto": 5186,
      "oetodtnttt": 5187,
      "teetotetnaieasaie": 5188,
      "eaaaieetsee": 5189,
      "ttooheatn": 5190,
      "taeaaetaseeaouoo": 5191,
      "taieieasa": 5192,
      "rdu": 5193,
      "Mart": 5194,
      "teoteooodeaieeaoero": 5195,
      "aieaeoottoottooheatn": 5196,
      "afaaotasee": 5197,
      "teoteooetoteieeaatn": 5198,
      "oeotetktttotjhn": 5199,
      ",\"": 5200,
      "Ardu": 5201,
      "Ber": 5202,
      "CN": 5203,
      "Ho": 5204,
      "Ka": 5205,
      "LG": 5206,
      "Pro": 5207,
      "Rom": 5208,
      "Sm": 5209,
      "Sam": 5210,
      "Wor": 5211,
      "Zip": 5212,
      "hettooeeeaie": 5213,
      "ais": 5214,
      "ash": 5215,
      "eaaeaier": 5216,
      "eaaoest": 5217,
      "eaahohrt": 5218,
      "eadtsoe": 5219,
      "aieaf": 5220,
      "oodeeae": 5221,
      "eatnaie": 5222,
      "ooaeteaeasee": 5223,
      "aieeahn": 5224,
      "toeeaotdthtn": 5225,
      "ohaoeaeaieoteaie": 5226,
      "oteaseearoooo": 5227,
      "ohatoiodiodtaiee": 5228,
      "aieaeooeotohoest": 5229,
      "ics": 5230,
      "Brun": 5231,
      "staieown1": 5232,
      "For": 5233,
      "IN": 5234,
      "James": 5235,
      "Mon": 5236,
      "SM": 5237,
      "Sar": 5238,
      "Usha": 5239,
      "Ven": 5240,
      "by": 5241,
      "e1": 5242,
      "hu": 5243,
      "taieteetn": 5244,
      "ura": 5245,
      "une": 5246,
      "aieeaieeeaaetnrodto": 5247,
      "loeaiee": 5248,
      "erdeaaeto": 5249,
      "aiehrdc": 5250,
      "etaeeeaeee": 5251,
      "oeeeaieoeotet": 5252,
      "llooootseaeaie": 5253,
      "eloloeaiee": 5254,
      "tsee0": 5255,
      "aieeaaiaiee": 5256,
      "aieeaeaieoteaie": 5257,
      "toeeaotdaieae0": 5258,
      "oteafa": 5259,
      "etaieieteaaemtn": 5260,
      "tottn": 5261,
      "etholoaie": 5262,
      "llooooasoteafa": 5263,
      "oietaeeeaeee": 5264,
      "aieaieee1": 5265,
      "oetnllorto": 5266,
      "eaaietcar": 5267,
      "ietaotasee": 5268,
      "ina": 5269,
      "TEDx": 5270,
      "eaeeelottttttetaieeeto": 5271,
      "oteaitfeeetn": 5272,
      "eatoohtc": 5273,
      "olf": 5274,
      "Andrew": 5275,
      "berg": 5276,
      "aieaieeebetaieeeto": 5277,
      "asaaeaieeeto": 5278,
      "Ushahi": 5279,
      "oeeeaieoeotetttt": 5280,
      "aieeaaiaieepa": 5281,
      "Cl": 5282,
      "Cha": 5283,
      "IC": 5284,
      "RD": 5285,
      "Re": 5286,
      "WK": 5287,
      "Wal": 5288,
      "Wolf": 5289,
      "est": 5290,
      "ellorto": 5291,
      "eBay": 5292,
      "eeeaieeeto": 5293,
      "ail": 5294,
      "ooae": 5295,
      "oothre": 5296,
      "otoothre": 5297,
      "eaaeaitfe": 5298,
      "aieeeaetaiee": 5299,
      "oher": 5300,
      "ohetktttn": 5301,
      "oohtoo": 5302,
      "oohfaet": 5303,
      "etaieepa": 5304,
      "oodaieaaiee": 5305,
      "oodoesttehaetn": 5306,
      "oodtneaseaa": 5307,
      "teead": 5308,
      "llooooaieea": 5309,
      "ies": 5310,
      "tseeeeeaieeeto": 5311,
      "eaieeeatetnaieasaie": 5312,
      "eaieeeaoeloaseetetn": 5313,
      "eaeaetnao": 5314,
      "eohaooooeatoaieee": 5315,
      "aieeaetaieepa": 5316,
      "oetodietaieoeoteea": 5317,
      "toeeaotdtaoeeeae": 5318,
      "toeeaotdieeataeeifaea": 5319,
      "mat": 5320,
      "teatooohetktttn": 5321,
      "thaieaeooooeaeeae": 5322,
      "otefatthtn": 5323,
      "aieeetoooher": 5324,
      "aieetstofown": 5325,
      "tmotsaotoothre": 5326,
      "ooaaotetc": 5327,
      "ttaafaellorto": 5328,
      "Danny": 5329,
      "aieaeoterduto": 5330,
      "Char": 5331,
      "Susan": 5332,
      "Jose": 5333,
      "William": 5334,
      "Arduino": 5335,
      "Romo": 5336,
      "Ushahidi": 5337,
      "aieeeaetaiee1": 5338,
      "tseeeeeaieeetouo": 5339,
      "ttaafaellortotetn": 5340,
      "Con": 5341,
      "HA": 5342,
      "Kar": 5343,
      "MO": 5344,
      "Mic": 5345,
      "N1": 5346,
      "No": 5347,
      "Nic": 5348,
      "Ver": 5349,
      "bert": 5350,
      "din": 5351,
      "ius": 5352,
      "ka": 5353,
      "uk": 5354,
      "aig": 5355,
      "eaaeaaeee": 5356,
      "eatoetn1": 5357,
      "eatopaeteaeasee": 5358,
      "eadaieeeaetn": 5359,
      "aieagte": 5360,
      "oodaieeet": 5361,
      "sttottn": 5362,
      "ttaaeeeaeee": 5363,
      "ttaaiaiee": 5364,
      "ieeaetn": 5365,
      "ieeaaseetaeuto": 5366,
      "otohaieeae": 5367,
      "tvetaieeesoooo": 5368,
      "ooaeaelo": 5369,
      "aieeeeieeaetn": 5370,
      "toeeaotdtaieeasa": 5371,
      "aiaaeooataoeeeae": 5372,
      "ottotneaiaoteaiee": 5373,
      "ieetaiepa": 5374,
      "oteeettnoho": 5375,
      "ish": 5376,
      "aieeeeaaeasatoto": 5377,
      "Free": 5378,
      "Frank": 5379,
      "DAR": 5380,
      "asaaeaie": 5381,
      "Corps": 5382,
      "teoteoaieeeetnllorto": 5383,
      "oodaieeetsttottn": 5384,
      "As": 5385,
      "AIM": 5386,
      "Don": 5387,
      "Gu": 5388,
      "Glo": 5389,
      "Li": 5390,
      "Me": 5391,
      "PD": 5392,
      "eoteaie": 5393,
      "ietaiee": 5394,
      "mer": 5395,
      "na": 5396,
      "eeuto": 5397,
      "aieeaiaae": 5398,
      "aieeaieaie": 5399,
      "aieeaieaieaie": 5400,
      "tatoothre": 5401,
      "erdoelloaieae": 5402,
      "eaaaehtecaieaeaiaae": 5403,
      "aieoeoteaseeexeceee": 5404,
      "oodsto": 5405,
      "lloooooeotohasa": 5406,
      "llooootaieeoesttetn": 5407,
      "eatnoooo": 5408,
      "aeadaeae": 5409,
      "ooaaieetstt": 5410,
      "oetodaieeaiaae": 5411,
      "toeeaotdaieeaee": 5412,
      "toeeaotdeaiaaeeerto": 5413,
      "aieaeadethno": 5414,
      "teevieero": 5415,
      "stoaeadaeae": 5416,
      "eutoeutoaiaae": 5417,
      "aieeetooeoteaie": 5418,
      "rey": 5419,
      "ooaaeaieeea": 5420,
      "ryCorps": 5421,
      "ight": 5422,
      "StoryCorps": 5423,
      "ietaieeaieagte": 5424,
      "aieeaieaieaief": 5425,
      "oodstostoaeadaeae": 5426,
      "teevieerodto": 5427,
      "..": 5428,
      "DI": 5429,
      "Di": 5430,
      "Pre": 5431,
      "Ray": 5432,
      "SB": 5433,
      "Veron": 5434,
      "ita": 5435,
      "my": 5436,
      "net": 5437,
      "ole": 5438,
      "sta": 5439,
      "za": 5440,
      "air": 5441,
      "ooteatn": 5442,
      "toteaee": 5443,
      "tafa": 5444,
      "ere": 5445,
      "etofaaslo": 5446,
      "erdoteea": 5447,
      "erdeeetneea": 5448,
      "eaaoeoteaie": 5449,
      "aieoeaieaieeeaaetmtn": 5450,
      "eatoaieeetstt": 5451,
      "eatoteecteemteec": 5452,
      "oodeaaeeeto": 5453,
      "oodiebetoasatotototo": 5454,
      "eeadtneaseear": 5455,
      "aieaeotea": 5456,
      "aieaeoteatoooea": 5457,
      "tseest": 5458,
      "tvaiee0": 5459,
      "eatoeatntvo": 5460,
      "eaaeedetaieeeto": 5461,
      "ietoteatn": 5462,
      "oohtoieb": 5463,
      "ohaoaieaieaieeea": 5464,
      "afatwn": 5465,
      "paotetoaiaae": 5466,
      "aieaeoooea": 5467,
      "eaaeeeeaaeedeaaeedetaieeeto": 5468,
      "ant": 5469,
      "ini": 5470,
      "eftmeftcaieeaieaeoaieaeo": 5471,
      "teoteooetofaaslo": 5472,
      "eaapatnoheelo": 5473,
      "aethohooteatn": 5474,
      "oug": 5475,
      "eatooohtoteaee": 5476,
      "Flick": 5477,
      "Wolfram": 5478,
      "AIMS": 5479,
      "Veronica": 5480,
      "aieaeoteaaie": 5481,
      "afatwn1": 5482,
      "teoteooetofaaslotaoeeeae": 5483,
      "99": 5484,
      "Av": 5485,
      "All": 5486,
      "Dr": 5487,
      "EO": 5488,
      "ER": 5489,
      "En": 5490,
      "Ear": 5491,
      "Kan": 5492,
      "LT": 5493,
      "Mor": 5494,
      "Nan": 5495,
      "NBA": 5496,
      "Red": 5497,
      "SO": 5498,
      "SS": 5499,
      "Stac": 5500,
      "Tony": 5501,
      "ban": 5502,
      "oc": 5503,
      "ss": 5504,
      "und": 5505,
      "xeta": 5506,
      "otaieee": 5507,
      "otieba": 5508,
      "eaaloaie": 5509,
      "eaaeaieeeaown": 5510,
      "aieoeaiehr": 5511,
      "eatoaaoteoteeetn": 5512,
      "oodtho": 5513,
      "oodeae0": 5514,
      "oodaotasaie": 5515,
      "oodeaaieeeatnsodsod": 5516,
      "oodtoottaeiee": 5517,
      "llooooieeataeeifaea": 5518,
      "eaaeetn": 5519,
      "aieeexeta": 5520,
      "eeadieaeeiehn": 5521,
      "etaoeaeae": 5522,
      "tseeaieeteeae": 5523,
      "eetnst": 5524,
      "ooaeaieatn": 5525,
      "ooaohtc": 5526,
      "aieeaoh": 5527,
      "eaitfeetnst": 5528,
      "aieaeoaotohaieeae": 5529,
      "aieaeadthetsc": 5530,
      "eaitfeeetnaieec": 5531,
      "eaitfeetofa": 5532,
      "ottoottoohllorto": 5533,
      "ach": 5534,
      "Mark": 5535,
      "Emma": 5536,
      "FOX": 5537,
      "NGO": 5538,
      "CNN": 5539,
      "Bruno": 5540,
      "Flickr": 5541,
      "otaieeesoooo": 5542,
      "otiebatar": 5543,
      "aieeexetaeai": 5544,
      "Air": 5545,
      "BJ": 5546,
      "Bur": 5547,
      "Bob": 5548,
      "BBC": 5549,
      "Jer": 5550,
      "Ph": 5551,
      "Pal": 5552,
      "TB": 5553,
      "Tho": 5554,
      "Wind": 5555,
      "ca": 5556,
      "ietc": 5557,
      "lt": 5558,
      "mb": 5559,
      "zi": 5560,
      "etotefatthtn": 5561,
      "eaieaie": 5562,
      "taaotasaie": 5563,
      "taieetm": 5564,
      "ass": 5565,
      "tsaiee": 5566,
      "eaieeecefe": 5567,
      "erdieeaasee": 5568,
      "ten": 5569,
      "tes": 5570,
      "ara": 5571,
      "arr": 5572,
      "teetoown": 5573,
      "thnao": 5574,
      "tseetaieetea": 5575,
      "tseeaotetc": 5576,
      "ooaaiea": 5577,
      "oohtoeaeai": 5578,
      "oetodtnoieetaie": 5579,
      "eaaeaieeaiaec": 5580,
      "thaieaeooooeohaooooiee": 5581,
      "eaaetuto": 5582,
      "eaeeelotttteec": 5583,
      "aieeethettooeeeaie": 5584,
      "taeieemoomoouaieae": 5585,
      "ham": 5586,
      "old": 5587,
      "ows": 5588,
      "app": 5589,
      "McG": 5590,
      "Amy": 5591,
      "Craig": 5592,
      "Jack": 5593,
      "Julian": 5594,
      "taieetmietc": 5595,
      "thnaoaie": 5596,
      "oohtoeaeaieaieeecefe": 5597,
      "AV": 5598,
      "Bi": 5599,
      "Bla": 5600,
      "Her": 5601,
      "NP": 5602,
      "RG": 5603,
      "Rab": 5604,
      "Rais": 5605,
      "SJ": 5606,
      "Ser": 5607,
      "Seb": 5608,
      "Sou": 5609,
      "TM": 5610,
      "TS": 5611,
      "des": 5612,
      "har": 5613,
      "ist": 5614,
      "lu": 5615,
      "mas": 5616,
      "ort": 5617,
      "off": 5618,
      "ros": 5619,
      "tieemosa": 5620,
      "we": 5621,
      "eah": 5622,
      "aieooheaieee": 5623,
      "eatoeaaoheetktttn": 5624,
      "eadtteaie": 5625,
      "lle": 5626,
      "lly": 5627,
      "pac": 5628,
      "hop": 5629,
      "aieaeoh": 5630,
      "taeaeero": 5631,
      "tseeoetathon": 5632,
      "gtetaieeesoooo": 5633,
      "hottneeto": 5634,
      "oetodaeadtc": 5635,
      "toeeaotdoteeaeetn": 5636,
      "toeeaotdeaeteb": 5637,
      "hohrtt": 5638,
      "afaaieaeouoo": 5639,
      "tmtieemosa": 5640,
      "oodooheaieee": 5641,
      "ieeeaeaieee": 5642,
      "teetnsc": 5643,
      "aieaeooteetnsc": 5644,
      "tnstafa": 5645,
      "aieeetoaieeetogtetaieeesoooo": 5646,
      "isha": 5647,
      "ratch": 5648,
      "Ali": 5649,
      "illian": 5650,
      "eatooohouooaiaaeer": 5651,
      "aieeeaieaie": 5652,
      "uddin": 5653,
      "Hans": 5654,
      "Panban": 5655,
      "Smith": 5656,
      "PDF": 5657,
      "Raisuddin": 5658,
      "AK": 5659,
      "Ag": 5660,
      "Be": 5661,
      "Bo": 5662,
      "Beck": 5663,
      "Fi": 5664,
      "FBI": 5665,
      "Go": 5666,
      "Gra": 5667,
      "HG": 5668,
      "IA": 5669,
      "Ken": 5670,
      "Mo": 5671,
      "Man": 5672,
      "Mou": 5673,
      "OM": 5674,
      "Phi": 5675,
      "Tec": 5676,
      "bn": 5677,
      "bal": 5678,
      "der": 5679,
      "lie": 5680,
      "ris": 5681,
      "saiee": 5682,
      "well": 5683,
      "you": 5684,
      "eemtc": 5685,
      "aieaa": 5686,
      "aieaieeeaa": 5687,
      "aieeaiaaeeaetaiee": 5688,
      "erdeeaduo": 5689,
      "erdafaetasaa": 5690,
      "erdoeoteaseeexeceee": 5691,
      "eaatneerto": 5692,
      "eaathaieaeoooooteeea": 5693,
      "eatotmtsa": 5694,
      "etaieemst": 5695,
      "oodeaaeeetof": 5696,
      "oteotee": 5697,
      "aieeehottneaieote": 5698,
      "oeeeaieaiee": 5699,
      "oeeeaieaieee1": 5700,
      "are": 5701,
      "aeoh": 5702,
      "eatooeasa": 5703,
      "tvtaieeeeae": 5704,
      "ooaaieeoeaierto": 5705,
      "ooaoeoteaieeaee": 5706,
      "ooatsttouoo": 5707,
      "oohtotaeieemoomoou": 5708,
      "aieaeoeatottea": 5709,
      "toeeaotdaieaaiee": 5710,
      "med": 5711,
      "aieaeadoeotohasa": 5712,
      "aieaeadeaeeadeaeetc": 5713,
      "gtetaito": 5714,
      "tktttmon": 5715,
      "aietnaiaae": 5716,
      "ottotso": 5717,
      "thaieaeooooetco": 5718,
      "thaieaeooooaieeaiaaehn": 5719,
      "ttsoeooohtc": 5720,
      "iodiodtaoeeeaee": 5721,
      "tktoetotn": 5722,
      "oteeaeoodthtn": 5723,
      "aieeaatneaie": 5724,
      "tktaieeaiee": 5725,
      "astian": 5726,
      "aieeaettcaiee": 5727,
      "otasatotetnouoo": 5728,
      "aieeeeaaetaief": 5729,
      "ower": 5730,
      "ever": 5731,
      "Inter": 5732,
      "Scratch": 5733,
      "Earth": 5734,
      "aieaaoteotee": 5735,
      "aieaieeeaaeea": 5736,
      "gtetaitoeemtc": 5737,
      "iodiodtaoeeeaeeuto": 5738,
      "aieaaoteoteeetn": 5739,
      "EB": 5740,
      "Eric": 5741,
      "Fer": 5742,
      "Fab": 5743,
      "FDA": 5744,
      "GP": 5745,
      "Hu": 5746,
      "Hel": 5747,
      "Hill": 5748,
      "JH": 5749,
      "Joel": 5750,
      "Jay": 5751,
      "Lar": 5752,
      "MW": 5753,
      "Mu": 5754,
      "MBA": 5755,
      "Per": 5756,
      "Qu": 5757,
      "Ra": 5758,
      "Rick": 5759,
      "SL": 5760,
      "Sud": 5761,
      "Tor": 5762,
      "UV": 5763,
      "Whi": 5764,
      "ajaie": 5765,
      "be": 5766,
      "bie": 5767,
      "estt": 5768,
      "gram": 5769,
      "ier": 5770,
      "mi": 5771,
      "uro": 5772,
      "uotaieeesoooo": 5773,
      "wart": 5774,
      "yo": 5775,
      "zy": 5776,
      "eech": 5777,
      "toeaieotd": 5778,
      "tateeatn": 5779,
      "taaaoteoteeetn": 5780,
      "eeato": 5781,
      "losodsod": 5782,
      "eaieeeaieeeto": 5783,
      "erdeae1": 5784,
      "eaaoodtoteatnaieae": 5785,
      "eaahottneeto": 5786,
      "eatoeaieetn": 5787,
      "tooiee": 5788,
      "oodsc": 5789,
      "lloooooteea": 5790,
      "aieeeietaodtoaiaaetsaieaeo": 5791,
      "etaseaas": 5792,
      "motoetasee": 5793,
      "taeeeaieeeaieeeto": 5794,
      "hottoeaieotd": 5795,
      "ooaaieeeea": 5796,
      "teoteoeea": 5797,
      "oohtoeloeae": 5798,
      "etootvtaieaeo": 5799,
      "aietnlosodsod": 5800,
      "aieeoeaierto1": 5801,
      "ottoaieeeea": 5802,
      "ottoaethohooteatn": 5803,
      "oint": 5804,
      "oietaseaas": 5805,
      "mtc0": 5806,
      "ohatoieemtoown": 5807,
      "dcto": 5808,
      "aieaeemtc0": 5809,
      "eeaaeee": 5810,
      "teoteooestt": 5811,
      "eaetrtotetn": 5812,
      "aieeaaeto": 5813,
      "ene": 5814,
      "oeotasttmntaeeato": 5815,
      "otaiatotetnethotc": 5816,
      "alk": 5817,
      "eatoooheattaieeeto": 5818,
      "age": 5819,
      "ieteaaetotjhnasee": 5820,
      "teatoottnouoo": 5821,
      "cymat": 5822,
      "oeoteaseeexeceeeeaaeee": 5823,
      "etooetooetootvtaieaeo": 5824,
      "gtethaietc": 5825,
      "Zipcar": 5826,
      "ooaeohaooooetasaa": 5827,
      "Joseph": 5828,
      "Windows": 5829,
      "Sebastian": 5830,
      "Panbanisha": 5831,
      "bnb": 5832,
      "tooieemotoetasee": 5833,
      "hottoeaieotdpa": 5834,
      "oietaseaasodsod": 5835,
      "teoteooestteteetn": 5836,
      "AM": 5837,
      "Bon": 5838,
      "Che": 5839,
      "Ex": 5840,
      "Hy": 5841,
      "II": 5842,
      "IS": 5843,
      "Jan": 5844,
      "Lab": 5845,
      "Mad": 5846,
      "Nathan": 5847,
      "OS": 5848,
      "Ron": 5849,
      "Shi": 5850,
      "Wa": 5851,
      "Wil": 5852,
      "bi": 5853,
      "br": 5854,
      "ng": 5855,
      "ner": 5856,
      "og": 5857,
      "rud": 5858,
      "tw": 5859,
      "was": 5860,
      "xar": 5861,
      "aieeeeaeasee": 5862,
      "tatea": 5863,
      "taoetotn": 5864,
      "eeaseaie": 5865,
      "otetv": 5866,
      "asaieown": 5867,
      "erdaieeeaaeedhn": 5868,
      "erdoohouooaiaaeer": 5869,
      "eaaoeteaaeoooo": 5870,
      "oeotos": 5871,
      "oehohrtt": 5872,
      "oeeeaieoeotos": 5873,
      "tel": 5874,
      "oodtneaie": 5875,
      "aieeeoello": 5876,
      "tseeaeeeaeee": 5877,
      "oteatohre": 5878,
      "eaitfeeaseaie": 5879,
      "aieaeoaieee": 5880,
      "oetodtneeae": 5881,
      "oetododtotnasee": 5882,
      "toeeaotdefac": 5883,
      "ohaoaeae": 5884,
      "aieaie1": 5885,
      "eaitfeetso": 5886,
      "afaetoeaier": 5887,
      "afatoohoetaieeeto": 5888,
      "aieaieetaieeeto": 5889,
      "tktaiiohasee": 5890,
      "hottneaieotetv": 5891,
      "ohatoaieetstof": 5892,
      "eaatsoteato": 5893,
      "ottooiets": 5894,
      "thryn": 5895,
      "into": 5896,
      "tktoetotoea": 5897,
      "etaieaotasee": 5898,
      "ism": 5899,
      "ney": 5900,
      "ide": 5901,
      "itz": 5902,
      "ander": 5903,
      "ation": 5904,
      "Brian": 5905,
      "owan": 5906,
      "RISD": 5907,
      "iva": 5908,
      "evin": 5909,
      "Anas": 5910,
      "IDEO": 5911,
      "Speech": 5912,
      "aiethnoo": 5913,
      "Neil": 5914,
      "oeotetteead": 5915,
      "Pixar": 5916,
      "Martin": 5917,
      "Kanzi": 5918,
      "FOXO": 5919,
      "Airbnb": 5920,
      "Thomas": 5921,
      "McGowan": 5922,
      "South": 5923,
      "tateaeaieeeto": 5924,
      "oehohrttmtn": 5925,
      "oeeeaieoeotosasa": 5926,
      "aieaieetaieeetoaieaie1": 5927,
      "ottooietsodsod": 5928,
      "oeotetteeadar": 5929,
      "AR": 5930,
      "BT": 5931,
      "Bron": 5932,
      "DE": 5933,
      "DM": 5934,
      "Far": 5935,
      "IW": 5936,
      "Jen": 5937,
      "Mike": 5938,
      "Or": 5939,
      "PT": 5940,
      "Rag": 5941,
      "SK": 5942,
      "TR": 5943,
      "aeaieeeto": 5944,
      "for": 5945,
      "kins": 5946,
      "mind": 5947,
      "omen": 5948,
      "sd": 5949,
      "umen": 5950,
      "aieetaiee": 5951,
      "aieetk": 5952,
      "oth": 5953,
      "taieetaieetclo": 5954,
      "etoeae": 5955,
      "lor": 5956,
      "erdteaetmteaetcaieeeto": 5957,
      "eaaetno": 5958,
      "eaataieie": 5959,
      "eaateeatn": 5960,
      "aieieemosa": 5961,
      "oodtaathnerto": 5962,
      "oodeeaeaieeeto": 5963,
      "oodotiebat": 5964,
      "llooooaieeaieagte": 5965,
      "lloooohohohohn": 5966,
      "ied": 5967,
      "ieeaaseeeaieduto": 5968,
      "aieaehaetn": 5969,
      "taeaettc": 5970,
      "tseeaotohaieeae": 5971,
      "eaieeeateetn": 5972,
      "teoteotaeuto": 5973,
      "aieea0": 5974,
      "toeeaotdaieea0": 5975,
      "oodtstofa": 5976,
      "ttoe": 5977,
      "eaeeasooooaehtecaieaeaiaae": 5978,
      "eaitfeeaitoeaiaae": 5979,
      "ottothaitoetn": 5980,
      "gteeaaieaf": 5981,
      "taittoe": 5982,
      "tktetotefatthtn": 5983,
      "aieeeeaetoeae": 5984,
      "ooataieeeeae": 5985,
      "inc": 5986,
      "eaeeelotttgggaitoemoomoou": 5987,
      "aieeaaeaieaedtcoooo": 5988,
      "ump": 5989,
      "aieeaieatothtn": 5990,
      "Daniel": 5991,
      "ppm": 5992,
      "Stein": 5993,
      "Stewart": 5994,
      "Barry": 5995,
      "Evan": 5996,
      "Kathryn": 5997,
      "oohfaeteeatn": 5998,
      "Nicole": 5999,
      "DARPA": 6000,
      "Global": 6001,
      "DIY": 6002,
      "aieeaohaieaehaetn": 6003,
      "Sudhir": 6004,
      "Bronx": 6005,
      "aieetaieeeeuto": 6006,
      "aieetkttotn": 6007,
      "eaaetnoeta": 6008,
      "eaataieieoeoteea": 6009,
      "12": 6010,
      "5N1": 6011,
      ":\"": 6012,
      "?\"": 6013,
      "ABC": 6014,
      "AID": 6015,
      "Bea": 6016,
      "Bra": 6017,
      "Bab": 6018,
      "Card": 6019,
      "Cura": 6020,
      "DL": 6021,
      "Gillian": 6022,
      "H5N1": 6023,
      "JR": 6024,
      "Joe": 6025,
      "Koo": 6026,
      "Kick": 6027,
      "LS": 6028,
      "Lu": 6029,
      "Lyn": 6030,
      "LOL": 6031,
      "Mi": 6032,
      "Mill": 6033,
      "Nor": 6034,
      "Nick": 6035,
      "Ok": 6036,
      "PL": 6037,
      "Pink": 6038,
      "Sa": 6039,
      "Se": 6040,
      "Sk": 6041,
      "Sch": 6042,
      "Shir": 6043,
      "TP": 6044,
      "Ta": 6045,
      "Ti": 6046,
      "Tur": 6047,
      "bur": 6048,
      "daf": 6049,
      "ger": 6050,
      "gel": 6051,
      "loteea": 6052,
      "sp": 6053,
      "uel": 6054,
      "aieaieea": 6055,
      "aieetefsoeo": 6056,
      "eeaead": 6057,
      "log": 6058,
      "erdtthn": 6059,
      "erdhohr": 6060,
      "erdlololotnttt": 6061,
      "aiest1": 6062,
      "aieietaodtoaiaaetsaieaeo": 6063,
      "eatoaiest1": 6064,
      "tein": 6065,
      "etaieetclo": 6066,
      "ototeatnouoo": 6067,
      "gteoohthosc": 6068,
      "teatogt": 6069,
      "teatoeaieeaeoouoo": 6070,
      "fac": 6071,
      "aieaeototeatnouoo": 6072,
      "tvt": 6073,
      "ooaeaaeeeeaaeedeaaeee": 6074,
      "teoteoiaec": 6075,
      "oeeeaieeaier": 6076,
      "toeeaotdtaiee": 6077,
      "row": 6078,
      "eaaeaieeaoohgte": 6079,
      "aieaeooell": 6080,
      "oeoteaieeeattt": 6081,
      "oteetaown": 6082,
      "aieaeetoeaier": 6083,
      "orn": 6084,
      "etototoetaieeeto": 6085,
      "Math": 6086,
      "Carol": 6087,
      "Scott": 6088,
      "Myria": 6089,
      "oft": 6090,
      "HeFor": 6091,
      "Acumen": 6092,
      "Sarah": 6093,
      "ICU": 6094,
      "eeaeaduotaieeesoooo": 6095,
      "teatogtetaieetclo": 6096,
      "aieaeooelloodtoea": 6097,
      "Myriad": 6098,
      "HeForShe": 6099,
      "\"（": 6100,
      "10": 6101,
      "Ap": 6102,
      "BL": 6103,
      "BS": 6104,
      "Bas": 6105,
      "CS": 6106,
      "Can": 6107,
      "Cam": 6108,
      "Do": 6109,
      "E8": 6110,
      "EM": 6111,
      "ET": 6112,
      "Fur": 6113,
      "GB": 6114,
      "Ga": 6115,
      "Git": 6116,
      "Gius": 6117,
      "Is": 6118,
      "Jas": 6119,
      "KS": 6120,
      "MP": 6121,
      "NM": 6122,
      "Pra": 6123,
      "Pat": 6124,
      "Point": 6125,
      "RO": 6126,
      "RCA": 6127,
      "Si": 6128,
      "Word": 6129,
      "YR": 6130,
      "ZK": 6131,
      "hang": 6132,
      "ki": 6133,
      "ler": 6134,
      "land": 6135,
      "eeeas": 6136,
      "aseaiee": 6137,
      "erdhohrteatn": 6138,
      "eaaoetotoea": 6139,
      "eaaeaieaeeaieaee": 6140,
      "thur": 6141,
      "aieoeotaseaaie": 6142,
      "aiehohohoeatn": 6143,
      "eadtaa": 6144,
      "ted": 6145,
      "oodefac": 6146,
      "llooooooheaetn": 6147,
      "paemtc": 6148,
      "pace": 6149,
      "ttaeaaietsee": 6150,
      "ttaaseaiee": 6151,
      "gteiaetaieee": 6152,
      "oteaieeuto": 6153,
      "oeteaieuto": 6154,
      "aef": 6155,
      "teetn1": 6156,
      "ieeaaseeaieea": 6157,
      "taeaetotoetotofa": 6158,
      "teoteoeteaieuto": 6159,
      "odeaeeae": 6160,
      "sttetn": 6161,
      "teadtmeuo": 6162,
      "aieaeoaieetstt": 6163,
      "oetodttaafaeeeaetetn": 6164,
      "etottea": 6165,
      "afaeaieaieaief": 6166,
      "eaaoodhtahn": 6167,
      "sch": 6168,
      "tataieetea": 6169,
      "oeaiehrdtvo": 6170,
      "ena": 6171,
      "aieerdtaiee": 6172,
      "ack": 6173,
      "erdteatoottn": 6174,
      "otasatotetnaieee": 6175,
      "red": 6176,
      "eeaesttetoown": 6177,
      "Alec": 6178,
      "eatooohaieie": 6179,
      "aieeaaeeetottea": 6180,
      "ardo": 6181,
      "lash": 6182,
      "ottooeoteaieeuto": 6183,
      "que": 6184,
      "HIN": 6185,
      "Arthur": 6186,
      "Edu": 6187,
      "Josh": 6188,
      "New": 6189,
      "aietaero": 6190,
      "CPU": 6191,
      "Netra": 6192,
      "Apple": 6193,
      "PISA": 6194,
      "oohtooodeaeeae": 6195,
      "SOPA": 6196,
      "Mouaz": 6197,
      "cymatics": 6198,
      "eeeastaeaetotoetotofa": 6199,
      "paemtceae": 6200,
      "ttaeaaietseeeer": 6201,
      "ttaaseaieeer": 6202,
      "Ah": 6203,
      "Bak": 6204,
      "Com": 6205,
      "CRA": 6206,
      "De": 6207,
      "Er": 6208,
      "ECD": 6209,
      "Gal": 6210,
      "Gap": 6211,
      "G20": 6212,
      "JL": 6213,
      "Ke": 6214,
      "Kn": 6215,
      "Kell": 6216,
      "Kiva": 6217,
      "Kevin": 6218,
      "Lee": 6219,
      "MBI": 6220,
      "OECD": 6221,
      "Pop": 6222,
      "Power": 6223,
      "Rus": 6224,
      "Star": 6225,
      "Val": 6226,
      "Wh": 6227,
      "Zero": 6228,
      "bit": 6229,
      "can": 6230,
      "dy": 6231,
      "ga": 6232,
      "hh": 6233,
      "ks": 6234,
      "oeaaeaieea": 6235,
      "sotea": 6236,
      "ya": 6237,
      "zz": 6238,
      "aieeetnrooo": 6239,
      "taseaie": 6240,
      "tney": 6241,
      "tsoteato": 6242,
      "erdtneeae": 6243,
      "eaaoeaieasaie": 6244,
      "eaaeaaietsee": 6245,
      "aiest": 6246,
      "eatothettooeeeaie": 6247,
      "oeeeaieoohtec": 6248,
      "sani": 6249,
      "teieea": 6250,
      "oodoeloaseetetn": 6251,
      "oodieeaaseeeaioteato": 6252,
      "llooooaieeaaeee": 6253,
      "teaaieeetnrooo": 6254,
      "eeadaehtectv": 6255,
      "aieteaeaaee": 6256,
      "totoatn": 6257,
      "aieaeoel": 6258,
      "ieboteato": 6259,
      "tseeoteeeaoteaie": 6260,
      "aotohaieeatn": 6261,
      "aieeeetotoatn": 6262,
      "teoteoeeaaeasaee": 6263,
      "taeohaooooetasaa": 6264,
      "ieeoheaitfeetnst": 6265,
      "aieaeotneaie": 6266,
      "toeeaotdeaaee": 6267,
      "toeeaotdetno": 6268,
      "toeeaotdoeotetteeae": 6269,
      "mel": 6270,
      "aieaeadaieeeatn": 6271,
      "aieeaieasotea": 6272,
      "eadtvoeaaeaieea": 6273,
      "ottothnaie": 6274,
      "starter": 6275,
      "thaieaeooooaieaeouoo": 6276,
      "thaieaeoooooteatnthoela": 6277,
      "lha": 6278,
      "taeeaieaieieeoheaitfeetnst": 6279,
      "exit": 6280,
      "taieeesooooaieeeto": 6281,
      "ani": 6282,
      "aieeetooteatn": 6283,
      "ettataieeesooooaieeeto": 6284,
      "aieeeaieeetaoeeeaehn": 6285,
      "ould": 6286,
      "ider": 6287,
      "iki": 6288,
      "ugh": 6289,
      "Johnson": 6290,
      "Shar": 6291,
      "Rock": 6292,
      "Corexit": 6293,
      "Evel": 6294,
      "Jonathan": 6295,
      "otoshop": 6296,
      "teaioteaeeoooost": 6297,
      "INCRA": 6298,
      "Venter": 6299,
      "Charles": 6300,
      "Stacey": 6301,
      "Jerry": 6302,
      "GPHIN": 6303,
      "Larry": 6304,
      "Kickstarter": 6305,
      "Furby": 6306,
      "MP3": 6307,
      "Eduardo": 6308,
      "aiest2": 6309,
      "teieeatn": 6310,
      "aieaeoelrt": 6311,
      "ieboteatoieb": 6312,
      "47": 6313,
      "AS": 6314,
      "Bever": 6315,
      "Dar": 6316,
      "Doug": 6317,
      "Fo": 6318,
      "GG": 6319,
      "Gert": 6320,
      "Hex": 6321,
      "Kha": 6322,
      "Lay": 6323,
      "Lim": 6324,
      "Lick": 6325,
      "MS": 6326,
      "Mos": 6327,
      "Minto": 6328,
      "PO": 6329,
      "Pe": 6330,
      "RK": 6331,
      "Rub": 6332,
      "RHex": 6333,
      "Sal": 6334,
      "Stan": 6335,
      "To": 6336,
      "Tu": 6337,
      "Ter": 6338,
      "Tim": 6339,
      "We": 6340,
      "Web": 6341,
      "Win": 6342,
      "Women": 6343,
      "Yo": 6344,
      "gan": 6345,
      "ldc": 6346,
      "nett": 6347,
      "phen": 6348,
      "rr": 6349,
      "reaiaae": 6350,
      "tu": 6351,
      "ue": 6352,
      "va": 6353,
      "van": 6354,
      "ww": 6355,
      "yd": 6356,
      "yana": 6357,
      "zon": 6358,
      "eed": 6359,
      "eat": 6360,
      "tor": 6361,
      "taeae": 6362,
      "taaieeaee": 6363,
      "tateatngte": 6364,
      "loaiaae": 6365,
      "erdaieaellorto": 6366,
      "erdaieeeaieeetaoeeeaehn": 6367,
      "eaaasa": 6368,
      "eaafaafa": 6369,
      "eaateeaaaaeoooo": 6370,
      "aieloteetn": 6371,
      "aieaeea": 6372,
      "oeeeaieoeotohoest": 6373,
      "oeeeaieiaeaieela": 6374,
      "oodaiaaetsaieaeo": 6375,
      "oodaieeetoeutoeuto": 6376,
      "llooooaieaeo": 6377,
      "ieeaaseeoeltto": 6378,
      "aieaeoteaee": 6379,
      "taeaeeadeaeetc": 6380,
      "gtetoo": 6381,
      "ooaeaieeeattea": 6382,
      "ooataioteatoetn": 6383,
      "oeteatoeatnaeeeaeee": 6384,
      "ial": 6385,
      "emat": 6386,
      "oohtoieetaie": 6387,
      "toeeaotdaotohaieaieae": 6388,
      "toeeaotdoeaieaieeeaaetmtn": 6389,
      "toeeaotdoeteaaehn": 6390,
      "oeeeaieeaaef": 6391,
      "aieaeadtn": 6392,
      "aiiohaseetjhn": 6393,
      "teatoarteea": 6394,
      "eaatsaie": 6395,
      "etotnaieee": 6396,
      "tmostaieaeown": 6397,
      "aieeaedhohreae": 6398,
      "iss": 6399,
      "hat": 6400,
      "nell": 6401,
      "eeaesttetnaieeeto": 6402,
      "ung": 6403,
      "aga": 6404,
      "Max": 6405,
      "Insta": 6406,
      "Geoff": 6407,
      "aeaitoooooe": 6408,
      "Haryana": 6409,
      "PCB": 6410,
      "teoteoaieeeetnlo": 6411,
      "Shadi": 6412,
      "bama": 6413,
      "gtethrto": 6414,
      "ESG": 6415,
      "PIPA": 6416,
      "jitney": 6417,
      "Worldc": 6418,
      "aieaeohreaiaae": 6419,
      "Boy": 6420,
      "aeohetotnaieee": 6421,
      "rude": 6422,
      "Koolha": 6423,
      "aieaieea1": 6424,
      "Mathemat": 6425,
      "Simon": 6426,
      "hanging": 6427,
      "Gertrude": 6428,
      "eaaasallooooaieaeo": 6429,
      "gtetooteethn": 6430,
      "oeeeaieeaaefeatn": 6431,
      "Worldchanging": 6432,
      "Koolhaas": 6433,
      "Mathematica": 6434,
      "Auro": 6435,
      "Amel": 6436,
      "Bl": 6437,
      "Cal": 6438,
      "Cap": 6439,
      "Da": 6440,
      "Den": 6441,
      "Ell": 6442,
      "GF": 6443,
      "Gab": 6444,
      "Gore": 6445,
      "HC": 6446,
      "Ima": 6447,
      "Jam": 6448,
      "June": 6449,
      "Lou": 6450,
      "Lens": 6451,
      "Leah": 6452,
      "Mal": 6453,
      "Mob": 6454,
      "Obama": 6455,
      "P2": 6456,
      "PH": 6457,
      "Res": 6458,
      "Tata": 6459,
      "ble": 6460,
      "don": 6461,
      "dit": 6462,
      "fel": 6463,
      "hy": 6464,
      "ile": 6465,
      "mo": 6466,
      "now": 6467,
      "ran": 6468,
      "sen": 6469,
      "ti": 6470,
      "ty": 6471,
      "ttn": 6472,
      "uck": 6473,
      "vin": 6474,
      "eaaiaae": 6475,
      "eaaieaf": 6476,
      "oon": 6477,
      "aiee1": 6478,
      "eaiaieeaieee": 6479,
      "taaieta": 6480,
      "oti": 6481,
      "etnotaiee": 6482,
      "etodcto": 6483,
      "loLens": 6484,
      "eaieetaieeeto": 6485,
      "aieietn1": 6486,
      "aiesd": 6487,
      "eatotmostaieae": 6488,
      "eatothetsc": 6489,
      "eatoemtctaiee": 6490,
      "ooheaaaieeetn": 6491,
      "oohaotasee": 6492,
      "ttaeaaiaae": 6493,
      "eeademvo": 6494,
      "oeeeaieaeeeaeee": 6495,
      "ary": 6496,
      "aiaaeaieeea": 6497,
      "aieaehtectv": 6498,
      "eaiaaeeademvo": 6499,
      "taeaeafa": 6500,
      "gtetodcto": 6501,
      "eatooeaiaieeaieee": 6502,
      "easodsod": 6503,
      "eaeaeeb": 6504,
      "aieeetoloaie": 6505,
      "ooaloaie": 6506,
      "asaaieeaotetc": 6507,
      "aiaaeeerto": 6508,
      "aieeaaie": 6509,
      "oeeeaieeaiaaeaieeea": 6510,
      "aieaeotneaseear": 6511,
      "oetodaieee1": 6512,
      "toeeaotdaieee2": 6513,
      "toeeaotdeohaooooaieae": 6514,
      "ohaoiec": 6515,
      "aioteaedoooooeoteaiee": 6516,
      "ottothtn": 6517,
      "ston": 6518,
      "eaeiaettj": 6519,
      "haetnasee": 6520,
      "taieeetoeasodsod": 6521,
      "helle": 6522,
      "eaaeaieeatsoteato": 6523,
      "teoteotsaiee": 6524,
      "totnthotho": 6525,
      "ietaieoeoteeast": 6526,
      "iner": 6527,
      "TEDWomen": 6528,
      "lam": 6529,
      "ory": 6530,
      "gteeea": 6531,
      "CAT": 6532,
      "inger": 6533,
      "use": 6534,
      "Matt": 6535,
      "aieaotohaieaieae": 6536,
      "Dave": 6537,
      "Stephen": 6538,
      "awkins": 6539,
      "lix": 6540,
      "200": 6541,
      "Green": 6542,
      "aietaeatn": 6543,
      "rong": 6544,
      "HoloLens": 6545,
      "LGBT": 6546,
      "Reddit": 6547,
      "Photoshop": 6548,
      "TBP": 6549,
      "Hillis": 6550,
      "minder": 6551,
      "AIDS": 6552,
      "tvtaieaeoteaaie": 6553,
      "Giussani": 6554,
      "Gapminder": 6555,
      "Kelly": 6556,
      "Ruby": 6557,
      "aieaeeao": 6558,
      "Instagram": 6559,
      "Aurora": 6560,
      "feld": 6561,
      "tytaieeesoooo": 6562,
      "taaietac": 6563,
      "etnotaieertoown": 6564,
      "ttaeaaiaaeouoo": 6565,
      "eaeaeeboooo": 6566,
      "AP": 6567,
      "Auto": 6568,
      "Ama": 6569,
      "BO": 6570,
      "Ba": 6571,
      "Ca": 6572,
      "Chi": 6573,
      "DD": 6574,
      "DG": 6575,
      "Dem": 6576,
      "Dick": 6577,
      "Dian": 6578,
      "Eth": 6579,
      "How": 6580,
      "Khan": 6581,
      "Kism": 6582,
      "Los": 6583,
      "Les": 6584,
      "NI": 6585,
      "Pen": 6586,
      "Pur": 6587,
      "Ri": 6588,
      "Rita": 6589,
      "Sy": 6590,
      "Sho": 6591,
      "Sug": 6592,
      "Tar": 6593,
      "Ur": 6594,
      "Van": 6595,
      "bot": 6596,
      "bat": 6597,
      "cos": 6598,
      "cel": 6599,
      "con": 6600,
      "dd": 6601,
      "doo": 6602,
      "eieeead": 6603,
      "fer": 6604,
      "flix": 6605,
      "ij": 6606,
      "ix": 6607,
      "isto": 6608,
      "ja": 6609,
      "lin": 6610,
      "no": 6611,
      "oaietn": 6612,
      "pen": 6613,
      "uc": 6614,
      "uff": 6615,
      "val": 6616,
      "ves": 6617,
      "way": 6618,
      "eaaiet": 6619,
      "etaietaiee": 6620,
      "tos": 6621,
      "taaotasee": 6622,
      "taoeotohoest": 6623,
      "ottot": 6624,
      "ask": 6625,
      "eaexx": 6626,
      "low": 6627,
      "eaieeeb": 6628,
      "erdhoaseea": 6629,
      "erdeotea": 6630,
      "erdiebta": 6631,
      "erdoteeeteae": 6632,
      "erdeaioteatn": 6633,
      "erdetototn": 6634,
      "eaataaieeatn": 6635,
      "eaaoeeeaieaiee": 6636,
      "thiee": 6637,
      "that": 6638,
      "aiefaafa": 6639,
      "aieottoottoohst": 6640,
      "oodetnotaieerto": 6641,
      "lloooosto": 6642,
      "llooootsaiee": 6643,
      "ttaeaaef": 6644,
      "teatoeotea": 6645,
      "aieteaee": 6646,
      "teeaeoooo": 6647,
      "aieaeoteea": 6648,
      "eaiaaeaieeea": 6649,
      "tetnoooo": 6650,
      "iebsac": 6651,
      "eaaeedohtc": 6652,
      "ietttaeaaef": 6653,
      "oohtoteaeaie": 6654,
      "aieaeoaieetstofthtn": 6655,
      "oetodottoottn": 6656,
      "aieaeadhtahn": 6657,
      "gtetetnaieasaie": 6658,
      "oefiemeu": 6659,
      "afaeaeero": 6660,
      "thaieaeooooaieeaee": 6661,
      "eaieaeo": 6662,
      "oteetnaieee": 6663,
      "teoteoooaietn": 6664,
      "oteeaeouoo": 6665,
      "oeeeaieaieaieeeb": 6666,
      "oeeeaietaeieeead": 6667,
      "oup": 6668,
      "ound": 6669,
      "rav": 6670,
      "had": 6671,
      "reg": 6672,
      "earch": 6673,
      "Alan": 6674,
      "urz": 6675,
      "ika": 6676,
      "ieteertoero": 6677,
      "abad": 6678,
      "ava": 6679,
      "untu": 6680,
      "mann": 6681,
      "Andr": 6682,
      "Anders": 6683,
      "ions": 6684,
      "Intel": 6685,
      "Carl": 6686,
      "Armst": 6687,
      "Adam": 6688,
      "Coll": 6689,
      "Netflix": 6690,
      "Rose": 6691,
      "Ross": 6692,
      "STEM": 6693,
      "Jefferson": 6694,
      "World": 6695,
      "oohtooteeaeoooo": 6696,
      "Micros": 6697,
      "Michelle": 6698,
      "Nano": 6699,
      "Black": 6700,
      "Rabbit": 6701,
      "weil": 6702,
      "Human": 6703,
      "Tori": 6704,
      "twitter": 6705,
      "Jason": 6706,
      "Keith": 6707,
      "Image": 6708,
      "otiisoooo": 6709,
      "Kismet": 6710,
      "etaietaieellolloeatn": 6711,
      "ottoteaioteaeeoooo": 6712,
      "eaexxeaeeae": 6713,
      "eaaoeeeaieaieetstof": 6714,
      "thieetetnoooo": 6715,
      "oeeeaietaeieeeadtjhn": 6716,
      "Armstrong": 6717,
      "Microsoft": 6718,
      "1N1": 6719,
      ";&": 6720,
      "Art": 6721,
      "Bor": 6722,
      "Bell": 6723,
      "CR": 6724,
      "Col": 6725,
      "Dean": 6726,
      "EG": 6727,
      "Fide": 6728,
      "GMT": 6729,
      "Hun": 6730,
      "H1N1": 6731,
      "IL": 6732,
      "It": 6733,
      "Java": 6734,
      "Kr": 6735,
      "Kat": 6736,
      "Key": 6737,
      "Kiki": 6738,
      "Lam": 6739,
      "MG": 6740,
      "ML": 6741,
      "Mil": 6742,
      "Morg": 6743,
      "NH": 6744,
      "Nata": 6745,
      "Ol": 6746,
      "Plan": 6747,
      "RE": 6748,
      "SC": 6749,
      "Sl": 6750,
      "San": 6751,
      "Sur": 6752,
      "Sev": 6753,
      "Tam": 6754,
      "UE": 6755,
      "chi": 6756,
      "col": 6757,
      "die": 6758,
      "deaaieeee": 6759,
      "ft": 6760,
      "ila": 6761,
      "mm": 6762,
      "mail": 6763,
      "oeea": 6764,
      "rie": 6765,
      "ser": 6766,
      "vao": 6767,
      "wi": 6768,
      "yc": 6769,
      "ye": 6770,
      "eal": 6771,
      "eaaieee": 6772,
      "etaiet": 6773,
      "eteaaemtn": 6774,
      "aieeieaeeiehn": 6775,
      "eaieteaaemtn": 6776,
      "tneb": 6777,
      "otmtn": 6778,
      "etnotaieetclo": 6779,
      "tsoeeeaie": 6780,
      "erica": 6781,
      "etoeadtv": 6782,
      "eaieeeaieteaaemtn": 6783,
      "erdeeetneeto": 6784,
      "erdteecteemteec": 6785,
      "eaaeeatn1": 6786,
      "aielhetktttn": 6787,
      "tteea": 6788,
      "ttiee": 6789,
      "oeeeaieouoto": 6790,
      "oohiodiodtnttt": 6791,
      "eerown": 6792,
      "oodeaieeeaown": 6793,
      "oodtkt": 6794,
      "oodieteloeae": 6795,
      "oodtnoieetaie": 6796,
      "oodaeaitoooooe": 6797,
      "str": 6798,
      "stjhn": 6799,
      "llooooetnotaieerto": 6800,
      "eeadoelotac": 6801,
      "eatnaiee": 6802,
      "face": 6803,
      "eloaiaae": 6804,
      "eaieeaf": 6805,
      "teetteea": 6806,
      "aieaeoooh": 6807,
      "taieee0": 6808,
      "eaiaaeeatn": 6809,
      "tseeaieaaeeteemtn": 6810,
      "tseeetno1": 6811,
      "eeaef": 6812,
      "aieeeeeeaef": 6813,
      "eohaoooooetn": 6814,
      "eohaooooaotasee": 6815,
      "aieaeotnaietc": 6816,
      "aieaeotaefwn": 6817,
      "toeeaotdetao": 6818,
      "eaaieeeeeaaieee": 6819,
      "aieaeadoeteaaehn": 6820,
      "aieaeadtootlloetn": 6821,
      "gtetbat": 6822,
      "tktaieee0": 6823,
      "aietnst": 6824,
      "eaitfeeeaaeaiee": 6825,
      "eaitfeeteaioteaeeoooo": 6826,
      "eaieaieaieftaieeesoooo": 6827,
      "ottoieeaeooooaiaae": 6828,
      "eaaaieeetnaiee": 6829,
      "aieaeooooaiee": 6830,
      "thaieaeooootseaeaie": 6831,
      "ohatoaieeaee": 6832,
      "ttsoeotaiee": 6833,
      "aieeeeaeloaiaae": 6834,
      "eaaoodeaseeao": 6835,
      "oodeaaeaieaeto": 6836,
      "oodeaaoheetktttn": 6837,
      "ttsoeotjhnetaie": 6838,
      "etaieeaseeetnotaieetclo": 6839,
      "von": 6840,
      "ong": 6841,
      "TEDGlobal": 6842,
      "ence": 6843,
      "lamb": 6844,
      "otasatotetnaieaetn": 6845,
      "ille": 6846,
      "SARS": 6847,
      "Maria": 6848,
      "ieteertoeroot": 6849,
      "aiethaieaeooooaiee": 6850,
      "ily": 6851,
      "ittle": 6852,
      "ipper": 6853,
      "Fran": 6854,
      "BMI": 6855,
      "etaieeaaeaieaeto": 6856,
      "itha": 6857,
      "Barric": 6858,
      "Joshu": 6859,
      "Steven": 6860,
      "Grand": 6861,
      "box": 6862,
      "tootkttieemtneae": 6863,
      "izon": 6864,
      "Alexander": 6865,
      "Joy": 6866,
      "Pran": 6867,
      "CMUs": 6868,
      "000": 6869,
      "oohfaetieeohhn": 6870,
      "Verm": 6871,
      "Prego": 6872,
      "Palm": 6873,
      "Juliano": 6874,
      "Agnes": 6875,
      "Techno": 6876,
      "Bono": 6877,
      "Wilson": 6878,
      "Ragu": 6879,
      "Miller": 6880,
      "Shirley": 6881,
      "Baker": 6882,
      "Galvao": 6883,
      "Beverly": 6884,
      "urzweil": 6885,
      "oeeaetoeadtv": 6886,
      "ttieestjhn": 6887,
      "oeeeaieouotoaiaae": 6888,
      "oodtktetoeaier": 6889,
      "aieaeooohthosc": 6890,
      "eaaieeeeeaaieeedeaaieeee": 6891,
      "ieteertoeroottn": 6892,
      "Joshua": 6893,
      "oeeaetoeadtvotmtn": 6894,
      "15": 6895,
      "AB": 6896,
      "BP": 6897,
      "BER": 6898,
      "Cas": 6899,
      "Duo": 6900,
      "Del": 6901,
      "Dre": 6902,
      "Gro": 6903,
      "Gen": 6904,
      "Gord": 6905,
      "HT": 6906,
      "Hot": 6907,
      "Hen": 6908,
      "Hard": 6909,
      "Hall": 6910,
      "IQ": 6911,
      "Jeroe": 6912,
      "Just": 6913,
      "Jess": 6914,
      "Ky": 6915,
      "Kin": 6916,
      "Kay": 6917,
      "Kim": 6918,
      "Kap": 6919,
      "Kind": 6920,
      "Kurzweil": 6921,
      "Lag": 6922,
      "Mer": 6923,
      "Men": 6924,
      "Map": 6925,
      "NO": 6926,
      "Nel": 6927,
      "NBC": 6928,
      "Over": 6929,
      "RC": 6930,
      "RN": 6931,
      "Rev": 6932,
      "Shre": 6933,
      "Sen": 6934,
      "Sad": 6935,
      "Sun": 6936,
      "Sir": 6937,
      "Space": 6938,
      "TA": 6939,
      "TH": 6940,
      "TO": 6941,
      "Th": 6942,
      "Tel": 6943,
      "Tes": 6944,
      "Tay": 6945,
      "T20": 6946,
      "Talk": 6947,
      "USB": 6948,
      "Vis": 6949,
      "WI": 6950,
      "Warr": 6951,
      "Yeah": 6952,
      "ama": 6953,
      "bl": 6954,
      "berto": 6955,
      "den": 6956,
      "gr": 6957,
      "ject": 6958,
      "kut": 6959,
      "lee": 6960,
      "len": 6961,
      "most": 6962,
      "min": 6963,
      "mou": 6964,
      "ns": 6965,
      "not": 6966,
      "noug": 6967,
      "po": 6968,
      "ree": 6969,
      "so": 6970,
      "tion": 6971,
      "uf": 6972,
      "uz": 6973,
      "vet": 6974,
      "ward": 6975,
      "want": 6976,
      "yr": 6977,
      "yan": 6978,
      "eem": 6979,
      "etfeteaieafuto": 6980,
      "aieetho": 6981,
      "tataieetclo": 6982,
      "talotothn": 6983,
      "taaieaeaieaeaieae": 6984,
      "otetktttoown": 6985,
      "asto": 6986,
      "tson": 6987,
      "erdoeeae": 6988,
      "erdeaieafteoaiaaeaieeetc": 6989,
      "erdllost": 6990,
      "aieoohthoohneerto": 6991,
      "aad": 6992,
      "eatoeaeaie": 6993,
      "eatotaseeetero": 6994,
      "eatoeaeeae": 6995,
      "eadieemtn": 6996,
      "eadnoug": 6997,
      "aieeeaotohaieeae": 6998,
      "oeeeaieoshtn": 6999,
      "oheaaaieeetnasa": 7000,
      "ohtaoeeeaetaieeesoooo": 7001,
      "oodoesttnoo": 7002,
      "oodeaeaiaaeaieeeto": 7003,
      "oodaieasee": 7004,
      "oodteeteeeea": 7005,
      "oodeaeaieotdttt": 7006,
      "oodeaiaaeaieeea": 7007,
      "ield": 7008,
      "ouooouoo": 7009,
      "pay": 7010,
      "eeadtnoho": 7011,
      "oeeeaieafa": 7012,
      "teatoaieeeea": 7013,
      "aietev": 7014,
      "eaieear": 7015,
      "ieeaaseeetnaieec": 7016,
      "aieaeoelo": 7017,
      "taeahn": 7018,
      "tseeieeeeawn": 7019,
      "tseeoeotasttmntaee": 7020,
      "eatooetv": 7021,
      "aieeetoetfeteaieafuto": 7022,
      "hoteatnaiee": 7023,
      "thooottn": 7024,
      "teoteoeaaeeeto": 7025,
      "teoteoeaeeasoooo": 7026,
      "eohaooooteaewn": 7027,
      "ema": 7028,
      "oetodegggeae": 7029,
      "oetodeaeouoo": 7030,
      "toeeaotdeae1": 7031,
      "toeeaotdoeoteea": 7032,
      "eeaeaseeaieeetc": 7033,
      "mes": 7034,
      "etaieoteeeteae": 7035,
      "aieaeadteaieeaee": 7036,
      "aieaeadaaoteoteeetn": 7037,
      "aieaeadaieesodsod": 7038,
      "oeeeaielloooollooooteer": 7039,
      "loaieouoo": 7040,
      "afatneaseaa": 7041,
      "teatoareatn": 7042,
      "teeviebta": 7043,
      "rop": 7044,
      "rox": 7045,
      "taathnllorto": 7046,
      "ohatoeaeeadao": 7047,
      "aoteaieear": 7048,
      "hell": 7049,
      "tooieemotmost": 7050,
      "ane": 7051,
      "eatoeatottt": 7052,
      "oiettetnieeeea": 7053,
      "toeaiaoteaieear": 7054,
      "veaaieaeoaieaeo": 7055,
      "laug": 7056,
      "ise": 7057,
      "racy": 7058,
      "ald": 7059,
      "ali": 7060,
      "idge": 7061,
      "eaaouooouooouoo": 7062,
      "Marc": 7063,
      "obe": 7064,
      "Christ": 7065,
      "ati": 7066,
      "lass": 7067,
      "RIAA": 7068,
      "elli": 7069,
      "iver": 7070,
      "oeaiaieeteatn": 7071,
      "oeaiaieeaieedteec": 7072,
      "ake": 7073,
      "aietnoho": 7074,
      "Sher": 7075,
      "Link": 7076,
      "Roger": 7077,
      "ally": 7078,
      "Emily": 7079,
      "Hany": 7080,
      "AAA": 7081,
      "htus": 7082,
      "teoteooodtaiee": 7083,
      "water": 7084,
      "Proto": 7085,
      "lingo": 7086,
      "Venus": 7087,
      "Walker": 7088,
      "teeadaieaest": 7089,
      "Donnell": 7090,
      "Avel": 7091,
      "Dreadnoug": 7092,
      "BJK": 7093,
      "Blake": 7094,
      "Herbie": 7095,
      "youtube": 7096,
      "oeeeaieaieeaiaaehn": 7097,
      "Excel": 7098,
      "Jenni": 7099,
      "Orkut": 7100,
      "Lynn": 7101,
      "Norman": 7102,
      "facebook": 7103,
      "PowerPoint": 7104,
      "Layma": 7105,
      "Stanley": 7106,
      "Boyle": 7107,
      "Malcol": 7108,
      "eaeiaettjhoteatnaiee": 7109,
      "Diana": 7110,
      "Humanae": 7111,
      "Morgan": 7112,
      "Vermeer": 7113,
      "Technolog": 7114,
      "BERT": 7115,
      "Duolingo": 7116,
      "Gordon": 7117,
      "Jeroen": 7118,
      "Jessica": 7119,
      "Kinect": 7120,
      "Nelson": 7121,
      "Tesla": 7122,
      "Taylor": 7123,
      "Warren": 7124,
      "aieethoar": 7125,
      "aieaeoeloeae": 7126,
      "teoteoeaaeeetohtahn": 7127,
      "afatneaseaa1": 7128,
      "tooieemotmostaieae": 7129,
      "Dreadnoughtus": 7130,
      "Malcolm": 7131,
      "\"——": 7132,
      "AL": 7133,
      "Boo": 7134,
      "BPA": 7135,
      "Cou": 7136,
      "CBS": 7137,
      "Dra": 7138,
      "Dum": 7139,
      "ESP": 7140,
      "FI": 7141,
      "Fra": 7142,
      "Full": 7143,
      "Give": 7144,
      "Grey": 7145,
      "Hub": 7146,
      "JO": 7147,
      "King": 7148,
      "Lang": 7149,
      "Lif": 7150,
      "LHC": 7151,
      "MM": 7152,
      "Mae": 7153,
      "Med": 7154,
      "NC": 7155,
      "Nation": 7156,
      "Old": 7157,
      "Po": 7158,
      "Pri": 7159,
      "Port": 7160,
      "Rod": 7161,
      "Row": 7162,
      "Sai": 7163,
      "Sinc": 7164,
      "Task": 7165,
      "Ub": 7166,
      "Vi": 7167,
      "bor": 7168,
      "bab": 7169,
      "eieeahn": 7170,
      "field": 7171,
      "gen": 7172,
      "here": 7173,
      "jas": 7174,
      "lv": 7175,
      "lis": 7176,
      "like": 7177,
      "lair": 7178,
      "lider": 7179,
      "mour": 7180,
      "nor": 7181,
      "ning": 7182,
      "nap": 7183,
      "ota": 7184,
      "oaseea": 7185,
      "pi": 7186,
      "rtooe": 7187,
      "ring": 7188,
      "ville": 7189,
      "wind": 7190,
      "çao": 7191,
      "！\"": 7192,
      "eak": 7193,
      "aieeaiaaeeerto": 7194,
      "toeaieetaieeeto": 7195,
      "tag": 7196,
      "taaiea": 7197,
      "tatseea": 7198,
      "taieeiaec": 7199,
      "lol": 7200,
      "erdeaeoteeeaown": 7201,
      "erdeaieaie": 7202,
      "eaaeaaee": 7203,
      "eaatneeae": 7204,
      "eaaeaetothn": 7205,
      "eaataieeiaec": 7206,
      "oooo1": 7207,
      "ther": 7208,
      "aiefaa": 7209,
      "aiellooootso": 7210,
      "aieoeotohasa": 7211,
      "aielotothn": 7212,
      "tten": 7213,
      "eatostaie0": 7214,
      "eatoeaeeadeaeetc": 7215,
      "eatoeeeastetn": 7216,
      "aieaeaeasee": 7217,
      "etaieeae": 7218,
      "etaieeeeuto": 7219,
      "oodouoo": 7220,
      "ien": 7221,
      "iew": 7222,
      "gteoeaieaieeeaaetmtn": 7223,
      "gteoohtoteatnaieae": 7224,
      "etaseepa": 7225,
      "ark": 7226,
      "eaieeaooe": 7227,
      "teettn": 7228,
      "iecoooo1": 7229,
      "taeaet": 7230,
      "tseeoettaero": 7231,
      "oteeafa": 7232,
      "oetoieeaaseeeaioteato": 7233,
      "ooatotoeaeeeaeeeduto": 7234,
      "ooaoohthosc": 7235,
      "ooaaieaieeeb": 7236,
      "ooaeaiaaeeatn": 7237,
      "odi": 7238,
      "odloaie": 7239,
      "stteer": 7240,
      "eohaooootsiec": 7241,
      "eohaooootaeieetc": 7242,
      "emy": 7243,
      "email": 7244,
      "oohtopathneteeae": 7245,
      "oetodaieeetstt": 7246,
      "toeeaotdotiebat": 7247,
      "toeeaotdafaeaieote": 7248,
      "oeoteetllo": 7249,
      "aieaeadtstse": 7250,
      "aieaeadeaaeasatoto": 7251,
      "ieba0": 7252,
      "thtseeastteeaown": 7253,
      "eaitfeeteatn": 7254,
      "eaitfeeeaatneeae": 7255,
      "afateatogtetaieetclo": 7256,
      "thaieaeooooaeeeaeee": 7257,
      "thaieaeoooooteeeaoteaie": 7258,
      "oetnaie": 7259,
      "tktiebta": 7260,
      "rom": 7261,
      "ohatoaiaaeloaseetctc": 7262,
      "aotaseeown": 7263,
      "oodooheerto": 7264,
      "ethotsaiee": 7265,
      "oeotdlotothn": 7266,
      "eaaeeetofooea": 7267,
      "eaeeadeaeetcsodsod": 7268,
      "int": 7269,
      "oteeaeoooo": 7270,
      "eaeoteeatvoaieaeo": 7271,
      "lad": 7272,
      "ors": 7273,
      "led": 7274,
      "out": 7275,
      "hahn": 7276,
      "haha": 7277,
      "ress": 7278,
      "esha": 7279,
      "uba": 7280,
      "ush": 7281,
      "urra": 7282,
      "aieetno0": 7283,
      "Marsha": 7284,
      "ady": 7285,
      "tteaieown": 7286,
      "obs": 7287,
      "Christo": 7288,
      "Young": 7289,
      "chan": 7290,
      "Brown": 7291,
      "Fried": 7292,
      "Super": 7293,
      "goro": 7294,
      "Str": 7295,
      "Harry": 7296,
      "atan": 7297,
      "aieaehtecetktttn": 7298,
      "MTV": 7299,
      "Jacqu": 7300,
      "usty": 7301,
      "Leg": 7302,
      "Buck": 7303,
      "Buzz": 7304,
      "ZipCar": 7305,
      "Williams": 7306,
      "HAL": 7307,
      "...": 7308,
      "Allen": 7309,
      "ocracy": 7310,
      "Serra": 7311,
      "aieaeohoaseea": 7312,
      "Hansen": 7313,
      "Phil": 7314,
      "Fermi": 7315,
      "Helvet": 7316,
      "White": 7317,
      "Jane": 7318,
      "Nathaniel": 7319,
      "Watson": 7320,
      "Brad": 7321,
      "Curaçao": 7322,
      "LSST": 7323,
      "burg": 7324,
      "CSF": 7325,
      "Cameron": 7326,
      "Ahmed": 7327,
      "Erik": 7328,
      "Sharon": 7329,
      "Evelyn": 7330,
      "Fox": 7331,
      "Licklider": 7332,
      "Tunes": 7333,
      "taeaeo": 7334,
      "ission": 7335,
      "Jamie": 7336,
      "eaaieafiecoooo1": 7337,
      "Amazon": 7338,
      "Democracy": 7339,
      "Sylv": 7340,
      "Urhahn": 7341,
      "ddies": 7342,
      "Natalie": 7343,
      "Barricelli": 7344,
      "HTTP": 7345,
      "Kindle": 7346,
      "Lagos": 7347,
      "Shreddies": 7348,
      "Linked": 7349,
      "Aveling": 7350,
      "Jennifer": 7351,
      "Sinclair": 7352,
      "TaskRabbit": 7353,
      "Ubuntu": 7354,
      "rtooeoteea": 7355,
      "aiefaaeaieaeo": 7356,
      "eaieeaooesttetn": 7357,
      "teettnstteer": 7358,
      "oeoteetllortooeoteea": 7359,
      "Helvetica": 7360,
      "DemocracyOS": 7361,
      "Sylvia": 7362,
      "\"）": 7363,
      "',": 7364,
      "80": 7365,
      ">,": 7366,
      "A4": 7367,
      "AG": 7368,
      "Ash": 7369,
      "ASD": 7370,
      "Apac": 7371,
      "Bh": 7372,
      "Bot": 7373,
      "Bre": 7374,
      "Big": 7375,
      "CH": 7376,
      "Cai": 7377,
      "Coo": 7378,
      "Cos": 7379,
      "Cen": 7380,
      "City": 7381,
      "CIA": 7382,
      "D2": 7383,
      "Des": 7384,
      "Dun": 7385,
      "Dir": 7386,
      "Dawkins": 7387,
      "EL": 7388,
      "EPA": 7389,
      "Eli": 7390,
      "Ecos": 7391,
      "FE": 7392,
      "Fey": 7393,
      "Ford": 7394,
      "Fund": 7395,
      "Fred": 7396,
      "Gi": 7397,
      "Gel": 7398,
      "Gold": 7399,
      "Gene": 7400,
      "Gary": 7401,
      "Greg": 7402,
      "GNH": 7403,
      "Hol": 7404,
      "Hat": 7405,
      "IPC": 7406,
      "JN": 7407,
      "Jill": 7408,
      "Jud": 7409,
      "JPL": 7410,
      "Ker": 7411,
      "Kle": 7412,
      "Kal": 7413,
      "KIP": 7414,
      "LD": 7415,
      "Lev": 7416,
      "Mid": 7417,
      "Mat": 7418,
      "Mig": 7419,
      "Mull": 7420,
      "NE": 7421,
      "NT": 7422,
      "NRK": 7423,
      "Off": 7424,
      "Olu": 7425,
      "Pu": 7426,
      "Pla": 7427,
      "Ple": 7428,
      "Pac": 7429,
      "PSA": 7430,
      "PPT": 7431,
      "Reb": 7432,
      "Ram": 7433,
      "Rand": 7434,
      "Sta": 7435,
      "Sel": 7436,
      "Sand": 7437,
      "Sey": 7438,
      "Sak": 7439,
      "Swa": 7440,
      "SUV": 7441,
      "Ty": 7442,
      "Tod": 7443,
      "Tob": 7444,
      "Top": 7445,
      "Tipper": 7446,
      "UR": 7447,
      "Udo": 7448,
      "Vio": 7449,
      "Witt": 7450,
      "Whir": 7451,
      "Yad": 7452,
      "Yves": 7453,
      "Ze": 7454,
      "Zin": 7455,
      "bing": 7456,
      "corn": 7457,
      "could": 7458,
      "fen": 7459,
      "get": 7460,
      "hto": 7461,
      "ietn": 7462,
      "iTunes": 7463,
      "jo": 7464,
      "lwind": 7465,
      "mp": 7466,
      "mem": 7467,
      "mtaieeesoooo": 7468,
      "nie": 7469,
      "nect": 7470,
      "pH": 7471,
      "pl": 7472,
      "pro": 7473,
      "ple": 7474,
      "rain": 7475,
      "sho": 7476,
      "wood": 7477,
      "who": 7478,
      "web": 7479,
      "win": 7480,
      "wor": 7481,
      "where": 7482,
      "eep": 7483,
      "etaietsee": 7484,
      "aieetootohouoothn": 7485,
      "totmtn": 7486,
      "tatneaieaietoto": 7487,
      "tataeieetc": 7488,
      "taeaieeaoero": 7489,
      "taetnaieec": 7490,
      "asaee": 7491,
      "etotnaie": 7492,
      "erdtnoho": 7493,
      "erdaietoeouoo": 7494,
      "eaaooheetc": 7495,
      "eaataoeoteaie": 7496,
      "aielotc": 7497,
      "aieoeaieohetktttn": 7498,
      "eatotaieieown": 7499,
      "eatoaieeetoaieeetogte": 7500,
      "eadaieea": 7501,
      "eadoeaieohetktttn": 7502,
      "ohen": 7503,
      "oohetaie": 7504,
      "oohtoot": 7505,
      "oohthos": 7506,
      "oodstooeatn": 7507,
      "llooooeteaieuto": 7508,
      "gteieeaaseetsee": 7509,
      "eeadgggtaitoe": 7510,
      "aietsiec": 7511,
      "oeteaaeeetottea": 7512,
      "tseeoeoteaieeouoo": 7513,
      "tseeoeoteaseeexeceee": 7514,
      "aieeetodcto": 7515,
      "eaiaaeoteatn": 7516,
      "odtseaeaie": 7517,
      "aietotnaie": 7518,
      "asataoeeeae": 7519,
      "eohaoooooeote": 7520,
      "oteatohohrteatn": 7521,
      "htectytaieeesoooo": 7522,
      "aieeatotmtn": 7523,
      "aehtecaieaest": 7524,
      "oetodeaatneaie": 7525,
      "oetodtev": 7526,
      "toeeaotdaiaaetsaieaeo": 7527,
      "toeeaotdoello": 7528,
      "eertoero": 7529,
      "oeeeaieeatotoe": 7530,
      "eaeeasooooaieaellorto": 7531,
      "aiiohaseeeaaie": 7532,
      "aiiohaseeaieeaieagte": 7533,
      "eaaeaieetaieeesoooo": 7534,
      "afataoeeeae": 7535,
      "aieeeaesttetn": 7536,
      "ethoeaieaeeaieaee": 7537,
      "mand": 7538,
      "thaieaeooooaehtecaieaeaiaae": 7539,
      "tvtaieaeoloaie": 7540,
      "eaaeaieeaaotasee": 7541,
      "oetaaieeatotmtn": 7542,
      "oteeetegggeae": 7543,
      "tooieemotoot": 7544,
      "one": 7545,
      "ance": 7546,
      "sco": 7547,
      "aeaetotoetotofatsaie": 7548,
      "ical": 7549,
      "aster": 7550,
      "isel": 7551,
      "ttaehtectytaieeesoooo": 7552,
      "raph": 7553,
      "otaiatotetnieb": 7554,
      "oetiaaeemtcoteatn": 7555,
      "ooheeeaaietotnaie": 7556,
      "Albert": 7557,
      "Altos": 7558,
      "ese": 7559,
      "illa": 7560,
      "iti": 7561,
      "SAT": 7562,
      "ada": 7563,
      "adio": 7564,
      "imer": 7565,
      "impac": 7566,
      "manuel": 7567,
      "toeaieaietototetn": 7568,
      "Brand": 7569,
      "Brent": 7570,
      "ottooeoteaie": 7571,
      "iger": 7572,
      "utu": 7573,
      "CERN": 7574,
      "pper": 7575,
      "aki": 7576,
      "inda": 7577,
      "Angel": 7578,
      "Sue": 7579,
      "Stra": 7580,
      "Stud": 7581,
      "Edward": 7582,
      "Roy": 7583,
      "Jimmy": 7584,
      "deo": 7585,
      "pher": 7586,
      "insky": 7587,
      "Coach": 7588,
      "etty": 7589,
      "ustin": 7590,
      "izzy": 7591,
      "ECX": 7592,
      "koll": 7593,
      "Wii": 7594,
      "Berg": 7595,
      "Project": 7596,
      "Charlie": 7597,
      "Connect": 7598,
      "Novo": 7599,
      "Verizon": 7600,
      "Lisa": 7601,
      "cats": 7602,
      "arrett": 7603,
      "Jackson": 7604,
      "Serg": 7605,
      "IAC": 7606,
      "MoMA": 7607,
      "aeohetotnaie": 7608,
      "yota": 7609,
      "eaetrtotetnaieaeo": 7610,
      "ARES": 7611,
      "DMCA": 7612,
      "Beau": 7613,
      "toeeaotdtaieeeeatn": 7614,
      "ROD": 7615,
      "DDT": 7616,
      "Howard": 7617,
      "Sughar": 7618,
      "eaaieteertoero": 7619,
      "Adams": 7620,
      "ImageNet": 7621,
      "Hunter": 7622,
      "Katr": 7623,
      "Technologies": 7624,
      "etaieeaeloaiaae": 7625,
      "Christopher": 7626,
      "Philip": 7627,
      "Apache": 7628,
      "Ecosia": 7629,
      "IPCC": 7630,
      "KIPP": 7631,
      "Miguel": 7632,
      "Pleo": 7633,
      "Seymour": 7634,
      "Whirlwind": 7635,
      "etaietseetsee": 7636,
      "oohtootetktttoown": 7637,
      "oohthosmtaieeesoooo": 7638,
      "eohaoooooeotegte": 7639,
      "tooieemotootgte": 7640,
      "aeohetotnaiehneae": 7641,
      ".（": 7642,
      "19": 7643,
      "25": 7644,
      "2K": 7645,
      "AX": 7646,
      "Ak": 7647,
      "At": 7648,
      "Alam": 7649,
      "Bol": 7650,
      "Bess": 7651,
      "Blu": 7652,
      "BRCA": 7653,
      "Back": 7654,
      "CC": 7655,
      "Cea": 7656,
      "Cer": 7657,
      "Clo": 7658,
      "Cli": 7659,
      "Cohen": 7660,
      "Du": 7661,
      "Der": 7662,
      "Dec": 7663,
      "Data": 7664,
      "Dink": 7665,
      "DSM": 7666,
      "Dizzy": 7667,
      "Eis": 7668,
      "FM": 7669,
      "GW": 7670,
      "Ger": 7671,
      "Good": 7672,
      "Gho": 7673,
      "Gil": 7674,
      "Gaga": 7675,
      "Ha": 7676,
      "Hed": 7677,
      "Hug": 7678,
      "Haw": 7679,
      "Hend": 7680,
      "Ip": 7681,
      "ISA": 7682,
      "IGF": 7683,
      "Ju": 7684,
      "Jean": 7685,
      "Ki": 7686,
      "Ko": 7687,
      "Kai": 7688,
      "Kir": 7689,
      "LC": 7690,
      "Lot": 7691,
      "Land": 7692,
      "Law": 7693,
      "Lady": 7694,
      "Met": 7695,
      "Mas": 7696,
      "Moha": 7697,
      "Meet": 7698,
      "Mus": 7699,
      "Moog": 7700,
      "Media": 7701,
      "Ny": 7702,
      "Nex": 7703,
      "Nat": 7704,
      "Nap": 7705,
      "NIN": 7706,
      "Nyota": 7707,
      "Out": 7708,
      "Osh": 7709,
      "PET": 7710,
      "RP": 7711,
      "Rem": 7712,
      "Ran": 7713,
      "Rum": 7714,
      "Reed": 7715,
      "Ryan": 7716,
      "Ratan": 7717,
      "Radio": 7718,
      "SH": 7719,
      "SI": 7720,
      "Sim": 7721,
      "TE": 7722,
      "Tai": 7723,
      "Tre": 7724,
      "Tab": 7725,
      "Tum": 7726,
      "TEC": 7727,
      "Tend": 7728,
      "TCT": 7729,
      "UN": 7730,
      "Un": 7731,
      "Uni": 7732,
      "UCL": 7733,
      "Verd": 7734,
      "Vel": 7735,
      "Vander": 7736,
      "Who": 7737,
      "West": 7738,
      "XD": 7739,
      "XML": 7740,
      "Y2K": 7741,
      "Zull": 7742,
      "Zapp": 7743,
      "chr": 7744,
      "dum": 7745,
      "euo": 7746,
      "fish": 7747,
      "flow": 7748,
      "fission": 7749,
      "gi": 7750,
      "gar": 7751,
      "gug": 7752,
      "gaga": 7753,
      "hea": 7754,
      "head": 7755,
      "ima": 7756,
      "iott": 7757,
      "kel": 7758,
      "ken": 7759,
      "kay": 7760,
      "kana": 7761,
      "mc": 7762,
      "more": 7763,
      "nand": 7764,
      "nah": 7765,
      "pr": 7766,
      "pur": 7767,
      "prav": 7768,
      "riet": 7769,
      "rma": 7770,
      "rick": 7771,
      "right": 7772,
      "si": 7773,
      "sure": 7774,
      "soup": 7775,
      "wis": 7776,
      "whi": 7777,
      "will": 7778,
      "wIn": 7779,
      "zero": 7780,
      "zos": 7781,
      "zan": 7782,
      "eam": 7783,
      "eaaiaeaieela": 7784,
      "each": 7785,
      "aietoto": 7786,
      "aietno": 7787,
      "etine": 7788,
      "ooaee": 7789,
      "aieeiebtn": 7790,
      "eaiatn": 7791,
      "eaiato": 7792,
      "tof": 7793,
      "tal": 7794,
      "taead": 7795,
      "tasto": 7796,
      "eeafa": 7797,
      "otta": 7798,
      "asi": 7799,
      "asoteea": 7800,
      "astat": 7801,
      "eaerhtn": 7802,
      "oeetn": 7803,
      "lon": 7804,
      "loyd": 7805,
      "erdoeaieaieeeaaetmtn": 7806,
      "erdtn0": 7807,
      "erdaieeaieagte": 7808,
      "eaaeer": 7809,
      "eaaeaitfee": 7810,
      "tha": 7811,
      "than": 7812,
      "aaotd": 7813,
      "tchell": 7814,
      "tootkt": 7815,
      "oheaieote": 7816,
      "ohthaietco": 7817,
      "oodeaeheaeeaieero": 7818,
      "oodtaefwn": 7819,
      "oodetototn": 7820,
      "oodoetiaaeemtc": 7821,
      "oodstoo": 7822,
      "lloooofaafa": 7823,
      "llooooeaaieeeeto": 7824,
      "llooootaeedtjhn": 7825,
      "llooootooteatn": 7826,
      "lloooooteeeaoteaie": 7827,
      "ient": 7828,
      "part": 7829,
      "parox": 7830,
      "eaaeelo": 7831,
      "ttaoteeea": 7832,
      "ttatneerto": 7833,
      "ttaaotasaie": 7834,
      "gteiec": 7835,
      "gteiaee": 7836,
      "aieeeohaoooo": 7837,
      "eeadeaaeeeto": 7838,
      "oeeeaieao": 7839,
      "teatoaeaeeteattuto": 7840,
      "tototof": 7841,
      "aiaaeeaa": 7842,
      "aes": 7843,
      "aeho": 7844,
      "eaieeaeaeeasoooo": 7845,
      "aieaeoteato": 7846,
      "aieaeotaiee": 7847,
      "ieber": 7848,
      "tseeaieaeouoo": 7849,
      "tseeeaaoheetktttn": 7850,
      "taeetn": 7851,
      "ooaaieaieaieeea": 7852,
      "ooaaieeteeae": 7853,
      "ooaeaaaiaaeoh": 7854,
      "ooaoetotoea": 7855,
      "ooataoeeeaeoooo": 7856,
      "ody": 7857,
      "aieeeefac": 7858,
      "oeeeaietmeuo": 7859,
      "tford": 7860,
      "aieeaeaieotd": 7861,
      "aieeaasoteea": 7862,
      "aehtecaaotd": 7863,
      "aieaeoaiaiee": 7864,
      "aieaeoeaaetnoeta": 7865,
      "oetodaieee0": 7866,
      "oetodteatngte": 7867,
      "toeeaotdteaeaie": 7868,
      "toeeaotdeteaieuto": 7869,
      "toeeaotdoetiaaeemtc": 7870,
      "toeeaotdoetoteieeaatn": 7871,
      "toeeaotdasto": 7872,
      "aieaeadotaiaoteaiee": 7873,
      "oeeeaielloooollooooafa": 7874,
      "eaeeasooootsaie": 7875,
      "eaitfeeeaaee": 7876,
      "eaitfeeteaetc": 7877,
      "eaitfeeoteatoown": 7878,
      "elia": 7879,
      "hohrtasto": 7880,
      "aieeeaeown": 7881,
      "mad": 7882,
      "teevtaa": 7883,
      "ottoiodiodtaiee": 7884,
      "oing": 7885,
      "oooheattaieeeto": 7886,
      "aieaieeeto1": 7887,
      "tkteaieatothaieeeto": 7888,
      "rough": 7889,
      "rofen": 7890,
      "ohatoaieee0": 7891,
      "ohatoeatoeatneerto": 7892,
      "ptree": 7893,
      "aehtectvttt": 7894,
      "aieeaeloaiaae": 7895,
      "aieeaeoheaieote": 7896,
      "aieaeooeeae": 7897,
      "eeetnteato": 7898,
      "ann": 7899,
      "inn": 7900,
      "inson": 7901,
      "TEDTalk": 7902,
      "aeaetotoetoto": 7903,
      "aieeaaefeatn": 7904,
      "eno": 7905,
      "enz": 7906,
      "enburg": 7907,
      "lah": 7908,
      "ethoooheattaieeeto": 7909,
      "aieetnaieec": 7910,
      "CAD": 7911,
      "rez": 7912,
      "ombe": 7913,
      "Alberto": 7914,
      "ndy": 7915,
      "iko": 7916,
      "ikrma": 7917,
      "adema": 7918,
      "ookie": 7919,
      "ooaafaetasaa": 7920,
      "api": 7921,
      "ivik": 7922,
      "cker": 7923,
      "Frie": 7924,
      "ppin": 7925,
      "Carlo": 7926,
      "Carri": 7927,
      "Anthon": 7928,
      "IMAX": 7929,
      "Abb": 7930,
      "Share": 7931,
      "Shbab": 7932,
      "ope": 7933,
      "PMTCT": 7934,
      "MAS": 7935,
      "BAY": 7936,
      "Cros": 7937,
      "Crimer": 7938,
      "Harriet": 7939,
      "Hannah": 7940,
      "Adobe": 7941,
      "Tomm": 7942,
      "arty": 7943,
      "Grisel": 7944,
      "aietaeieeahn": 7945,
      "ness": 7946,
      "ifi": 7947,
      "FORM": 7948,
      "Jones": 7949,
      "Benoi": 7950,
      "eanor": 7951,
      "Parker": 7952,
      "uprofen": 7953,
      "Eleanor": 7954,
      "OLPC": 7955,
      "Joan": 7956,
      "ibuprofen": 7957,
      "Pilot": 7958,
      "Julius": 7959,
      "ATM": 7960,
      "Lock": 7961,
      "Brunel": 7962,
      "Clar": 7963,
      "Rezero": 7964,
      "Nov": 7965,
      "Frankie": 7966,
      "DARwIn": 7967,
      "Gloria": 7968,
      "Preity": 7969,
      "zalah": 7970,
      "Allan": 7971,
      "Nancy": 7972,
      "Stack": 7973,
      "aieeaohllorto": 7974,
      "achel": 7975,
      "Jeremy": 7976,
      "TMM": 7977,
      "desk": 7978,
      "Internet": 7979,
      "Interval": 7980,
      "AMD": 7981,
      "Maddie": 7982,
      "others": 7983,
      "incent": 7984,
      "LOLcats": 7985,
      "Mitchell": 7986,
      "Okapi": 7987,
      "Skid": 7988,
      "Schlaug": 7989,
      "Ishi": 7990,
      "Popcorn": 7991,
      "Russ": 7992,
      "hhhh": 7993,
      "Winky": 7994,
      "www": 7995,
      "Elliott": 7996,
      "Leahy": 7997,
      "Mobile": 7998,
      "Research": 7999,
      "gteeeaetmtn": 8000,
      "Autodesk": 8001,
      "Show": 8002,
      "Carlton": 8003,
      "Slick": 8004,
      "Seva": 8005,
      "Tamara": 8006,
      "Franc": 8007,
      "Pranav": 8008,
      "Cas9": 8009,
      "Hotmail": 8010,
      "Henry": 8011,
      "Overflow": 8012,
      "blr": 8013,
      "mouse": 8014,
      "Proton": 8015,
      "ESPN": 8016,
      "Frates": 8017,
      "Life": 8018,
      "Oldenburg": 8019,
      "napot": 8020,
      "Breivik": 8021,
      "Hatzalah": 8022,
      "Swaptree": 8023,
      "Vioxx": 8024,
      "Witten": 8025,
      "Zinta": 8026,
      "ietnaieto": 8027,
      "Connections": 8028,
      "Sergey": 8029,
      "Katrina": 8030,
      "Napster": 8031,
      "Oshea": 8032,
      "Tumblr": 8033,
      "Tendai": 8034,
      "UCLA": 8035,
      "Zullinger": 8036,
      "Zappos": 8037,
      "guga": 8038,
      "pravastat": 8039,
      "aietotoeae": 8040,
      "aietnoieetaie": 8041,
      "ooaeetototof": 8042,
      "eaiatoeaiatn": 8043,
      "taeadpa": 8044,
      "eaaeaitfeetaoeeeaeoooo": 8045,
      "oodstoooteatn": 8046,
      "paroxetine": 8047,
      "aieeeohaooooeelo": 8048,
      "aiaaeeaaeaieeaeaeeasoooo": 8049,
      "aieaeoteatoar": 8050,
      "aieaeotaieeeeae": 8051,
      "ooaeaaaiaaeohaieee": 8052,
      "aieeaeaieotdttt": 8053,
      "aehtecaaotdaieeetc": 8054,
      "toeeaotdoetiaaeemtcoooo": 8055,
      "hohrtastoaietaieeesoooo": 8056,
      "aeaetotoetotof": 8057,
      "Carrillo": 8058,
      "Griselda": 8059,
      "pravastatin": 8060,
      "!\"": 8061,
      ").": 8062,
      "17": 8063,
      "30": 8064,
      "Af": 8065,
      "Aar": 8066,
      "Aro": 8067,
      "ACE": 8068,
      "Atten": 8069,
      "Austin": 8070,
      "Bel": 8071,
      "Ban": 8072,
      "Bang": 8073,
      "Bath": 8074,
      "Bank": 8075,
      "Bio": 8076,
      "BRD": 8077,
      "BOM": 8078,
      "Byr": 8079,
      "Betty": 8080,
      "Cy": 8081,
      "Cho": 8082,
      "Cla": 8083,
      "CSE": 8084,
      "Cath": 8085,
      "Cune": 8086,
      "CHA": 8087,
      "Dy": 8088,
      "Dry": 8089,
      "DER": 8090,
      "Es": 8091,
      "Eins": 8092,
      "Eames": 8093,
      "Erez": 8094,
      "FN": 8095,
      "FS": 8096,
      "Fe": 8097,
      "Fro": 8098,
      "Fre": 8099,
      "Fed": 8100,
      "Fish": 8101,
      "GO": 8102,
      "Get": 8103,
      "Gon": 8104,
      "GBM": 8105,
      "Gri": 8106,
      "Gott": 8107,
      "GCSE": 8108,
      "Hi": 8109,
      "Hom": 8110,
      "Hay": 8111,
      "Had": 8112,
      "Hab": 8113,
      "Hell": 8114,
      "Hawkins": 8115,
      "Ib": 8116,
      "Ir": 8117,
      "Ind": 8118,
      "IPS": 8119,
      "Ines": 8120,
      "Joha": 8121,
      "Jes": 8122,
      "Jur": 8123,
      "Jarrett": 8124,
      "KF": 8125,
      "Ku": 8126,
      "Kit": 8127,
      "Kun": 8128,
      "Kib": 8129,
      "LM": 8130,
      "Ly": 8131,
      "Little": 8132,
      "MB": 8133,
      "Mel": 8134,
      "MED": 8135,
      "May": 8136,
      "Mand": 8137,
      "Mey": 8138,
      "Mag": 8139,
      "Mug": 8140,
      "Mash": 8141,
      "Mail": 8142,
      "Mass": 8143,
      "Murra": 8144,
      "Ng": 8145,
      "NSA": 8146,
      "Nad": 8147,
      "Nike": 8148,
      "NEC": 8149,
      "OC": 8150,
      "OED": 8151,
      "Open": 8152,
      "PE": 8153,
      "Py": 8154,
      "Peer": 8155,
      "Pic": 8156,
      "Pad": 8157,
      "PJC": 8158,
      "PBS": 8159,
      "Poup": 8160,
      "Roo": 8161,
      "Raf": 8162,
      "Rah": 8163,
      "RTP": 8164,
      "Rory": 8165,
      "Rachel": 8166,
      "See": 8167,
      "Son": 8168,
      "Seth": 8169,
      "Sol": 8170,
      "Saf": 8171,
      "Sean": 8172,
      "Soth": 8173,
      "Saad": 8174,
      "TG": 8175,
      "Too": 8176,
      "Tud": 8177,
      "Tull": 8178,
      "US": 8179,
      "Up": 8180,
      "USA": 8181,
      "Uttar": 8182,
      "USC": 8183,
      "Umm": 8184,
      "Vent": 8185,
      "Vincent": 8186,
      "Wood": 8187,
      "Well": 8188,
      "With": 8189,
      "Wall": 8190,
      "XX": 8191,
      "Xbox": 8192,
      "YB": 8193,
      "bar": 8194,
      "cl": 8195,
      "cas": 8196,
      "ced": 8197,
      "cure": 8198,
      "cookie": 8199,
      "dr": 8200,
      "def": 8201,
      "efsoeo": 8202,
      "fic": 8203,
      "ford": 8204,
      "flee": 8205,
      "gro": 8206,
      "google": 8207,
      "ih": 8208,
      "ite": 8209,
      "ipa": 8210,
      "ira": 8211,
      "jam": 8212,
      "jad": 8213,
      "kar": 8214,
      "king": 8215,
      "ln": 8216,
      "lem": 8217,
      "lex": 8218,
      "little": 8219,
      "mar": 8220,
      "mic": 8221,
      "mor": 8222,
      "meen": 8223,
      "nee": 8224,
      "ome": 8225,
      "poo": 8226,
      "pla": 8227,
      "pedia": 8228,
      "port": 8229,
      "rent": 8230,
      "sy": 8231,
      "sing": 8232,
      "sig": 8233,
      "sev": 8234,
      "sky": 8235,
      "snow": 8236,
      "tz": 8237,
      "ture": 8238,
      "ua": 8239,
      "uj": 8240,
      "usa": 8241,
      "uma": 8242,
      "uce": 8243,
      "vend": 8244,
      "war": 8245,
      "wick": 8246,
      "went": 8247,
      "when": 8248,
      "walk": 8249,
      "witz": 8250,
      "ys": 8251,
      "ywhere": 8252,
      "ze": 8253,
[...]
