{
  "version": "1.0",
  "truncation": null,
  "padding": null,
  "added_tokens": [
    {
      "id": 0,
      "content": "<unk>",
      "single_word": false,
      "lstrip": false,
      "rstrip": false,
      "normalized": false,
      "special": true
    }
  ],
  "normalizer": {
    "type": "NFKC"
  },
  "pre_tokenizer": {
    "type": "Metaspace",
    "replacement": "▁",
    "add_prefix_space": true,
    "prepend_scheme": "always"
  },
  "post_processor": null,
  "decoder": {
    "type": "Metaspace",
    "replacement": "▁",
    "add_prefix_space": true,
    "prepend_scheme": "always"
  },
  "model": {
    "type": "BPE",
    "dropout": null,
    "unk_token": "<unk>",
    "continuing_subword_prefix": null,
    "end_of_word_suffix": null,
    "fuse_unk": false,
    "byte_fallback": false,
    "vocab": {
      "<unk>": 0,
      "\n": 1,
      "!": 2,
      "\"": 3,
      "#": 4,
      "$": 5,
      "%": 6,
      "&": 7,
      "'": 8,
      "(": 9,
      ")": 10,
      "*": 11,
      "+": 12,
      ",": 13,
      "-": 14,
      ".": 15,
      "/": 16,
      "0": 17,
      "1": 18,
      "2": 19,
      "3": 20,
      "4": 21,
      "5": 22,
      "6": 23,
      "7": 24,
      "8": 25,
      "9": 26,
      ":": 27,
      ";": 28,
      "<": 29,
      "=": 30,
      ">": 31,
      "?": 32,
      "@": 33,
      "A": 34,
      "B": 35,
      "C": 36,
      "D": 37,
      "E": 38,
      "F": 39,
      "G": 40,
      "H": 41,
      "I": 42,
      "J": 43,
      "K": 44,
      "L": 45,
      "M": 46,
      "N": 47,
      "O": 48,
      "P": 49,
      "Q": 50,
      "R": 51,
      "S": 52,
      "T": 53,
      "U": 54,
      "V": 55,
      "W": 56,
      "X": 57,
      "Y": 58,
      "Z": 59,
      "[": 60,
      "]": 61,
      "^": 62,
      "_": 63,
      "`": 64,
      "a": 65,
      "b": 66,
      "c": 67,
      "d": 68,
      "e": 69,
      "f": 70,
      "g": 71,
      "h": 72,
      "i": 73,
      "j": 74,
      "k": 75,
      "l": 76,
      "m": 77,
      "n": 78,
      "o": 79,
      "p": 80,
      "q": 81,
      "r": 82,
      "s": 83,
      "t": 84,
      "u": 85,
      "v": 86,
      "w": 87,
      "x": 88,
      "y": 89,
      "z": 90,
      "{": 91,
      "~": 92,
      "£": 93,
      "¥": 94,
      "©": 95,
      "«": 96,
      "®": 97,
      "°": 98,
      "¶": 99,
      "·": 100,
      "»": 101,
      "×": 102,
      "á": 103,
      "ä": 104,
      "ç": 105,
      "è": 106,
      "é": 107,
      "ê": 108,
      "í": 109,
      "ñ": 110,
      "ó": 111,
      "ö": 112,
      "ø": 113,
      "ü": 114,
      "ˎ": 115,
      "α": 116,
      "β": 117,
      "θ": 118,
      "ω": 119,
      "ย": 120,
      "ร": 121,
      "อ": 122,
      "่": 123,
      "–": 124,
      "—": 125,
      "―": 126,
      "•": 127,
      "‧": 128,
      "⁄": 129,
      "€": 130,
      "−": 131,
      "∙": 132,
      "⋯": 133,
      "─": 134,
      "▁": 135,
      "▪": 136,
      "♪": 137,
      "♫": 138,
      "。": 139,
      "〈": 140,
      "〉": 141,
      "「": 142,
      "」": 143,
      "『": 144,
      "』": 145,
      "【": 146,
      "】": 147,
      "・": 148,
      "ㄧ": 149,
      "﻿": 150,
      "ee": 151,
      "ea": 152,
      "ai": 153,
      "▁t": 154,
      "et": 155,
      "oo": 156,
      "aiee": 157,
      "eai": 158,
      "to": 159,
      "▁o": 160,
      "eea": 161,
      "eo": 162,
      "tn": 163,
      "▁ea": 164,
      "as": 165,
      "er": 166,
      "▁taiee": 167,
      "etn": 168,
      "▁ta": 169,
      "ts": 170,
      "▁et": 171,
      "eae": 172,
      "asee": 173,
      "lo": 174,
      "▁aiee": 175,
      "tso": 176,
      "▁taieetso": 177,
      "ao": 178,
      "▁oo": 179,
      "eaiee": 180,
      "eto": 181,
      "erd": 182,
      "uto": 183,
      "▁ai": 184,
      "▁oee": 185,
      "oooo": 186,
      "wn": 187,
      "▁oeeeai": 188,
      "▁,": 189,
      "aee": 190,
      "tc": 191,
      "tt": 192,
      "eot": 193,
      "hn": 194,
      "eaie": 195,
      "▁aieeea": 196,
      "hr": 197,
      "ho": 198,
      "▁e": 199,
      "aie": 200,
      "erduto": 201,
      "ta": 202,
      "▁terduto": 203,
      "eown": 204,
      "ead": 205,
      "▁tn": 206,
      "▁.": 207,
      "aa": 208,
      "llo": 209,
      "tea": 210,
      "aiea": 211,
      "▁aieeeaetn": 212,
      "▁i": 213,
      "eer": 214,
      "st": 215,
      "etc": 216,
      "gt": 217,
      "aasee": 218,
      "▁taieeaasee": 219,
      "ll": 220,
      "▁ooh": 221,
      "▁.\n": 222,
      "▁ood": 223,
      "uoo": 224,
      "lloooo": 225,
      "etaiee": 226,
      "▁eai": 227,
      "mtn": 228,
      "▁a": 229,
      "sa": 230,
      "eato": 231,
      "▁erd": 232,
      "▁oeeeaieown": 233,
      "oto": 234,
      "too": 235,
      "aot": 236,
      "ec": 237,
      "aeae": 238,
      "▁lloooo": 239,
      "eet": 240,
      "eeae": 241,
      "gte": 242,
      "▁hr": 243,
      "pa": 244,
      "eead": 245,
      "▁eato": 246,
      "▁etaeae": 247,
      "eaa": 248,
      "asa": 249,
      "▁tat": 250,
      "▁taaiea": 251,
      "▁taaieaaiee": 252,
      "ero": 253,
      "ar": 254,
      "aieee": 255,
      "▁eaa": 256,
      "iee": 257,
      "▁etasee": 258,
      "▁tt": 259,
      "▁tta": 260,
      "aiet": 261,
      "▁ot": 262,
      "▁teato": 263,
      "eeea": 264,
      "eero": 265,
      "▁too": 266,
      "toto": 267,
      "▁aiea": 268,
      "▁oeai": 269,
      "fa": 270,
      "oh": 271,
      "soooo": 272,
      "eas": 273,
      "▁oe": 274,
      "eatn": 275,
      "▁etao": 276,
      "▁oet": 277,
      "▁tn1": 278,
      "eeaasee": 279,
      "ot": 280,
      "erto": 281,
      "htn": 282,
      "▁eead": 283,
      "thn": 284,
      "▁ead": 285,
      "▁oeot": 286,
      "▁ts": 287,
      "▁tathr": 288,
      "▁ieeaasee": 289,
      "toh": 290,
      "hot": 291,
      "▁tathrto": 292,
      "sac": 293,
      "▁eaaee": 294,
      "▁elo": 295,
      "▁tasa": 296,
      "▁tasac": 297,
      "aae": 298,
      "eouoo": 299,
      "tetn": 300,
      "eee": 301,
      "ia": 302,
      "eb": 303,
      "atn": 304,
      "▁eloead": 305,
      "▁th": 306,
      "▁aee": 307,
      "etaieeeto": 308,
      "tttn": 309,
      "hre": 310,
      "llollo": 311,
      "▁m": 312,
      "▁eloeadar": 313,
      "▁aead": 314,
      "aoteaiee": 315,
      "▁aeadtc": 316,
      "▁gte": 317,
      "ha": 318,
      "▁otea": 319,
      "gg": 320,
      "eeeae": 321,
      "aaee": 322,
      "eetn": 323,
      "ktttn": 324,
      "▁moto": 325,
      "eaieeeto": 326,
      "tao": 327,
      "rto": 328,
      "▁tao": 329,
      "ii": 330,
      "iisoooo": 331,
      "ttiisoooo": 332,
      "▁toottiisoooo": 333,
      "eaetn": 334,
      "iet": 335,
      "eote": 336,
      "loasee": 337,
      "eeto": 338,
      "▁etoto": 339,
      "▁etotoatn": 340,
      "aietc": 341,
      "aieeetc": 342,
      "▁eae": 343,
      "▁etn": 344,
      "tj": 345,
      "ef": 346,
      "▁tneai": 347,
      "ouoo": 348,
      "eaieeea": 349,
      "▁teea": 350,
      "▁oeaierto": 351,
      "tctc": 352,
      "loaseetctc": 353,
      "etco": 354,
      "▁oeaiertoetco": 355,
      "▁\"": 356,
      "▁taea": 357,
      "▁oeto": 358,
      "▁loaseetctc": 359,
      "▁aeadtcee": 360,
      "▁oest": 361,
      "aotoh": 362,
      "▁tneaiaoteaiee": 363,
      "▁oeeeaiet": 364,
      "▁aotoh": 365,
      "aieai": 366,
      "▁s": 367,
      "▁aii": 368,
      "taiee": 369,
      "eetpa": 370,
      "▁eaier": 371,
      "▁eaie": 372,
      "▁eaetaiee": 373,
      "eaieea": 374,
      "stt": 375,
      "▁oeeeaie": 376,
      "asaa": 377,
      "▁aieto": 378,
      "▁etn1": 379,
      "▁teot": 380,
      "▁tea": 381,
      "aaegte": 382,
      "▁eaiaaegte": 383,
      "aieeeto": 384,
      "▁oeeeaietn": 385,
      "▁to": 386,
      "ieb": 387,
      "▁ooa": 388,
      "eaieeeae": 389,
      "▁seetpa": 390,
      "▁aieeeaeero": 391,
      "eeta": 392,
      "▁gt": 393,
      "tv": 394,
      "▁oohtc": 395,
      "th": 396,
      "▁taee": 397,
      "own": 398,
      "toot": 399,
      "iec": 400,
      "hotho": 401,
      "▁teoteo": 402,
      "taoeeeae": 403,
      "▁teatoaie": 404,
      "▁aie": 405,
      "eeae1": 406,
      "eatoeatn": 407,
      "▁teeae1": 408,
      "etmtn": 409,
      "duto": 410,
      "aoteot": 411,
      "▁aaoteot": 412,
      "▁ttiet": 413,
      "▁ttiettea": 414,
      "▁thotho": 415,
      "etktttn": 416,
      "▁eaaeeeto": 417,
      "▁oeteatoeatn": 418,
      "aietetn": 419,
      "eerto": 420,
      "ieeoh": 421,
      "▁oeeeaieo": 422,
      "e0": 423,
      "ttea": 424,
      "▁eaeaetn": 425,
      "eeadero": 426,
      "toown": 427,
      "▁oeteatoeatnllo": 428,
      "oe": 429,
      "▁gteaie": 430,
      "totoieeoh": 431,
      "ae": 432,
      "▁taeetotoieeoh": 433,
      "hottn": 434,
      "easee": 435,
      "teeae": 436,
      "ieer": 437,
      "▁eatoaiee": 438,
      "eeaeo": 439,
      "aieemtn": 440,
      "▁teet": 441,
      "tjho": 442,
      "▁oeeeaietnaietc": 443,
      "aiaaee": 444,
      "▁as": 445,
      "▁taieee": 446,
      "uo": 447,
      "▁teetaieee": 448,
      "shtn": 449,
      "▁eatoaieeeouoo": 450,
      "so": 451,
      "▁eeadaieeetc": 452,
      "aieown": 453,
      "▁oh": 454,
      "iaec": 455,
      "▁ttaieemtn": 456,
      "aieee1": 457,
      "▁eatoot": 458,
      "▁pa": 459,
      "faet": 460,
      "▁tead": 461,
      "eeaeoshtn": 462,
      "▁eatooteeaeoshtn": 463,
      "▁tae": 464,
      "▁tseea": 465,
      "eoha": 466,
      "▁aaoteoteeadero": 467,
      "eohaoooo": 468,
      "teaee": 469,
      "▁tsee": 470,
      "▁etasaa": 471,
      "▁eohaoooo": 472,
      "asaieown": 473,
      "▁aiiasaieown": 474,
      "▁eadsac": 475,
      "aeed": 476,
      "ooooo": 477,
      "▁taaieee1": 478,
      "▁0": 479,
      "tsee": 480,
      "▁teatot": 481,
      "▁aietoe": 482,
      "▁sac": 483,
      "suto": 484,
      "eaieeaee": 485,
      "ht": 486,
      "eaieetn": 487,
      "faa": 488,
      "▁st": 489,
      "▁eaieieer": 490,
      "eeaot": 491,
      "▁eaetaieepa": 492,
      "aieae": 493,
      "tf": 494,
      "▁hottn": 495,
      "iebtjho": 496,
      "▁?": 497,
      "eeasoooo": 498,
      "eaier": 499,
      "eaiea": 500,
      "eaieeead": 501,
      "▁hottniebtjho": 502,
      "▁iec": 503,
      "▁otetaiee": 504,
      "tnoo": 505,
      "eeaeet": 506,
      "▁oeaieeaeet": 507,
      "▁oeaieeaeetmtn": 508,
      "ieem": 509,
      "ggg": 510,
      "aieeeero": 511,
      "▁ttaaieeeero": 512,
      "▁oesttnoo": 513,
      "▁oohetktttn": 514,
      "▁teatoteaieeeae": 515,
      "▁otee": 516,
      "llothn": 517,
      "▁ttallothn": 518,
      "▁taeaaietetn": 519,
      "▁teeaea": 520,
      "eaeee": 521,
      "aieaieae": 522,
      "htec": 523,
      "▁eaaiee": 524,
      "soeo": 525,
      "▁etsuto": 526,
      "▁aotohaieaieae": 527,
      "fia": 528,
      "fiaeaieeeto": 529,
      "▁taeetotoieeohhre": 530,
      "▁hre0": 531,
      "▁aieeeatn": 532,
      "ooetn": 533,
      "faafa": 534,
      "eoteaiee": 535,
      "ttt": 536,
      "▁eaieeea": 537,
      "ooetnooooo": 538,
      "eeatn": 539,
      "etouto": 540,
      "ooh": 541,
      "▁oohfiaeaieeeto": 542,
      "gggeae": 543,
      "▁tateaee": 544,
      "▁oeoteaiee": 545,
      "▁faafa": 546,
      "▁faet": 547,
      "eaieeeaa": 548,
      "llolloetouto": 549,
      "eeaotd": 550,
      "▁oetod": 551,
      "thoo": 552,
      "▁otetaieeeown": 553,
      "▁thooetnooooo": 554,
      "▁toeeaotd": 555,
      "eeaeasee": 556,
      "eaieduto": 557,
      "aetn": 558,
      "eaeero": 559,
      "teato": 560,
      "em": 561,
      "tstt": 562,
      "▁oohto": 563,
      "eaae": 564,
      "▁ohao": 565,
      "▁eaelo": 566,
      "thtn": 567,
      "▁oha": 568,
      "▁teeto": 569,
      "tahn": 570,
      "▁aieeeatn2": 571,
      "eoteea": 572,
      "▁eao": 573,
      "etao": 574,
      "▁gtehre": 575,
      "▁oodts": 576,
      "egggeae": 577,
      "▁tnst": 578,
      "llorto": 579,
      "▁aieai": 580,
      "▁oteea": 581,
      "▁oodtshn": 582,
      "▁oeeeaieea": 583,
      "▁ieeaaseeeeta": 584,
      "aietktttn": 585,
      "aseeet": 586,
      "mtoown": 587,
      "etaieee": 588,
      "aeedhn": 589,
      "od": 590,
      "▁llooooegggeae": 591,
      "▁aieeeaaeedhn": 592,
      "eaieai": 593,
      "aeaie": 594,
      "aieaeo": 595,
      "▁iet": 596,
      "eta": 597,
      "eaiedutoe": 598,
      "▁aieaiedutoe": 599,
      "▁ohn": 600,
      "tjhn": 601,
      "▁aseaie": 602,
      "tto": 603,
      "▁teadtstt": 604,
      "aeer": 605,
      "▁oteeetaieee": 606,
      "▁aiaaee": 607,
      "aietmtoown": 608,
      "▁aiaaeeaietmtoown": 609,
      "ltto": 610,
      "llollof": 611,
      "▁-": 612,
      "▁etaiee": 613,
      "▁taoeeea": 614,
      "▁erdo": 615,
      "eear": 616,
      "eetn0": 617,
      "totoaetn": 618,
      "mtc": 619,
      "▁?\n": 620,
      "dtn": 621,
      "▁ho": 622,
      "eetc": 623,
      "aiaae": 624,
      "efsoeo": 625,
      "taoeeea": 626,
      "▁ae": 627,
      "▁ieb": 628,
      "etoo": 629,
      "▁teetoaie": 630,
      "▁ttaeer": 631,
      "eaieeeadst": 632,
      "▁ttatotoaetn": 633,
      "▁teaieeeadst": 634,
      "tseea": 635,
      "▁ieeaaseeaie": 636,
      "eaieeeaaetmtn": 637,
      "tot": 638,
      "lloooolloooo": 639,
      "eaieaieeeaaetmtn": 640,
      "aote": 641,
      "euto": 642,
      "▁:": 643,
      "▁thtseea": 644,
      "aieasa": 645,
      "▁aotohaieasa": 646,
      "eaed": 647,
      "▁od": 648,
      "▁eatn": 649,
      "▁oeeeaielloooolloooo": 650,
      "▁aieaead": 651,
      "▁oeoteaieeouoo": 652,
      "▁oeeeaieoeaieaieeeaaetmtn": 653,
      "tneaie": 654,
      "eaelo": 655,
      "▁oodeaelo": 656,
      "▁1": 657,
      "ohasee": 658,
      "aiaa": 659,
      "▁oteaaote": 660,
      "aieaie": 661,
      "▁aeeeaeee": 662,
      "▁eaet": 663,
      "▁oteato": 664,
      "thnaie": 665,
      "loaie": 666,
      "aiaaeee": 667,
      "▁etaiaaeee": 668,
      "▁eaieetn": 669,
      "▁eaeaetniec": 670,
      "▁eaitf": 671,
      "▁aiaiee": 672,
      "▁oeeeaielloooollooootetn": 673,
      "eeeaie": 674,
      "▁aiiohasee": 675,
      "▁iee": 676,
      "▁aieaetn": 677,
      "eeex": 678,
      "▁oestt": 679,
      "▁ooateeae": 680,
      "▁st1": 681,
      "▁aiot": 682,
      "etoto": 683,
      "▁eatollolloetouto": 684,
      "aieote": 685,
      "aseea": 686,
      "etetn": 687,
      "▁oeoteerto": 688,
      "▁erdiaec": 689,
      "▁faetthoo": 690,
      "▁faetthooero": 691,
      "seear": 692,
      "aiei": 693,
      "aieaaee": 694,
      "▁eaeae": 695,
      "▁aehtec": 696,
      "tohtahn": 697,
      "▁ohatohtahn": 698,
      "▁ieeaaseeaiee": 699,
      "aieaaeeaieote": 700,
      "aieaietao": 701,
      "eoh": 702,
      "ieemtn": 703,
      "▁aieeeaetnetaieeeto": 704,
      "▁eaaeed": 705,
      "▁oteaseear": 706,
      "eaedoooo": 707,
      "toouoo": 708,
      "erodtn": 709,
      "▁aioteaedoooo": 710,
      "oouoo": 711,
      "▁eetn0": 712,
      "▁—": 713,
      "rhtn": 714,
      "taea": 715,
      "▁ieeaaseellollof": 716,
      "▁ieeaaseellolloftaea": 717,
      "▁taeai": 718,
      "▁eaaef": 719,
      "▁aieeaiea": 720,
      "▁tho": 721,
      "aieeaee": 722,
      "▁erdoeote": 723,
      "▁ooaeeaeasee": 724,
      "▁rto": 725,
      "▁eae2": 726,
      "▁eea": 727,
      "aito": 728,
      "▁eaeai": 729,
      "gtetetn": 730,
      "▁aiiohaseeaieaaeeaieote": 731,
      "▁aieeaieagtetetn": 732,
      "▁odthtn": 733,
      "▁tneaie": 734,
      "▁eaiea": 735,
      "▁eeadaieeaee": 736,
      "▁taeaa": 737,
      "▁aioteaedooooaeaie": 738,
      "▁eaieduto": 739,
      "haietktttn": 740,
      "▁tathaietktttn": 741,
      "▁llooooea": 742,
      "utoouoo": 743,
      "▁oetta": 744,
      "▁taoeeeaeown": 745,
      "taieerto": 746,
      "▁taeeex": 747,
      "▁gtesac": 748,
      "▁tk": 749,
      "teatn": 750,
      "eaieutoouoo": 751,
      "▁teaieeaee": 752,
      "▁tatc": 753,
      "▁eaeeasoooo": 754,
      "▁emtc": 755,
      "eaaee": 756,
      "etno": 757,
      "▁eteaieutoouoo": 758,
      "ta0": 759,
      "▁aieaetnta0": 760,
      "aaeaieeeto": 761,
      "▁oteeaeetn": 762,
      "aeoooo": 763,
      "easa": 764,
      "▁tneeae": 765,
      "▁iem": 766,
      "▁aieae": 767,
      "▁eohaooooet": 768,
      "▁eatoaieee": 769,
      "me": 770,
      "▁eatoaieee2": 771,
      "tho": 772,
      "stteea": 773,
      "aie0": 774,
      "▁thtseeastteea": 775,
      "eotd": 776,
      "▁aieee": 777,
      "▁teeaaa": 778,
      "oelo": 779,
      "oea": 780,
      "▁llooootneaie": 781,
      "▁\"\n": 782,
      "eeawn": 783,
      "▁taeaier": 784,
      "jhn": 785,
      "teaaie": 786,
      "toooea": 787,
      "▁eaaieeeeto": 788,
      "▁oeoteertottea": 789,
      "etstt": 790,
      "aieteetn": 791,
      "▁ooheaetn": 792,
      "▁taoeeeaie": 793,
      "oeai": 794,
      "▁eohaooooetasaa": 795,
      "eaiepa": 796,
      "▁oeoteaiepa": 797,
      "eaaie": 798,
      "▁eaitfe": 799,
      "▁aea": 800,
      "▁2": 801,
      "▁ouoo": 802,
      "▁eatne": 803,
      "▁tefsoeo": 804,
      "▁gteloaie": 805,
      "etaiaaee": 806,
      "etaiaaeeouoo": 807,
      "▁oodo": 808,
      "▁taaieteetn": 809,
      "ieemo": 810,
      "▁taeaietn": 811,
      "aietn": 812,
      "eterduto": 813,
      "▁iec0": 814,
      "erodtno": 815,
      "eaaehn": 816,
      "eaieown": 817,
      "aieec": 818,
      "easaee": 819,
      "▁eaaaieaietao": 820,
      "at": 821,
      "eeeaeaiee": 822,
      "▁taeeexaieeeto": 823,
      "eaieaietoto": 824,
      "▁oeteaaehn": 825,
      "▁teeaaaaeoooo": 826,
      "easeaa": 827,
      "aieeetn": 828,
      "▁eohaooooaieec": 829,
      "▁taseeet": 830,
      "▁eaeee": 831,
      "stoouoo": 832,
      "▁oeeeaiestoouoo": 833,
      "oho": 834,
      "eoteaieeuto": 835,
      "▁eeta": 836,
      "asad": 837,
      "▁oettataoeeea": 838,
      "ro": 839,
      "▁aieee0": 840,
      "▁oettataoeeeaeouoo": 841,
      "iebat": 842,
      "▁,\n": 843,
      "▁ttaea": 844,
      "▁easa": 845,
      "▁hrd": 846,
      "▁aies": 847,
      "▁aieetsee": 848,
      "hrd": 849,
      "▁oodteaaie": 850,
      "▁iec1": 851,
      "▁hoaseea": 852,
      "▁hoaseeaown": 853,
      "▁aieeeto": 854,
      "etooetaieeeto": 855,
      "▁oteatoetooetaieeeto": 856,
      "▁eto": 857,
      "staie": 858,
      "tneaieaietoto": 859,
      "aieeetstt": 860,
      "▁taei": 861,
      "aieeeae": 862,
      "▁aieeeaieeaee": 863,
      "▁tnlo": 864,
      "easaie": 865,
      "saa": 866,
      "uoto": 867,
      "▁teeasaa": 868,
      "tai": 869,
      "▁teadeaeero": 870,
      "▁teaeaieown": 871,
      "▁ttea": 872,
      "eoteeea": 873,
      "▁teoteoiebat": 874,
      "▁eeaduo": 875,
      "eeaa": 876,
      "▁etai": 877,
      "ttoo": 878,
      "aehtec": 879,
      "▁staie0": 880,
      "oero": 881,
      "▁etho": 882,
      "eadtv": 883,
      "▁eaaeeetottea": 884,
      "▁eaeeemtn": 885,
      "eahn": 886,
      "oteato": 887,
      "eaief": 888,
      "▁ettaieerto": 889,
      "▁ee": 890,
      "▁oeeeaiee": 891,
      "▁oeeeaietjhn": 892,
      "ieet": 893,
      "▁taeetotoieeohaieeetc": 894,
      "▁erdoeotegte": 895,
      "▁eaieeatn": 896,
      "▁teer": 897,
      "oeltto": 898,
      "eev": 899,
      "eaieaeto": 900,
      "▁llooooeaeaie": 901,
      "aieeasad": 902,
      "eaieetno": 903,
      "etteeae": 904,
      "mo": 905,
      "▁oeaieasaie": 906,
      "▁teatoar": 907,
      "aieeee": 908,
      "▁hrdoeltto": 909,
      "▁eatoeaa": 910,
      "▁easatoto": 911,
      "asaie": 912,
      "▁taeuo": 913,
      "aieie": 914,
      "hoe": 915,
      "tohhn": 916,
      "etneae": 917,
      "▁eaaeeetneae": 918,
      "▁5": 919,
      "▁ieeeeawn": 920,
      "▁erdaiee": 921,
      "oeaierto": 922,
      "▁aieea": 923,
      "▁tn2": 924,
      "▁teatoaieeeae": 925,
      "▁aieeoeaierto": 926,
      "otea": 927,
      "elo": 928,
      "aieeasado": 929,
      "eaieaief": 930,
      "▁eaieaieaief": 931,
      "tooeer": 932,
      "▁ttaeatooeer": 933,
      "aseeetero": 934,
      "▁eas": 935,
      "▁oeeeaietaseeetero": 936,
      "eea1": 937,
      "llolloeatn": 938,
      "▁oeeeaietneaseaa": 939,
      "▁llooooas": 940,
      "▁oeeeaieteea": 941,
      "▁oeeeaieteaaie": 942,
      "▁eeaetmtn": 943,
      "hrdtetn": 944,
      "▁p": 945,
      "▁teatoooea": 946,
      "▁eeaderodtno": 947,
      "▁tateea1": 948,
      "▁oheaieeea": 949,
      "eaeae": 950,
      "▁oodt": 951,
      "eaieote": 952,
      "aieeatn": 953,
      "eaaemtn": 954,
      "eloeae": 955,
      "▁ieteaaemtn": 956,
      "eaaeee": 957,
      "eeeatn": 958,
      "tsaie": 959,
      "easto": 960,
      "▁aieee2": 961,
      "lh": 962,
      "▁taoeote": 963,
      "eaitf": 964,
      "▁erdaieeeaetn": 965,
      "▁aieaieetno": 966,
      "eltto": 967,
      "eaitfee": 968,
      "hneerto": 969,
      "eotea": 970,
      "thoohneerto": 971,
      "▁oeeae": 972,
      "▁thoao": 973,
      "▁taeiee": 974,
      "▁thn": 975,
      "aai": 976,
      "▁aiaieeaai": 977,
      "▁aiaieeaaiaieee": 978,
      "▁tnoh": 979,
      "▁eaethrdtetn": 980,
      "ets": 981,
      "▁oetoetteeae": 982,
      "gtaito": 983,
      "gggtaito": 984,
      "gggtaitoe": 985,
      "▁tootohhn": 986,
      "aiear": 987,
      "▁taa": 988,
      "▁llolloetouto": 989,
      "etn0": 990,
      "▁oodi": 991,
      "iettc": 992,
      "▁oodet": 993,
      "▁aieaieetnoaieaie": 994,
      "haetn": 995,
      "▁tseegggtaitoe": 996,
      "▁oesttetn": 997,
      "▁tateae": 998,
      "▁oetodeasto": 999,
      "▁ooheetc": 1000,
      "▁aaoteoteeeatn": 1001,
      "etasa": 1002,
      "▁hohr": 1003,
      "aoeeeae": 1004,
      "tetn0": 1005,
      "la": 1006,
      "▁oodietn0": 1007,
      "▁atot": 1008,
      "▁rhtn": 1009,
      "▁eaaieeee": 1010,
      "uoothn": 1011,
      "▁lloooooelo": 1012,
      "▁lloooooelotc": 1013,
      "▁eatoo": 1014,
      "▁taeaaeaieeeae": 1015,
      "▁otto": 1016,
      "▁eaieaf": 1017,
      "eaaeaiee": 1018,
      "▁teev": 1019,
      "▁tooieet": 1020,
      "▁tooieetaiear": 1021,
      "▁iemtetn0": 1022,
      "oooh": 1023,
      "eoteaie": 1024,
      "▁erdeahn": 1025,
      "ttn": 1026,
      "▁astn": 1027,
      "▁twn": 1028,
      "▁eaaaieaietaoeeeaeaiee": 1029,
      "▁eaaaieaietaoeeeaeaieeetc": 1030,
      "lolo": 1031,
      "ood": 1032,
      "etho": 1033,
      "▁easaee": 1034,
      "eatt": 1035,
      "ohasa": 1036,
      "▁tasaie": 1037,
      "iod": 1038,
      "etcohasa": 1039,
      "▁aieiettc": 1040,
      "▁etaieeeta": 1041,
      "▁taeieetc": 1042,
      "etoeadtv": 1043,
      "▁oohtotv": 1044,
      "ert": 1045,
      "▁tllorto": 1046,
      "eohtaoeeeae": 1047,
      "▁etaieohtaoeeeae": 1048,
      "ooohaieie": 1049,
      "ieemto": 1050,
      "▁eaaetcohasa": 1051,
      "tar": 1052,
      "▁oeeeaieeead": 1053,
      "▁oeeeaieeeaduo": 1054,
      "aieea": 1055,
      "▁thothotsaie": 1056,
      "▁eee": 1057,
      "▁teote": 1058,
      "▁ea1": 1059,
      "▁teaeaie": 1060,
      "▁aiestar": 1061,
      "▁aiestar0": 1062,
      "▁aieaeouoo": 1063,
      "eaaeed": 1064,
      "▁eadaieeetstt": 1065,
      "▁taaieeatn": 1066,
      "▁teaee": 1067,
      "fsoeo": 1068,
      "toeatn": 1069,
      "thntv": 1070,
      "▁aehtecthntv": 1071,
      "▁teaeeouoo": 1072,
      "htahn": 1073,
      "eeead": 1074,
      "▁ohaoeae": 1075,
      "eeeadetaiaaeeouoo": 1076,
      "eeadoero": 1077,
      "▁eaaeaieeeto": 1078,
      "▁oetoto": 1079,
      "tthn": 1080,
      "o0": 1081,
      "etoown": 1082,
      "totototo": 1083,
      "mtsee": 1084,
      "▁oemtsee": 1085,
      "▁oemtseeeeae": 1086,
      "▁erdeuto": 1087,
      "▁oheaieeeaown": 1088,
      "▁etno0": 1089,
      "aaeeerto": 1090,
      "▁thaietktttn": 1091,
      "sahn": 1092,
      "oeoteaiee": 1093,
      "▁thoaie": 1094,
      "▁toto": 1095,
      "▁taiei": 1096,
      "asatotototo": 1097,
      "▁9": 1098,
      "aiaoteaiee": 1099,
      "▁aieeoeaiertottt": 1100,
      "est": 1101,
      "▁oeeeaieoeoteaieeuto": 1102,
      "eoef": 1103,
      "oteoef": 1104,
      "▁llooooasoteoef": 1105,
      "town": 1106,
      "tac": 1107,
      "▁oeeeaieoeltto": 1108,
      "▁eotea": 1109,
      "▁eaaietc": 1110,
      "▁etoasatotototo": 1111,
      "▁erdaehtec": 1112,
      "▁erdaehtecetktttn": 1113,
      "▁aieae1": 1114,
      "▁thiaec": 1115,
      "▁oeotas": 1116,
      "▁eeae": 1117,
      "▁oeasa": 1118,
      "▁aieaieaie": 1119,
      "▁eaeoteea": 1120,
      "eeaeoteea": 1121,
      "aieaeoooo": 1122,
      "▁eloeae": 1123,
      "eoteeeaown": 1124,
      "▁llooooaieee": 1125,
      "▁3": 1126,
      "▁eaaaieeasado": 1127,
      "▁eaaeeeeeadetaiaaeeouoo": 1128,
      "▁toot": 1129,
      "▁aieeetc": 1130,
      "▁aieeetc1": 1131,
      "xx": 1132,
      "eaiaaeaieeeto": 1133,
      "▁oetn": 1134,
      "▁aot": 1135,
      "▁eaeoteeeaown": 1136,
      "▁eaieato": 1137,
      "▁ohaoaieeetc": 1138,
      "taitho": 1139,
      "▁oeeeaieeeaa": 1140,
      "▁oeeeaieeeaaeasaee": 1141,
      "▁oodtefsoeo": 1142,
      "▁eaaeaieeetotaoeeeae": 1143,
      "aoa": 1144,
      "eu": 1145,
      "eaieaieae": 1146,
      "meuo": 1147,
      "aieerto": 1148,
      "st0": 1149,
      "eadtetn": 1150,
      "tae": 1151,
      "▁eaieotd": 1152,
      "▁eaieotdetaieeeto": 1153,
      "▁aieeaeeasoooo": 1154,
      "ahre": 1155,
      "▁etahre": 1156,
      "▁ieeea": 1157,
      "▁aieeteeae": 1158,
      "▁aieeteeae0": 1159,
      "otaieerto": 1160,
      "▁aiest0": 1161,
      "aslo": 1162,
      "▁taathn": 1163,
      "▁tneaiesa": 1164,
      "▁eaeeasooootneaieaietoto": 1165,
      "▁eaeadtetn": 1166,
      "▁teoteoeaeero": 1167,
      "eaieethn": 1168,
      "taoeeeaehn": 1169,
      "▁eaexx": 1170,
      "▁aieaieaieeea": 1171,
      "▁eaaeeetotsee": 1172,
      "▁aeaeatt": 1173,
      "▁taieellolloeatn": 1174,
      "▁teevoteato": 1175,
      "▁eetattt": 1176,
      "▁eerto": 1177,
      "▁taieetso\n": 1178,
      "aotasee": 1179,
      "aiaaeeaeoteea": 1180,
      "es": 1181,
      "▁taieeeouoo": 1182,
      "▁oodooh": 1183,
      "teao": 1184,
      "▁oeeeaietteao": 1185,
      "▁tnoho": 1186,
      "▁oteeaeterduto": 1187,
      "tcaiee": 1188,
      "▁thnaie": 1189,
      "ataoeeeaehn": 1190,
      "eoero": 1191,
      "▁iemeu": 1192,
      "ohtoeatn": 1193,
      "taithoeouoo": 1194,
      "▁teoteooohaieie": 1195,
      "▁oeeeaieiec": 1196,
      "▁eatoeaaaieeetn": 1197,
      "aieae1": 1198,
      "eaiaaeeerto": 1199,
      "▁ohaoaieea": 1200,
      "▁aietn": 1201,
      "ethoar": 1202,
      "▁taethoar": 1203,
      "▁oohtoeae": 1204,
      "▁taeaieea": 1205,
      "▁taeaieeaeoero": 1206,
      "▁erder": 1207,
      "▁ouoto": 1208,
      "▁oodooheaieaeto": 1209,
      "tsiec": 1210,
      "tetneaeae": 1211,
      "▁eaieatotetneaeae": 1212,
      "▁eaeaetnem": 1213,
      "▁eaeaetnemuto": 1214,
      "▁oetotn": 1215,
      "eeaaeasaee": 1216,
      "oeoteaieetc": 1217,
      "▁teeasaar": 1218,
      "▁tthn": 1219,
      "▁pathoohneerto": 1220,
      "ma": 1221,
      "▁erdeaeero": 1222,
      "▁ttso": 1223,
      "▁em": 1224,
      "etsaieaeo": 1225,
      "aiaaetsaieaeo": 1226,
      "▁eaaietetn": 1227,
      "▁hn": 1228,
      "▁eadetaieeeto": 1229,
      "houoothn": 1230,
      "eaeeemtn": 1231,
      "dst": 1232,
      "▁eaats": 1233,
      "▁aieedst": 1234,
      "▁teaetc": 1235,
      "oelotac": 1236,
      "ttoottn": 1237,
      "▁eaeeadero": 1238,
      "afaet": 1239,
      "ieceaa": 1240,
      "sod": 1241,
      "tnaie": 1242,
      "eeao": 1243,
      "▁aiaa": 1244,
      "tsto": 1245,
      "lr": 1246,
      "▁eeatn": 1247,
      "aieeetoar": 1248,
      "tooes": 1249,
      "▁taieeeooh": 1250,
      "taeiee": 1251,
      "tooestown": 1252,
      "▁taieeeoohtooestown": 1253,
      "▁4": 1254,
      "ieeaasee": 1255,
      "▁odthtnaieeeto": 1256,
      "▁aieestaie": 1257,
      "etotn": 1258,
      "eaeaie": 1259,
      "oieemto": 1260,
      "▁eteeto": 1261,
      "▁eteetof": 1262,
      "tjhoeaitfee": 1263,
      "▁eteetoftjhoeaitfee": 1264,
      "▁aieestaieoooo": 1265,
      "▁iecieceaa": 1266,
      "▁iecieceaaetoown": 1267,
      "eaieotd": 1268,
      "▁tkt": 1269,
      "▁oestte": 1270,
      "▁oohgte": 1271,
      "ellollof": 1272,
      "llolloellollof": 1273,
      "pao": 1274,
      "▁oohhre": 1275,
      "▁llooooaieae1": 1276,
      "▁eaata": 1277,
      "▁oeote": 1278,
      "▁aotetc": 1279,
      "▁llooooo": 1280,
      "▁aieiaec": 1281,
      "▁aieiaec0": 1282,
      "eaieeeaeuto": 1283,
      "▁aieaieaieeeaeuto": 1284,
      "▁teoteoaiee": 1285,
      "▁toetasa": 1286,
      "hottneaieote": 1287,
      "▁afa": 1288,
      "▁teoteoaieeeeta": 1289,
      "▁eetaar": 1290,
      "▁oett": 1291,
      "▁aieaieeeto": 1292,
      "▁aieaieeeto0": 1293,
      "▁oodoelotac": 1294,
      "eaieel": 1295,
      "▁ttaetaiaaeeouoo": 1296,
      "ietas": 1297,
      "tohouoothn": 1298,
      "▁tootohouoothn": 1299,
      "aiesa": 1300,
      "iaet": 1301,
      "▁eaeiaet": 1302,
      "▁tv": 1303,
      "▁llooootaiee": 1304,
      "tjhneaaeee": 1305,
      "▁eaeiaettjhneaaeee": 1306,
      "tteaaieeeto": 1307,
      "▁tteatteaaieeeto": 1308,
      "▁erdooh": 1309,
      "▁thaieaeoooo": 1310,
      "▁etaie": 1311,
      "▁eatoeaiaaeeerto": 1312,
      "▁llooootso": 1313,
      "▁eaexxeae": 1314,
      "tnttt": 1315,
      "mta": 1316,
      "llollomta": 1317,
      "▁eaaeedllollomta": 1318,
      "▁eaaeedllollomtaae": 1319,
      "ie": 1320,
      "etaoeeeae": 1321,
      "▁llooootaithoeouoo": 1322,
      "ieea": 1323,
      "aietmtn": 1324,
      "▁oodettaieerto": 1325,
      "▁aiema": 1326,
      "▁oodeaa": 1327,
      "▁ooaietn": 1328,
      "▁oodaieeetoar": 1329,
      "roetmtn": 1330,
      "▁teeasaaroetmtn": 1331,
      "▁llooootaieerhtn": 1332,
      "eeaote": 1333,
      "taieeasa": 1334,
      "teatoteatn": 1335,
      "▁`": 1336,
      "▁eaaaietn": 1337,
      "▁oeotd": 1338,
      "▁aieaeadieemtn": 1339,
      "faaslo": 1340,
      "▁tneeaote": 1341,
      "▁eeatn0": 1342,
      "▁etteatoteatn": 1343,
      "teo": 1344,
      "eeasa": 1345,
      "▁ma": 1346,
      "▁eaatsaietetn": 1347,
      "▁v": 1348,
      "▁taathnerto": 1349,
      "taee": 1350,
      "▁ll": 1351,
      "toieemo": 1352,
      "▁lltoieemo": 1353,
      "▁oeeeaieottoottn": 1354,
      "▁matetn": 1355,
      "eaieeeatn": 1356,
      "mn": 1357,
      "▁eetaareae": 1358,
      "ttmn": 1359,
      "▁eaettc": 1360,
      "▁eaeaieoteaie": 1361,
      "eemtn": 1362,
      "▁oodloaie": 1363,
      "▁eaatatc": 1364,
      "etatoown": 1365,
      "▁eaeaietatoown": 1366,
      "▁oeeeaie0": 1367,
      "▁iebeaeeemtn": 1368,
      "ethtn": 1369,
      "▁etteatoteatnaeae": 1370,
      "etoeadtvo": 1371,
      "eelo": 1372,
      "▁emst": 1373,
      "▁eaeeaderotaieeasa": 1374,
      "▁aieeaee": 1375,
      "▁aieeaee1": 1376,
      "▁8": 1377,
      "oestt": 1378,
      "etea": 1379,
      "ieeaaseeaiee": 1380,
      "▁teoteoieeaaseeaiee": 1381,
      "▁eaaeedhn": 1382,
      "taieaeo": 1383,
      "▁aieeeeto": 1384,
      "▁ethotc": 1385,
      "thaietc": 1386,
      "eutoeuto": 1387,
      "eae1": 1388,
      "aiaaeeaietmtn": 1389,
      "▁eeadaiaaeeaietmtn": 1390,
      "oteaee": 1391,
      "oteaeeoooo": 1392,
      "dtc": 1393,
      "▁oodoeeae": 1394,
      "eaieaf": 1395,
      "▁teetn0": 1396,
      "▁oeaie": 1397,
      "▁taieieeasa": 1398,
      "oteea": 1399,
      "eeeaeee": 1400,
      "▁oeeeaieeaieaie": 1401,
      "eaeeasoooo": 1402,
      "▁aieaeadthnaie": 1403,
      "ttetaieeeto": 1404,
      "aiehoe": 1405,
      "lrt": 1406,
      "ief": 1407,
      "teea": 1408,
      "hraiehoe": 1409,
      "▁eatohraiehoe": 1410,
      "▁tttetaieeeto": 1411,
      "eaieeadoero": 1412,
      "▁eaieeeaeaieeadoero": 1413,
      "hoetaieeeto": 1414,
      "▁ieeeaeaiee": 1415,
      "▁iebta": 1416,
      "▁eaaeeeatn": 1417,
      "fatjhn": 1418,
      "▁eaieeeafatjhn": 1419,
      "▁6": 1420,
      "oetaieeeto": 1421,
      "▁aieello": 1422,
      "lloooooetaieeeto": 1423,
      "▁aieellolloooooetaieeeto": 1424,
      "▁eaaaieaietaoeeea": 1425,
      "otoaoa": 1426,
      "▁eaaaieaietaoeeeaethtn": 1427,
      "▁aieaeo": 1428,
      "faaslotaoeeeae": 1429,
      "rod": 1430,
      "▁oetofaaslotaoeeeae": 1431,
      "eaaeedho": 1432,
      "eetea": 1433,
      "▁eaeteb": 1434,
      "▁eatoea": 1435,
      "eotas": 1436,
      "▁otetaieeeownero": 1437,
      "▁eatoeeaaeasaee": 1438,
      "▁toohoetaieeeto": 1439,
      "▁oodotoaoa": 1440,
      "▁seaie": 1441,
      "tnst": 1442,
      "eaieaee": 1443,
      "▁hr\n": 1444,
      "ktt": 1445,
      "▁teatotoot": 1446,
      "oel": 1447,
      "gteeatn": 1448,
      "▁oohgteeatn": 1449,
      "▁ieto": 1450,
      "oeltc": 1451,
      "▁tsee1": 1452,
      "▁etoeaier": 1453,
      "tota": 1454,
      "eotetn": 1455,
      "totv": 1456,
      "▁aie0": 1457,
      "▁vtotv": 1458,
      "▁vtotvtota": 1459,
      "dc": 1460,
      "▁tteaown": 1461,
      "▁tnoieemto": 1462,
      "▁eaao": 1463,
      "▁lloooot": 1464,
      "tclo": 1465,
      "▁gteea": 1466,
      "paoeoteaiee": 1467,
      "▁lltoieemopaoeoteaiee": 1468,
      "▁ia": 1469,
      "▁eaaeto": 1470,
      "▁taiaa": 1471,
      "etatttn": 1472,
      "▁taiaaetatttn": 1473,
      "▁oodaotasee": 1474,
      "dtjhn": 1475,
      "▁taeedtjhn": 1476,
      "pt": 1477,
      "▁ethoar": 1478,
      "▁ttsoeot": 1479,
      "▁eaaea": 1480,
      "aieaietaoeeeae": 1481,
      "▁taoeeae": 1482,
      "▁ieblo": 1483,
      "▁iebloaieaeo": 1484,
      "▁asotea": 1485,
      "▁eetc": 1486,
      "▁oodaietc": 1487,
      "▁eetc0": 1488,
      "ttmntaee": 1489,
      "tsoooo": 1490,
      "▁eaeaetneaaeedho": 1491,
      "taeieetsoooo": 1492,
      "▁totoaiesa": 1493,
      "▁ottoo": 1494,
      "▁7": 1495,
      "▁aiee0": 1496,
      "iodtaiee": 1497,
      "▁eadoeoteaieetc": 1498,
      "▁eae1": 1499,
      "▁tme": 1500,
      "▁oohtaeieetsoooo": 1501,
      "easatoto": 1502,
      "faar": 1503,
      "▁asoteafaar": 1504,
      "▁iod": 1505,
      "eoteaieeouoo": 1506,
      "▁oteatoooea": 1507,
      "etsuto": 1508,
      "▁eadetsuto": 1509,
      "▁oef": 1510,
      "▁eatoeatn": 1511,
      "ttaoeeeae": 1512,
      "rodto": 1513,
      "aiaaehn": 1514,
      "teoaiaae": 1515,
      "▁eatoieemtn": 1516,
      "aieero": 1517,
      "▁erdtcaiee": 1518,
      "▁eeto": 1519,
      "▁toeeaotdeaaeaiee": 1520,
      "▁totn": 1521,
      "teer": 1522,
      "▁%": 1523,
      "▁!": 1524,
      "▁eaaeeetof": 1525,
      "▁tseesahn": 1526,
      "▁llooooeaeaiaaeaieeeto": 1527,
      "▁aieseetpa": 1528,
      "eaiaae": 1529,
      "aieee0": 1530,
      "tfe": 1531,
      "lotnttt": 1532,
      "▁oeoteertoaieeetc": 1533,
      "lololotnttt": 1534,
      "▁aitfe": 1535,
      "eaaeaieaeto": 1536,
      "▁oetototetn": 1537,
      "teetn": 1538,
      "▁ooho": 1539,
      "ietaseaa": 1540,
      "eec": 1541,
      "▁taoeeeaeeatn": 1542,
      "lherodtn": 1543,
      "▁aieaest": 1544,
      "▁ieeeaeaieaee": 1545,
      "thnoo": 1546,
      "▁oodoeotas": 1547,
      "aieaiee": 1548,
      "tneerto": 1549,
      "▁eadst": 1550,
      "▁eaieaeaier": 1551,
      "▁tsiec": 1552,
      "oteeea": 1553,
      "▁erdto": 1554,
      "aia": 1555,
      "▁ieemo": 1556,
      "▁ieemosa": 1557,
      "a1": 1558,
      "eoetmtn": 1559,
      "hohr": 1560,
      "▁ert": 1561,
      "▁eatothnaie": 1562,
      "▁iebtaaieeeto": 1563,
      "teeto": 1564,
      "hohaetn": 1565,
      "teetohohaetn": 1566,
      "afa": 1567,
      "▁toteato": 1568,
      "▁oohtotnaie": 1569,
      "▁ttao": 1570,
      "▁eaaeaieea": 1571,
      "▁oeeeaiets": 1572,
      "▁erdth": 1573,
      "▁ieet": 1574,
      "ttuto": 1575,
      "easeeown": 1576,
      "eeteattuto": 1577,
      "▁aeaeeteattuto": 1578,
      "▁oeeeaieoteea": 1579,
      "▁oeeeaieoteeaeterduto": 1580,
      "ttooh": 1581,
      "▁ooheloeae": 1582,
      "▁aieaiee": 1583,
      "▁iettc": 1584,
      "taiaoteaiee": 1585,
      "▁aioteaeeoooo": 1586,
      "lhe": 1587,
      "▁iodiodtaiee": 1588,
      "▁elhe": 1589,
      "▁aiaaeea": 1590,
      "▁erdoe": 1591,
      "▁tmesa": 1592,
      "toea": 1593,
      "▁eaeaetnstaie": 1594,
      "▁llooootaoeeeae": 1595,
      "▁fsoeo": 1596,
      "▁faetetno": 1597,
      "etnotaieerto": 1598,
      "▁tootieer": 1599,
      "▁ieba1": 1600,
      "▁oeeeaiehottneaieote": 1601,
      "▁eaaood": 1602,
      "asaee": 1603,
      "▁teatotootasaee": 1604,
      "▁aiaae": 1605,
      "▁oeotee": 1606,
      "▁otaiaoteaiee": 1607,
      "dcto": 1608,
      "etaseea": 1609,
      "▁taeaaetaseea": 1610,
      "▁erdoohto": 1611,
      "▁eatoeaaaieaietaoeeeae": 1612,
      "▁otetaieee": 1613,
      "▁taeeaieaie": 1614,
      "▁oodohtoeatn": 1615,
      "aaea": 1616,
      "▁oodoeotasttmntaee": 1617,
      "▁erodtno": 1618,
      "ieeeto": 1619,
      "▁taeeaieaieieeeto": 1620,
      "aieoteeea": 1621,
      "▁ieetaieoteeea": 1622,
      "▁ieetaieoteeea0": 1623,
      "▁oteatoeeaeasee": 1624,
      "▁lloooothnoo": 1625,
      "▁)": 1626,
      "▁eadeaieduto": 1627,
      "toar": 1628,
      "▁eaieatoown": 1629,
      "▁iaec": 1630,
      "tm": 1631,
      "▁erdoell": 1632,
      "▁taeaieetn": 1633,
      "▁taeaaieeee": 1634,
      "▁taeaaeto": 1635,
      "▁ethn": 1636,
      "▁tooieem": 1637,
      "▁oeloasee": 1638,
      "tthnst": 1639,
      "taoeeeaeea": 1640,
      "▁oodtaoeeeaeea": 1641,
      "▁oetodetnotaieerto": 1642,
      "ieemoeltc": 1643,
      "▁taeaiaaeaieeeto": 1644,
      "taieetclo": 1645,
      "▁ottoottooh": 1646,
      "▁ietotaiaoteaiee": 1647,
      "▁paetea": 1648,
      "▁aieaiea": 1649,
      "▁aieeetoar": 1650,
      "▁oettaero": 1651,
      "▁lloooooeoteaieeuto": 1652,
      "▁oohouoto": 1653,
      "oesttetn": 1654,
      "▁tvtaieaeo": 1655,
      "▁eatoieemoeltc": 1656,
      "moto": 1657,
      "▁tamoto": 1658,
      "▁llolloellollof": 1659,
      "▁llolloellollofttea": 1660,
      "▁ttat": 1661,
      "ethn": 1662,
      "toaie": 1663,
      "▁loaseetctcouoo": 1664,
      "▁paeteaeaseeown": 1665,
      "▁erdeaa": 1666,
      "most": 1667,
      "▁lololotnttt": 1668,
      "▁aiaaelloooo": 1669,
      "▁oeeeaietseaeaie": 1670,
      "▁(": 1671,
      "▁oelo": 1672,
      "▁toeeaotdeutoeuto": 1673,
      "otaiaoteaiee": 1674,
      "▁ooao": 1675,
      "▁tot": 1676,
      "▁toter": 1677,
      "▁aieeeieemtn": 1678,
      "▁erdoellttaoeeeae": 1679,
      "▁tseet": 1680,
      "▁♫": 1681,
      "▁aieetstt": 1682,
      "▁oodtaiee": 1683,
      "▁aedtc": 1684,
      "▁etaoaie": 1685,
      "ieemosa": 1686,
      "▁oeotdaeaie": 1687,
      "see": 1688,
      "▁oeeeaieeea": 1689,
      "▁aiaaeeaaieeee": 1690,
      "▁oeeeaieeeaeasee": 1691,
      "▁oodeeaeasee": 1692,
      "oodtoea": 1693,
      "eaeoetmtn": 1694,
      "▁faeteaeoetmtn": 1695,
      "▁oell": 1696,
      "▁teatn": 1697,
      "▁teoteotneaie": 1698,
      "▁oeeeaieeaataoeeeaehn": 1699,
      "▁paot": 1700,
      "▁hohrtthnst": 1701,
      "▁eadotaiaoteaiee": 1702,
      "▁erdaiaaeeaeoteea": 1703,
      "▁taoeeeae": 1704,
      "aieaee": 1705,
      "▁erdoohtoeae": 1706,
      "▁etaieea": 1707,
      "▁aietn1": 1708,
      "▁eetoaieeetc": 1709,
      "aieaieaieea": 1710,
      "▁teoteoieemosa": 1711,
      "▁aieetstt1": 1712,
      "▁oettmeuo": 1713,
      "▁erdtjhn": 1714,
      "ytetn": 1715,
      "eaewn": 1716,
      "▁aiet": 1717,
      "aeeeaeee": 1718,
      "▁aieeeatn0": 1719,
      "▁eahn": 1720,
      "ertotaoeeeae": 1721,
      "▁hohretaieeeto": 1722,
      "▁oetotoertotaoeeeae": 1723,
      "iehn": 1724,
      "easeear": 1725,
      "ieto": 1726,
      "▁eaitfee": 1727,
      "▁ohato": 1728,
      "totmtn": 1729,
      "▁ttaafaet": 1730,
      "▁ttaafaetytetn": 1731,
      "odtotmtn": 1732,
      "aaeaodtotmtn": 1733,
      "▁oodtaieeoesttetn": 1734,
      "▁oteeet": 1735,
      "▁eaeoteeasahn": 1736,
      "etv": 1737,
      "▁paotetktttn": 1738,
      "▁T": 1739,
      "▁tnohouoo": 1740,
      "▁oieto": 1741,
      "▁oietoest": 1742,
      "aet": 1743,
      "▁oetodeaeae": 1744,
      "hreown": 1745,
      "▁oesttehreown": 1746,
      "▁eaieafhn": 1747,
      "▁oiet": 1748,
      "▁tktea": 1749,
      "▁ohatot": 1750,
      "▁ohatoteaieethn": 1751,
      "eoheloeae": 1752,
      "▁oodeaaeasatoto": 1753,
      "eaioteato": 1754,
      "eoteaieeaee": 1755,
      "saie": 1756,
      "▁oelloodtoea": 1757,
      "eoteea0": 1758,
      "tstoeoteea0": 1759,
      "▁oeoteetstoeoteea0": 1760,
      "atot": 1761,
      "etoeadtvoeelo": 1762,
      "▁eaaeaetoeadtvoeelo": 1763,
      "oown": 1764,
      "▁ooheeea": 1765,
      "▁taoeoteaieeouoo": 1766,
      "fat": 1767,
      "eaieeaoero": 1768,
      "▁eaoh": 1769,
      "teatnaieae": 1770,
      "ela": 1771,
      "eteer": 1772,
      "▁paeaier": 1773,
      "▁tneaieteer": 1774,
      "▁eaieeaeo": 1775,
      "▁eaieeaeoero": 1776,
      "▁tseetsiec": 1777,
      "eaee": 1778,
      "▁eaetoeadtv": 1779,
      "▁eaetoeadtvooooo": 1780,
      "▁oeotastoaie": 1781,
      "metaieeeto": 1782,
      "▁oeltto": 1783,
      "▁aiia": 1784,
      "eaieelae": 1785,
      "▁aiiaeaieelae": 1786,
      "stiaec": 1787,
      "▁lloooostiaec": 1788,
      "▁aiaaellooootaoeeeae": 1789,
      "eerodtn": 1790,
      "▁eaeaieoheloeae": 1791,
      "▁taieaee": 1792,
      "▁ooheea": 1793,
      "▁eeadeetc": 1794,
      "▁taieaeeiehn": 1795,
      "aieeea": 1796,
      "aieeaiaaehn": 1797,
      "▁eatnaieee0": 1798,
      "taieellolloeatn": 1799,
      "▁aeae1": 1800,
      "▁erdtoo": 1801,
      "hoela": 1802,
      "▁oelttoar": 1803,
      "meu": 1804,
      "▁teoteotetn": 1805,
      "▁eloeadtetn": 1806,
      "▁ttaoeeae": 1807,
      "▁oteatn": 1808,
      "▁ote": 1809,
      "eeaeaieeeto": 1810,
      "▁eatooetotn": 1811,
      "emtc": 1812,
      "ieerodtn": 1813,
      "easotea": 1814,
      "▁eaataieellolloeatn": 1815,
      "▁aehtecaiea": 1816,
      "▁eaieeeae": 1817,
      "▁eaieeeaegggeae": 1818,
      "ieeouoo": 1819,
      "eeadoeroe": 1820,
      "▁teatothotho": 1821,
      "▁tkteaataoeeeaehn": 1822,
      "▁erdt": 1823,
      "▁oeotasea": 1824,
      "▁llooooiec": 1825,
      "▁ttaeaeero": 1826,
      "▁eeaellorto": 1827,
      "▁ooheaieaieae": 1828,
      "▁eaatsaietetneaeeasoooo": 1829,
      "▁aieeeea": 1830,
      "▁oohouotoafa": 1831,
      "▁ooheeaaetn": 1832,
      "▁eaieeeaown": 1833,
      "▁patneaieaietoto": 1834,
      "aehtectv": 1835,
      "etsc": 1836,
      "▁aieeeetn": 1837,
      "▁aieeeetnotaieerto": 1838,
      "▁patneerto": 1839,
      "▁aieaieeadoeroe": 1840,
      "baehtectv": 1841,
      "▁aieebaehtectv": 1842,
      "easeeao": 1843,
      "▁tatmeuo": 1844,
      "▁tooieemo": 1845,
      "▁etaie1": 1846,
      "aown": 1847,
      "▁aieeea0": 1848,
      "▁ettaieertoetaieeeto": 1849,
      "▁aeeao": 1850,
      "▁erdtaoeeeae": 1851,
      "▁toeeaotdlherodtn": 1852,
      "▁paooh": 1853,
      "sodsod": 1854,
      "▁D": 1855,
      "aieeeea": 1856,
      "▁tseetsee": 1857,
      "▁taoeeeaehn": 1858,
      "▁lloooothnaie": 1859,
      "▁eaohllorto": 1860,
      "▁totn2": 1861,
      "eadaieero": 1862,
      "▁ieeeadaieero": 1863,
      "▁oohthoohneerto": 1864,
      "▁oeeeaieeaeaiaaeaieeeto": 1865,
      "mostaieae": 1866,
      "▁ooheeeaaie": 1867,
      "eoeoteea": 1868,
      "▁oeaiehre": 1869,
      "▁asa": 1870,
      "stetn": 1871,
      "▁ottn": 1872,
      "▁paooheetc": 1873,
      "tsts": 1874,
      "▁eaieeeafatjhnteer": 1875,
      "eaieaed": 1876,
      "aieeetneea": 1877,
      "▁gtehn": 1878,
      "▁taeeexaieeetneea": 1879,
      "eoher": 1880,
      "aietsee": 1881,
      "eaaeedtetn": 1882,
      "▁aiaaeaieeeto": 1883,
      "ieeohasa": 1884,
      "▁eeaefsoeo": 1885,
      "▁oteeeteae": 1886,
      "thaietco": 1887,
      "eaieoher": 1888,
      "oeatn": 1889,
      "▁teoteoeadtv": 1890,
      "▁teoteoeadtvoeatn": 1891,
      "aieemtc": 1892,
      "aieemtcthaietco": 1893,
      "teeafa": 1894,
      "▁llooooth": 1895,
      "▁lloooothaieemtcthaietco": 1896,
      "seaie": 1897,
      "▁pathn": 1898,
      "▁oohtoetno": 1899,
      "▁pao": 1900,
      "▁ieeeaeaieaed": 1901,
      "▁ieeeaeaieaedar": 1902,
      "▁taieeeeawn": 1903,
      "▁taoeaieoher": 1904,
      "▁erdohtoeatn": 1905,
      "totoeae": 1906,
      "▁aehteceaieotd": 1907,
      "▁aehteceaieotdeuto": 1908,
      "▁eief": 1909,
      "▁erdaeeeaeee": 1910,
      "▁C": 1911,
      "aaseeeaioteato": 1912,
      "▁eaaieeaaseeeaioteato": 1913,
      "ohouoothn": 1914,
      "▁toteatoaiaaeeaeoteea": 1915,
      "▁toeeaotdo": 1916,
      "▁aieeeeastetn": 1917,
      "▁oetieerodtn": 1918,
      "▁etaieeasee": 1919,
      "▁eeetn": 1920,
      "▁tatllorto": 1921,
      "eaieuto": 1922,
      "eoht": 1923,
      "▁etaieeaseeetno": 1924,
      "▁A": 1925,
      "▁S": 1926,
      "▁eadtv": 1927,
      "▁oeeeaieseaie": 1928,
      "▁totoeae": 1929,
      "▁eadtvoouoo": 1930,
      "iaee": 1931,
      "ettoo": 1932,
      "ettooeeeaie": 1933,
      "▁oettotoeae": 1934,
      "afaetasaa": 1935,
      "▁eaieeeatn": 1936,
      "▁oeeeaietaoeeeae": 1937,
      "sc": 1938,
      "eeetn": 1939,
      "▁toeeaotdea": 1940,
      "▁llooootwn": 1941,
      "eeaaeto": 1942,
      "▁oteaaoteaiee": 1943,
      "▁aieato": 1944,
      "easeeex": 1945,
      "easeeexec": 1946,
      "▁oeotaseaaieown": 1947,
      "▁tktaiaaetsaieaeo": 1948,
      "▁oohthnaie": 1949,
      "▁eae0": 1950,
      "▁oeteaaeaieaeto": 1951,
      "▁eaeaieeaoero": 1952,
      "▁erdtaiee": 1953,
      "aitoetn": 1954,
      "▁erdeaaee": 1955,
      "▁oetodteetn": 1956,
      "▁eaaoodthnaie": 1957,
      "▁ero": 1958,
      "▁er": 1959,
      "aieae0": 1960,
      "▁ttsoeotjhn": 1961,
      "aieaieeeto": 1962,
      "▁oteeea": 1963,
      "oetotn": 1964,
      "▁tatnst": 1965,
      "▁oelotc": 1966,
      "▁oeeeaieero": 1967,
      "▁eatooown": 1968,
      "▁ietai": 1969,
      "iaaee": 1970,
      "eotoh": 1971,
      "eotohasa": 1972,
      "▁afa1": 1973,
      "faee": 1974,
      "▁etasa": 1975,
      "▁oodaieae0": 1976,
      "▁aietwn": 1977,
      "▁toeeaotdoeoteaieeaee": 1978,
      "▁aieatoe": 1979,
      "▁tsea": 1980,
      "etnoieemto": 1981,
      "eeaaeed": 1982,
      "elrt": 1983,
      "▁aieeoeaierto0": 1984,
      "▁eaieeeaoetotn": 1985,
      "eaieotdero": 1986,
      "eaieafteoaiaae": 1987,
      "etf": 1988,
      "eeaeoooo": 1989,
      "▁eaieaeaierthtn": 1990,
      "eeaaeedeaaeee": 1991,
      "fatts": 1992,
      "eteaieaf": 1993,
      "etfeteaieaf": 1994,
      "etfeteaieafuto": 1995,
      "▁eetn": 1996,
      "▁teetoaieaiee": 1997,
      "▁oteeetnoieemto": 1998,
      "▁eatoeaaieeee": 1999,
      "▁pathnela": 2000,
      "ottn": 2001,
      "▁llooooasto": 2002,
      "▁erdeaaeeeeaaeedeaaeee": 2003,
      "▁ooheer": 2004,
      "▁ttaieeeea": 2005,
      "tstof": 2006,
      "oom": 2007,
      "▁taieet": 2008,
      "▁eadtaieetclo": 2009,
      "iaaeemtc": 2010,
      "▁aieeasad": 2011,
      "▁thetsc": 2012,
      "oou": 2013,
      "oomoou": 2014,
      "▁M": 2015,
      "toaoa": 2016,
      "▁otoaoa": 2017,
      "eaeeeaeee": 2018,
      "etaieeohouoothn": 2019,
      "▁eado": 2020,
      "aietcaiee": 2021,
      "▁paieemtn": 2022,
      "▁erda": 2023,
      "▁oohtoelrt": 2024,
      "▁aeaeattetaieeeto": 2025,
      "▁eaaieeeatn": 2026,
      "te": 2027,
      "eief": 2028,
      "▁thn0": 2029,
      "▁oetteaewn": 2030,
      "▁gteeaeeasoooo": 2031,
      "▁tatn": 2032,
      "▁eaas": 2033,
      "aitoeaiaae": 2034,
      "thon": 2035,
      "eaieeetstt": 2036,
      "▁tateaieeetstt": 2037,
      "▁tseetn": 2038,
      "toe": 2039,
      "eaeieeouoo": 2040,
      "▁oodoteeea": 2041,
      "▁B": 2042,
      "▁ohaoeaieaieae": 2043,
      "ertotjhn": 2044,
      "▁toertotjhn": 2045,
      "▁eaatn": 2046,
      "▁;": 2047,
      "▁oodeteaieuto": 2048,
      "▁tapt": 2049,
      "an": 2050,
      "▁lloooollolloellollof": 2051,
      "tnoho": 2052,
      "▁paaieeetstt": 2053,
      "eethn": 2054,
      "aieaeoaieaeo": 2055,
      "▁eadoeai": 2056,
      "teaieai": 2057,
      "▁taseeetero": 2058,
      "▁eaieafteaieai": 2059,
      "▁eaieafteaieaieaie": 2060,
      "▁eaasoteea": 2061,
      "▁eaaaieeetn": 2062,
      "▁erdaeaieeea": 2063,
      "▁eetn1": 2064,
      "▁aotohaietcaiee": 2065,
      "tstst": 2066,
      "tsc": 2067,
      "eaeetc": 2068,
      "eeadeaeetc": 2069,
      "▁tseaeaie": 2070,
      "▁tmostaieae": 2071,
      "paeaier": 2072,
      "▁aiepaeaier": 2073,
      "teemtn": 2074,
      "▁eatoeeetn": 2075,
      "eoto": 2076,
      "fametaieeeto": 2077,
      "▁taoetmtn": 2078,
      "▁oohaieae": 2079,
      "▁thaietc": 2080,
      "▁erdtoteatnaieae": 2081,
      "▁ttateaieethn": 2082,
      "egte": 2083,
      "▁aieethaietc": 2084,
      "egteuto": 2085,
      "▁etegteuto": 2086,
      "▁eeaeasee": 2087,
      "hoest": 2088,
      "eotohoest": 2089,
      "▁aieethaietc1": 2090,
      "▁ieteaaie": 2091,
      "▁erdtooteatn": 2092,
      "▁teetoeaieote": 2093,
      "▁taoteea": 2094,
      "▁erdthaitoetn": 2095,
      "▁oodaitoeaiaae": 2096,
      "▁oodtv": 2097,
      "▁oodtveatn": 2098,
      "hoaseea": 2099,
      "eeb": 2100,
      "▁eatoeeetneea": 2101,
      "aeeeatn": 2102,
      "▁etaiehtahn": 2103,
      "▁etaieeaseeetnoeae": 2104,
      "dtoo": 2105,
      "▁aieeeaaetn": 2106,
      "▁aieeeaaetnrodto": 2107,
      "theaaeedtetn": 2108,
      "▁teatoeeaeaieeeto": 2109,
      "tooteethn": 2110,
      "▁aieaieetheaaeedtetn": 2111,
      "▁erodtoo": 2112,
      "▁erodtootetn": 2113,
      "etottn": 2114,
      "▁oethohr": 2115,
      "▁eadoeaiaaeaodtotmtn": 2116,
      "▁erdtodcto": 2117,
      "▁llooootmeu": 2118,
      "▁eaieeeafatjhnllorto": 2119,
      "▁oodhtahn": 2120,
      "aieteer": 2121,
      "▁aotohaieteer": 2122,
      "tvo": 2123,
      "etoaiaae": 2124,
      "▁G": 2125,
      "▁aieaeeaaeto": 2126,
      "▁eatneatoeatn": 2127,
      "oteatn": 2128,
      "▁taieeaeoooo": 2129,
      "▁ttaia": 2130,
      "eaieelaeer": 2131,
      "▁taieeaeooooaiaae": 2132,
      "▁ttaiaeaieelaeer": 2133,
      "▁<": 2134,
      "easatn": 2135,
      "▁oeaieoh": 2136,
      "▁eaee": 2137,
      "▁erdttea": 2138,
      "▁aietneaie": 2139,
      "▁taiaae": 2140,
      "▁aieaeot": 2141,
      "▁eaeaieotd": 2142,
      "oteaie": 2143,
      "▁aieeasadoown": 2144,
      "▁eatoeaeaieotdero": 2145,
      "▁tktsc": 2146,
      "▁!\n": 2147,
      "eaieeetn": 2148,
      "▁eaieafteoaiaae": 2149,
      "▁erdthettooeeeaie": 2150,
      "▁eaeaieotdeahn": 2151,
      "▁eeaeaieeeto": 2152,
      "ieetaie": 2153,
      "etktt": 2154,
      "▁>": 2155,
      "▁oodteev": 2156,
      "▁ooataiee": 2157,
      "▁gtehnst": 2158,
      "▁oteeeaoteaie": 2159,
      "tatttn": 2160,
      "▁etc": 2161,
      "eaieela": 2162,
      "teaetc": 2163,
      "▁oeeeaieaieeeatn": 2164,
      "aieeeeto": 2165,
      "easeeexeceee": 2166,
      "▁ietaieoeoteea": 2167,
      "▁eatooeltto": 2168,
      "▁oohaieie": 2169,
      "▁otetoaiaae": 2170,
      "eaioteatn": 2171,
      "▁aeaeasee": 2172,
      "▁aehtecaieaeouoo": 2173,
      "▁oteatoo": 2174,
      "▁oeeeaieaieeetn": 2175,
      "▁eatoert": 2176,
      "tootieer": 2177,
      "▁eeea": 2178,
      "▁erdteaaie": 2179,
      "etiaaeemtc": 2180,
      "▁tseaeaieown": 2181,
      "▁teta": 2182,
      "▁tc": 2183,
      "▁aieaeoo": 2184,
      "▁eaetoeadtvo": 2185,
      "▁ooaaieeaiaaehn": 2186,
      "▁eaetoeadtvost": 2187,
      "▁teoteoeasatn": 2188,
      "▁thtseeaaiaaetsaieaeo": 2189,
      "▁htahn": 2190,
      "aieaieaiea": 2191,
      "▁oetodaieaieaiea": 2192,
      "▁oetodaieaieaieafa": 2193,
      "teec": 2194,
      "▁ietao": 2195,
      "▁ietaod": 2196,
      "ooetiaaeemtc": 2197,
      "▁eteae1": 2198,
      "oeaiooetiaaeemtc": 2199,
      "▁taetasa": 2200,
      "▁hreee": 2201,
      "▁teaeaiea": 2202,
      "▁erdeaaaieae": 2203,
      "▁hreeehtn": 2204,
      "▁teaeaieaeeeaeee": 2205,
      "ED": 2206,
      "▁eaieatn": 2207,
      "eteetn": 2208,
      "▁aieaieaouoo": 2209,
      "▁eaeeelo": 2210,
      "etm": 2211,
      "aieaieaieeea": 2212,
      "▁efametaieeeto": 2213,
      "▁oteeta": 2214,
      "▁toeeaotdoeoteaieetc": 2215,
      "▁etaieeaeeasoooo": 2216,
      "oieetaie": 2217,
      "▁ottoottoohaieaie": 2218,
      "aeeteemtn": 2219,
      "etoeaier": 2220,
      "▁tooieemooohaieie": 2221,
      "▁oestteteetn": 2222,
      "▁aieaaeeteemtn": 2223,
      "▁oteetoown": 2224,
      "etrto": 2225,
      "tttmtn": 2226,
      "▁erdoetv": 2227,
      "▁oesttetmtn": 2228,
      "▁eaaie": 2229,
      "▁llooooeae": 2230,
      "▁eatotthn": 2231,
      "totn": 2232,
      "▁oesttesac": 2233,
      "▁oeoteaieeaee": 2234,
      "eaieasotea": 2235,
      "▁aedtcasee": 2236,
      "eaieee": 2237,
      "aieaieaieeatn": 2238,
      "▁etaieo": 2239,
      "aeiee": 2240,
      "totoe": 2241,
      "eaaeto": 2242,
      "▁tsaie": 2243,
      "▁aehtecetktt": 2244,
      "▁eaieaieaiefthtn": 2245,
      "▁aehtecetktttoar": 2246,
      "▁eohaooooaieaieaieea": 2247,
      "▁eohaooooaieaieaieeatotoe": 2248,
      "in": 2249,
      "▁eretaieeeto": 2250,
      "oeeeaie": 2251,
      "▁aieaeoaieaeoaieaeo": 2252,
      "▁thaieeeto": 2253,
      "▁oshtn": 2254,
      "▁taoeoteaie": 2255,
      "▁P": 2256,
      "▁eaaieeeatneea": 2257,
      "eaaaieeasado": 2258,
      "eaieeeas": 2259,
      "eetetn": 2260,
      "easeetetn": 2261,
      "▁teoteoeaieeeas": 2262,
      "▁teoteoeaieeeasc": 2263,
      "tcteetohohaetn": 2264,
      "hneae": 2265,
      "▁odrhtn": 2266,
      "▁etaie0": 2267,
      "▁eaieafhnllorto": 2268,
      "▁etntaoeeea": 2269,
      "▁ooahneae": 2270,
      "vo": 2271,
      "▁llo": 2272,
      "touto": 2273,
      "eeadeer": 2274,
      "ieeeea": 2275,
      "▁ttaeaeeadeer": 2276,
      "aetaie": 2277,
      "▁eadaieee1": 2278,
      "▁tn1\n": 2279,
      "eaieta": 2280,
      "▁aieaeaieta": 2281,
      "▁aieaeaietatoe": 2282,
      "ter": 2283,
      "aseaie": 2284,
      "▁teoteoo": 2285,
      "▁taetaieeohouoothn": 2286,
      "▁eaaai": 2287,
      "▁teeaaaaet": 2288,
      "▁TED": 2289,
      "▁teeaaaaethoela": 2290,
      "▁R": 2291,
      "▁taito": 2292,
      "teatoetn": 2293,
      "▁tatneaseaa": 2294,
      "▁taitoteatoetn": 2295,
      "eftcaiee": 2296,
      "tmeftcaiee": 2297,
      "teatoe": 2298,
      "▁eaaaiteatoe": 2299,
      "▁eteaaaieeasado": 2300,
      "▁llooooiaee": 2301,
      "ieeeeawn": 2302,
      "eetnsc": 2303,
      "▁aietaoeeeae": 2304,
      "▁eaaaiaa": 2305,
      "▁aieaae": 2306,
      "eteaaeaieaeto": 2307,
      "▁eaioeaiooetiaaeemtc": 2308,
      "efwn": 2309,
      "▁toeeaotdieeeeawn": 2310,
      "▁oodef": 2311,
      "▁ohatost": 2312,
      "▁oodeftmeftcaiee": 2313,
      "▁ttie": 2314,
      "▁eaaieeea": 2315,
      "▁oetodhoaseea": 2316,
      "▁ottohottneaieote": 2317,
      "▁taieieown": 2318,
      "▁gteeaaeeeatn": 2319,
      "aii": 2320,
      "▁taero": 2321,
      "etaoeeeaehn": 2322,
      "hotatttn": 2323,
      "▁eaaeedhotatttn": 2324,
      "toaiaaetsaieaeo": 2325,
      "▁taathnttt": 2326,
      "jaie": 2327,
      "etaie": 2328,
      "▁taoeeeaetaoeeeaehn": 2329,
      "▁tataiee": 2330,
      "▁paoest": 2331,
      "eotaoeeeae": 2332,
      "▁ttsoeotjaie": 2333,
      "▁aieaieaeotaoeeeae": 2334,
      "▁llooooeaioteatn": 2335,
      "eaieeeadeer": 2336,
      "▁ttateaieeeadeer": 2337,
      "▁tnstaieeeto": 2338,
      "todcto": 2339,
      "▁taeitthn": 2340,
      "▁oeotdafaetasaa": 2341,
      "▁tnohaie": 2342,
      "▁lloooooietaseaa": 2343,
      "▁otefatts": 2344,
      "▁otefattseeeae": 2345,
      "▁ietaodtoaiaaetsaieaeo": 2346,
      "▁aieeetotetn": 2347,
      "aieasaie": 2348,
      "▁eaieeeathtn": 2349,
      "▁tcteetohohaetn": 2350,
      "▁ttaa": 2351,
      "iodiod": 2352,
      "▁ooheeaaetnaieeeto": 2353,
      "▁tseeea": 2354,
      "eohtho": 2355,
      "▁eaaaiaaeohtho": 2356,
      "▁eaatsaietetnoeeeaie": 2357,
      "▁staieeatn": 2358,
      "▁g": 2359,
      "▁aieeetoo": 2360,
      "▁tnaeae": 2361,
      "▁J": 2362,
      "▁iebaieaieaieeea": 2363,
      "▁tooieemot": 2364,
      "▁ietsaie": 2365,
      "▁tef": 2366,
      "soeotetn": 2367,
      "▁tefsoeotetn": 2368,
      "oeoteaieeuto": 2369,
      "▁eaaeedoeoteaieeuto": 2370,
      "▁eaitfeeiec": 2371,
      "▁eaieeeatneaseear": 2372,
      "▁tn3": 2373,
      "▁teeaf": 2374,
      "▁oeeeaieeotea": 2375,
      "▁ooatn": 2376,
      "▁erdoohgte": 2377,
      "etn1": 2378,
      "eaduo": 2379,
      "▁oodatot": 2380,
      "▁oeeeaieeaaetaie": 2381,
      "toeatnhaetn": 2382,
      "▁etaieeatoeatnhaetn": 2383,
      "aeaelo": 2384,
      "safa": 2385,
      "..": 2386,
      "▁oeeeaietaa": 2387,
      "▁oietas": 2388,
      "▁llooooooh": 2389,
      "▁oietasea": 2390,
      "eaetetn": 2391,
      "▁eaaeedaieeeae": 2392,
      "faeeeaetetn": 2393,
      "eaiaiee": 2394,
      "▁eatoeato": 2395,
      "▁etotoatn\n": 2396,
      "▁paemtc": 2397,
      "▁tnta": 2398,
      "▁oeaieohtv": 2399,
      "tooteaeieeouoo": 2400,
      "eeaaeea": 2401,
      "▁eatoeatohaetn": 2402,
      "▁aieaeadtodcto": 2403,
      "▁eaeaiaaeaieeeto": 2404,
      "▁ttaafaeeeaetetn": 2405,
      "heaee": 2406,
      "tnoieetaie": 2407,
      "heaeeaieero": 2408,
      "▁eadtso": 2409,
      "▁aiaaeaeeeaeee": 2410,
      "▁oietaseaaown": 2411,
      "▁eaaeaelo": 2412,
      "▁aieeae": 2413,
      "▁eaaeeaaeea": 2414,
      "▁eteaaaieeasadost": 2415,
      "▁eaaeaeloaiaae": 2416,
      "aieaeto": 2417,
      "▁paemtctaiee": 2418,
      "▁...": 2419,
      "▁eatotneaieaietoto": 2420,
      "▁ieeaaseeeaaeee": 2421,
      "eaeouoo": 2422,
      "▁aieaaeto": 2423,
      "▁aieeeaetnetaieeeto\n": 2424,
      "▁ietn1": 2425,
      "▁aieaeadtsiec": 2426,
      "loteetn": 2427,
      "eaeto": 2428,
      "▁etktt": 2429,
      "▁gtet": 2430,
      "▁teeafaietn": 2431,
      "▁tkto": 2432,
      "▁taieeesafa": 2433,
      "aiaeaieela": 2434,
      "▁eaststst": 2435,
      "▁tootho": 2436,
      "▁toothoaslo": 2437,
      "▁taiaeaieela": 2438,
      "▁oteatoown": 2439,
      "▁eaaeaaie": 2440,
      "▁aeeeaee": 2441,
      "▁aieaethn": 2442,
      "▁aieaethnaie0": 2443,
      "eaieaaeaiee": 2444,
      "▁tseeeaa": 2445,
      "▁aieeoeoteaiee": 2446,
      "eaiaaeaodtotmtn": 2447,
      "▁ooaoeaiaaeaodtotmtn": 2448,
      "▁eadtsod": 2449,
      "teatot": 2450,
      "▁oiettetn": 2451,
      "▁gteatot": 2452,
      "eaaietsee": 2453,
      "▁etaiea": 2454,
      "eaatneaie": 2455,
      "▁taelo": 2456,
      "▁ooda": 2457,
      "eetaieeeto": 2458,
      "dtnoho": 2459,
      "▁toteatoaieae": 2460,
      "eaieeeattea": 2461,
      "▁oodeaier": 2462,
      "▁oodaseaie": 2463,
      "taoeeeaeetaieeeto": 2464,
      "▁oiettaoeeeaeetaieeeto": 2465,
      "▁eadeaatneaie": 2466,
      "▁oiettetnaie": 2467,
      "▁oeotohasa": 2468,
      "▁toteatoaieaesodsod": 2469,
      "etotoea": 2470,
      "▁teea1": 2471,
      "taseeet": 2472,
      "▁oohtotaseeet": 2473,
      "▁oohtotaseeetieb": 2474,
      "▁elrt": 2475,
      "▁aietoter": 2476,
      "▁tootktt": 2477,
      "▁eaieafhneae": 2478,
      "▁ec": 2479,
      "eeaeooooaiaae": 2480,
      "▁eaieasotea": 2481,
      "▁eaieasoteaaieaeo": 2482,
      "NA": 2483,
      "hotn": 2484,
      "▁oetmtn": 2485,
      "▁eaaeaieafteoaiaae": 2486,
      "▁oodot": 2487,
      "▁teaae": 2488,
      "▁ieeaeooooaiaae": 2489,
      "▁teaaedtc": 2490,
      "eaieae": 2491,
      "▁oodeaitfee": 2492,
      "▁eaaetfeteaieafuto": 2493,
      "oteeae": 2494,
      "▁eeadoteeae": 2495,
      "aieeae": 2496,
      "▁oteaitfee": 2497,
      "▁oteatoeaieaaeaiee": 2498,
      "ieeaatn": 2499,
      "▁erdeaseeao": 2500,
      "▁ietaieoeoteeaown": 2501,
      "toto1": 2502,
      "▁astoto1": 2503,
      "▁etntaoeeeaeaieae": 2504,
      "▁eaiaa": 2505,
      "efe": 2506,
      "▁teoteot": 2507,
      "eotetteeae": 2508,
      "eadar": 2509,
      "▁ieeaaseeto": 2510,
      "▁taeloeadar": 2511,
      "aieeemtc": 2512,
      "hneeea": 2513,
      "eaiaa": 2514,
      "▁oodaieeemtc": 2515,
      "▁lloooolherodtn": 2516,
      "▁oeoteaieeea": 2517,
      "▁eadloteetn": 2518,
      "▁L": 2519,
      "▁eaapao": 2520,
      "▁eaapaoeotetteeae": 2521,
      "▁aetho": 2522,
      "▁ttsoe": 2523,
      "▁asaeaieaieae": 2524,
      "hotnoieemto": 2525,
      "▁aethohotnoieemto": 2526,
      "▁hre0\n": 2527,
      "▁teoteoieeeea": 2528,
      "▁afaet": 2529,
      "▁eatoero": 2530,
      "eaeeae": 2531,
      "eaieeetoown": 2532,
      "aieagte": 2533,
      "▁aieaeaieeetoown": 2534,
      "ieeahn": 2535,
      "▁oetaeaie": 2536,
      "teeta": 2537,
      "▁eaexxeaeouoo": 2538,
      "eaieeatn": 2539,
      "▁ttsoeoo": 2540,
      "etta": 2541,
      "▁ttsoeooetv": 2542,
      "iebod": 2543,
      "▁ieteloeae": 2544,
      "etaeiee": 2545,
      "▁eaataoeeea": 2546,
      "▁aotohaieeae": 2547,
      "thaieaeoooo": 2548,
      "▁eaataoeeeaetaeiee": 2549,
      "▁eatottea": 2550,
      "faetottn": 2551,
      "▁taaetaieeeto": 2552,
      "▁etaieafaetottn": 2553,
      "etotoetoto": 2554,
      "▁oodtttmtn": 2555,
      "▁aieaeadeief": 2556,
      "eaieasaie": 2557,
      "totetn": 2558,
      ".\n": 2559,
      "▁oodeaieeeattea": 2560,
      "▁eaiaaeeerto": 2561,
      "▁teatolo": 2562,
      "▁oeeeaieeaeero": 2563,
      "▁oodote": 2564,
      "etotoetotofa": 2565,
      "▁llos": 2566,
      "▁tktaiee": 2567,
      "▁erdiet": 2568,
      "▁gtefsoeo": 2569,
      "▁haetn": 2570,
      "▁H": 2571,
      "ast": 2572,
      "▁oeaiehrd": 2573,
      "eftac": 2574,
      "▁ohaoo": 2575,
      "▁faetthooeroetno": 2576,
      "taetaiee": 2577,
      "totoaiesa": 2578,
      "▁tseetotoaiesa": 2579,
      "▁aeaetotoetotofa": 2580,
      "▁haetnaieaeo": 2581,
      "▁♪": 2582,
      "aieeteeae": 2583,
      "tta": 2584,
      "▁eaieieer\n": 2585,
      "▁ottoth": 2586,
      "▁odtnoho": 2587,
      "▁oodthnaie": 2588,
      "oheaieeea": 2589,
      "▁gteieeohasa": 2590,
      "etieea": 2591,
      "aieeaaee": 2592,
      "▁aieeaiaaehn": 2593,
      "▁aieeetoert": 2594,
      "ieemoomoou": 2595,
      "▁ggg": 2596,
      "eaeea": 2597,
      "▁teec": 2598,
      "▁patooteaeieeouoo": 2599,
      "▁eeaeaeea": 2600,
      "eteaeaaee": 2601,
      "▁eohaooootnoho": 2602,
      "▁eadeb": 2603,
      "tvooooo": 2604,
      "▁oteetar": 2605,
      "▁oeaiehrdtvooooo": 2606,
      "ptown": 2607,
      "▁teatnptown": 2608,
      "aieeesoooo": 2609,
      "▁eaaeaetaiee": 2610,
      "tmsa": 2611,
      "▁ooheeaaetneae": 2612,
      "eaaeeatn": 2613,
      "▁oeloeaaeeatn": 2614,
      "hoc": 2615,
      "tvtaieaeo": 2616,
      "▁aieeeato": 2617,
      "▁erdtcteetohohaetn": 2618,
      "▁toothoaslohoc": 2619,
      "▁aieeeteaeaaee": 2620,
      "oteetn": 2621,
      "▁toeeaotdieemtn": 2622,
      "▁tkteeae": 2623,
      "ethno": 2624,
      "ttatotoaetn": 2625,
      "▁aieaeown": 2626,
      "▁etneaeee": 2627,
      "▁etneaeeelo": 2628,
      "▁taeieemoomoou": 2629,
      "▁ohaoouoto": 2630,
      "▁K": 2631,
      "▁eadoeoteaie": 2632,
      "▁F": 2633,
      "▁eatoaieeaieagte": 2634,
      "▁oeoteaieetc": 2635,
      "▁teevoteeea": 2636,
      "▁eaitfeeaieeteeae": 2637,
      "aieeeaa": 2638,
      "etnrodto": 2639,
      "▁oeta": 2640,
      "thneeea": 2641,
      "▁tseetneaieaietoto": 2642,
      "aieeeaaetnrodto": 2643,
      "▁oeeeaietnttt": 2644,
      "▁ieemtoown": 2645,
      "▁eeetneeto": 2646,
      "▁eaaaieeea": 2647,
      "▁paaieee": 2648,
      "▁aieaeothneeea": 2649,
      "▁eatototn": 2650,
      "eaaaieeeto": 2651,
      "ertothtn": 2652,
      "gggaito": 2653,
      "emoomoou": 2654,
      "▁eeeato": 2655,
      "▁eaeeertothtn": 2656,
      "▁eatototntho": 2657,
      "gggaitoemoomoou": 2658,
      "eottouto": 2659,
      "aieaeeto": 2660,
      "▁ttath": 2661,
      "▁teatoatot": 2662,
      "▁oodeteottouto": 2663,
      "▁oetathon": 2664,
      "aieaeetoeer": 2665,
      "▁ttathaieaeetoeer": 2666,
      "▁ooheerto": 2667,
      "▁eaaetoto": 2668,
      "eoteaieeea": 2669,
      "meuaiee": 2670,
      "▁gtetmeuaiee": 2671,
      "▁eaaetotoatn": 2672,
      "teaieethn": 2673,
      "▁paeaeto": 2674,
      "▁eaiaaetta": 2675,
      "▁eaiaaettateaieethn": 2676,
      "teaieeaee": 2677,
      "▁erdaieaieaieeatn": 2678,
      "▁ooaaiee": 2679,
      "▁oeeeaieoest": 2680,
      "▁ooaoeoteaieeouoo": 2681,
      "▁tktaieeteeae": 2682,
      "en": 2683,
      "toeaiaiee": 2684,
      "▁eaaeaseetetn": 2685,
      "▁oeaieoht": 2686,
      "▁eeaeeta": 2687,
      "▁oeaieohteec": 2688,
      "▁tneer": 2689,
      "▁oodaieeaiaaehn": 2690,
      "▁tneertoown": 2691,
      "eeaaie": 2692,
      "etathon": 2693,
      "mon": 2694,
      "▁ooaeai": 2695,
      "odiebod": 2696,
      "▁iebodiebod": 2697,
      "eatotoeaiaiee": 2698,
      "▁tseetnaietc": 2699,
      "taieeeto": 2700,
      "▁oeeeaieeaeouoo": 2701,
      "▁faeteatotoeaiaiee": 2702,
      "▁thaieaeooooaiee": 2703,
      "teaetcaieeeto": 2704,
      "etmteaetcaieeeto": 2705,
      "eae0": 2706,
      "▁ohaoaieee": 2707,
      "▁eaieeeatneaseaa": 2708,
      "▁etco": 2709,
      "▁ooheead": 2710,
      "▁erdtootohhn": 2711,
      "teeafaaieeeto": 2712,
      "▁ooheeadteeafaaieeeto": 2713,
      "▁「": 2714,
      "eeeaieetno": 2715,
      "▁tseeoteetn": 2716,
      "▁ottoteaee": 2717,
      "▁tktoeeeaieetno": 2718,
      "▁ottothooetnooooo": 2719,
      "▁eaeoteeatvo": 2720,
      "▁totniaec": 2721,
      "tev": 2722,
      "eaiet": 2723,
      "▁ieeaaseeert": 2724,
      "▁oeoteaseeexeceee": 2725,
      "oeto": 2726,
      "▁taaeaie": 2727,
      "▁taoietaseaa": 2728,
      "taieetea": 2729,
      "▁aieaieeaiee": 2730,
      "▁totnaie": 2731,
      "▁oetodtjhn": 2732,
      "▁oodoieemtn": 2733,
      "▁eaaaieeetnasa": 2734,
      "ic": 2735,
      "▁lloooollorto": 2736,
      "▁oodoetathon": 2737,
      "▁taeitaieetea": 2738,
      "eaietc": 2739,
      "eoteaietc": 2740,
      "▁oeoteaiet": 2741,
      "moeoteaietc": 2742,
      "▁oeoteaietmoeoteaietc": 2743,
      "dhohr": 2744,
      "▁」": 2745,
      "▁faeteatn": 2746,
      "▁erdoeteaaeaieaeto": 2747,
      "▁aieeaedhohr": 2748,
      "▁erdaiea": 2749,
      "▁eohaooooeteemtn": 2750,
      "▁tkteeaeasee": 2751,
      "▁paeaetoeae": 2752,
      "▁etaieeeto": 2753,
      "thaieeeto": 2754,
      "eaieeetaoeeeae": 2755,
      "▁ooaaieeeaieeetaoeeeae": 2756,
      "▁eaaeaieeast": 2757,
      "▁DNA": 2758,
      "▁hottneaieote": 2759,
      "▁easatoar": 2760,
      "▁taieeesoooo": 2761,
      "▁etktttoown": 2762,
      "▁tseeeaaetfeteaieafuto": 2763,
      "eteemtn": 2764,
      "▁eatooteeaeoshtn\n": 2765,
      "▁tkttsaie": 2766,
      "▁E": 2767,
      "▁aioteetnsc": 2768,
      "▁tv0": 2769,
      "▁aioteetnsce": 2770,
      "▁oodoh": 2771,
      "▁aieaaiee": 2772,
      "▁taeaaie": 2773,
      "tooteeaeoooo": 2774,
      "▁ooheaieee": 2775,
      "▁taemetaieeeto": 2776,
      "▁oodohtv": 2777,
      "▁'": 2778,
      "asaietetn": 2779,
      "▁aieee1": 2780,
      "▁ottoaieeeaaetnrodto": 2781,
      "eaieeetc": 2782,
      "▁toeeaotdaotasee": 2783,
      "eaieaieaief": 2784,
      "▁aieterduto": 2785,
      "oteatoetn": 2786,
      "▁aieeeeea": 2787,
      "aiaaeaieeetc": 2788,
      "teoaiaaeaieeetc": 2789,
      "▁oefouoo": 2790,
      "▁aieeeeeaeasee": 2791,
      "▁oteatotnst": 2792,
      "▁etlo": 2793,
      "▁oteatooteeaeoooo": 2794,
      "▁ottoottoohst": 2795,
      "▁etlotaoeeeae": 2796,
      "tohn": 2797,
      "hottniebtjho": 2798,
      "▁ooaeaa": 2799,
      "ieeagte": 2800,
      "▁oieemo": 2801,
      "▁aietoeouoo": 2802,
      "▁eeaeaseetootieer": 2803,
      "▁eeadafaetasaa": 2804,
      "▁paoeoteaieeea": 2805,
      "aieetn": 2806,
      "▁ttsoeotjhnaiaae": 2807,
      "▁lloooooohtaetaiee": 2808,
      "▁erdoeaieasaie": 2809,
      "▁eaaeedtaithoeouoo": 2810,
      "▁easaoooo": 2811,
      "▁taoteeaeterduto": 2812,
      "▁ooaeaateaieeaee": 2813,
      "▁oieemtn": 2814,
      "▁eaaoeotohasa": 2815,
      "▁oetodtvtaieaeo": 2816,
      "▁aee\n": 2817,
      "▁ttaegggeae": 2818,
      "▁elr": 2819,
      "▁oohtho": 2820,
      "eaetaiee": 2821,
      "▁taefwn": 2822,
      "▁tooteato": 2823,
      "oohetktttn": 2824,
      "▁tooteatottt": 2825,
      "▁eaaieeeatev": 2826,
      "llor": 2827,
      "teeaeterduto": 2828,
      "▁aieaeooteeaeterduto": 2829,
      "▁tefsoeotetnllorto": 2830,
      "▁I": 2831,
      "▁oeotohoest": 2832,
      "aafaee": 2833,
      "▁eaaeeaieaeto": 2834,
      "aeea": 2835,
      "▁aieeeaaeea": 2836,
      "taeieeahn": 2837,
      "▁aeeeaeeeouoo": 2838,
      "aieetstof": 2839,
      "▁tathrtoouoo": 2840,
      "▁aieaieto": 2841,
      "▁eeaeaeeaer": 2842,
      "▁eatototo": 2843,
      "tllor": 2844,
      "etneeb": 2845,
      "▁oodaii": 2846,
      "▁eaieeeaeasatoto": 2847,
      "eeeaiee": 2848,
      "▁erdaieaieeeto": 2849,
      "hrdc": 2850,
      "▁eeeaeeeaiee": 2851,
      "▁oieemotsee": 2852,
      "▁eeaeeea": 2853,
      "etieeaaie": 2854,
      "▁taieeown": 2855,
      "▁llooooeaeeadeaeetc": 2856,
      "▁aieaietoeouoo": 2857,
      "aieetaieeeto": 2858,
      "▁eeeatoteec": 2859,
      "▁oohthoaieetaieeeto": 2860,
      "etpa": 2861,
      "▁oeteaieeea": 2862,
      "▁eadtaoeeeae": 2863,
      "eatoaieee": 2864,
      "eatoeaaeaiee": 2865,
      "▁ottoea": 2866,
      "▁teoteota": 2867,
      "▁oeeeaieaiea": 2868,
      "uooetmtn": 2869,
      "▁taeuooetmtn": 2870,
      "ieemtoown": 2871,
      "▁eaieatothaieeeto": 2872,
      "▁teoteotaero": 2873,
      "▁aehteceaieasotea": 2874,
      "▁aehteceaieasoteaetno": 2875,
      "▁W": 2876,
      "tsa": 2877,
      "▁eatotnoieetaie": 2878,
      "▁eohaooooaieae": 2879,
      "▁oodotellollo": 2880,
      "▁oodea": 2881,
      "teieeaatn": 2882,
      "▁eaieaiea": 2883,
      "▁aioteaedooooetno": 2884,
      "▁ttahtahn": 2885,
      "tmtsa": 2886,
      "▁oodeaiaaeeerto": 2887,
      "eaead": 2888,
      "▁erdtsiec": 2889,
      "▁taieieaead": 2890,
      "▁taieieaeadieeohasa": 2891,
      "▁eaaeee": 2892,
      "tefsoeo": 2893,
      "▁ato": 2894,
      "thoela": 2895,
      "moeltc": 2896,
      "▁N": 2897,
      "▁eeaeaduo": 2898,
      "▁aieaeaieeeto": 2899,
      "▁eatoeatneerto": 2900,
      "aieeast": 2901,
      "aotasaietetn": 2902,
      "▁oetaotasaietetn": 2903,
      "▁oodeaelo\n": 2904,
      "▁toothrdc": 2905,
      "▁ietoteeta": 2906,
      "▁ethoaroooo": 2907,
      "bta": 2908,
      "aiebta": 2909,
      "▁tseeieemtoown": 2910,
      "aieeaaeee": 2911,
      "▁erdot": 2912,
      "etttt": 2913,
      "▁aehtecaafaee": 2914,
      "▁lo": 2915,
      "▁ohaoaieaaeeaieote": 2916,
      "▁ooatneaie": 2917,
      "tmtn": 2918,
      "loaseetetn": 2919,
      "eadthnaie": 2920,
      "aieaeadthnaie": 2921,
      "▁eaieaaeaiee": 2922,
      "▁eaaeedtmtsa": 2923,
      "▁emvo": 2924,
      "taero": 2925,
      "▁ooaea": 2926,
      "▁pataero": 2927,
      "▁eohaooooaieaeadthnaie": 2928,
      "▁erdoheaieeea": 2929,
      "▁erdtaeieeahn": 2930,
      "▁taoohetktttn": 2931,
      "ec0": 2932,
      "▁tatcaieeeto": 2933,
      "▁eaeeelottt": 2934,
      "eaiaoteaiee": 2935,
      "eadtjhn": 2936,
      "▁eaieeeaaieeaaeee": 2937,
      "▁oeeeaieaieaeasee": 2938,
      "▁eaieaaeaieeown": 2939,
      "tnlo": 2940,
      "tneaiaoteaiee": 2941,
      "eaieeeaduto": 2942,
      "aieeeauto": 2943,
      "▁toeeaotdeaeaieeeaduto": 2944,
      "▁eaeeaieeeauto": 2945,
      "▁tseeoteetnst": 2946,
      "hrhtn": 2947,
      "▁ttattea": 2948,
      "tetnaieasaie": 2949,
      "▁thieeouoo": 2950,
      "▁ooaetasa": 2951,
      "hrhtne": 2952,
      "▁ttatteaaieee": 2953,
      "▁tathoela": 2954,
      "▁tathoelaeatn": 2955,
      "le": 2956,
      "▁oodtsiec": 2957,
      "▁oeeeaietaseeetero\n": 2958,
      "▁oteatooetieeaaie": 2959,
      "eeeaieea": 2960,
      "aieeeatn": 2961,
      "▁taoeeeaieea": 2962,
      "▁taoeeeaieeaetaiee": 2963,
      "▁eaitfe\n": 2964,
      "▁etaieotea": 2965,
      "▁erdieteloeae": 2966,
      "▁etaieoteaaote": 2967,
      "▁eaeaie": 2968,
      "▁tst": 2969,
      "▁lloooostaie": 2970,
      "aieeeatsee": 2971,
      "▁tstto": 2972,
      "▁aiea\n": 2973,
      "▁eaathaieaeoooo": 2974,
      "▁oetoetttt": 2975,
      "▁oetoettttetaieeeto": 2976,
      "▁aieeetoaieeeto": 2977,
      "▁eaeeelott": 2978,
      "▁aeaetotoetotofatnoho": 2979,
      "▁eaeeelotttethno": 2980,
      "▁taottn": 2981,
      "eoteaseeexeceee": 2982,
      "▁paeaieasotea": 2983,
      "▁llooooeaetaiee": 2984,
      "▁oeeeaieotea": 2985,
      "totoeaeeeaeee": 2986,
      "totoeaeeeaeeeduto": 2987,
      "▁aieaeadetneeb": 2988,
      "▁lotc": 2989,
      "tothn": 2990,
      "▁aieeetoeeaaeasaee": 2991,
      "▁teoteooietaseaa": 2992,
      "▁oodaea": 2993,
      "▁teoteoeatoaieee": 2994,
      "▁oodaeaeatt": 2995,
      "tetn1": 2996,
      "▁oodaiiohasee": 2997,
      "▁oodteaetc": 2998,
      "▁h": 2999,
      "▁etaietc": 3000,
      "▁etaietcteetohohaetn": 3001,
      "do": 3002,
      "▁llooootneaiaoteaiee": 3003,
      "▁tateaee\n": 3004,
      "▁ieeaaseetoaietc": 3005,
      "heet": 3006,
      "heetktttn": 3007,
      "▁oohtoteatnaieae": 3008,
      "▁eaathaieaeooooteatn": 3009,
      "▁erdtooteethn": 3010,
      "▁aieo": 3011,
      "iodiodtaoeeeae": 3012,
      "▁oohetktttn\n": 3013,
      "eetnaiee": 3014,
      "▁eetoeetnaiee": 3015,
      "▁oodsac": 3016,
      "▁erdemtc": 3017,
      "tooteatn": 3018,
      "oteafa": 3019,
      "▁oodeeb": 3020,
      "▁aeaieeeatn": 3021,
      "▁oodeeb1": 3022,
      "dpa": 3023,
      "▁taieesoooo": 3024,
      "▁teaeaae": 3025,
      "▁aieeetoaieeetogte": 3026,
      "▁teaeaaedpa": 3027,
      "or": 3028,
      "▁ietteec": 3029,
      "▁gggottn": 3030,
      "▁taoeeeaeaie": 3031,
      "▁oeotasttmn": 3032,
      "▁tseeth": 3033,
      "▁oeotasttmnta": 3034,
      "oetmtn": 3035,
      "▁taieeaasee\n": 3036,
      "eaieeeaown": 3037,
      "▁erdoeoteaieeaee": 3038,
      "▁aieeeatoetaieeeto": 3039,
      "▁oodtoot": 3040,
      "aiethtn": 3041,
      "▁oeeeaielloooollooooouoo": 3042,
      "▁oteatooeote": 3043,
      "▁eeetnaiee": 3044,
      "ifa": 3045,
      "▁ethoaroetmtn": 3046,
      "▁staieea": 3047,
      "▁ethoeutoeuto": 3048,
      "▁staieeaeeasoooo": 3049,
      "msa": 3050,
      "eaierto": 3051,
      "▁tatmsa": 3052,
      "▁st1\n": 3053,
      "▁teatotooteaeieeouoo": 3054,
      "ifaea": 3055,
      "ms": 3056,
      "▁eeeaeeeaieeouoo": 3057,
      "ooe": 3058,
      "emvo": 3059,
      "▁aieaeado": 3060,
      "▁eaitfeetea": 3061,
      "ttan": 3062,
      "▁teatoaotasee": 3063,
      "▁oeaieeaeetmtn\n": 3064,
      "▁eaeeasooooaietn": 3065,
      "▁eaeeasooooaietn1": 3066,
      "▁ethot": 3067,
      "▁erdttan": 3068,
      "▁ethoteeatn": 3069,
      "efeatn": 3070,
      "▁eaeeasooooeaieaieaief": 3071,
      "▁aieeetoaeaie": 3072,
      "▁oefaietsee": 3073,
      "▁oteaitfeeero": 3074,
      "▁taaieaetn": 3075,
      "▁eaitfeeteaeaie": 3076,
      "ear": 3077,
      "▁otiebat": 3078,
      "aiaaeloaseetctc": 3079,
      "▁tsttouoo": 3080,
      "on": 3081,
      "▁taeatn": 3082,
      "▁oeotasttmntaeear": 3083,
      "aieeetotvo": 3084,
      "▁oefaietseeaieeetotvo": 3085,
      "▁eatoetoeaier": 3086,
      "▁taeaeto": 3087,
      "▁oeteatoeatnteer": 3088,
      "▁taeieeeadtjhn": 3089,
      "▁atotaieee": 3090,
      "▁taeieeeadtjhn0": 3091,
      "tjaie": 3092,
      "▁ooaeeaeasee\n": 3093,
      "▁oohero": 3094,
      "▁oeteatoeatntaieetclo": 3095,
      "asoteafa": 3096,
      "▁ooafiaeaieeeto": 3097,
      "▁ooaeaiooe": 3098,
      "▁taieeoh": 3099,
      "▁erdaiaaeloaseetctc": 3100,
      "▁tseeiaec": 3101,
      "▁taieeohhn": 3102,
      "▁taterduto": 3103,
      "▁gtept": 3104,
      "tottt": 3105,
      "seetpa": 3106,
      "eaaefeatn": 3107,
      "▁aieeaieee0": 3108,
      "▁ttan": 3109,
      "▁aioteaedooooaeaie\n": 3110,
      "▁ottoottooheatn": 3111,
      "asee0": 3112,
      "▁ststst": 3113,
      "▁aieaeadttatotoaetn": 3114,
      "▁ieemoeltc": 3115,
      "▁stststasee0": 3116,
      "eafa": 3117,
      "▁oethottniebtjho": 3118,
      "thtaeiee": 3119,
      "▁pathtaeiee": 3120,
      "▁erdaieae": 3121,
      "▁toeeaotdeaieeeaown": 3122,
      "▁tahre": 3123,
      "▁oodoestt": 3124,
      "▁erdteaewn": 3125,
      "▁oodoestte": 3126,
      "▁•": 3127,
      "eaaieeee": 3128,
      "▁eaieafteoaiaaeaieeetc": 3129,
      "▁tms": 3130,
      "▁eeadeaeeasoooo": 3131,
      "▁oeeeaieeaetaiee": 3132,
      "▁tmsaown": 3133,
      "▁teadtstt\n": 3134,
      "▁eatotototho": 3135,
      "fs": 3136,
      "▁oesttehaetn": 3137,
      "▁lltoieemopa": 3138,
      "▁erdtec0": 3139,
      "iodiodtnttt": 3140,
      "▁aiaieaieeeto": 3141,
      "aieaeaieeeto": 3142,
      "▁erdieeohasa": 3143,
      "▁teea0": 3144,
      "▁aiaieaieeetoe": 3145,
      "eafs": 3146,
      "▁oeteatoeatnllo\n": 3147,
      "▁eatototothoeafs": 3148,
      "tstse": 3149,
      "▁oeteaaee": 3150,
      "▁todc": 3151,
      "▁ethoeaaieeee": 3152,
      "▁todctoown": 3153,
      "▁tseeeahn": 3154,
      "etc0": 3155,
      "▁tootktteaa": 3156,
      "▁afaeteea": 3157,
      "▁eaieaieaear": 3158,
      "tnoh": 3159,
      "▁taieeoestt": 3160,
      "▁oeeeaieaiaa": 3161,
      "▁oodeea": 3162,
      "▁taieeoesttetoown": 3163,
      "▁oeeeaieaiaaeeaeoteea": 3164,
      "▁aieaeadoetrto": 3165,
      "aeeeafa": 3166,
      "▁tooieemotneerto": 3167,
      "▁eeeaaeeeafa": 3168,
      "is": 3169,
      "▁etaieoetotoea": 3170,
      "tnoheelo": 3171,
      "o1": 3172,
      "▁eeadtstse": 3173,
      "etaieeesoooo": 3174,
      "▁oeteaaeeeeeadetaiaaeeouoo": 3175,
      "eaetrto": 3176,
      "hoho": 3177,
      "▁taiebta": 3178,
      "fac": 3179,
      "▁tktt": 3180,
      "▁elrttaoeeeae": 3181,
      "▁eadtetn1": 3182,
      "▁thaieaeoooooteeea": 3183,
      "▁tseetjhn": 3184,
      "taieeesoooo": 3185,
      "ttmon": 3186,
      "▁aieaieetstof": 3187,
      "▁aehtecaieaeasee": 3188,
      "▁teatnaiee": 3189,
      "▁oohaieee": 3190,
      "▁teaieeeadst\n": 3191,
      "▁oodoesttehre": 3192,
      "atottt": 3193,
      "eeeea": 3194,
      "aoeftac": 3195,
      "▁oodeeaaeasaee": 3196,
      "▁teatotaiee": 3197,
      "▁gtehre\n": 3198,
      "▁etaieeaieetn": 3199,
      "teatnouoo": 3200,
      "▁ottoetaieeeto": 3201,
      "▁teatotaieeatottt": 3202,
      "totnaie": 3203,
      "eloaseetetn": 3204,
      "aieeaiee": 3205,
      "▁etottn": 3206,
      "lloll": 3207,
      "▁erdtmsa": 3208,
      "ecefe": 3209,
      "▁eaaoheetktttn": 3210,
      "▁ttaoeloaseetetn": 3211,
      "▁otelloll": 3212,
      "▁otellolloouoo": 3213,
      "▁eieeagte": 3214,
      "aotohaieaieae": 3215,
      "lhetktttn": 3216,
      "▁eeetpa": 3217,
      "ethotc": 3218,
      "▁teatnpt": 3219,
      "▁oodtoothre": 3220,
      "eeeai": 3221,
      "htectv": 3222,
      "▁eaatooteatn": 3223,
      "▁aioteaeeooooeae": 3224,
      "▁taaieeasado": 3225,
      "▁tsoe": 3226,
      "v0": 3227,
      "etnaieasaie": 3228,
      "▁taaieea": 3229,
      "▁aieer": 3230,
      "▁eeadoeto": 3231,
      "▁eaaieeeatsee": 3232,
      "▁tetnaieasaie": 3233,
      "▁ttae": 3234,
      "▁patnoheelo": 3235,
      "aiiasaie": 3236,
      "▁eaeouoo": 3237,
      "▁erdafa": 3238,
      "▁oohouotoaieaeo": 3239,
      "eaieee1": 3240,
      "▁eaaieaiee": 3241,
      "▁toteatnouoo": 3242,
      "▁asataiee": 3243,
      "▁lloooolhetktttn": 3244,
      "▁teaaedtctoar": 3245,
      "aefwn": 3246,
      "▁lh": 3247,
      "twn": 3248,
      "▁oeoteeto": 3249,
      "▁ohatoeaseeao": 3250,
      "▁ottoeaeeadeaeetc": 3251,
      "eeeaieoeoteea": 3252,
      "▁oeoteetoeeeaieoeoteea": 3253,
      "efac": 3254,
      "▁etaieote": 3255,
      "htectvown": 3256,
      "▁ttaehtectvown": 3257,
      "▁etaieotellollo": 3258,
      "▁eaaaieae1": 3259,
      "▁ttaniaec": 3260,
      "▁etaieeethn": 3261,
      "aieaieeecefe": 3262,
      "▁oeaiee": 3263,
      "▁oteetaemvo": 3264,
      "▁aieeatn": 3265,
      "▁oodtetn": 3266,
      "toott": 3267,
      "▁teeteeeea": 3268,
      "▁etsutoaiaae": 3269,
      "▁ooaoef": 3270,
      "▁eeeaaeeeafaeaieote": 3271,
      "▁eaaeaaefeatn": 3272,
      "▁oeeeaietaefwn": 3273,
      "▁afathneeea": 3274,
      "▁afathneeea0": 3275,
      "▁oeoteaseeexec": 3276,
      "▁eaieeeatv": 3277,
      "▁teaaedtctn": 3278,
      "▁oteatot": 3279,
      "▁taoest": 3280,
      "▁eeadeaaietsee": 3281,
      "▁oohtotaitho": 3282,
      "hoelapa": 3283,
      "fattsfat": 3284,
      "▁oteatothoelapa": 3285,
      "▁oohtotaithoe": 3286,
      "fatc": 3287,
      "▁oodtjaie": 3288,
      "▁aotohaieai": 3289,
      "▁gteaieee1": 3290,
      "▁eohaooooiee": 3291,
      "▁hrdttmon": 3292,
      "▁aotohaieaioteaeeoooo": 3293,
      "▁tktgggaitoemoomoou": 3294,
      "▁eeatn1": 3295,
      "▁erdeaaeaseetetn": 3296,
      "▁taoeeeaeoooo": 3297,
      "▁aieetooteethn": 3298,
      "▁aieaeaiea": 3299,
      "▁aieaeaieaeaiea": 3300,
      "▁eaeaiea": 3301,
      "tsfattsfat": 3302,
      "eeaaetouto": 3303,
      "▁eaataeaier": 3304,
      "▁eaaeaieeaeaeeae": 3305,
      "▁eaeaieaeeaaetouto": 3306,
      "▁oeeeaieelrt": 3307,
      "tmostaieae": 3308,
      "▁eaeeasooooo": 3309,
      "▁tseetaiee": 3310,
      "▁erdaieasee": 3311,
      "ou": 3312,
      "▁eatoeaaee": 3313,
      "▁eaaaeeeaeee": 3314,
      "▁eaaetaie": 3315,
      "▁eaeaetntsfattsfat": 3316,
      "▁tootktteaaaieae": 3317,
      "ra": 3318,
      "▁llooootooteethn": 3319,
      "▁eadtwn": 3320,
      "▁tseeteaieeeae": 3321,
      "▁eadoeote": 3322,
      "▁tvo1": 3323,
      "▁gteeeatn": 3324,
      "taeeifaea": 3325,
      "▁tooieemothtn": 3326,
      "▁gteeeatn0": 3327,
      "▁taieetclo": 3328,
      "tsuto": 3329,
      "▁tohn": 3330,
      "▁oeeeaieetsuto": 3331,
      "▁oeeeaieoteaaoteaiee": 3332,
      "▁erdetaieeohouoothn": 3333,
      "▁eohaooooeelo": 3334,
      "▁erdhrhtne": 3335,
      "▁oeoteaseeexecee": 3336,
      "tnaietc": 3337,
      "st1": 3338,
      "▁tktot": 3339,
      "▁eeaduo\n": 3340,
      "▁erdtmeuo": 3341,
      "▁aieeeae0": 3342,
      "▁oest\n": 3343,
      "▁heaaeedtetn": 3344,
      "▁ooaetottn": 3345,
      "tseetsee": 3346,
      "▁aieaeadiodiodtaoeeeae": 3347,
      "ieeaaseeeaioteato": 3348,
      "▁oetodtmostaieae": 3349,
      "▁oeaiehrdtetn": 3350,
      "▁llooooefac": 3351,
      "▁eatotetnaieasaie": 3352,
      "▁taoiet": 3353,
      "▁eaeheaeeaieero": 3354,
      "▁taoiettaoeeeae": 3355,
      "eatoo": 3356,
      "▁hoaieeast": 3357,
      "▁ttaeaeaetn": 3358,
      "▁hrdtllor": 3359,
      "▁atoetn": 3360,
      "▁hrdtllortoown": 3361,
      "etnoh": 3362,
      "▁eeaeeeaetnoh": 3363,
      "eaaaieeetc": 3364,
      "eaieeetotaoeeeae": 3365,
      "▁pt": 3366,
      "eaaaieeetco": 3367,
      "eaaieeeeto": 3368,
      "▁aieaeoeaeeasoooo": 3369,
      "▁erdeaatneaie": 3370,
      "▁teeae1\n": 3371,
      "▁oodtohn": 3372,
      "▁tseea\n": 3373,
      "▁eaaeaieeetoieemtn": 3374,
      "doeote": 3375,
      "▁aieerdoeote": 3376,
      "eeaeaduo": 3377,
      "▁aieeetoeeaeaduo": 3378,
      "▁tseetaieerhtn": 3379,
      "▁tooieemotthn": 3380,
      "▁aietc0": 3381,
      "▁thotho\n": 3382,
      "▁eaetrto": 3383,
      "▁eaaieaieemtn": 3384,
      "▁stoouoo": 3385,
      "▁tatneaseear": 3386,
      "vea": 3387,
      "aioteatoetn": 3388,
      "▁tseetttmtn": 3389,
      "▁aietaioteatoetn": 3390,
      "▁eaaaieeetn1": 3391,
      "▁tneaieaiaae": 3392,
      "▁oeeeaievea": 3393,
      "▁etaiaaeee\n": 3394,
      "▁toeeaotdeaaieeeeto": 3395,
      "totnasee": 3396,
      "▁aieeemtc": 3397,
      "▁erdc": 3398,
      "▁erdea": 3399,
      "aietaie": 3400,
      "▁erdeteemtn": 3401,
      "▁tootllo": 3402,
      "etotaoeeeae": 3403,
      "stllorto": 3404,
      "▁oodeeea": 3405,
      "▁tootlloetotaoeeeae": 3406,
      "▁oodeeeastllorto": 3407,
      "▁toeeaaie": 3408,
      "▁toeeaotdasoteafa": 3409,
      "▁totoaiethtn": 3410,
      "▁oodeaaieeeatsee": 3411,
      "▁toeeaaiehohr": 3412,
      "eaiear": 3413,
      "teatotnlo": 3414,
      "▁ieeaaseeaiee\n": 3415,
      "▁aieaeooetn": 3416,
      "▁tseaeai": 3417,
      "▁eaeeelottteatotnlo": 3418,
      "▁oodeaaaieeetn": 3419,
      "astoto": 3420,
      "▁erdeief": 3421,
      "▁oettaeroastoto": 3422,
      "▁aieeetooteieeaatn": 3423,
      "▁tseaeaietaoeeeae": 3424,
      "aieaeeaaeto": 3425,
      "▁thaieae": 3426,
      "▁oeoteaseeexeceeeoetmtn": 3427,
      "▁thaieaeooooo": 3428,
      "eoeot": 3429,
      "▁eaaaieeasad": 3430,
      "▁aieaeeeaeee": 3431,
      "▁ietaieoeot": 3432,
      "▁eaaaieeasadoown": 3433,
      "▁ietaieoeoteeaasee": 3434,
      "haieaeoooo": 3435,
      "▁eaaeeeatoeaaeaiee": 3436,
      "▁aiestaie": 3437,
      "▁aieeeatot": 3438,
      "▁thoo": 3439,
      "rtohn": 3440,
      "▁aieeaeaaaieeeto": 3441,
      "▁tseetv0": 3442,
      "▁aieeeatothotho": 3443,
      "▁eaallollo": 3444,
      "easeearouoo": 3445,
      "▁eaaieeeatnsodsod": 3446,
      "▁otaia": 3447,
      "▁odtotnasee": 3448,
      "▁otaiatotetn": 3449,
      "eteatoeatn": 3450,
      "▁vea": 3451,
      "▁oeotaseaaietetn": 3452,
      "▁etaieoeteaaeaieaeto": 3453,
      "tsoeot": 3454,
      "▁taeaeeae": 3455,
      "thtseea": 3456,
      "▁ooateeae\n": 3457,
      "▁erdttsoeot": 3458,
      "▁erdttsoeotjhn": 3459,
      "▁oohetoeaier": 3460,
      "tott": 3461,
      "▁eatoeeta": 3462,
      "▁oodatott": 3463,
      "▁eatoeetauto": 3464,
      "▁gteo": 3465,
      "▁eaitfeelo": 3466,
      "▁oodatotthaieaeoooo": 3467,
      "▁eaitfeelotothn": 3468,
      "▁eeaelo": 3469,
      "ooht": 3470,
      "emeu": 3471,
      "▁aieiaec0\n": 3472,
      "▁teatnhre": 3473,
      "▁gtehnouoo": 3474,
      "▁Y": 3475,
      "▁oeeeaieeaaoeftac": 3476,
      "▁erdtteaaie": 3477,
      "eaaeasa": 3478,
      "teatoar": 3479,
      "▁tatc\n": 3480,
      "▁thaieaeoooooeaierto": 3481,
      "▁[": 3482,
      "eohaieee": 3483,
      "▁veaown": 3484,
      "▁oodiet": 3485,
      "▁eeetnrodto": 3486,
      "el": 3487,
      "iemeu": 3488,
      "▁ooheaaaieeetco": 3489,
      "▁teatoto": 3490,
      "▁oeteaaeasa": 3491,
      "ieemopa": 3492,
      "▁eaaoeftac": 3493,
      "▁eaeaieeeto": 3494,
      "▁aieaellorto": 3495,
      "▁erdeaaeaiee": 3496,
      "▁taaieeatneae": 3497,
      "▁eaitfeeo": 3498,
      "▁euto": 3499,
      "▁eaieeeattea": 3500,
      "toottaeiee": 3501,
      "▁oodaieetstof": 3502,
      "totoeoteea": 3503,
      "▁eeadhtahn": 3504,
      "▁oeeeaietec": 3505,
      "▁etasaaero": 3506,
      "▁oeoteetotoeoteea": 3507,
      "▁aieaeaieaeaieaeohaieee": 3508,
      "▁:\n": 3509,
      "▁X": 3510,
      "▁erdthoo": 3511,
      "▁eohaooootaoeeeae": 3512,
      "▁erdthooteeafa": 3513,
      "▁eatoetao": 3514,
      "etototn": 3515,
      "▁tseeeasa": 3516,
      "▁eaeaetnaieeeea": 3517,
      "staie1": 3518,
      "▁pthre": 3519,
      "▁tseeiodiodtnttt": 3520,
      "dthtn": 3521,
      "▁]": 3522,
      "▁aieeaietn": 3523,
      "▁erdtea": 3524,
      "▁aieea2": 3525,
      "▁tseethetsc": 3526,
      "▁oetea": 3527,
      "▁oeteatoeatnetaie": 3528,
      "iodiodtaiee": 3529,
      "▁erdstaie1": 3530,
      "▁teatots": 3531,
      "asaar": 3532,
      "▁aieetseeaiaae": 3533,
      "▁llost": 3534,
      "▁eatottt": 3535,
      "▁ietasaar": 3536,
      "aehtecaiea": 3537,
      "ac": 3538,
      "▁eatoteeafa": 3539,
      "▁taaieaaiee\n": 3540,
      "ooooofatc": 3541,
      "htooooofatc": 3542,
      "eatoohtooooofatc": 3543,
      "▁eatoteeafaeatoohtooooofatc": 3544,
      "▁eatoteeafaeatoohtooooofatcttt": 3545,
      "▁aotasaie": 3546,
      "▁otaiatotetnasa": 3547,
      "▁gteseetpa": 3548,
      "▁etasaagte": 3549,
      "▁aieeeiemeu": 3550,
      "▁iaeaieel": 3551,
      "▁tktoteaitfee": 3552,
      "▁aieetmsa": 3553,
      "▁eaafaet": 3554,
      "▁oeaieetmtn": 3555,
      "▁eaafaeteae": 3556,
      "A:": 3557,
      "eeaaee": 3558,
      "▁oestteeaaee": 3559,
      "▁oestteeaaeeeto": 3560,
      "▁O": 3561,
      "▁terdutotaieeesoooo": 3562,
      "▁eaetaiee\n": 3563,
      "▁terdutotaieeesoooo0": 3564,
      "▁taaieeetoar": 3565,
      "▁aieeeerto": 3566,
      "▁aieeeaieeaee\n": 3567,
      "▁tkttaieteetn": 3568,
      "▁eaeeasoooooietaseaa": 3569,
      "eaeheaeeaieero": 3570,
      "▁tmeu": 3571,
      "▁eaatnst": 3572,
      "▁eaieeeaaieae": 3573,
      "▁eaeoh": 3574,
      "▁oodtootieer": 3575,
      "▁erdeaaaieeetn": 3576,
      "▁ooaeaeaaaieeeto": 3577,
      "teaseear": 3578,
      "▁teoteooteaseear": 3579,
      "▁eatoeaaeeaieaeto": 3580,
      "aotasaie": 3581,
      "▁ietaieoeoteeaeae": 3582,
      "dutoouoo": 3583,
      "tllorto": 3584,
      "▁oohtn": 3585,
      "▁eaiedutoouoo": 3586,
      "eattaieeeto": 3587,
      "▁eaeohet": 3588,
      "toeeaotd": 3589,
      "eeeaef": 3590,
      "▁etcf": 3591,
      "▁eaieeeatteaaiee": 3592,
      "tcthtseea": 3593,
      "▁erdpt": 3594,
      "▁aieaeadtcthtseea": 3595,
      "▁toeeaotdtea": 3596,
      "▁eaetaoeeeae": 3597,
      "▁eeadtnttt": 3598,
      "▁eaetaoeeeaeuto": 3599,
      "eait": 3600,
      "▁aieeeteemtn": 3601,
      "▁eatoeeeaef": 3602,
      "tohthoela": 3603,
      "▁eaaoodatot": 3604,
      "▁aieeetootohthoela": 3605,
      "al": 3606,
      "eteeae": 3607,
      "▁eaelo\n": 3608,
      "▁aieaieaie\n": 3609,
      "▁tmost": 3610,
      "▁taaieeeeto": 3611,
      "▁eloeadar\n": 3612,
      "▁tnst\n": 3613,
      "▁hrdc": 3614,
      "▁oefaieee": 3615,
      "▁ohatoaieae": 3616,
      "▁oeaieohetktttn": 3617,
      "▁taaieeeeto0": 3618,
      "faown": 3619,
      "teeafaown": 3620,
      "▁thooteeafaown": 3621,
      "▁oodeaaeaiee": 3622,
      "▁ohaoaietc": 3623,
      "ttnrodto": 3624,
      "▁iodiod": 3625,
      "▁oodeaaeaieeetn": 3626,
      "ne": 3627,
      "teeatn": 3628,
      "▁eadeaaieeeeto": 3629,
      "▁V": 3630,
      "asatotetn": 3631,
      "lloooollooooieb": 3632,
      "eeeaielloooollooooieb": 3633,
      "▁oodoeeeaielloooollooooieb": 3634,
      "▁taeaaeaiee": 3635,
      "taioteatoetn": 3636,
      "▁llooooooheerto": 3637,
      "lloaieae": 3638,
      "▁teatotnaietc": 3639,
      "▁oetiaaeemtc": 3640,
      "▁oeeeaieoeeae": 3641,
      "▁faeteae": 3642,
      "taoeeeaeown": 3643,
      "▁hohrt": 3644,
      "▁aiaaellooootaoeeeaeown": 3645,
      "▁tneaiaoteaiee\n": 3646,
      "▁gteai": 3647,
      "▁oeeeaieteaaie\n": 3648,
      "▁pathneteeae": 3649,
      "▁teatotsttnrodto": 3650,
      "▁oodaieeetstt": 3651,
      "▁erdtnst": 3652,
      "▁aieeeatn2\n": 3653,
      "▁taei\n": 3654,
      "▁tteathtn": 3655,
      "rodoo": 3656,
      "▁aehtecaieaeaiaae": 3657,
      "eaitooooo": 3658,
      "▁tj": 3659,
      "▁erdiodiodtaiee": 3660,
      "▁oetoeoteaseeexeceee": 3661,
      "taeiee0": 3662,
      "▁erdteataeiee0": 3663,
      "▁eaateatoar": 3664,
      "▁afaetaie": 3665,
      "roo": 3666,
      "▁oeeeaieeaaeeeatn": 3667,
      "▁tjeatn": 3668,
      "▁taot": 3669,
      "▁oodoeto": 3670,
      "▁eatotefsoeo": 3671,
      "nd": 3672,
      "▁eaaaea": 3673,
      "▁erdoeotas": 3674,
      "taoeeeaeasto": 3675,
      "▁aieaeadeutoeuto": 3676,
      "eattetaieeeto": 3677,
      "▁erdafataoeeeaeasto": 3678,
      "▁eaaaeaeattetaieeeto": 3679,
      "▁erdafataoeeeaeastoaie": 3680,
      "▁eggg": 3681,
      "eeadao": 3682,
      "▁oohtc\n": 3683,
      "▁teatngte": 3684,
      "aotaieeeto": 3685,
      "▁etn0": 3686,
      "▁aotohaieaieeeto": 3687,
      "▁tseeloaie": 3688,
      "▁egggead": 3689,
      "eeatohn": 3690,
      "▁aeeatohn": 3691,
      "▁eaaeedpa": 3692,
      "▁oodoetoaietmtn": 3693,
      "▁aeeatohnaieee": 3694,
      "▁oodtaioteatoetn": 3695,
      "iebtn": 3696,
      "▁erdoteeta": 3697,
      "▁eeadoetofaaslo": 3698,
      "ur": 3699,
      "▁loaseetctcoooo": 3700,
      "▁oeeeaieteatn": 3701,
      "▁taafa": 3702,
      "▁)\n": 3703,
      "▁ooheeeaaiear": 3704,
      "▁eteemtn": 3705,
      "▁etn1\n": 3706,
      "▁teoteototoeaeeeaeeeduto": 3707,
      "▁afaeaieotd": 3708,
      "ed": 3709,
      "rooo": 3710,
      "▁oeeeaieteatnpt": 3711,
      "▁erdtv": 3712,
      "▁aieaeadeeaeaieeeto": 3713,
      "▁tteaaieee": 3714,
      "▁erdtvst1": 3715,
      "▁oodtneerto": 3716,
      "▁aieaetnta0\n": 3717,
      "▁etntaoeeeaeero": 3718,
      "esac": 3719,
      "▁erdtootieer": 3720,
      "▁tseeo": 3721,
      "▁eao\n": 3722,
      "▁erdtesac": 3723,
      "▁tooieemoaieaeaieeeto": 3724,
      "▁tmo": 3725,
      "tsao": 3726,
      "▁oodiettc": 3727,
      "▁lloooottatotoaetn": 3728,
      "▁etaieeohouoothn": 3729,
      "▁oeteaaehn\n": 3730,
      "▁afaeaieotdtv": 3731,
      "▁tmotsao": 3732,
      "▁ouoo\n": 3733,
      "▁taeuoaieeeto": 3734,
      "▁aieet": 3735,
      "▁hohoho": 3736,
      "easaoooo": 3737,
      "▁aieiettc\n": 3738,
      "▁oodieteasaoooo": 3739,
      "▁hohohoeatn": 3740,
      "toiec": 3741,
      "aaeetoiec": 3742,
      "▁eaeeasooooetoeaier": 3743,
      "▁aieea3": 3744,
      "▁oeeeaietsaiee": 3745,
      "▁aieaeoteeatn": 3746,
      "▁oodtneertoeae": 3747,
      "aaeetoiecown": 3748,
      "▁U": 3749,
      "ethotceta": 3750,
      "eoteerto": 3751,
      "▁lloooototoeaeeeaeeeduto": 3752,
      "▁oteeetiaee": 3753,
      "iaae": 3754,
      "▁oetiaae": 3755,
      "▁eaaeeetothtn": 3756,
      "oest": 3757,
      "▁oetiaaehouoothn": 3758,
      "eoetm": 3759,
      "▁eaeoetm": 3760,
      "▁eaiaaeetoiecown": 3761,
      "▁llooooeeaeaieeeto": 3762,
      "▁teoteoee": 3763,
      "▁tseetcaiee": 3764,
      "eaieaeeta": 3765,
      "▁eaeaetniec\n": 3766,
      "eohaieeeatn": 3767,
      "▁aiiohaseeaieaaeeaieote\n": 3768,
      "▁lheohaieeeatn": 3769,
      "▁eaeoetmtouto": 3770,
      "hi": 3771,
      "▁taieeeaieaeeta": 3772,
      "hrdst": 3773,
      "▁aieeaeeae": 3774,
      "▁eaaoest": 3775,
      "▁toeerto": 3776,
      "▁otetaieeeown\n": 3777,
      "▁eaaoodeaieeaoero": 3778,
      "▁eaohhrdst": 3779,
      "▁teoteoeeeatoeaaeaiee": 3780,
      "▁toeertotetn": 3781,
      "etoe": 3782,
      "▁aieaeadtoottaeiee": 3783,
      "▁aiaieeown": 3784,
      "▁afatseetsee": 3785,
      "▁tseeoteea": 3786,
      "▁st0": 3787,
      "▁oodottoottn": 3788,
      "toeaetaiee": 3789,
      "▁etktttoeaetaiee": 3790,
      "▁erdeaeeadao": 3791,
      "▁toeeaotdteaetmteaetcaieeeto": 3792,
      "▁eatootiebat": 3793,
      "▁aieeaetrto": 3794,
      "▁aieoeteatoeatn": 3795,
      "eroown": 3796,
      "etnaieec": 3797,
      "▁eatoaotohaieaieae": 3798,
      "▁taieeeouoo\n": 3799,
      "ing": 3800,
      "▁tooieemoterduto": 3801,
      "▁oteaitfeeeroown": 3802,
      "▁oeteaeaieotdero": 3803,
      "▁/": 3804,
      "▁paeaieeea": 3805,
      "▁erdaieetstof": 3806,
      "▁etaieoeotohoest": 3807,
      "▁─": 3808,
      "eteaieutoouoo": 3809,
      "eaeaseeown": 3810,
      "eeataeeifaea": 3811,
      "▁ieeataeeifaea": 3812,
      "▁oodthaieaeoooo": 3813,
      "ohaseeet": 3814,
      "▁aiiohaseeet": 3815,
      "▁aietneaseear": 3816,
      "▁CA:": 3817,
      "▁aiiohaseeeteaeaseeown": 3818,
      "tofa": 3819,
      "▁teadtetn": 3820,
      "▁etaieehre": 3821,
      "▁aiaaeo": 3822,
      "eeeaiear": 3823,
      "eteb": 3824,
      "eatotn": 3825,
      "▁aieeaetrtoeaetrto": 3826,
      "▁aiaaeoeeeaiear": 3827,
      "▁eaaietsee": 3828,
      "▁oeoteea": 3829,
      "sttetn": 3830,
      "▁paetaiee": 3831,
      "▁eatollolloetouto\n": 3832,
      "▁」\n": 3833,
      "▁eeetnaieeaieaeoaieaeo": 3834,
      "▁aieeteaee": 3835,
      "▁oetodthnoo": 3836,
      "▁aieaieetnoaieaie\n": 3837,
      "▁asaeaeeemtn": 3838,
      "▁gteaietoe": 3839,
      "hoo": 3840,
      "▁oetodtn": 3841,
      "toeeaotdar": 3842,
      "aie1": 3843,
      "▁teatoaieeeae\n": 3844,
      "▁eaiaaegte\n": 3845,
      "▁paeaieeatn": 3846,
      "▁erdaehtecetktttn\n": 3847,
      "▁oeaiehr": 3848,
      "▁erdoohtov": 3849,
      "▁oietasee": 3850,
      "▁tmostaieeeto": 3851,
      "▁teoteoeaeheaeeaieero": 3852,
      "▁totoaiethtnouoo": 3853,
      "etniec": 3854,
      "eaaeeeto": 3855,
      "▁tseeeaaaieeetn": 3856,
      "▁aieeeatottea": 3857,
      "thneeeaown": 3858,
      "tllortoouoo": 3859,
      "▁aieeeertotllortoouoo": 3860,
      "▁aieelrt": 3861,
      "▁erdaieeetstt": 3862,
      "▁teaetmteaetcaieeeto": 3863,
      "▁oteatoeaaietsee": 3864,
      "▁eeadaieeetc\n": 3865,
      "eteaaehn": 3866,
      "aieeaieee": 3867,
      "▁terduto\n": 3868,
      "▁aeadeahn": 3869,
      "▁oetodaehtec": 3870,
      "▁ttaeer\n": 3871,
      "▁oetodaehtecefe": 3872,
      "▁oodeaaef": 3873,
      "eaiaieeaieee": 3874,
      "▁erdietfaafa": 3875,
      "hoown": 3876,
      "toeea": 3877,
      "tothtn": 3878,
      "▁aietaiee": 3879,
      "▁etaeae\n": 3880,
      "▁ohtoeea": 3881,
      "▁tseeooh": 3882,
      "▁eaitfeet": 3883,
      "▁eatooeeae": 3884,
      "▁lloooooetn": 3885,
      "▁aieaeoaieaieeecefe": 3886,
      "▁oodoeotaseaaie": 3887,
      "ub": 3888,
      "etothn": 3889,
      "fatown": 3890,
      "▁odeaeeasoooo": 3891,
      "▁aieae0": 3892,
      "▁hrdtllorto": 3893,
      "▁eelo": 3894,
      "▁otefatown": 3895,
      "▁iaeaieelaown": 3896,
      "om": 3897,
      "eouoto": 3898,
      "▁etaiet": 3899,
      "▁aieeeaetn\n": 3900,
      "▁tthoown": 3901,
      "ttootto": 3902,
      "▁etaiellolloetouto": 3903,
      "▁erdaieaetn": 3904,
      "▁eeaeeeaeouoto": 3905,
      "teasa": 3906,
      "▁tseeetktttn": 3907,
      "▁ietrhtn": 3908,
      "▁tooieemoteasa": 3909,
      "ill": 3910,
      "▁ooaieemtn": 3911,
      "▁oeaiea": 3912,
      "▁eaaoesttnoo": 3913,
      "ottootto": 3914,
      "ytjhn": 3915,
      "aieetstt": 3916,
      "▁teeaea\n": 3917,
      "▁eaatseaseeao": 3918,
      "▁eaatsteeafa": 3919,
      "▁eaeohetytjhn": 3920,
      "seea": 3921,
      "eeaieeea": 3922,
      "▁taiet": 3923,
      "toeae": 3924,
      "▁ooheattaieeeto": 3925,
      "taieetc": 3926,
      "aoeeeaeoooo": 3927,
      "▁aieeasadoouoo": 3928,
      "oog": 3929,
      "▁aiethtn": 3930,
      "▁loaseetctc\n": 3931,
      "it": 3932,
      "▁tseetsto": 3933,
      "eeatn0": 3934,
      "▁ohatoo": 3935,
      "▁ttsoeo": 3936,
      "▁tseetstofa": 3937,
      "us": 3938,
      "▁ottoottn": 3939,
      "▁taeuto": 3940,
      "▁oodteaaie\n": 3941,
      "▁aotetm": 3942,
      "▁aeeeaeeeeaieeea": 3943,
      "▁oetodtneaseearouoo": 3944,
      "▁ottoottn0": 3945,
      "▁oodthtn": 3946,
      "▁oodeaaietsee": 3947,
      "▁aietoe\n": 3948,
      "▁erdoeaiaieeaieee": 3949,
      "▁oteatoaieee": 3950,
      "▁oodthtnaiaae": 3951,
      "▁toeeaotdaotaieeeto": 3952,
      "▁aietn3": 3953,
      "▁oodeaaaieaietaoeeeae": 3954,
      "▁tootktttaieetc": 3955,
      "▁tseeoeotohoest": 3956,
      "▁taeaie": 3957,
      "▁iP": 3958,
      "▁etaietaoeeeaeoooo": 3959,
      "▁eatohoaseea": 3960,
      "▁teoteotneaieaietoto": 3961,
      "▁Ro": 3962,
      "▁e\n": 3963,
      "▁oohaietaie": 3964,
      "▁oheetc": 3965,
      "▁aieaeadrhtn": 3966,
      "▁taaieteetn\n": 3967,
      "▁eelotaieetclo": 3968,
      "▁oheetcero": 3969,
      "▁aieaeadrhtnaiee": 3970,
      "astoaie": 3971,
      "▁teatoaieee": 3972,
      "▁oeeeaielloooollooooieb": 3973,
      "▁oteaseearst": 3974,
      "eaaeeeatn": 3975,
      "▁ottoeaaeeeatn": 3976,
      "▁;\n": 3977,
      "▁eaetrtoeaetrto": 3978,
      "ieeaa": 3979,
      "aieaaeeteemtn": 3980,
      "▁teevegggeae": 3981,
      "▁oeotasttmntaee": 3982,
      "▁oteieeaa": 3983,
      "▁oteieeaatothtn": 3984,
      "id": 3985,
      "▁aieeaseea": 3986,
      "eadoelotac": 3987,
      "▁oohteea": 3988,
      "uooaiaaee": 3989,
      "haeadoelotac": 3990,
      "▁ooalololotnttt": 3991,
      "▁eadsac\n": 3992,
      "▁oodoshtn": 3993,
      "▁aieeaseeao": 3994,
      "uooaiaaeer": 3995,
      "▁oodaehtecaiea": 3996,
      "▁oeeeaielloooollooootetn\n": 3997,
      "▁eaaohn": 3998,
      "▁oodaehtecaieaeouoo": 3999,
      "eieeagte": 4000,
      "▁oodaiaaeeaeoteea": 4001,
      "▁tseegggaitoemoomoou": 4002,
      "▁oodeaaeaieeetotaoeeeae": 4003,
      "▁eaatsaietetnteer": 4004,
      "▁ooatneaseear": 4005,
      "M:": 4006,
      "eaetmteaetcaieeeto": 4007,
      "▁oeeeaieteaetmteaetcaieeeto": 4008,
      "▁aseaa": 4009,
      "▁oodoeteaaehn": 4010,
      "▁oeeeaieer": 4011,
      "eaiaaeeae": 4012,
      "▁taafataoeeeae": 4013,
      "am": 4014,
      "re": 4015,
      "▁eatoeerto": 4016,
      "▁oetoteieeaatn": 4017,
      "▁aieaioteaeeoooo": 4018,
      "▁oteatoaeaie": 4019,
      "aieieeasa": 4020,
      "▁oodieeaasee": 4021,
      "eaaeedpa": 4022,
      "▁eaaodthtn": 4023,
      "▁eadoeaieaieeeaaetmtn": 4024,
      "oogle": 4025,
      "▁eatoeertoieerodtn": 4026,
      "hoaieeast": 4027,
      "▁oodhoaieeast": 4028,
      "▁eaieote": 4029,
      "xetn": 4030,
      "▁oodaieaeaieeeto": 4031,
      "▁teadteeae": 4032,
      "▁taeaaietetn\n": 4033,
      "▁odeaieeatn": 4034,
      "▁eaeeasooooeaaeedho": 4035,
      "▁ottoeaiaaeeae": 4036,
      "▁eaeeasooooeaaeedhotatttn": 4037,
      "▁eood": 4038,
      "taoeeeaef": 4039,
      "▁aehtectv": 4040,
      "▁oodtmost": 4041,
      "▁eoodtaoeeeaef": 4042,
      "▁oodtmosttoeeaotdar": 4043,
      "▁aieefametaieeeto": 4044,
      "▁aitoe": 4045,
      "▁oodieeeea": 4046,
      "▁eatotnlo": 4047,
      "▁oetrto": 4048,
      "▁gteaiexetn": 4049,
      "▁taeetotoieeohhre\n": 4050,
      "▁eatotnlo0": 4051,
      "ay": 4052,
      "hosc": 4053,
      "▁oodieb": 4054,
      "▁oodaieaaeeteemtn": 4055,
      "oello": 4056,
      "oohthosc": 4057,
      "▁teatotoetasa": 4058,
      "lotothn": 4059,
      "▁oeeeaieoteeea": 4060,
      "▁eatoeieeagte": 4061,
      "▁taoteeta": 4062,
      "▁aeadem": 4063,
      "▁odeaeto": 4064,
      "▁aieeetoeaeeemtn": 4065,
      "▁eaaouoo": 4066,
      "▁Google": 4067,
      "▁erdtteao": 4068,
      "▁eaitfeeoetotoea": 4069,
      "▁aeademtaoeeeae": 4070,
      "▁odeaetothn": 4071,
      "▁aeertohn": 4072,
      "▁aieaieaieaee": 4073,
      "▁odtcteetohohaetn": 4074,
      "aieetno": 4075,
      "▁aieeteaieuto": 4076,
      "▁aieaieaieaeeaieetno": 4077,
      "▁eeadeatoeatn": 4078,
      "eetno": 4079,
      "aeieeahn": 4080,
      "▁eaeeasooootneaieaietoto\n": 4081,
      "▁tseethettooeeeaie": 4082,
      "ik": 4083,
      "▁oodaieee0": 4084,
      "▁aiiasaieown\n": 4085,
      "▁ohaoaiiasaie": 4086,
      "toteea": 4087,
      "fattsee": 4088,
      "▁ietaodtoteea": 4089,
      "▁ieteerto": 4090,
      "▁ieteaetaiee": 4091,
      "▁eatoooh": 4092,
      "▁oteeaeterduto\n": 4093,
      "▁iodiodaieaeeaaeto": 4094,
      "▁aieeaieeaiee": 4095,
      "▁tooieemoo": 4096,
      "▁erdoeotasttmntaee": 4097,
      "eaaeeetof": 4098,
      "▁odeaeeasooooouoo": 4099,
      "▁aieeaieeaiee0": 4100,
      "▁erdiaee": 4101,
      "▁-\n": 4102,
      "▁eaaoeoteerto": 4103,
      "▁eteemtnero": 4104,
      "▁eaaoeoteertottea": 4105,
      "ev": 4106,
      "▁llooooaieaieeecefe": 4107,
      "eatne": 4108,
      "son": 4109,
      "▁lloooooelotc\n": 4110,
      "▁oodotefattsee": 4111,
      "▁erdoteetnsc": 4112,
      "▁tooieemooteeta": 4113,
      "hreaiaae": 4114,
      "▁eadhtahn": 4115,
      "▁staie1": 4116,
      "▁eeaar": 4117,
      "▁oohgteeatn\n": 4118,
      "▁Jo": 4119,
      "▁oodieeaaseeeeae": 4120,
      "aieoeoteea": 4121,
      "▁eaaeaieeetothtn": 4122,
      "▁aieeeeaetaiee": 4123,
      "▁Al": 4124,
      "▁eaatnerto": 4125,
      "▁tseeaieeetstt": 4126,
      "odtofa": 4127,
      "▁thosc": 4128,
      "▁ttaeatooeer\n": 4129,
      "▁oodeaaetniec": 4130,
      "▁aiaaeeaetaiee": 4131,
      "▁eaaoodaieaieaieeatn": 4132,
      "▁ooatnaietc": 4133,
      "▁taieetcloeeatn": 4134,
      "aieeeaieeaee": 4135,
      "eaieaieeatn": 4136,
      "▁oetaieeeto": 4137,
      "ttaieeesoooo": 4138,
      "▁ieeaaseetsee": 4139,
      "▁aieaieaieaieeatn": 4140,
      "▁oteatoaieeeaieeaee": 4141,
      "teatnthoela": 4142,
      "▁ttsoeotaeieeahn": 4143,
      "▁thoscouoo": 4144,
      "▁oetaieeetoar": 4145,
      "elloaieae": 4146,
      "veasa": 4147,
      "▁aieetstof": 4148,
      "▁ooaiee": 4149,
      "▁oodeaieafteoaiaae": 4150,
      "▁erdtnoieetaie": 4151,
      "▁eatoeaieeatn": 4152,
      "▁tatveasa": 4153,
      "▁teaaieeaaee": 4154,
      "▁todcto": 4155,
      "aieaellorto": 4156,
      "▁taseeetaotasaie": 4157,
      "▁hno": 4158,
      "▁eaaoelloaieae": 4159,
      "▁elrttaieeesoooo": 4160,
      "eaieaseaa": 4161,
      "▁eadaieeaee": 4162,
      "▁thettooeeeaie": 4163,
      "eaieaieaieaseaa": 4164,
      "xxeae": 4165,
      "▁eaeaetneaaeedho\n": 4166,
      "▁Mar": 4167,
      "▁tooieemotv": 4168,
      "▁ottoeaeteb": 4169,
      "etlo": 4170,
      "tjeatn": 4171,
      "▁aaoteoteea": 4172,
      "▁eaieeeaeaseeao": 4173,
      "aiaaeieemo": 4174,
      "▁eaaieeeetoetaieeeto": 4175,
      "▁thnoo": 4176,
      "▁ohaoeaeheaeeaieero": 4177,
      "aiaaeieemoero": 4178,
      "▁oteetn": 4179,
      "▁aieaeemtn": 4180,
      "▁oeotdaieetstof": 4181,
      "eaieafteoaiaaeaieeetc": 4182,
      "▁ieteertoer": 4183,
      "▁Z": 4184,
      "▁allollo": 4185,
      "patooteaeieeouoo": 4186,
      "▁oetodpatooteaeieeouoo": 4187,
      "▁taietsaie": 4188,
      "▁allollofa": 4189,
      "▁gteiettc": 4190,
      "thaietktttn": 4191,
      "▁eaieeeaeaieaieae": 4192,
      "▁oetodtcteetohohaetn": 4193,
      "▁taseeettjeatn": 4194,
      "▁oodaietc\n": 4195,
      "teaeaitooooo": 4196,
      "▁oohetlo": 4197,
      "▁erdaotohaieaieae": 4198,
      "▁eatoaieeeatn": 4199,
      "▁toeeaotdeaseeao": 4200,
      "▁eaieafteaeaitooooo": 4201,
      "▁thaietktttn\n": 4202,
      "▁teoteoeaeero\n": 4203,
      "▁ooheeaaetnoo": 4204,
      "▁eaieafteaeaitoooooeaiaae": 4205,
      "ad": 4206,
      "eoteatn": 4207,
      "▁etasee\n": 4208,
      "▁aeadtcllorto": 4209,
      "▁tseeeea": 4210,
      "▁oetiaaeemtceae": 4211,
      "aeerto": 4212,
      "▁oohaieeasado": 4213,
      "▁lloooothneeeaown": 4214,
      "▁eeadteeatn": 4215,
      "toottn": 4216,
      "ieeaetn": 4217,
      "▁aieaeoaieaellorto": 4218,
      "▁tktoieemtn": 4219,
      "▁tataito": 4220,
      "▁eadeaetaiee": 4221,
      "▁gteloaie\n": 4222,
      "▁egggeadst": 4223,
      "▁tataitoetothn": 4224,
      "ellollo": 4225,
      "ieaee": 4226,
      "▁~": 4227,
      "▁oodellollo": 4228,
      "▁erdethno": 4229,
      "▁tateea1\n": 4230,
      "▁tkthreaiaae": 4231,
      "ieaeeiehn": 4232,
      "▁oodellolloeae": 4233,
      "il": 4234,
      "▁toteatnaieae": 4235,
      "▁ohaottea": 4236,
      "▁aseaie\n": 4237,
      "▁aiiohaseethnaie": 4238,
      "teatngte": 4239,
      "▁lltoieemopaoeoteaiee\n": 4240,
      "G:": 4241,
      "vtaieaeo": 4242,
      "▁erdseetpa": 4243,
      "▁odthtngte": 4244,
      "▁ttaafaeeeaetetnouoo": 4245,
      "dtoar": 4246,
      "he": 4247,
      "eeetpa": 4248,
      "eaeta": 4249,
      "▁tatotnaie": 4250,
      "▁oeeeaieetn": 4251,
      "aieaaiee": 4252,
      "▁eatoieeaaseeeaioteato": 4253,
      "erodtoar": 4254,
      "▁eaahrhtne": 4255,
      "▁eadeaaeeetof": 4256,
      "▁etneaeta": 4257,
      "▁oetoieemopa": 4258,
      "▁aehtecefe": 4259,
      "ooohtc": 4260,
      "▁tneaiesa\n": 4261,
      "▁thaieaeooooea": 4262,
      "▁ottoottoo": 4263,
      "eaaetotjhn": 4264,
      "▁lherodtoar": 4265,
      "▁ieteertoeroouoo": 4266,
      "▁oeeeaieetneeb": 4267,
      "▁eaahrhtneoooo": 4268,
      "aieelrt": 4269,
      "▁aietaieeesoooo": 4270,
      "aieaeemtn": 4271,
      "▁erdaotoh": 4272,
      "▁llooooeeetpa": 4273,
      "eaaaieaietaoeeeae": 4274,
      "faeaaaieaietaoeeeae": 4275,
      "▁teeafaeaaaieaietaoeeeae": 4276,
      "▁oeeeaietneaseaa\n": 4277,
      "▁eetc0\n": 4278,
      "▁oetmtnastoaie": 4279,
      "▁erdaotohaieelrt": 4280,
      "ab": 4281,
      "aseear": 4282,
      "▁tntotototo": 4283,
      "▁oeeeaietvtaieaeo": 4284,
      "ieeohhn": 4285,
      "▁faetthooeroeaitfee": 4286,
      "▁aotaseear": 4287,
      "▁ooaoteatnthoela": 4288,
      "▁Chr": 4289,
      "▁tntotototoea": 4290,
      "▁aeadtcee\n": 4291,
      "▁aieeetoeaetaiee": 4292,
      "▁ottoieeaaseeeaioteato": 4293,
      "▁erdtteaown": 4294,
      "▁ottoottoohottn": 4295,
      "▁aieeaa": 4296,
      "▁tseeeaeee": 4297,
      "▁oetotopa": 4298,
      "▁toothoaslohoo": 4299,
      "▁tseeeaeeemtn": 4300,
      "▁toothoaslohooeoteea": 4301,
      "eaaeedhn": 4302,
      "eteato": 4303,
      "▁aietstt": 4304,
      "▁aeaieeea": 4305,
      "eeaeoouoo": 4306,
      "▁eatotaiee": 4307,
      "ebuto": 4308,
      "▁teatoo": 4309,
      "▁oodettaieerto\n": 4310,
      "oteeaeteato": 4311,
      "oteeaeteatoebuto": 4312,
      "aieeetno": 4313,
      "▁aieeeeae": 4314,
      "eetoaie": 4315,
      "▁teetaieee\n": 4316,
      "▁taeeexaieeetno": 4317,
      "▁%\n": 4318,
      "▁tooieemoaieaeemtn": 4319,
      "▁aieaeoteetoaie": 4320,
      "▁aieeetootaiaoteaiee": 4321,
      "▁taeeexaieeetnoeeeaie": 4322,
      "un": 4323,
      "ook": 4324,
      "▁hreaiaae": 4325,
      "▁otasatotetn": 4326,
      "▁eaaeedouoo": 4327,
      "ttoottooh": 4328,
      "▁hohrteatn": 4329,
      "eaieotdttt": 4330,
      "etaieeaee": 4331,
      "▁erdaie": 4332,
      "▁teadoteeaeteatoebuto": 4333,
      "▁toeeaotdeaieafteoaiaae": 4334,
      "▁oodeteaeeae": 4335,
      "▁oohouooaiaaeer": 4336,
      "▁ietaodtoteeaown": 4337,
      "▁taeeaeaieeeto": 4338,
      "▁eatoeae0": 4339,
      "▁ietethotc": 4340,
      "▁eaeeemtn\n": 4341,
      "▁eaieaieaief\n": 4342,
      "▁oteatnaieaeeaaeto": 4343,
      "▁aieaeooieemopa": 4344,
      "▁eeadoetoeeae": 4345,
      "▁You": 4346,
      "haitoetn": 4347,
      "tieer": 4348,
      "▁taieeeeae": 4349,
      "▁taetno": 4350,
      "▁teaeaaee": 4351,
      "▁aiethaitoetn": 4352,
      "▁oeaieatmtn": 4353,
      "ul": 4354,
      "▁aieaeoeaieaieae": 4355,
      "ick": 4356,
      "SA": 4357,
      "aeertohn": 4358,
      "▁oodieeohhn": 4359,
      "▁ieeaaseeaieaieaieeea": 4360,
      "aoteoteeetn": 4361,
      "▁aieeetotthn": 4362,
      "▁oteatoooea\n": 4363,
      "▁tooieemotsiec": 4364,
      "▁toeeaotdiaee": 4365,
      "▁ottoooh": 4366,
      "▁ttaoest": 4367,
      "▁gggaieeeatn": 4368,
      "▁d": 4369,
      "▁eeaeo": 4370,
      "▁taeeae": 4371,
      "▁taaieeaiee": 4372,
      "▁etaiethtn": 4373,
      "▁oetieea": 4374,
      "▁aeadtc\n": 4375,
      "▁aieeeaeero\n": 4376,
      "▁oeeeaieeaa": 4377,
      "▁totneaaeedpa": 4378,
      "etieeaseea": 4379,
      "ube": 4380,
      "▁aieetstofthtn": 4381,
      "▁Chris": 4382,
      "▁eeaeo0": 4383,
      "▁taeeaesttetn": 4384,
      "itt": 4385,
      "eetnrooo": 4386,
      "▁ooaeaaeaiee": 4387,
      "▁oeeeaietnaietc\n": 4388,
      "▁eohaoooohohr": 4389,
      "▁—\n": 4390,
      "▁etaieeaeeae": 4391,
      "▁eohaoooohohrtthnst": 4392,
      "av": 4393,
      "▁taaietaie": 4394,
      "▁oodeetnrooo": 4395,
      "▁eadaeae": 4396,
      "eaieeetof": 4397,
      "▁teoteoeaieafteoaiaae": 4398,
      "▁oeoteaieeouoo\n": 4399,
      "▁emtctaiee": 4400,
      "▁oteatooetotoea": 4401,
      "▁aieaeooietaseaa": 4402,
      "▁tootktttso": 4403,
      "▁erdafataoeeeae": 4404,
      "aieaieeeaaetmtn": 4405,
      "eteaieeea": 4406,
      "▁llooootnst": 4407,
      "▁oeaieas": 4408,
      "ohaieaieeeaaetmtn": 4409,
      "▁taoetieeaseea": 4410,
      "taieesoooo": 4411,
      "aieaehn": 4412,
      "▁oohfiaeaieeeto\n": 4413,
      "▁aehtecthntv\n": 4414,
      "▁ohatooeteaieeea": 4415,
      "▁oeaieasaieaehn": 4416,
      "aeaieela": 4417,
      "eaiaeaieela": 4418,
      "▁aieeetaoeeeae": 4419,
      "eatoetn": 4420,
      "▁ttatjhn": 4421,
      "▁tseeeatotn": 4422,
      "▁eaaieeeaiaeaieela": 4423,
      "▁eaieaohaieaieeeaaetmtn": 4424,
      "▁eeadaieeaee\n": 4425,
      "▁tteao": 4426,
      "▁teer\n": 4427,
      "▁aieee2\n": 4428,
      "▁oemtseeeeae\n": 4429,
      "ieeataeeifaea": 4430,
      "▁eatototoeatoetn": 4431,
      "▁oeeeaieoteatoown": 4432,
      "▁aieeetaoeeeaeoooo": 4433,
      "▁tseeeatotnrodoo": 4434,
      "im": 4435,
      "ietn0": 4436,
      "▁c": 4437,
      "satoto": 4438,
      "▁erdloaie": 4439,
      "▁eadtaieesoooo": 4440,
      "ian": 4441,
      "▁toottiisoooo\n": 4442,
      "ietetno": 4443,
      "▁taeasatoto": 4444,
      "▁oodoietetno": 4445,
      "▁thaieaeooootsiec": 4446,
      "▁tast": 4447,
      "etasee": 4448,
      "▁ttmon": 4449,
      "▁eatoaieeeouoo\n": 4450,
      "▁toeeaotdt": 4451,
      "▁aieaeooohtc": 4452,
      "▁taeieetc\n": 4453,
      "▁tnohouoo\n": 4454,
      "▁tastaie0": 4455,
      "eieeaetn": 4456,
      "▁erdeieeaetn": 4457,
      "▁tteaie": 4458,
      "▁tathrto\n": 4459,
      "▁gtee": 4460,
      "mtctaiee": 4461,
      "▁oettataoeeeaeouoo\n": 4462,
      "▁aieeaaieeetstt": 4463,
      "▁aieaeoeaeeae": 4464,
      "▁tcaiee": 4465,
      "detaieeeto": 4466,
      "eaaethotceta": 4467,
      "ooheerto": 4468,
      "▁oteeetaieee\n": 4469,
      "▁aiiohaseeeaaethotceta": 4470,
      "▁eeta1": 4471,
      "▁aaoteoteeeatn\n": 4472,
      "▁afaooheerto": 4473,
      "▁asaaieeaieee": 4474,
      "▁eaaaieeetneae": 4475,
      "▁tseeeaeaieotdttt": 4476,
      "DP": 4477,
      "ry": 4478,
      "▁・": 4479,
      "eertoooea": 4480,
      "▁toeertoooea": 4481,
      "▁erdoohthoohneerto": 4482,
      "▁tseeteaieethn": 4483,
      "▁aaoteoteeaeaaeedhn": 4484,
      "ol": 4485,
      "▁ooaeteaieutoouoo": 4486,
      "▁eeaaetaie": 4487,
      "▁oeeeaieemtctaiee": 4488,
      "man": 4489,
      "▁ooaeaieaie": 4490,
      "▁eeaaetaief": 4491,
      "▁eatotaieeasa": 4492,
      "eroeasa": 4493,
      "▁oeoteaiee\n": 4494,
      "▁oohhre\n": 4495,
      "▁eeaeaeeaeroeasa": 4496,
      "▁eatototoeatoetnteer": 4497,
      "K:": 4498,
      "ey": 4499,
      "▁w": 4500,
      "tst": 4501,
      "aaaeoooo": 4502,
      "▁eaieeaeoouoo": 4503,
      "▁ttaafa": 4504,
      "▁eadaieeetstt\n": 4505,
      "oohteea": 4506,
      "eer1": 4507,
      "▁ieeaaseeood": 4508,
      "ebook": 4509,
      "▁teeatn": 4510,
      "▁tseeoest": 4511,
      "▁oetodieemtn": 4512,
      "▁afaetottn": 4513,
      "▁oelloohteea": 4514,
      "▁oteieeaatn": 4515,
      "▁GDP": 4516,
      "▁tkttaieieeasa": 4517,
      "▁ieeaaseeoodteaaie": 4518,
      "har": 4519,
      "thoaiaae": 4520,
      "▁pthoaiaae": 4521,
      "teeaaaaeoooo": 4522,
      "▁eaieaieaeown": 4523,
      "ex": 4524,
      "▁fiaeaieeeto": 4525,
      "▁oodtotnaie": 4526,
      "▁aieaouoo": 4527,
      "ietfaafa": 4528,
      "▁toeaieaietoto": 4529,
      "▁oohtoietfaafa": 4530,
      "eaaeoooo": 4531,
      "▁taeetotoieeohaieeetc\n": 4532,
      "aieetclo": 4533,
      "▁erdetaie": 4534,
      "eaataoeeeaehn": 4535,
      "▁oteetnsc": 4536,
      "▁tootaiaaeieemoero": 4537,
      "▁eetnaie": 4538,
      "▁eaatnoieetaie": 4539,
      "▁atotst": 4540,
      "▁aotetmiodiodtaoeeeae": 4541,
      "▁taeae0": 4542,
      "▁aieeeea1": 4543,
      "hone": 4544,
      "▁taeaeoteea": 4545,
      "▁aotasee": 4546,
      "▁aieaeoieaeeiehn": 4547,
      "eaieaeeaieaee": 4548,
      "▁oietsodsod": 4549,
      "▁eeetneea": 4550,
      "▁GP": 4551,
      "▁elrtpa": 4552,
      "▁teatotorodoo": 4553,
      "▁teatotorodooaeaie": 4554,
      "▁aieeeer1": 4555,
      "▁llooooma": 4556,
      "▁eatothaietktttn": 4557,
      "▁ttaood": 4558,
      "▁teatoeaataoeeeaehn": 4559,
      "▁oeeeaie0\n": 4560,
      "▁>\n": 4561,
      "▁teatooeaieasaie": 4562,
      "▁ttaoodeer": 4563,
      "e,": 4564,
      "▁erdhottniebtjho": 4565,
      "▁eatoeahn": 4566,
      "▁ttaiebta": 4567,
      "▁etsuto\n": 4568,
      "elotac": 4569,
      "▁afaetototn": 4570,
      "▁oeeeaieeaaeaieeeae": 4571,
      "ethre": 4572,
      "tsteeafa": 4573,
      "etottea": 4574,
      "▁tneaseearouoo": 4575,
      "otoh": 4576,
      "otasee": 4577,
      "▁ieeaaseeaieai": 4578,
      "▁eatooeotohoest": 4579,
      "▁paoeoteaie": 4580,
      "▁tatllorto\n": 4581,
      "▁eaeeelotttea": 4582,
      "▁ieeaaseeaieaieaie": 4583,
      "eaeaieeea": 4584,
      "hrodtofa": 4585,
      "han": 4586,
      "▁oetodhtahn": 4587,
      "▁etaieeaieea": 4588,
      "▁eteaieutoouoo\n": 4589,
      "▁aiaaeaeaieeea": 4590,
      "▁afaasoteafa": 4591,
      "▁erdoelloodtoea": 4592,
      "▁...\n": 4593,
      "▁etaieeaieeaeoero": 4594,
      "▁oodhrodtofa": 4595,
      "eohaooooaieae": 4596,
      "▁oetodeasto\n": 4597,
      "▁eahnsodsod": 4598,
      "▁Fac": 4599,
      "▁toeaieaietotoar": 4600,
      "▁eaeeelottteaaietsee": 4601,
      "ip": 4602,
      "eaioeaiooetiaaeemtc": 4603,
      "▁eaiaaeaieeeto": 4604,
      "▁teoteoeatne": 4605,
      "▁aieeaeeasoooo\n": 4606,
      "▁taieellolloeatn\n": 4607,
      "▁ieetaie": 4608,
      "▁toeeaotdeutoeuto\n": 4609,
      "▁Br": 4610,
      "▁tseeoteetneaeeasoooo": 4611,
      "▁aietaieetea": 4612,
      "▁tseeoohtoeae": 4613,
      "▁oodiebeaeeemtn": 4614,
      "ttoottoohst": 4615,
      "gtegte": 4616,
      "eaaeaieeetotaoeeeae": 4617,
      "▁eadaiee": 4618,
      "▁gtegtegte": 4619,
      "▁oetodeaaeaieeetotaoeeeae": 4620,
      "▁eaeeasoooohn": 4621,
      "▁taoeote\n": 4622,
      "▁aieeeeto\n": 4623,
      "▁ttsoeoteaewn": 4624,
      "▁taieeeetno": 4625,
      "▁aieeeeaa": 4626,
      "▁oohtaetaiee": 4627,
      "▁erdthaietc": 4628,
      "▁eaieeea\n": 4629,
      "aieeeae1": 4630,
      "▁tteatteaaieeeto\n": 4631,
      "▁eaaaieeetnst": 4632,
      "▁teecottootto": 4633,
      "▁Facebook": 4634,
      "\"\n": 4635,
      "ir": 4636,
      "ud": 4637,
      "eeaetmtn": 4638,
      "eerod": 4639,
      "▁aieooh": 4640,
      "▁ieeaaseellolloftaea\n": 4641,
      "▁eeeastetn": 4642,
      "▁taoeoteaie\n": 4643,
      "▁eaitfeetaieetclo": 4644,
      "▁NA": 4645,
      "▁oodeutoeuto": 4646,
      "▁erdteeaaaaeoooo": 4647,
      "▁tsfatts": 4648,
      "▁aieiet": 4649,
      "▁tootgte": 4650,
      "▁aieaieaieeea\n": 4651,
      "▁tsfattsfa": 4652,
      "ag": 4653,
      "▁toeeaotdeeaetmtn": 4654,
      "▁iaeaieela": 4655,
      "▁And": 4656,
      "▁oeaiehroooo": 4657,
      "▁eatoooheerto": 4658,
      "▁erdetnaieec": 4659,
      "▁aieood": 4660,
      "▁thtseeastteea\n": 4661,
      "▁eetauto": 4662,
      "▁aieeaaieeeatsee": 4663,
      "▁♫\n": 4664,
      "▁aieoodtefsoeo": 4665,
      "▁ttateea": 4666,
      "▁eaaeedtnoho": 4667,
      "▁etototn": 4668,
      "▁aieaiedutoe\n": 4669,
      "▁aieaieaieeeaeuto\n": 4670,
      "▁tootieer\n": 4671,
      "▁hohrtthnst\n": 4672,
      "▁gteteeae": 4673,
      "▁ttateeaead": 4674,
      "ut": 4675,
      "▁erdoo": 4676,
      "▁toeai": 4677,
      "▁aiaieeaaiaieee\n": 4678,
      "▁eaieaftn": 4679,
      "▁aiepaeaier\n": 4680,
      "▁iPhone": 4681,
      "B:": 4682,
      "tnta": 4683,
      "stoo": 4684,
      "▁oodeatoeatn": 4685,
      "tototnaie": 4686,
      "▁ooatefsoeo": 4687,
      "▁oeeeaieodthtn": 4688,
      "▁asao": 4689,
      "▁ohatototnaie": 4690,
      "▁ieeeaeaiee\n": 4691,
      "▁gteeaaie": 4692,
      "eaieafteoaiaae1": 4693,
      "▁etctnta": 4694,
      "▁etceaieafteoaiaae1": 4695,
      "▁oeeeaieodthtnaie": 4696,
      "heaaeedtetn": 4697,
      "▁【": 4698,
      "▁teaewn": 4699,
      "eaaeaieea": 4700,
      "▁eaaeaieeeadst": 4701,
      "▁eaaaieeaiaaehn": 4702,
      "▁oeteaaeoooo": 4703,
      "▁ttaeaeae": 4704,
      "▁aieeetc1\n": 4705,
      "▁eaaeaieeetotaoeeeae\n": 4706,
      "▁aieaieeeto0\n": 4707,
      "▁etteatoteatnaiee": 4708,
      "▁gteeaeeae": 4709,
      "ch": 4710,
      "▁】": 4711,
      "eaieoteaie": 4712,
      "▁tatoo": 4713,
      "▁oodaiea": 4714,
      "▁eatoeaiea": 4715,
      "eoteieeaatn": 4716,
      "▁iec0\n": 4717,
      "▁llooootaieerhtn\n": 4718,
      "aiaec": 4719,
      "▁teoteooeoteaseeexeceee": 4720,
      "▁GPS": 4721,
      "▁tatoottiisoooo": 4722,
      "▁eatoeaieaeaieeetof": 4723,
      "▁eaaethotceta": 4724,
      "▁oeoteaiear": 4725,
      "▁teoteoaieaaiee": 4726,
      "▁teatoteaieeeae\n": 4727,
      "▁taieieeasa\n": 4728,
      "▁aieaeadthnaie\n": 4729,
      "▁loaseetctcouoo\n": 4730,
      "▁aieeae1": 4731,
      "▁oodaeaeattetaieeeto": 4732,
      "itter": 4733,
      "▁oeteaaeooooown": 4734,
      "ig": 4735,
      "ettc": 4736,
      "▁eaaeohaooooaieae": 4737,
      "▁eatoaieeeea": 4738,
      "▁rto\n": 4739,
      "▁oeeeaieoteeaeterduto\n": 4740,
      "saeerto": 4741,
      "witter": 4742,
      "aieeoeto": 4743,
      "▁taieerhtn": 4744,
      "▁eatoeea": 4745,
      "▁eatoeaier": 4746,
      "▁erdottoottoohst": 4747,
      "▁teevoteato\n": 4748,
      "▁aieedst\n": 4749,
      "▁Ar": 4750,
      "▁oodhtahngte": 4751,
      "▁Fr": 4752,
      "▁ttateeaeadsaeerto": 4753,
      "ell": 4754,
      "etoasatotototo": 4755,
      "eetuto": 4756,
      "▁eaaet": 4757,
      "▁aieaeasee": 4758,
      "▁aieaotasee": 4759,
      "▁ohaieeoeto": 4760,
      "▁iecouoo": 4761,
      "▁odtaoeeeae": 4762,
      "▁aieaeadteetn": 4763,
      "▁oteaseear\n": 4764,
      "▁tathaietktttn\n": 4765,
      "▁eaeeasooootetnaieasaie": 4766,
      "▁eatne\n": 4767,
      "▁toeeaotdeaaeaiee\n": 4768,
      "▁tooieemoaieaeo": 4769,
      "▁eeeatoeeta": 4770,
      "aehtecaieaeaiaae": 4771,
      "▁otasatotetneta": 4772,
      "stooeatn": 4773,
      "▁aieaeasee1": 4774,
      "eaiot": 4775,
      "loetaieeeto": 4776,
      "▁aieeeaeeadeaeetc": 4777,
      "▁eaahaeadoelotac": 4778,
      "▁toloetaieeeto": 4779,
      "eaedooootetn": 4780,
      "▁Ma": 4781,
      "▁eaeoteeatvoeae": 4782,
      "▁ttaafaeaiot": 4783,
      "▁ttaafaeaioteaedooootetn": 4784,
      "asto": 4785,
      "▁tseee": 4786,
      "eaieeeaeaieeea": 4787,
      "▁eaieeeaeaieeeaeaieeea": 4788,
      "oohtc": 4789,
      "▁oeeeaieea\n": 4790,
      "odsod": 4791,
      "▁ieteaaetotjhn": 4792,
      "▁aieetsee\n": 4793,
      "▁etaietaiee": 4794,
      "▁eeaderodtno\n": 4795,
      "▁ottoeaioteatn": 4796,
      "▁eaieotdetaieeeto\n": 4797,
      "▁aietneeaaie": 4798,
      "▁ttsoeotnoieetaie": 4799,
      "▁toeaietaieeesoooo": 4800,
      "▁tseeeiebtn": 4801,
      "iv": 4802,
      "▁b": 4803,
      "▁taieetea": 4804,
      "aieaeeta": 4805,
      "▁ooagggtaitoe": 4806,
      "▁oetodaieaeeta": 4807,
      "▁teetoeief": 4808,
      "▁oeaieasaie\n": 4809,
      "▁erdaieea1": 4810,
      "▁ottoaieaieaieeatn": 4811,
      "▁aeaeatt\n": 4812,
      "▁tktetototn": 4813,
      "▁taeaaetaseea\n": 4814,
      "▁ooaeaaoeftac": 4815,
      "ck": 4816,
      "▁aieetsc": 4817,
      "▁aeaitooooo": 4818,
      "▁etneerto": 4819,
      "▁eatnhre": 4820,
      "▁oeoteaiepa\n": 4821,
      "▁tnohaieeeto": 4822,
      "▁emst\n": 4823,
      "▁oohoeoteea": 4824,
      "▁aiaaeloaseetctc": 4825,
      "eeetneeto": 4826,
      "▁erdeaaeeetottea": 4827,
      "▁ooaieemoeltc": 4828,
      "um": 4829,
      "ttthn": 4830,
      "▁oteettthn": 4831,
      "▁toeeaotdeief": 4832,
      "▁ieboello": 4833,
      "▁teatoar\n": 4834,
      "▁atot\n": 4835,
      "▁rhtn\n": 4836,
      "▁oeeeaieoeoteaieeuto\n": 4837,
      "▁oeasa\n": 4838,
      "▁eaaoet": 4839,
      "▁ohatoaieeeatn": 4840,
      "ieown": 4841,
      "eaieieown": 4842,
      "▁oodeief": 4843,
      "▁erdeteaieutoouoo": 4844,
      "▁eaelost1": 4845,
      "▁etaieoteatn": 4846,
      "▁taieeeoohtooestown\n": 4847,
      "▁eetaareae\n": 4848,
      "▁eatoeeaaeasaee\n": 4849,
      "▁tooieemoteae": 4850,
      "▁NASA": 4851,
      "▁oodeiefeatn": 4852,
      "▁etaieoteatnthoela": 4853,
      "▁f": 4854,
      "eaieoheloeae": 4855,
      "▁eatolotothn": 4856,
      "odstooeatn": 4857,
      "▁ietemtc": 4858,
      "▁oettataoeeeaetaieeesoooo": 4859,
      "▁eatooodstooeatn": 4860,
      "xxeaeouoo": 4861,
      "▁teeasaar\n": 4862,
      "▁ottoottoohaieaeo": 4863,
      "▁aieeaexxeaeouoo": 4864,
      "▁aieoetotn": 4865,
      "▁gteoieemtn": 4866,
      "▁ottoooheetc": 4867,
      "EO": 4868,
      "os": 4869,
      "▁taet": 4870,
      "▁aieaotoh": 4871,
      "▁tseeeae": 4872,
      "thaitoetn": 4873,
      "▁ttallothn\n": 4874,
      "▁eaeeasoooooohtc": 4875,
      "eaaeethtn": 4876,
      "▁ooheaetn\n": 4877,
      "▁afaeaaeethtn": 4878,
      "▁aieaeogggaitoemoomoou": 4879,
      "▁teoteothneeea": 4880,
      "▁ooaeaaieeeeto": 4881,
      "▁tmeuaiee": 4882,
      "▁teoteothneeeaown": 4883,
      "H:": 4884,
      "tee": 4885,
      "eeaetaiee": 4886,
      "▁tnoieetaie": 4887,
      "etaieeoesttetn": 4888,
      "eatotmtn": 4889,
      "▁llooooelo": 4890,
      "ohhre": 4891,
      "▁teatoottn": 4892,
      "theaaeed": 4893,
      "▁ietfaafa": 4894,
      "▁eatoaieeemtc": 4895,
      "▁oohtotv\n": 4896,
      "▁thiaec\n": 4897,
      "▁afaaieaiee": 4898,
      "▁eadeaieduto\n": 4899,
      "▁eaieafhnasee": 4900,
      "and": 4901,
      "▁eaiaaetaieeoesttetn": 4902,
      "▁oeaieeeatotmtn": 4903,
      "▁egggeadetaieeeto": 4904,
      "eaaeaieeatsee": 4905,
      "▁llooooeloeadtetn": 4906,
      "theaaeedtetn0": 4907,
      "▁afaaieaieetheaaeedtetn0": 4908,
      "ap": 4909,
      "eaeaetn": 4910,
      "eaietmtn": 4911,
      "staie0": 4912,
      "gteeaaie": 4913,
      "▁eaagteeaaie": 4914,
      "▁oetodthaitoetn": 4915,
      "▁toeeaotder": 4916,
      "▁odthtn\n": 4917,
      "▁oelloodtoea\n": 4918,
      "▁aieeetootieer": 4919,
      "▁tseeoohgte": 4920,
      "ber": 4921,
      "qu": 4922,
      "tec": 4923,
      "ettcaiee": 4924,
      "▁ettea": 4925,
      "▁oohtoto": 4926,
      "▁oodlololotnttt": 4927,
      "▁oodeeatn0": 4928,
      "▁oeaiaieeaiee": 4929,
      "▁etneaetaiee": 4930,
      "▁oeeeaieiodiodtnttt": 4931,
      "▁teatoteetn": 4932,
      "▁toeeaotdeaioteatn": 4933,
      "▁eetn0\n": 4934,
      "▁aiestar0\n": 4935,
      "▁tkteaeaietmtn": 4936,
      "▁aieieteloeae": 4937,
      "▁erdooea": 4938,
      "▁etteaf": 4939,
      "aeai": 4940,
      "▁haeadoelotac": 4941,
      "toaslo": 4942,
      "▁taaotoh": 4943,
      "teatoaeai": 4944,
      "▁taeuo\n": 4945,
      "▁ieteaaemtn\n": 4946,
      "▁eatoeaiaaeeerto\n": 4947,
      "▁eatoeaeaieoheloeae": 4948,
      "▁oteeetsodsod": 4949,
      "▁Twitter": 4950,
      "▁etaieoelotac": 4951,
      "▁oodaieeetsttaiaae": 4952,
      "▁eadaieesodsod": 4953,
      "▁oohtototeatoaeai": 4954,
      "▁taaotohaieaieeeto": 4955,
      "▁oohtototeatoaeaitoaslo": 4956,
      ".c": 4957,
      "▁eiebtn": 4958,
      "▁ieerod": 4959,
      "▁teoteoaseaie": 4960,
      "toown0": 4961,
      "▁eeaellorto\n": 4962,
      "▁etaietaieetea": 4963,
      "▁tseeeae0": 4964,
      "▁ieerodtoown0": 4965,
      "boooo": 4966,
      "ion": 4967,
      "ow": 4968,
      "▁taieeec0": 4969,
      "▁oodeeetneeto": 4970,
      "▁eatoteeatn": 4971,
      "asaf": 4972,
      "▁oteatoetooetaieeeto\n": 4973,
      "▁teevottootto": 4974,
      "▁oodeaaeto": 4975,
      "▁Dav": 4976,
      "▁hta": 4977,
      "hohoho": 4978,
      "\",": 4979,
      "▁‧": 4980,
      "toeasatn": 4981,
      "toeaieaieaieaseaa": 4982,
      "▁etsc": 4983,
      "▁tneeaaie": 4984,
      "▁oodeatotn": 4985,
      "▁erdae": 4986,
      "▁eaalloooo": 4987,
      "▁eeadtaiee": 4988,
      "▁teoteotoeaieaieaieaseaa": 4989,
      "▁toeeaotdaseaie": 4990,
      "▁ieeaaseeeeta\n": 4991,
      "▁etaieeasaf": 4992,
      "▁aieaeadaieetstt": 4993,
      "▁easatoeasatn": 4994,
      "▁aieaeouoo\n": 4995,
      "dtcasee": 4996,
      "▁eaaoeteatoeatn": 4997,
      "▁gteeaettc": 4998,
      "▁taeaaieeee\n": 4999
    },
    "merges": [
      "e e",
      "e a",
      "a i",
      "▁ t",
      "e t",
      "o o",
      "ai ee",
      "ea i",
      "t o",
      "▁ o",
      "ee a",
      "e o",
      "t n",
      "▁ ea",
      "a s",
      "e r",
      "▁t aiee",
      "et n",
      "▁t a",
      "t s",
      "▁ et",
      "ea e",
      "as ee",
      "l o",
      "▁ aiee",
      "ts o",
      "▁taiee tso",
      "a o",
      "▁ oo",
      "eai ee",
      "et o",
      "er d",
      "u to",
      "▁ ai",
      "▁o ee",
      "oo oo",
      "w n",
      "▁oee eai",
      "▁ ,",
      "a ee",
      "t c",
      "t t",
      "eo t",
      "h n",
      "eai e",
      "▁aiee ea",
      "h r",
      "h o",
      "▁ e",
      "ai e",
      "erd uto",
      "t a",
      "▁t erduto",
      "eo wn",
      "ea d",
      "▁t n",
      "▁ .",
      "a a",
      "l lo",
      "t ea",
      "ai ea",
      "▁aieeea etn",
      "▁ i",
      "ee r",
      "s t",
      "et c",
      "g t",
      "a asee",
      "▁taiee aasee",
      "l l",
      "▁oo h",
      "▁. \n",
      "▁oo d",
      "u oo",
      "ll oooo",
      "et aiee",
      "▁ eai",
      "m tn",
      "▁ a",
      "s a",
      "ea to",
      "▁ erd",
      "▁oeeeai eown",
      "o to",
      "t oo",
      "ao t",
      "e c",
      "a eae",
      "▁ lloooo",
      "ee t",
      "eea e",
      "gt e",
      "▁ hr",
      "p a",
      "eea d",
      "▁ea to",
      "▁et aeae",
      "ea a",
      "as a",
      "▁ta t",
      "▁ta aiea",
      "▁taaiea aiee",
      "er o",
      "a r",
      "aiee e",
      "▁ea a",
      "i ee",
      "▁et asee",
      "▁t t",
      "▁t ta",
      "ai et",
      "▁o t",
      "▁t eato",
      "ee ea",
      "eer o",
      "▁t oo",
      "to to",
      "▁ai ea",
      "▁o eai",
      "f a",
      "o h",
      "s oooo",
      "ea s",
      "▁o e",
      "ea tn",
      "▁et ao",
      "▁o et",
      "▁tn 1",
      "eea asee",
      "o t",
      "er to",
      "h tn",
      "▁ eead",
      "t hn",
      "▁ea d",
      "▁o eot",
      "▁t s",
      "▁tat hr",
      "▁i eeaasee",
      "to h",
      "ho t",
      "▁tathr to",
      "sa c",
      "▁ea aee",
      "▁e lo",
      "▁t asa",
      "▁tasa c",
      "aa e",
      "eo uoo",
      "t etn",
      "ee e",
      "i a",
      "e b",
      "a tn",
      "▁elo ead",
      "▁t h",
      "▁ aee",
      "etaiee eto",
      "tt tn",
      "hr e",
      "llo llo",
      "▁ m",
      "▁eloead ar",
      "▁a ead",
      "aot eaiee",
      "▁aead tc",
      "▁ gte",
      "h a",
      "▁o tea",
      "g g",
      "ee eae",
      "a aee",
      "ee tn",
      "k tttn",
      "▁m oto",
      "eaiee eto",
      "t ao",
      "r to",
      "▁ta o",
      "i i",
      "ii soooo",
      "tt iisoooo",
      "▁too ttiisoooo",
      "ea etn",
      "i et",
      "eot e",
      "lo asee",
      "ee to",
      "▁et oto",
      "▁etoto atn",
      "ai etc",
      "aiee etc",
      "▁ea e",
      "▁ etn",
      "t j",
      "e f",
      "▁tn eai",
      "o uoo",
      "eaiee ea",
      "▁t eea",
      "▁oeai erto",
      "tc tc",
      "loasee tctc",
      "etc o",
      "▁oeaierto etco",
      "▁ \"",
      "▁ta ea",
      "▁o eto",
      "▁ loaseetctc",
      "▁aeadtc ee",
      "▁oe st",
      "ao toh",
      "▁tneai aoteaiee",
      "▁oeeeai et",
      "▁ aotoh",
      "ai eai",
      "▁ s",
      "▁ai i",
      "t aiee",
      "eet pa",
      "▁eai er",
      "▁ eaie",
      "▁ea etaiee",
      "eai eea",
      "s tt",
      "▁oeeeai e",
      "as aa",
      "▁ai eto",
      "▁etn 1",
      "▁t eot",
      "▁t ea",
      "aae gte",
      "▁eai aaegte",
      "aiee eto",
      "▁oeeeai etn",
      "▁t o",
      "i eb",
      "▁oo a",
      "eaiee eae",
      "▁s eetpa",
      "▁aieeea eero",
      "ee ta",
      "▁ gt",
      "t v",
      "▁ooh tc",
      "t h",
      "▁ta ee",
      "o wn",
      "too t",
      "i ec",
      "hot ho",
      "▁teot eo",
      "tao eeeae",
      "▁teato aie",
      "▁ai e",
      "eeae 1",
      "eato eatn",
      "▁t eeae1",
      "et mtn",
      "d uto",
      "aot eot",
      "▁a aoteot",
      "▁tt iet",
      "▁ttiet tea",
      "▁t hotho",
      "et ktttn",
      "▁eaaee eto",
      "▁oet eatoeatn",
      "aiet etn",
      "eer to",
      "iee oh",
      "▁oeeeai eo",
      "e 0",
      "tt ea",
      "▁ea eaetn",
      "eead ero",
      "too wn",
      "▁oeteatoeatn llo",
      "o e",
      "▁gt eaie",
      "toto ieeoh",
      "a e",
      "▁taee totoieeoh",
      "hot tn",
      "eas ee",
      "t eeae",
      "i eer",
      "▁eato aiee",
      "eea eo",
      "aiee mtn",
      "▁t eet",
      "tj ho",
      "▁oeeeaietn aietc",
      "ai aaee",
      "▁ as",
      "▁taiee e",
      "u o",
      "▁teet aieee",
      "s htn",
      "▁eatoaiee eouoo",
      "s o",
      "▁eead aieeetc",
      "ai eown",
      "▁o h",
      "ia ec",
      "▁tt aieemtn",
      "aieee 1",
      "▁ea toot",
      "▁ pa",
      "fa et",
      "▁t ead",
      "eeaeo shtn",
      "▁eatoot eeaeoshtn",
      "▁ta e",
      "▁ts eea",
      "eo ha",
      "▁aaoteot eeadero",
      "eoha oooo",
      "tea ee",
      "▁ts ee",
      "▁et asaa",
      "▁ eohaoooo",
      "as aieown",
      "▁aii asaieown",
      "▁ead sac",
      "aee d",
      "oooo o",
      "▁ta aieee1",
      "▁ 0",
      "ts ee",
      "▁teato t",
      "▁aieto e",
      "▁ sac",
      "s uto",
      "eaieea ee",
      "h t",
      "eaiee tn",
      "f aa",
      "▁ st",
      "▁eaie ieer",
      "eea ot",
      "▁eaetaiee pa",
      "ai eae",
      "t f",
      "▁ hottn",
      "ieb tjho",
      "▁ ?",
      "eea soooo",
      "eai er",
      "eai ea",
      "eaiee ead",
      "▁hottn iebtjho",
      "▁i ec",
      "▁ot etaiee",
      "tn oo",
      "eea eet",
      "▁oeai eeaeet",
      "▁oeaieeaeet mtn",
      "iee m",
      "gg g",
      "aiee eero",
      "▁tta aieeeero",
      "▁oest tnoo",
      "▁ooh etktttn",
      "▁teatot eaieeeae",
      "▁ot ee",
      "llo thn",
      "▁tta llothn",
      "▁taea aietetn",
      "▁teea ea",
      "ea eee",
      "aieai eae",
      "ht ec",
      "▁ea aiee",
      "so eo",
      "▁et suto",
      "▁aotoh aieaieae",
      "f ia",
      "fia eaieeeto",
      "▁taeetotoieeoh hre",
      "▁hr e0",
      "▁aieeea tn",
      "oo etn",
      "faa fa",
      "eot eaiee",
      "tt t",
      "▁ eaieeea",
      "ooetn ooooo",
      "eea tn",
      "eto uto",
      "oo h",
      "▁ooh fiaeaieeeto",
      "ggg eae",
      "▁ta teaee",
      "▁oeot eaiee",
      "▁ faafa",
      "▁ faet",
      "eaiee eaa",
      "llollo etouto",
      "eeaot d",
      "▁oeto d",
      "th oo",
      "▁otetaiee eown",
      "▁th ooetnooooo",
      "▁to eeaotd",
      "eea easee",
      "eaie duto",
      "a etn",
      "ea eero",
      "tea to",
      "e m",
      "ts tt",
      "▁ooh to",
      "eaa e",
      "▁oh ao",
      "▁eae lo",
      "t htn",
      "▁o ha",
      "▁t eeto",
      "ta hn",
      "▁aieeeatn 2",
      "eot eea",
      "▁ea o",
      "et ao",
      "▁gte hre",
      "▁ood ts",
      "e gggeae",
      "▁tn st",
      "llo rto",
      "▁ai eai",
      "▁ot eea",
      "▁oodts hn",
      "▁oeeeai eea",
      "▁ieeaasee eeta",
      "aiet ktttn",
      "asee et",
      "m toown",
      "etaiee e",
      "aeed hn",
      "o d",
      "▁lloooo egggeae",
      "▁aieeea aeedhn",
      "eai eai",
      "a eaie",
      "aiea eo",
      "▁i et",
      "et a",
      "eaieduto e",
      "▁ai eaiedutoe",
      "▁o hn",
      "tj hn",
      "▁as eaie",
      "t to",
      "▁tead tstt",
      "aee r",
      "▁otee etaieee",
      "▁ai aaee",
      "aiet mtoown",
      "▁aiaaee aietmtoown",
      "l tto",
      "llollo f",
      "▁ -",
      "▁et aiee",
      "▁tao eeea",
      "▁erd o",
      "eea r",
      "eetn 0",
      "toto aetn",
      "m tc",
      "▁? \n",
      "d tn",
      "▁ ho",
      "ee tc",
      "ai aae",
      "ef soeo",
      "tao eeea",
      "▁a e",
      "▁i eb",
      "et oo",
      "▁teeto aie",
      "▁tt aeer",
      "eaieeead st",
      "▁tta totoaetn",
      "▁t eaieeeadst",
      "ts eea",
      "▁ieeaasee aie",
      "eaieeeaa etmtn",
      "to t",
      "lloooo lloooo",
      "eai eaieeeaaetmtn",
      "aot e",
      "e uto",
      "▁ :",
      "▁th tseea",
      "aiea sa",
      "▁aotoh aieasa",
      "eae d",
      "▁o d",
      "▁ea tn",
      "▁oeeeaie lloooolloooo",
      "▁aiea ead",
      "▁oeoteaiee ouoo",
      "▁oeeeaieo eaieaieeeaaetmtn",
      "tn eaie",
      "eae lo",
      "▁ood eaelo",
      "▁ 1",
      "oh asee",
      "ai aa",
      "▁otea aote",
      "ai eaie",
      "▁aee eaeee",
      "▁ea et",
      "▁otea to",
      "thn aie",
      "lo aie",
      "aiaaee e",
      "▁et aiaaeee",
      "▁ eaieetn",
      "▁eaeaetn iec",
      "▁eai tf",
      "▁ai aiee",
      "▁oeeeaielloooolloooo tetn",
      "ee eaie",
      "▁aii ohasee",
      "▁i ee",
      "▁aiea etn",
      "eee x",
      "▁oe stt",
      "▁ooa teeae",
      "▁st 1",
      "▁ai ot",
      "eto to",
      "▁eato llolloetouto",
      "ai eote",
      "as eea",
      "et etn",
      "▁oeot eerto",
      "▁erd iaec",
      "▁faet thoo",
      "▁faetthoo ero",
      "s eear",
      "aie i",
      "aiea aee",
      "▁ea eae",
      "▁ae htec",
      "toh tahn",
      "▁oha tohtahn",
      "▁ieeaasee aiee",
      "aieaaee aieote",
      "aieai etao",
      "eo h",
      "iee mtn",
      "▁aieeeaetn etaieeeto",
      "▁eaaee d",
      "▁otea seear",
      "eaed oooo",
      "too uoo",
      "ero dtn",
      "▁aiot eaedoooo",
      "oo uoo",
      "▁ eetn0",
      "▁ —",
      "r htn",
      "ta ea",
      "▁ieeaasee llollof",
      "▁ieeaaseellollof taea",
      "▁ta eai",
      "▁eaa ef",
      "▁aiee aiea",
      "▁t ho",
      "aiee aee",
      "▁erdo eote",
      "▁ooa eeaeasee",
      "▁ rto",
      "▁eae 2",
      "▁ eea",
      "ai to",
      "▁ea eai",
      "gt etetn",
      "▁aiiohasee aieaaeeaieote",
      "▁aieeaiea gtetetn",
      "▁od thtn",
      "▁tn eaie",
      "▁eai ea",
      "▁eead aieeaee",
      "▁ta eaa",
      "▁aioteaedoooo aeaie",
      "▁eaie duto",
      "h aietktttn",
      "▁tat haietktttn",
      "▁lloooo ea",
      "u toouoo",
      "▁oet ta",
      "▁taoeeea eown",
      "taiee rto",
      "▁ta eeex",
      "▁gte sac",
      "▁t k",
      "tea tn",
      "eaie utoouoo",
      "▁t eaieeaee",
      "▁ta tc",
      "▁ea eeasoooo",
      "▁e mtc",
      "ea aee",
      "etn o",
      "▁et eaieutoouoo",
      "ta 0",
      "▁aieaetn ta0",
      "aa eaieeeto",
      "▁oteea eetn",
      "ae oooo",
      "ea sa",
      "▁tn eeae",
      "▁i em",
      "▁ai eae",
      "▁eohaoooo et",
      "▁eato aieee",
      "m e",
      "▁eatoaieee 2",
      "t ho",
      "stt eea",
      "aie 0",
      "▁thtseea stteea",
      "eot d",
      "▁aiee e",
      "▁teea aa",
      "oe lo",
      "o ea",
      "▁lloooo tneaie",
      "▁\" \n",
      "eea wn",
      "▁ta eaier",
      "j hn",
      "tea aie",
      "too oea",
      "▁eaaiee eeto",
      "▁oeoteerto ttea",
      "et stt",
      "aiet eetn",
      "▁ooh eaetn",
      "▁tao eeeaie",
      "o eai",
      "▁eohaooooet asaa",
      "eaie pa",
      "▁oeot eaiepa",
      "ea aie",
      "▁eaitf e",
      "▁a ea",
      "▁ 2",
      "▁o uoo",
      "▁eatn e",
      "▁t efsoeo",
      "▁gte loaie",
      "et aiaaee",
      "etaiaaee ouoo",
      "▁ood o",
      "▁ta aieteetn",
      "ieem o",
      "▁taeai etn",
      "ai etn",
      "et erduto",
      "▁iec 0",
      "erodtn o",
      "eaae hn",
      "eai eown",
      "aiee c",
      "eas aee",
      "▁eaa aieaietao",
      "a t",
      "eeea eaiee",
      "▁taeeex aieeeto",
      "eaieai etoto",
      "▁oet eaaehn",
      "▁teeaaa aeoooo",
      "eas eaa",
      "aiee etn",
      "▁eohaoooo aieec",
      "▁t aseeet",
      "▁ea eee",
      "st oouoo",
      "▁oeeeaie stoouoo",
      "o ho",
      "eoteaiee uto",
      "▁ eeta",
      "asa d",
      "▁oetta taoeeea",
      "r o",
      "▁aiee e0",
      "▁oettataoeeea eouoo",
      "ieb at",
      "▁, \n",
      "▁tta ea",
      "▁ea sa",
      "▁hr d",
      "▁aie s",
      "▁aiee tsee",
      "hr d",
      "▁ood teaaie",
      "▁iec 1",
      "▁ho aseea",
      "▁hoaseea own",
      "▁aiee eto",
      "etoo etaieeeto",
      "▁oteato etooetaieeeto",
      "▁et o",
      "st aie",
      "tn eaieaietoto",
      "aiee etstt",
      "▁tae i",
      "aiee eae",
      "▁aiee eaieeaee",
      "▁tn lo",
      "eas aie",
      "s aa",
      "u oto",
      "▁teea saa",
      "t ai",
      "▁tead eaeero",
      "▁tea eaieown",
      "▁t tea",
      "eot eeea",
      "▁teoteo iebat",
      "▁eead uo",
      "eea a",
      "▁et ai",
      "tt oo",
      "ae htec",
      "▁st aie0",
      "o ero",
      "▁et ho",
      "ead tv",
      "▁eaaeeeto ttea",
      "▁eaeee mtn",
      "ea hn",
      "o teato",
      "eaie f",
      "▁et taieerto",
      "▁ ee",
      "▁oee eaiee",
      "▁oeeeaiet jhn",
      "i eet",
      "▁taeetotoieeoh aieeetc",
      "▁erdoeote gte",
      "▁eai eeatn",
      "▁t eer",
      "oe ltto",
      "ee v",
      "eaiea eto",
      "▁llooooea eaie",
      "aiee asad",
      "eaieetn o",
      "et teeae",
      "m o",
      "▁oeai easaie",
      "▁teato ar",
      "aiee ee",
      "▁hrd oeltto",
      "▁eato eaa",
      "▁easa toto",
      "as aie",
      "▁tae uo",
      "aiei e",
      "ho e",
      "toh hn",
      "etn eae",
      "▁eaaee etneae",
      "▁ 5",
      "▁iee eeawn",
      "▁erd aiee",
      "oeai erto",
      "▁aiee a",
      "▁tn 2",
      "▁teato aieeeae",
      "▁aiee oeaierto",
      "o tea",
      "e lo",
      "aieeasad o",
      "eai eaief",
      "▁eai eaieaief",
      "too eer",
      "▁ttaea tooeer",
      "aseeet ero",
      "▁ea s",
      "▁oeeeaiet aseeetero",
      "eea 1",
      "llollo eatn",
      "▁oeeeaietn easeaa",
      "▁lloooo as",
      "▁oeeeaiet eea",
      "▁oeeeaiet eaaie",
      "▁eea etmtn",
      "hrd tetn",
      "▁ p",
      "▁tea toooea",
      "▁eead erodtno",
      "▁tat eea1",
      "▁oh eaieeea",
      "ea eae",
      "▁ood t",
      "eai eote",
      "aiee atn",
      "eaae mtn",
      "elo eae",
      "▁iet eaaemtn",
      "eaaee e",
      "eeea tn",
      "ts aie",
      "eas to",
      "▁aieee 2",
      "l h",
      "▁tao eote",
      "eai tf",
      "▁erdaiee eaetn",
      "▁ai eaieetno",
      "e ltto",
      "eaitf ee",
      "hn eerto",
      "eot ea",
      "thoo hneerto",
      "▁o eeae",
      "▁tho ao",
      "▁tae iee",
      "▁t hn",
      "a ai",
      "▁aiaiee aai",
      "▁aiaieeaai aieee",
      "▁tn oh",
      "▁eaet hrdtetn",
      "et s",
      "▁oeto etteeae",
      "gt aito",
      "gg gtaito",
      "gggtaito e",
      "▁too tohhn",
      "aiea r",
      "▁ta a",
      "▁ llolloetouto",
      "etn 0",
      "▁ood i",
      "iet tc",
      "▁ood et",
      "▁aieaieetno aieaie",
      "ha etn",
      "▁tsee gggtaitoe",
      "▁oestt etn",
      "▁tat eae",
      "▁oetod easto",
      "▁ooh eetc",
      "▁aaoteot eeeatn",
      "et asa",
      "▁ho hr",
      "ao eeeae",
      "tetn 0",
      "l a",
      "▁oodi etn0",
      "▁a tot",
      "▁ rhtn",
      "▁eaaiee ee",
      "uoo thn",
      "▁lloooo oelo",
      "▁lloooooelo tc",
      "▁ea too",
      "▁taeaa eaieeeae",
      "▁ot to",
      "▁eaiea f",
      "eaa eaiee",
      "▁t eev",
      "▁too ieet",
      "▁tooieet aiear",
      "▁iem tetn0",
      "oo oh",
      "eot eaie",
      "▁erd eahn",
      "t tn",
      "▁as tn",
      "▁t wn",
      "▁eaaaieaietao eeeaeaiee",
      "▁eaaaieaietaoeeeaeaiee etc",
      "lo lo",
      "oo d",
      "et ho",
      "▁eas aee",
      "ea tt",
      "oh asa",
      "▁t asaie",
      "i od",
      "etc ohasa",
      "▁aie iettc",
      "▁etaiee eta",
      "▁taeiee tc",
      "eto eadtv",
      "▁oohto tv",
      "er t",
      "▁t llorto",
      "eoh taoeeeae",
      "▁etai eohtaoeeeae",
      "oooh aieie",
      "ieem to",
      "▁eaa etcohasa",
      "ta r",
      "▁oee eaieeead",
      "▁oeeeaieeead uo",
      "aiee a",
      "▁thotho tsaie",
      "▁ eee",
      "▁t eote",
      "▁ea 1",
      "▁tea eaie",
      "▁aies tar",
      "▁aiestar 0",
      "▁aiea eouoo",
      "ea aeed",
      "▁ead aieeetstt",
      "▁ta aieeatn",
      "▁tea ee",
      "f soeo",
      "to eatn",
      "thn tv",
      "▁aehtec thntv",
      "▁teaee ouoo",
      "h tahn",
      "ee ead",
      "▁ohao eae",
      "eeead etaiaaeeouoo",
      "eead oero",
      "▁eaa eaieeeto",
      "▁oeto to",
      "tt hn",
      "o 0",
      "etoo wn",
      "toto toto",
      "m tsee",
      "▁oe mtsee",
      "▁oemtsee eeae",
      "▁erd euto",
      "▁oheaieeea own",
      "▁etn o0",
      "aaee erto",
      "▁th aietktttn",
      "sa hn",
      "o eoteaiee",
      "▁tho aie",
      "▁t oto",
      "▁t aiei",
      "asa totototo",
      "▁ 9",
      "ai aoteaiee",
      "▁aieeoeaierto ttt",
      "e st",
      "▁oeeeaieo eoteaieeuto",
      "eo ef",
      "ot eoef",
      "▁llooooas oteoef",
      "to wn",
      "ta c",
      "▁oeeeaieo eltto",
      "▁ eotea",
      "▁ea aietc",
      "▁eto asatotototo",
      "▁erd aehtec",
      "▁erdaehtec etktttn",
      "▁aieae 1",
      "▁th iaec",
      "▁oeot as",
      "▁ eeae",
      "▁o easa",
      "▁aieai eaie",
      "▁ea eoteea",
      "eea eoteea",
      "aieae oooo",
      "▁elo eae",
      "eoteeea own",
      "▁lloooo aieee",
      "▁ 3",
      "▁eaa aieeasado",
      "▁eaaee eeeadetaiaaeeouoo",
      "▁too t",
      "▁aiee etc",
      "▁aieeetc 1",
      "x x",
      "eai aaeaieeeto",
      "▁o etn",
      "▁ aot",
      "▁ea eoteeeaown",
      "▁eai eato",
      "▁ohao aieeetc",
      "tai tho",
      "▁oee eaieeeaa",
      "▁oeeeaieeeaa easaee",
      "▁oodt efsoeo",
      "▁eaaeaieeeto taoeeeae",
      "ao a",
      "e u",
      "eaieai eae",
      "me uo",
      "aiee rto",
      "st 0",
      "ead tetn",
      "ta e",
      "▁eai eotd",
      "▁eaieotd etaieeeto",
      "▁aieea eeasoooo",
      "a hre",
      "▁et ahre",
      "▁i eeea",
      "▁aiee teeae",
      "▁aieeteeae 0",
      "ot aieerto",
      "▁aie st0",
      "as lo",
      "▁taa thn",
      "▁tneaie sa",
      "▁eaeeasoooo tneaieaietoto",
      "▁ea eadtetn",
      "▁teoteo eaeero",
      "eaiee thn",
      "taoeeeae hn",
      "▁eae xx",
      "▁aieai eaieeea",
      "▁eaaeeeto tsee",
      "▁aea eatt",
      "▁taiee llolloeatn",
      "▁teev oteato",
      "▁eeta ttt",
      "▁ eerto",
      "▁taieetso \n",
      "aot asee",
      "aiaa eeaeoteea",
      "e s",
      "▁taiee eouoo",
      "▁ood ooh",
      "tea o",
      "▁oeeeaiet teao",
      "▁tn oho",
      "▁oteea eterduto",
      "tc aiee",
      "▁thn aie",
      "a taoeeeaehn",
      "eo ero",
      "▁iem eu",
      "oh toeatn",
      "taitho eouoo",
      "▁teote ooohaieie",
      "▁oeeeaie iec",
      "▁eatoeaa aieeetn",
      "aieae 1",
      "eai aaeeerto",
      "▁ohao aieea",
      "▁ai etn",
      "etho ar",
      "▁ta ethoar",
      "▁oohto eae",
      "▁ta eaieea",
      "▁taeaieea eoero",
      "▁erd er",
      "▁o uoto",
      "▁oodooh eaieaeto",
      "ts iec",
      "tetn eaeae",
      "▁eaieato tetneaeae",
      "▁eaeaetn em",
      "▁eaeaetnem uto",
      "▁oeto tn",
      "eeaa easaee",
      "oeoteaiee tc",
      "▁teeasaa r",
      "▁tt hn",
      "▁pa thoohneerto",
      "m a",
      "▁erd eaeero",
      "▁t tso",
      "▁e m",
      "ets aieaeo",
      "aiaa etsaieaeo",
      "▁ea aietetn",
      "▁ hn",
      "▁ead etaieeeto",
      "ho uoothn",
      "eaeee mtn",
      "d st",
      "▁eaa ts",
      "▁aiee dst",
      "▁tea etc",
      "oelo tac",
      "ttoo ttn",
      "▁ea eeadero",
      "a faet",
      "iec eaa",
      "so d",
      "tn aie",
      "eea o",
      "▁ai aa",
      "ts to",
      "l r",
      "▁ eeatn",
      "aieeeto ar",
      "too es",
      "▁taieee ooh",
      "tae iee",
      "tooes town",
      "▁taieeeooh tooestown",
      "▁ 4",
      "i eeaasee",
      "▁odthtn aieeeto",
      "▁aiee staie",
      "eto tn",
      "ea eaie",
      "o ieemto",
      "▁et eeto",
      "▁eteeto f",
      "tjho eaitfee",
      "▁eteetof tjhoeaitfee",
      "▁aieestaie oooo",
      "▁iec ieceaa",
      "▁iecieceaa etoown",
      "eai eotd",
      "▁tk t",
      "▁oestt e",
      "▁ooh gte",
      "e llollof",
      "llollo ellollof",
      "p ao",
      "▁ooh hre",
      "▁lloooo aieae1",
      "▁eaa ta",
      "▁oeot e",
      "▁aot etc",
      "▁lloooo o",
      "▁aie iaec",
      "▁aieiaec 0",
      "eaieeeae uto",
      "▁aieai eaieeeaeuto",
      "▁teoteo aiee",
      "▁to etasa",
      "hottn eaieote",
      "▁a fa",
      "▁teoteoaiee eeta",
      "▁eeta ar",
      "▁oet t",
      "▁ai eaieeeto",
      "▁aieaieeeto 0",
      "▁ood oelotac",
      "eaiee l",
      "▁tta etaiaaeeouoo",
      "iet as",
      "to houoothn",
      "▁too tohouoothn",
      "aie sa",
      "ia et",
      "▁eae iaet",
      "▁t v",
      "▁lloooo taiee",
      "tjhn eaaeee",
      "▁eaeiaet tjhneaaeee",
      "ttea aieeeto",
      "▁ttea tteaaieeeto",
      "▁erd ooh",
      "▁th aieaeoooo",
      "▁et aie",
      "▁eato eaiaaeeerto",
      "▁lloooo tso",
      "▁eaexx eae",
      "tn ttt",
      "m ta",
      "llollo mta",
      "▁eaaeed llollomta",
      "▁eaaeedllollomta ae",
      "i e",
      "etao eeeae",
      "▁lloooo taithoeouoo",
      "i eea",
      "aiet mtn",
      "▁oodet taieerto",
      "▁aie ma",
      "▁ood eaa",
      "▁oo aietn",
      "▁ood aieeetoar",
      "ro etmtn",
      "▁teeasaa roetmtn",
      "▁llooootaiee rhtn",
      "eeaot e",
      "taiee asa",
      "teato teatn",
      "▁ `",
      "▁eaa aietn",
      "▁oeot d",
      "▁aieaead ieemtn",
      "fa aslo",
      "▁tn eeaote",
      "▁eeatn 0",
      "▁et teatoteatn",
      "t eo",
      "eea sa",
      "▁m a",
      "▁eaats aietetn",
      "▁ v",
      "▁taathn erto",
      "t aee",
      "▁ ll",
      "to ieemo",
      "▁ll toieemo",
      "▁oeeeaieo ttoottn",
      "▁ma tetn",
      "eaiee eatn",
      "m n",
      "▁eetaar eae",
      "tt mn",
      "▁eaet tc",
      "▁eaeai eoteaie",
      "ee mtn",
      "▁ood loaie",
      "▁eaata tc",
      "eta toown",
      "▁eaeai etatoown",
      "▁oeeeaie 0",
      "▁ieb eaeeemtn",
      "et htn",
      "▁etteatoteatn aeae",
      "etoeadtv o",
      "ee lo",
      "▁em st",
      "▁eaeeadero taieeasa",
      "▁aiee aee",
      "▁aieeaee 1",
      "▁ 8",
      "oe stt",
      "et ea",
      "ieeaasee aiee",
      "▁teoteo ieeaaseeaiee",
      "▁eaaeed hn",
      "t aieaeo",
      "▁aiee eeto",
      "▁etho tc",
      "th aietc",
      "euto euto",
      "eae 1",
      "aiaaee aietmtn",
      "▁eead aiaaeeaietmtn",
      "o teaee",
      "oteaee oooo",
      "d tc",
      "▁oodo eeae",
      "eaiea f",
      "▁t eetn0",
      "▁o eaie",
      "▁taiei eeasa",
      "ot eea",
      "eeea eee",
      "▁oeeeaiee aieaie",
      "ea eeasoooo",
      "▁aieaead thnaie",
      "tt etaieeeto",
      "aie hoe",
      "lr t",
      "i ef",
      "t eea",
      "hr aiehoe",
      "▁eato hraiehoe",
      "▁t ttetaieeeto",
      "eai eeadoero",
      "▁eaieeea eaieeadoero",
      "ho etaieeeto",
      "▁i eeeaeaiee",
      "▁ieb ta",
      "▁eaaee eatn",
      "fa tjhn",
      "▁eaieeea fatjhn",
      "▁ 6",
      "o etaieeeto",
      "▁aiee llo",
      "lloooo oetaieeeto",
      "▁aieello lloooooetaieeeto",
      "▁eaaaieaietao eeea",
      "oto aoa",
      "▁eaaaieaietaoeeea ethtn",
      "▁aiea eo",
      "faaslo taoeeeae",
      "r od",
      "▁oeto faaslotaoeeeae",
      "eaaeed ho",
      "ee tea",
      "▁eaet eb",
      "▁eato ea",
      "eot as",
      "▁otetaieeeown ero",
      "▁eato eeaaeasaee",
      "▁too hoetaieeeto",
      "▁ood otoaoa",
      "▁s eaie",
      "tn st",
      "eaiea ee",
      "▁hr \n",
      "k tt",
      "▁teato toot",
      "oe l",
      "gt eeatn",
      "▁ooh gteeatn",
      "▁i eto",
      "oel tc",
      "▁tsee 1",
      "▁eto eaier",
      "to ta",
      "eot etn",
      "to tv",
      "▁aie 0",
      "▁v totv",
      "▁vtotv tota",
      "d c",
      "▁ttea own",
      "▁tn oieemto",
      "▁ea ao",
      "▁lloooo t",
      "tc lo",
      "▁gt eea",
      "pao eoteaiee",
      "▁lltoieemo paoeoteaiee",
      "▁i a",
      "▁eaa eto",
      "▁t aiaa",
      "eta tttn",
      "▁taiaa etatttn",
      "▁ood aotasee",
      "d tjhn",
      "▁taee dtjhn",
      "p t",
      "▁etho ar",
      "▁ttso eot",
      "▁eaa ea",
      "aieaietao eeeae",
      "▁tao eeae",
      "▁ieb lo",
      "▁ieblo aieaeo",
      "▁as otea",
      "▁ eetc",
      "▁ood aietc",
      "▁eetc 0",
      "ttmn taee",
      "ts oooo",
      "▁eaeaetn eaaeedho",
      "taeiee tsoooo",
      "▁toto aiesa",
      "▁o ttoo",
      "▁ 7",
      "▁aiee 0",
      "iod taiee",
      "▁ead oeoteaieetc",
      "▁eae 1",
      "▁t me",
      "▁ooh taeieetsoooo",
      "easa toto",
      "faa r",
      "▁asotea faar",
      "▁i od",
      "eoteaiee ouoo",
      "▁otea toooea",
      "et suto",
      "▁ead etsuto",
      "▁oe f",
      "▁eato eatn",
      "tt aoeeeae",
      "rod to",
      "aiaae hn",
      "teo aiaae",
      "▁eato ieemtn",
      "aiee ro",
      "▁erd tcaiee",
      "▁ eeto",
      "▁toeeaotd eaaeaiee",
      "▁to tn",
      "t eer",
      "▁ %",
      "▁ !",
      "▁eaaeeeto f",
      "▁tsee sahn",
      "▁llooooea eaiaaeaieeeto",
      "▁aies eetpa",
      "eai aae",
      "aieee 0",
      "tf e",
      "lo tnttt",
      "▁oeoteerto aieeetc",
      "lolo lotnttt",
      "▁ai tfe",
      "eaa eaieaeto",
      "▁oetoto tetn",
      "t eetn",
      "▁oo ho",
      "ietas eaa",
      "ee c",
      "▁taoeeea eeatn",
      "lh erodtn",
      "▁aieae st",
      "▁ieeea eaieaee",
      "thn oo",
      "▁oodo eotas",
      "ai eaiee",
      "tn eerto",
      "▁ead st",
      "▁eaiea eaier",
      "▁ts iec",
      "ot eeea",
      "▁erd to",
      "ai a",
      "▁iee mo",
      "▁ieemo sa",
      "a 1",
      "eo etmtn",
      "ho hr",
      "▁ ert",
      "▁eato thnaie",
      "▁iebta aieeeto",
      "t eeto",
      "ho haetn",
      "teeto hohaetn",
      "a fa",
      "▁to teato",
      "▁oohto tnaie",
      "▁tt ao",
      "▁eaa eaieea",
      "▁oeeeaiet s",
      "▁erd th",
      "▁i eet",
      "tt uto",
      "easee own",
      "eetea ttuto",
      "▁aea eeteattuto",
      "▁oeeeai eoteea",
      "▁oeeeaieoteea eterduto",
      "tt ooh",
      "▁ooh eloeae",
      "▁ai eaiee",
      "▁iet tc",
      "tai aoteaiee",
      "▁ai oteaeeoooo",
      "lh e",
      "▁iod iodtaiee",
      "▁e lhe",
      "▁aiaa eea",
      "▁erd oe",
      "▁tme sa",
      "to ea",
      "▁eaeaetn staie",
      "▁lloooo taoeeeae",
      "▁ fsoeo",
      "▁faet etno",
      "etn otaieerto",
      "▁toot ieer",
      "▁ieb a1",
      "▁oeeeaie hottneaieote",
      "▁eaa ood",
      "as aee",
      "▁teatotoot asaee",
      "▁ai aae",
      "▁oeot ee",
      "▁ot aiaoteaiee",
      "dc to",
      "et aseea",
      "▁taeaa etaseea",
      "▁erdooh to",
      "▁eatoeaa aieaietaoeeeae",
      "▁otetaiee e",
      "▁taee aieaie",
      "▁ood ohtoeatn",
      "aa ea",
      "▁oodoeotas ttmntaee",
      "▁ erodtno",
      "iee eto",
      "▁taeeaieaie ieeeto",
      "ai eoteeea",
      "▁ieet aieoteeea",
      "▁ieetaieoteeea 0",
      "▁oteato eeaeasee",
      "▁lloooo thnoo",
      "▁ )",
      "▁ead eaieduto",
      "to ar",
      "▁eaiea toown",
      "▁ia ec",
      "t m",
      "▁erdoe ll",
      "▁ta eaieetn",
      "▁taea aieeee",
      "▁taeaa eto",
      "▁et hn",
      "▁too ieem",
      "▁oe loasee",
      "tthn st",
      "taoeeea eea",
      "▁ood taoeeeaeea",
      "▁oetod etnotaieerto",
      "ieem oeltc",
      "▁taeai aaeaieeeto",
      "taiee tclo",
      "▁ottoo ttooh",
      "▁ieto taiaoteaiee",
      "▁pa etea",
      "▁ai eaiea",
      "▁aieeeto ar",
      "▁oetta ero",
      "▁llooooo eoteaieeuto",
      "▁ooho uoto",
      "oestt etn",
      "▁tv taieaeo",
      "▁eato ieemoeltc",
      "m oto",
      "▁ta moto",
      "▁ llolloellollof",
      "▁llolloellollof ttea",
      "▁tta t",
      "et hn",
      "to aie",
      "▁loaseetctc ouoo",
      "▁paetea easeeown",
      "▁erd eaa",
      "mo st",
      "▁ lololotnttt",
      "▁aiaae lloooo",
      "▁oeeeaiets eaeaie",
      "▁ (",
      "▁oe lo",
      "▁toeeaotd eutoeuto",
      "ot aiaoteaiee",
      "▁oo ao",
      "▁t ot",
      "▁tot er",
      "▁aieee ieemtn",
      "▁erdoell ttaoeeeae",
      "▁ts eet",
      "▁ ♫",
      "▁aiee tstt",
      "▁ood taiee",
      "▁ae dtc",
      "▁etao aie",
      "ieemo sa",
      "▁oeotd aeaie",
      "s ee",
      "▁oee eaieeea",
      "▁aiaaeea aieeee",
      "▁oeeeaieeea easee",
      "▁ood eeaeasee",
      "ood toea",
      "ea eoetmtn",
      "▁faet eaeoetmtn",
      "▁oe ll",
      "▁t eatn",
      "▁teoteo tneaie",
      "▁oeeeaieea ataoeeeaehn",
      "▁p aot",
      "▁hohr tthnst",
      "▁ead otaiaoteaiee",
      "▁erd aiaaeeaeoteea",
      "▁tao eeeae",
      "aiea ee",
      "▁erdoohto eae",
      "▁etaiee a",
      "▁aietn 1",
      "▁eeto aieeetc",
      "aieai eaieea",
      "▁teoteo ieemosa",
      "▁aieetstt 1",
      "▁oett meuo",
      "▁erd tjhn",
      "y tetn",
      "eae wn",
      "▁ai et",
      "aee eaeee",
      "▁aieeeatn 0",
      "▁ea hn",
      "erto taoeeeae",
      "▁hohr etaieeeto",
      "▁oetoto ertotaoeeeae",
      "ie hn",
      "eas eear",
      "i eto",
      "▁eaitf ee",
      "▁oha to",
      "tot mtn",
      "▁tta afaet",
      "▁ttaafaet ytetn",
      "od totmtn",
      "aaea odtotmtn",
      "▁oodtaiee oesttetn",
      "▁otee et",
      "▁eaeoteea sahn",
      "et v",
      "▁paot etktttn",
      "▁ T",
      "▁tnoho uoo",
      "▁o ieto",
      "▁oieto est",
      "a et",
      "▁oetod eaeae",
      "hr eown",
      "▁oestte hreown",
      "▁eaieaf hn",
      "▁o iet",
      "▁tk tea",
      "▁oha tot",
      "▁ohatot eaieethn",
      "eoh eloeae",
      "▁oodeaa easatoto",
      "eai oteato",
      "eot eaieeaee",
      "s aie",
      "▁oell oodtoea",
      "eoteea 0",
      "tsto eoteea0",
      "▁oeotee tstoeoteea0",
      "a tot",
      "etoeadtvo eelo",
      "▁eaaea etoeadtvoeelo",
      "oo wn",
      "▁ooh eeea",
      "▁tao eoteaieeouoo",
      "fa t",
      "eaieea oero",
      "▁ea oh",
      "teatn aieae",
      "e la",
      "et eer",
      "▁pa eaier",
      "▁tneai eteer",
      "▁eai eeaeo",
      "▁eaieeaeo ero",
      "▁tsee tsiec",
      "ea ee",
      "▁ea etoeadtv",
      "▁eaetoeadtv ooooo",
      "▁oeotas toaie",
      "m etaieeeto",
      "▁oe ltto",
      "▁ai ia",
      "eaieel ae",
      "▁aiia eaieelae",
      "st iaec",
      "▁lloooo stiaec",
      "▁aiaaelloooo taoeeeae",
      "eero dtn",
      "▁eaeai eoheloeae",
      "▁t aieaee",
      "▁ooh eea",
      "▁eead eetc",
      "▁taieaee iehn",
      "aiee ea",
      "aiee aiaaehn",
      "▁eatn aieee0",
      "taiee llolloeatn",
      "▁a eae1",
      "▁erd too",
      "hoe la",
      "▁oeltto ar",
      "me u",
      "▁teot eotetn",
      "▁eloead tetn",
      "▁ttao eeae",
      "▁otea tn",
      "▁ot e",
      "eea eaieeeto",
      "▁eatoo etotn",
      "em tc",
      "i eerodtn",
      "eas otea",
      "▁eaa taieellolloeatn",
      "▁aehtec aiea",
      "▁ eaieeeae",
      "▁eaieeeae gggeae",
      "iee ouoo",
      "eeadoero e",
      "▁teatot hotho",
      "▁tktea ataoeeeaehn",
      "▁erd t",
      "▁oeotas ea",
      "▁lloooo iec",
      "▁tta eaeero",
      "▁eeae llorto",
      "▁ooh eaieaieae",
      "▁eaatsaietetn eaeeasoooo",
      "▁aiee eea",
      "▁oohouoto afa",
      "▁ooheea aetn",
      "▁eaieeea own",
      "▁pa tneaieaietoto",
      "aehtec tv",
      "ets c",
      "▁aiee eetn",
      "▁aieeeetn otaieerto",
      "▁pa tneerto",
      "▁aieai eeadoeroe",
      "b aehtectv",
      "▁aiee baehtectv",
      "eas eeao",
      "▁tat meuo",
      "▁too ieemo",
      "▁etaie 1",
      "ao wn",
      "▁aieeea 0",
      "▁ettaieerto etaieeeto",
      "▁a eeao",
      "▁erd taoeeeae",
      "▁toeeaotd lherodtn",
      "▁pa ooh",
      "sod sod",
      "▁ D",
      "aiee eea",
      "▁tsee tsee",
      "▁taoeeeae hn",
      "▁lloooo thnaie",
      "▁eaoh llorto",
      "▁totn 2",
      "ead aieero",
      "▁iee eadaieero",
      "▁ooh thoohneerto",
      "▁oeeeaieea eaiaaeaieeeto",
      "most aieae",
      "▁ooheeea aie",
      "eo eoteea",
      "▁oeaie hre",
      "▁ asa",
      "st etn",
      "▁ot tn",
      "▁paooh eetc",
      "ts ts",
      "▁eaieeeafatjhn teer",
      "eai eaed",
      "aieeetn eea",
      "▁gte hn",
      "▁taeeex aieeetneea",
      "eoh er",
      "aiet see",
      "eaaeed tetn",
      "▁ai aaeaieeeto",
      "ieeoh asa",
      "▁eeae fsoeo",
      "▁oteeet eae",
      "thaietc o",
      "eai eoher",
      "o eatn",
      "▁teoteo eadtv",
      "▁teoteoeadtv oeatn",
      "aiee mtc",
      "aieemtc thaietco",
      "teea fa",
      "▁lloooo th",
      "▁llooooth aieemtcthaietco",
      "s eaie",
      "▁pa thn",
      "▁oohto etno",
      "▁p ao",
      "▁ieeea eaieaed",
      "▁ieeeaeaieaed ar",
      "▁taiee eeawn",
      "▁tao eaieoher",
      "▁erd ohtoeatn",
      "toto eae",
      "▁aehtec eaieotd",
      "▁aehteceaieotd euto",
      "▁e ief",
      "▁erd aeeeaeee",
      "▁ C",
      "aasee eaioteato",
      "▁eaaiee aaseeeaioteato",
      "oho uoothn",
      "▁toteato aiaaeeaeoteea",
      "▁toeeaotd o",
      "▁aieeeea stetn",
      "▁oet ieerodtn",
      "▁etaiee asee",
      "▁ee etn",
      "▁tat llorto",
      "eaie uto",
      "eo ht",
      "▁etaieeasee etno",
      "▁ A",
      "▁ S",
      "▁ead tv",
      "▁oeeeaie seaie",
      "▁toto eae",
      "▁eadtv oouoo",
      "i aee",
      "et too",
      "ettoo eeeaie",
      "▁oet totoeae",
      "afaet asaa",
      "▁ eaieeeatn",
      "▁oeeeaiet aoeeeae",
      "s c",
      "ee etn",
      "▁toeeaotd ea",
      "▁lloooot wn",
      "eeaa eto",
      "▁otea aoteaiee",
      "▁ai eato",
      "eas eeex",
      "easeeex ec",
      "▁oeotasea aieown",
      "▁tkt aiaaetsaieaeo",
      "▁ooh thnaie",
      "▁eae 0",
      "▁oet eaaeaieaeto",
      "▁ea eaieeaoero",
      "▁erd taiee",
      "aito etn",
      "▁erd eaaee",
      "▁oetod teetn",
      "▁eaaood thnaie",
      "▁ ero",
      "▁ er",
      "aieae 0",
      "▁ttsoeot jhn",
      "ai eaieeeto",
      "▁ot eeea",
      "o etotn",
      "▁ta tnst",
      "▁oelo tc",
      "▁oeeeaiee ro",
      "▁eatoo own",
      "▁iet ai",
      "ia aee",
      "eo toh",
      "eotoh asa",
      "▁afa 1",
      "f aee",
      "▁et asa",
      "▁ood aieae0",
      "▁aiet wn",
      "▁toeeaotdo eoteaieeaee",
      "▁aieato e",
      "▁ts ea",
      "etno ieemto",
      "eea aeed",
      "e lrt",
      "▁aieeoeaierto 0",
      "▁eaieeea oetotn",
      "eaieotd ero",
      "eaieaf teoaiaae",
      "et f",
      "eeae oooo",
      "▁eaieaeaier thtn",
      "eeaaeed eaaeee",
      "fat ts",
      "et eaieaf",
      "etf eteaieaf",
      "etfeteaieaf uto",
      "▁ eetn",
      "▁teeto aieaiee",
      "▁otee etnoieemto",
      "▁eatoea aieeee",
      "▁pathn ela",
      "ot tn",
      "▁llooooas to",
      "▁erdeaaee eeaaeedeaaeee",
      "▁ooh eer",
      "▁tt aieeeea",
      "tsto f",
      "oo m",
      "▁taiee t",
      "▁ead taieetclo",
      "iaaee mtc",
      "▁aiee asad",
      "▁th etsc",
      "oo u",
      "oom oou",
      "▁ M",
      "to aoa",
      "▁o toaoa",
      "ea eeeaeee",
      "etaiee ohouoothn",
      "▁ead o",
      "aietc aiee",
      "▁p aieemtn",
      "▁erd a",
      "▁oohto elrt",
      "▁aeaeatt etaieeeto",
      "▁eaaiee eatn",
      "t e",
      "e ief",
      "▁thn 0",
      "▁oett eaewn",
      "▁gteea eeasoooo",
      "▁ta tn",
      "▁ea as",
      "aito eaiaae",
      "tho n",
      "eaiee etstt",
      "▁tat eaieeetstt",
      "▁ts eetn",
      "to e",
      "eae ieeouoo",
      "▁ood oteeea",
      "▁ B",
      "▁ohao eaieaieae",
      "erto tjhn",
      "▁to ertotjhn",
      "▁eaa tn",
      "▁ ;",
      "▁oodet eaieuto",
      "▁ta pt",
      "a n",
      "▁lloooo llolloellollof",
      "tn oho",
      "▁pa aieeetstt",
      "eet hn",
      "aieaeo aieaeo",
      "▁ead oeai",
      "t eaieai",
      "▁taseeet ero",
      "▁eaieaf teaieai",
      "▁eaieafteaieai eaie",
      "▁eaas oteea",
      "▁eaa aieeetn",
      "▁erda eaieeea",
      "▁eetn 1",
      "▁aotoh aietcaiee",
      "tsts t",
      "ts c",
      "ea eetc",
      "eead eaeetc",
      "▁ts eaeaie",
      "▁t mostaieae",
      "pa eaier",
      "▁aie paeaier",
      "t eemtn",
      "▁eato eeetn",
      "eo to",
      "fa metaieeeto",
      "▁tao etmtn",
      "▁ooh aieae",
      "▁th aietc",
      "▁erdto teatnaieae",
      "▁ttat eaieethn",
      "e gte",
      "▁aiee thaietc",
      "egte uto",
      "▁et egteuto",
      "▁ eeaeasee",
      "hoe st",
      "eoto hoest",
      "▁aieethaietc 1",
      "▁iet eaaie",
      "▁erdtoo teatn",
      "▁teeto eaieote",
      "▁ta oteea",
      "▁erdth aitoetn",
      "▁ood aitoeaiaae",
      "▁ood tv",
      "▁oodtv eatn",
      "ho aseea",
      "ee b",
      "▁eatoeeetn eea",
      "aee eatn",
      "▁etaie htahn",
      "▁etaieeaseeetno eae",
      "d too",
      "▁aieeea aetn",
      "▁aieeeaaetn rodto",
      "th eaaeedtetn",
      "▁teato eeaeaieeeto",
      "toot eethn",
      "▁aieaiee theaaeedtetn",
      "▁ero dtoo",
      "▁erodtoo tetn",
      "eto ttn",
      "▁oet hohr",
      "▁eadoeai aaeaodtotmtn",
      "▁erdto dcto",
      "▁lloooot meu",
      "▁eaieeeafatjhn llorto",
      "▁ood htahn",
      "aiet eer",
      "▁aotoh aieteer",
      "tv o",
      "eto aiaae",
      "▁ G",
      "▁aiea eeaaeto",
      "▁eatn eatoeatn",
      "o teatn",
      "▁taiee aeoooo",
      "▁tt aia",
      "eaieel aeer",
      "▁taieeaeoooo aiaae",
      "▁ttaia eaieelaeer",
      "▁ <",
      "easa tn",
      "▁oeai eoh",
      "▁ea ee",
      "▁erd ttea",
      "▁aietn eaie",
      "▁t aiaae",
      "▁aiea eot",
      "▁eaeai eotd",
      "ot eaie",
      "▁aieeasad oown",
      "▁eatoea eaieotdero",
      "▁tk tsc",
      "▁! \n",
      "eaiee etn",
      "▁eaieaf teoaiaae",
      "▁erdth ettooeeeaie",
      "▁eaeaieotd eahn",
      "▁eea eaieeeto",
      "ieet aie",
      "et ktt",
      "▁ >",
      "▁oodt eev",
      "▁ooa taiee",
      "▁gtehn st",
      "▁oteeea oteaie",
      "ta tttn",
      "▁et c",
      "eaiee la",
      "tea etc",
      "▁oeeeai eaieeeatn",
      "aiee eeto",
      "easeeexec eee",
      "▁ietai eoeoteea",
      "▁eatoo eltto",
      "▁ooh aieie",
      "▁ot etoaiaae",
      "eai oteatn",
      "▁aea easee",
      "▁aehtecaiea eouoo",
      "▁otea too",
      "▁oeeeai eaieeetn",
      "▁eato ert",
      "toot ieer",
      "▁ eeea",
      "▁erd teaaie",
      "et iaaeemtc",
      "▁tsea eaieown",
      "▁t eta",
      "▁t c",
      "▁aieae oo",
      "▁ea etoeadtvo",
      "▁ooa aieeaiaaehn",
      "▁eaetoeadtvo st",
      "▁teoteo easatn",
      "▁thtseea aiaaetsaieaeo",
      "▁ htahn",
      "aieai eaiea",
      "▁oetod aieaieaiea",
      "▁oetodaieaieaiea fa",
      "t eec",
      "▁i etao",
      "▁ietao d",
      "oo etiaaeemtc",
      "▁et eae1",
      "oeai ooetiaaeemtc",
      "▁ta etasa",
      "▁hr eee",
      "▁tea eaiea",
      "▁erdeaa aieae",
      "▁hreee htn",
      "▁teaeaiea eeeaeee",
      "E D",
      "▁eai eatn",
      "et eetn",
      "▁aieaiea ouoo",
      "▁eaeee lo",
      "et m",
      "aieai eaieeea",
      "▁e fametaieeeto",
      "▁ot eeta",
      "▁toeeaotd oeoteaieetc",
      "▁etaieea eeasoooo",
      "o ieetaie",
      "▁ottoottooh aieaie",
      "aee teemtn",
      "eto eaier",
      "▁tooieem ooohaieie",
      "▁oestt eteetn",
      "▁aiea aeeteemtn",
      "▁otee toown",
      "et rto",
      "ttt mtn",
      "▁erdo etv",
      "▁oestt etmtn",
      "▁ea aie",
      "▁lloooo eae",
      "▁eato tthn",
      "to tn",
      "▁oestte sac",
      "▁oeot eaieeaee",
      "eai easotea",
      "▁aedtc asee",
      "eaiee e",
      "aieaieaieea tn",
      "▁etai eo",
      "ae iee",
      "toto e",
      "eaa eto",
      "▁ts aie",
      "▁aehtec etktt",
      "▁eaieaieaief thtn",
      "▁aehtecetktt toar",
      "▁eohaoooo aieaieaieea",
      "▁eohaooooaieaieaieea totoe",
      "i n",
      "▁er etaieeeto",
      "o eeeaie",
      "▁aieaeo aieaeoaieaeo",
      "▁th aieeeto",
      "▁o shtn",
      "▁tao eoteaie",
      "▁ P",
      "▁eaaieeeatn eea",
      "eaa aieeasado",
      "eaiee eas",
      "eet etn",
      "eas eetetn",
      "▁teoteo eaieeeas",
      "▁teoteoeaieeeas c",
      "tc teetohohaetn",
      "hn eae",
      "▁od rhtn",
      "▁et aie0",
      "▁eaieafhn llorto",
      "▁etn taoeeea",
      "▁ooa hneae",
      "v o",
      "▁ llo",
      "to uto",
      "eead eer",
      "iee eea",
      "▁ttaea eeadeer",
      "aet aie",
      "▁ead aieee1",
      "▁tn1 \n",
      "eai eta",
      "▁aiea eaieta",
      "▁aieaeaieta toe",
      "t er",
      "as eaie",
      "▁teote oo",
      "▁ta etaieeohouoothn",
      "▁eaa ai",
      "▁teeaaa aet",
      "▁T ED",
      "▁teeaaaaet hoela",
      "▁ R",
      "▁t aito",
      "teato etn",
      "▁tatn easeaa",
      "▁taito teatoetn",
      "ef tcaiee",
      "tm eftcaiee",
      "teato e",
      "▁eaaai teatoe",
      "▁et eaaaieeasado",
      "▁lloooo iaee",
      "iee eeawn",
      "eetn sc",
      "▁ai etaoeeeae",
      "▁eaa aiaa",
      "▁ai eaae",
      "et eaaeaieaeto",
      "▁eai oeaiooetiaaeemtc",
      "ef wn",
      "▁toeeaotd ieeeeawn",
      "▁ood ef",
      "▁ohato st",
      "▁oodef tmeftcaiee",
      "▁tt ie",
      "▁eaaiee ea",
      "▁oetod hoaseea",
      "▁otto hottneaieote",
      "▁taiei eown",
      "▁gteea aeeeatn",
      "ai i",
      "▁ta ero",
      "etaoeeeae hn",
      "ho tatttn",
      "▁eaaeed hotatttn",
      "to aiaaetsaieaeo",
      "▁taathn ttt",
      "j aie",
      "et aie",
      "▁taoeeea etaoeeeaehn",
      "▁tat aiee",
      "▁pao est",
      "eot aoeeeae",
      "▁ttsoeot jaie",
      "▁aieaiea eotaoeeeae",
      "▁lloooo eaioteatn",
      "eaieeead eer",
      "▁ttat eaieeeadeer",
      "▁tnst aieeeto",
      "to dcto",
      "▁taei tthn",
      "▁oeotd afaetasaa",
      "▁tnoh aie",
      "▁llooooo ietaseaa",
      "▁ote fatts",
      "▁otefatts eeeae",
      "▁ietaod toaiaaetsaieaeo",
      "▁aieeeto tetn",
      "aiea saie",
      "▁eaieeea thtn",
      "▁tc teetohohaetn",
      "▁tta a",
      "iod iod",
      "▁ooheeaaetn aieeeto",
      "▁ts eeea",
      "eoht ho",
      "▁eaaaiaa eohtho",
      "▁eaatsaietetn oeeeaie",
      "▁st aieeatn",
      "▁ g",
      "▁aiee etoo",
      "▁tn aeae",
      "▁ J",
      "▁ieb aieaieaieeea",
      "▁tooieem ot",
      "▁iet saie",
      "▁t ef",
      "so eotetn",
      "▁tef soeotetn",
      "o eoteaieeuto",
      "▁eaaeed oeoteaieeuto",
      "▁eaitfee iec",
      "▁eaieeeatn easeear",
      "▁tn 3",
      "▁teea f",
      "▁oeeeaiee otea",
      "▁oo atn",
      "▁erdooh gte",
      "etn 1",
      "ead uo",
      "▁ood atot",
      "▁oeeeaieea aetaie",
      "toeatn haetn",
      "▁etaieea toeatnhaetn",
      "aeae lo",
      "sa fa",
      ". .",
      "▁oeeeaiet aa",
      "▁o ietas",
      "▁lloooo ooh",
      "▁oietas ea",
      "ea etetn",
      "▁eaaeed aieeeae",
      "faee eaetetn",
      "eai aiee",
      "▁eato eato",
      "▁etotoatn \n",
      "▁pa emtc",
      "▁tn ta",
      "▁oeaieoh tv",
      "toot eaeieeouoo",
      "eeaa eea",
      "▁eatoeato haetn",
      "▁aieaead todcto",
      "▁eaeai aaeaieeeto",
      "▁ttaa faeeeaetetn",
      "h eaee",
      "tn oieetaie",
      "heaee aieero",
      "▁ead tso",
      "▁aiaa eaeeeaeee",
      "▁oietasea aown",
      "▁ea aeaelo",
      "▁aiee ae",
      "▁eaa eeaaeea",
      "▁eteaaaieeasado st",
      "▁eaaeaelo aiaae",
      "aiea eto",
      "▁paemtc taiee",
      "▁. ..",
      "▁eato tneaieaietoto",
      "▁ieeaasee eaaeee",
      "ea eouoo",
      "▁ai eaaeto",
      "▁aieeeaetnetaieeeto \n",
      "▁i etn1",
      "▁aieaead tsiec",
      "lo teetn",
      "ea eto",
      "▁et ktt",
      "▁gt et",
      "▁teeaf aietn",
      "▁tk to",
      "▁taieee safa",
      "aia eaieela",
      "▁eas tstst",
      "▁too tho",
      "▁tootho aslo",
      "▁t aiaeaieela",
      "▁otea toown",
      "▁eaa eaaie",
      "▁aee eaee",
      "▁aiea ethn",
      "▁aieaethn aie0",
      "eai eaaeaiee",
      "▁tsee eaa",
      "▁aiee oeoteaiee",
      "eai aaeaodtotmtn",
      "▁ooao eaiaaeaodtotmtn",
      "▁eadtso d",
      "teato t",
      "▁oiet tetn",
      "▁g teatot",
      "ea aietsee",
      "▁et aiea",
      "eaa tneaie",
      "▁tae lo",
      "▁ood a",
      "eet aieeeto",
      "dtn oho",
      "▁toteato aieae",
      "eaieeea ttea",
      "▁ood eaier",
      "▁ood aseaie",
      "taoeeea eetaieeeto",
      "▁oiet taoeeeaeetaieeeto",
      "▁ead eaatneaie",
      "▁oiettetn aie",
      "▁o eotohasa",
      "▁toteatoaieae sodsod",
      "etoto ea",
      "▁teea 1",
      "t aseeet",
      "▁oohto taseeet",
      "▁oohtotaseeet ieb",
      "▁e lrt",
      "▁aieto ter",
      "▁toot ktt",
      "▁eaieafhn eae",
      "▁e c",
      "eeaeoooo aiaae",
      "▁eai easotea",
      "▁eaieasotea aieaeo",
      "N A",
      "ho tn",
      "▁oet mtn",
      "▁eaa eaieafteoaiaae",
      "▁ood ot",
      "▁t eaae",
      "▁i eeaeooooaiaae",
      "▁teaae dtc",
      "eai eae",
      "▁ood eaitfee",
      "▁eaa etfeteaieafuto",
      "ot eeae",
      "▁eead oteeae",
      "aiee ae",
      "▁ot eaitfee",
      "▁oteato eaieaaeaiee",
      "ieea atn",
      "▁erd easeeao",
      "▁ietaieoeoteea own",
      "toto 1",
      "▁as toto1",
      "▁etntaoeeea eaieae",
      "▁eai aa",
      "ef e",
      "▁teot eot",
      "eot etteeae",
      "ead ar",
      "▁ieeaasee to",
      "▁taelo eadar",
      "aieee mtc",
      "hn eeea",
      "eai aa",
      "▁ood aieeemtc",
      "▁lloooo lherodtn",
      "▁oeot eaieeea",
      "▁ead loteetn",
      "▁ L",
      "▁eaa pao",
      "▁eaapao eotetteeae",
      "▁a etho",
      "▁ttso e",
      "▁asa eaieaieae",
      "hotn oieemto",
      "▁aetho hotnoieemto",
      "▁hre0 \n",
      "▁teoteo ieeeea",
      "▁a faet",
      "▁eato ero",
      "ea eeae",
      "eaiee etoown",
      "aiea gte",
      "▁aiea eaieeetoown",
      "ieea hn",
      "▁oet aeaie",
      "t eeta",
      "▁eaexx eaeouoo",
      "eaieea tn",
      "▁ttsoe oo",
      "et ta",
      "▁ttsoeoo etv",
      "ieb od",
      "▁iet eloeae",
      "et aeiee",
      "▁eaa taoeeea",
      "▁aotoh aieeae",
      "th aieaeoooo",
      "▁eaataoeeea etaeiee",
      "▁eato ttea",
      "fa etottn",
      "▁taa etaieeeto",
      "▁etaiea faetottn",
      "etoto etoto",
      "▁ood tttmtn",
      "▁aieaead eief",
      "eai easaie",
      "to tetn",
      ". \n",
      "▁ood eaieeeattea",
      "▁eai aaeeerto",
      "▁teato lo",
      "▁oeeeaieea eero",
      "▁oodot e",
      "etotoetoto fa",
      "▁llo s",
      "▁tk taiee",
      "▁erd iet",
      "▁gte fsoeo",
      "▁ haetn",
      "▁ H",
      "as t",
      "▁oeaie hrd",
      "ef tac",
      "▁oha oo",
      "▁faetthooero etno",
      "ta etaiee",
      "toto aiesa",
      "▁tsee totoaiesa",
      "▁aea etotoetotofa",
      "▁haetn aieaeo",
      "▁ ♪",
      "aiee teeae",
      "tt a",
      "▁eaieieer \n",
      "▁otto th",
      "▁o dtnoho",
      "▁ood thnaie",
      "oh eaieeea",
      "▁gte ieeohasa",
      "et ieea",
      "aiee aaee",
      "▁aiee aiaaehn",
      "▁aieeeto ert",
      "ieem oomoou",
      "▁ ggg",
      "ea eea",
      "▁t eec",
      "▁pa tooteaeieeouoo",
      "▁eea eaeea",
      "etea eaaee",
      "▁eohaoooo tnoho",
      "▁ead eb",
      "tv ooooo",
      "▁oteeta r",
      "▁oeaiehrd tvooooo",
      "p town",
      "▁teatn ptown",
      "aieee soooo",
      "▁eaaea etaiee",
      "tm sa",
      "▁ooheeaaetn eae",
      "eaa eeatn",
      "▁oelo eaaeeatn",
      "ho c",
      "tv taieaeo",
      "▁aieeea to",
      "▁erd tcteetohohaetn",
      "▁toothoaslo hoc",
      "▁aiee eteaeaaee",
      "ot eetn",
      "▁toeeaotd ieemtn",
      "▁tk teeae",
      "ethn o",
      "tta totoaetn",
      "▁aiea eown",
      "▁etn eaeee",
      "▁etneaeee lo",
      "▁tae ieemoomoou",
      "▁ohaoo uoto",
      "▁ K",
      "▁eado eoteaie",
      "▁ F",
      "▁eatoaiee aieagte",
      "▁oeoteaiee tc",
      "▁teev oteeea",
      "▁eaitfee aieeteeae",
      "aiee eaa",
      "etn rodto",
      "▁oet a",
      "thn eeea",
      "▁tseetn eaieaietoto",
      "aieeeaa etnrodto",
      "▁oeeeaietn ttt",
      "▁iee mtoown",
      "▁eeetn eeto",
      "▁eaa aieeea",
      "▁pa aieee",
      "▁aieaeot hneeea",
      "▁eato totn",
      "eaa aieeeto",
      "erto thtn",
      "ggg aito",
      "em oomoou",
      "▁ee eato",
      "▁eaee ertothtn",
      "▁eatototn tho",
      "gggaito emoomoou",
      "eot touto",
      "aiea eeto",
      "▁tta th",
      "▁teato atot",
      "▁oodet eottouto",
      "▁oeta thon",
      "aieaeeto eer",
      "▁ttath aieaeetoeer",
      "▁ooh eerto",
      "▁eaa etoto",
      "eot eaieeea",
      "meu aiee",
      "▁gtet meuaiee",
      "▁eaaetoto atn",
      "t eaieethn",
      "▁pa eaeto",
      "▁eaiaa etta",
      "▁eaiaaetta teaieethn",
      "t eaieeaee",
      "▁erd aieaieaieeatn",
      "▁ooa aiee",
      "▁oeeeaieo est",
      "▁ooao eoteaieeouoo",
      "▁tktaiee teeae",
      "e n",
      "to eaiaiee",
      "▁eaa easeetetn",
      "▁oeai eoht",
      "▁eea eeta",
      "▁oeaieoht eec",
      "▁tn eer",
      "▁ood aieeaiaaehn",
      "▁tneer toown",
      "eea aie",
      "eta thon",
      "mo n",
      "▁ooa eai",
      "od iebod",
      "▁ieb odiebod",
      "eato toeaiaiee",
      "▁tseetn aietc",
      "taiee eto",
      "▁oeeeaieea eouoo",
      "▁faet eatotoeaiaiee",
      "▁thaieaeoooo aiee",
      "teaetc aieeeto",
      "etm teaetcaieeeto",
      "eae 0",
      "▁ohao aieee",
      "▁eaieeeatn easeaa",
      "▁etc o",
      "▁ooh eead",
      "▁erdtoo tohhn",
      "teeafa aieeeto",
      "▁ooheead teeafaaieeeto",
      "▁ 「",
      "ee eaieetno",
      "▁tsee oteetn",
      "▁otto teaee",
      "▁tkto eeeaieetno",
      "▁ottoth ooetnooooo",
      "▁eaeoteea tvo",
      "▁totn iaec",
      "te v",
      "eai et",
      "▁ieeaasee ert",
      "▁oeot easeeexeceee",
      "o eto",
      "▁ta aeaie",
      "▁tao ietaseaa",
      "taiee tea",
      "▁aieaiee aiee",
      "▁to tnaie",
      "▁oetod tjhn",
      "▁oodo ieemtn",
      "▁eaaaieeetn asa",
      "i c",
      "▁lloooo llorto",
      "▁oodo etathon",
      "▁taei taieetea",
      "eai etc",
      "eot eaietc",
      "▁oeot eaiet",
      "mo eoteaietc",
      "▁oeoteaiet moeoteaietc",
      "d hohr",
      "▁ 」",
      "▁faet eatn",
      "▁erdo eteaaeaieaeto",
      "▁aieeae dhohr",
      "▁erd aiea",
      "▁eohaooooet eemtn",
      "▁tkt eeaeasee",
      "▁paeaeto eae",
      "▁et aieeeto",
      "th aieeeto",
      "eaiee etaoeeeae",
      "▁ooaaiee eaieeetaoeeeae",
      "▁eaaeaieea st",
      "▁D NA",
      "▁hottn eaieote",
      "▁easa toar",
      "▁taieee soooo",
      "▁etktt toown",
      "▁tseeeaa etfeteaieafuto",
      "et eemtn",
      "▁eatooteeaeoshtn \n",
      "▁tkt tsaie",
      "▁ E",
      "▁aiot eetnsc",
      "▁tv 0",
      "▁aioteetnsc e",
      "▁ood oh",
      "▁aiea aiee",
      "▁taea aie",
      "toot eeaeoooo",
      "▁ooh eaieee",
      "▁tae metaieeeto",
      "▁oodoh tv",
      "▁ '",
      "as aietetn",
      "▁aieee 1",
      "▁otto aieeeaaetnrodto",
      "eaiee etc",
      "▁toeeaotd aotasee",
      "eaieai eaief",
      "▁ai eterduto",
      "oteato etn",
      "▁aiee eeea",
      "aiaa eaieeetc",
      "teo aiaaeaieeetc",
      "▁oef ouoo",
      "▁aieeeeea easee",
      "▁oteato tnst",
      "▁et lo",
      "▁otea tooteeaeoooo",
      "▁ottoottooh st",
      "▁etlo taoeeeae",
      "to hn",
      "hottn iebtjho",
      "▁ooa eaa",
      "ieea gte",
      "▁o ieemo",
      "▁aieto eouoo",
      "▁eeaeasee tootieer",
      "▁eead afaetasaa",
      "▁pao eoteaieeea",
      "aiee tn",
      "▁ttsoeotjhn aiaae",
      "▁llooooooh taetaiee",
      "▁erdo eaieasaie",
      "▁eaaeed taithoeouoo",
      "▁easa oooo",
      "▁taoteea eterduto",
      "▁ooaeaa teaieeaee",
      "▁o ieemtn",
      "▁eaao eotohasa",
      "▁oetod tvtaieaeo",
      "▁aee \n",
      "▁tta egggeae",
      "▁e lr",
      "▁ooh tho",
      "ea etaiee",
      "▁ta efwn",
      "▁too teato",
      "ooh etktttn",
      "▁tooteato ttt",
      "▁eaaieeea tev",
      "llo r",
      "teea eterduto",
      "▁aieaeoo teeaeterduto",
      "▁tefsoeotetn llorto",
      "▁ I",
      "▁o eotohoest",
      "aa faee",
      "▁eaaee aieaeto",
      "a eea",
      "▁aieeea aeea",
      "tae ieeahn",
      "▁aeeeaee eouoo",
      "aiee tstof",
      "▁tathr toouoo",
      "▁aieai eto",
      "▁eeaeaeea er",
      "▁eato toto",
      "t llor",
      "etn eeb",
      "▁ood aii",
      "▁eaieeea easatoto",
      "ee eaiee",
      "▁erd aieaieeeto",
      "hrd c",
      "▁eeea eeeaiee",
      "▁oieemo tsee",
      "▁eea eeea",
      "etieea aie",
      "▁taiee own",
      "▁llooooea eeadeaeetc",
      "▁aieaieto eouoo",
      "aiee taieeeto",
      "▁eeeato teec",
      "▁oohtho aieetaieeeto",
      "et pa",
      "▁oet eaieeea",
      "▁ead taoeeeae",
      "eato aieee",
      "eato eaaeaiee",
      "▁otto ea",
      "▁teoteot a",
      "▁oeeeai eaiea",
      "uoo etmtn",
      "▁tae uooetmtn",
      "ieem toown",
      "▁eaieato thaieeeto",
      "▁teoteota ero",
      "▁aehtec eaieasotea",
      "▁aehteceaieasotea etno",
      "▁ W",
      "ts a",
      "▁eato tnoieetaie",
      "▁eohaoooo aieae",
      "▁oodote llollo",
      "▁ood ea",
      "te ieeaatn",
      "▁eai eaiea",
      "▁aioteaedoooo etno",
      "▁tta htahn",
      "tm tsa",
      "▁ood eaiaaeeerto",
      "ea ead",
      "▁erd tsiec",
      "▁taiei eaead",
      "▁taieieaead ieeohasa",
      "▁eaaee e",
      "t efsoeo",
      "▁a to",
      "tho ela",
      "m oeltc",
      "▁ N",
      "▁eea eaduo",
      "▁aiea eaieeeto",
      "▁eatoeatn eerto",
      "aiee ast",
      "aot asaietetn",
      "▁oet aotasaietetn",
      "▁oodeaelo \n",
      "▁toot hrdc",
      "▁ieto teeta",
      "▁ethoar oooo",
      "b ta",
      "aie bta",
      "▁tsee ieemtoown",
      "aieeaaee e",
      "▁erd ot",
      "et ttt",
      "▁aehtec aafaee",
      "▁ lo",
      "▁ohao aieaaeeaieote",
      "▁ooatn eaie",
      "t mtn",
      "loasee tetn",
      "ead thnaie",
      "aiea eadthnaie",
      "▁eai eaaeaiee",
      "▁eaaeed tmtsa",
      "▁em vo",
      "ta ero",
      "▁ooa ea",
      "▁pa taero",
      "▁eohaoooo aieaeadthnaie",
      "▁erd oheaieeea",
      "▁erd taeieeahn",
      "▁ta oohetktttn",
      "ec 0",
      "▁tatc aieeeto",
      "▁eaeeelo ttt",
      "eai aoteaiee",
      "ead tjhn",
      "▁eaieeea aieeaaeee",
      "▁oeeeaieaiea easee",
      "▁eaieaaeaiee own",
      "tn lo",
      "tn eaiaoteaiee",
      "eaieeead uto",
      "aieeea uto",
      "▁toeeaotdea eaieeeaduto",
      "▁eaee aieeeauto",
      "▁tseeoteetn st",
      "hr htn",
      "▁tta ttea",
      "tetn aieasaie",
      "▁th ieeouoo",
      "▁ooa etasa",
      "hrhtn e",
      "▁ttattea aieee",
      "▁tat hoela",
      "▁tathoela eatn",
      "l e",
      "▁oodts iec",
      "▁oeeeaietaseeetero \n",
      "▁oteatoo etieeaaie",
      "ee eaieea",
      "aiee eatn",
      "▁tao eeeaieea",
      "▁taoeeeaieea etaiee",
      "▁eaitfe \n",
      "▁etai eotea",
      "▁erdiet eloeae",
      "▁etaieotea aote",
      "▁ea eaie",
      "▁t st",
      "▁lloooo staie",
      "aieeea tsee",
      "▁tst to",
      "▁aiea \n",
      "▁eaa thaieaeoooo",
      "▁oeto etttt",
      "▁oetoetttt etaieeeto",
      "▁aieeeto aieeeto",
      "▁eaeeelo tt",
      "▁aeaetotoetotofa tnoho",
      "▁eaeeelottt ethno",
      "▁ta ottn",
      "eot easeeexeceee",
      "▁pa eaieasotea",
      "▁llooooea etaiee",
      "▁oeeeai eotea",
      "toto eaeeeaeee",
      "totoeaeeeaeee duto",
      "▁aieaead etneeb",
      "▁lo tc",
      "to thn",
      "▁aieeeto eeaaeasaee",
      "▁teoteoo ietaseaa",
      "▁ooda ea",
      "▁teoteo eatoaieee",
      "▁oodaea eatt",
      "tetn 1",
      "▁oodaii ohasee",
      "▁ood teaetc",
      "▁ h",
      "▁et aietc",
      "▁etaietc teetohohaetn",
      "d o",
      "▁lloooo tneaiaoteaiee",
      "▁tateaee \n",
      "▁ieeaaseeto aietc",
      "h eet",
      "heet ktttn",
      "▁oohto teatnaieae",
      "▁eaathaieaeoooo teatn",
      "▁erd tooteethn",
      "▁ai eo",
      "iodiod taoeeeae",
      "▁oohetktttn \n",
      "eetn aiee",
      "▁eeto eetnaiee",
      "▁ood sac",
      "▁erd emtc",
      "too teatn",
      "otea fa",
      "▁ood eeb",
      "▁a eaieeeatn",
      "▁oodeeb 1",
      "d pa",
      "▁taiee soooo",
      "▁tea eaae",
      "▁aieeetoaieeeto gte",
      "▁teaeaae dpa",
      "o r",
      "▁iet teec",
      "▁ggg ottn",
      "▁taoeeea eaie",
      "▁oeotas ttmn",
      "▁tseet h",
      "▁oeotasttmn ta",
      "o etmtn",
      "▁taieeaasee \n",
      "eaieeea own",
      "▁erdo eoteaieeaee",
      "▁aieeeato etaieeeto",
      "▁ood toot",
      "aiet htn",
      "▁oeeeaielloooolloooo ouoo",
      "▁oteatoo eote",
      "▁eeetn aiee",
      "i fa",
      "▁ethoar oetmtn",
      "▁st aieea",
      "▁etho eutoeuto",
      "▁staieea eeasoooo",
      "m sa",
      "eai erto",
      "▁tat msa",
      "▁st1 \n",
      "▁teatotoot eaeieeouoo",
      "ifa ea",
      "m s",
      "▁eeeaeeeaiee ouoo",
      "oo e",
      "em vo",
      "▁aieaead o",
      "▁eaitf eetea",
      "tt an",
      "▁teato aotasee",
      "▁oeaieeaeetmtn \n",
      "▁eaeeasoooo aietn",
      "▁eaeeasooooaietn 1",
      "▁et hot",
      "▁erd ttan",
      "▁ethot eeatn",
      "ef eatn",
      "▁eaeeasoooo eaieaieaief",
      "▁aieeeto aeaie",
      "▁oef aietsee",
      "▁oteaitfee ero",
      "▁taaiea etn",
      "▁eaitfeetea eaie",
      "ea r",
      "▁ot iebat",
      "aiaae loaseetctc",
      "▁tstto uoo",
      "o n",
      "▁ta eatn",
      "▁oeotasttmnta eear",
      "aieeeto tvo",
      "▁oefaietsee aieeetotvo",
      "▁eato etoeaier",
      "▁taea eto",
      "▁oeteatoeatn teer",
      "▁taeiee eadtjhn",
      "▁atot aieee",
      "▁taeieeeadtjhn 0",
      "tj aie",
      "▁ooaeeaeasee \n",
      "▁ooh ero",
      "▁oeteatoeatn taieetclo",
      "as oteafa",
      "▁ooa fiaeaieeeto",
      "▁ooaeai ooe",
      "▁taiee oh",
      "▁erd aiaaeloaseetctc",
      "▁tsee iaec",
      "▁taieeoh hn",
      "▁tat erduto",
      "▁gte pt",
      "to ttt",
      "s eetpa",
      "eaa efeatn",
      "▁aiee aieee0",
      "▁tta n",
      "▁aioteaedooooaeaie \n",
      "▁ottoottooh eatn",
      "asee 0",
      "▁s tstst",
      "▁aieaead ttatotoaetn",
      "▁iee moeltc",
      "▁ststst asee0",
      "ea fa",
      "▁oet hottniebtjho",
      "th taeiee",
      "▁pa thtaeiee",
      "▁erd aieae",
      "▁toeeaotd eaieeeaown",
      "▁ta hre",
      "▁ood oestt",
      "▁erdt eaewn",
      "▁oodoestt e",
      "▁ •",
      "ea aieeee",
      "▁eaieaf teoaiaaeaieeetc",
      "▁t ms",
      "▁eead eaeeasoooo",
      "▁oeeeaieea etaiee",
      "▁tms aown",
      "▁teadtstt \n",
      "▁eatototo tho",
      "f s",
      "▁oestte haetn",
      "▁lltoieemo pa",
      "▁erdt ec0",
      "iodiod tnttt",
      "▁ai aieaieeeto",
      "aiea eaieeeto",
      "▁erd ieeohasa",
      "▁teea 0",
      "▁aiaieaieeeto e",
      "ea fs",
      "▁oeteatoeatnllo \n",
      "▁eatotototho eafs",
      "tsts e",
      "▁oet eaaee",
      "▁to dc",
      "▁etho eaaieeee",
      "▁todc toown",
      "▁tseeea hn",
      "etc 0",
      "▁tootktt eaa",
      "▁afaet eea",
      "▁eaieaiea ear",
      "tn oh",
      "▁taiee oestt",
      "▁oeeeai eaiaa",
      "▁ood eea",
      "▁taieeoestt etoown",
      "▁oeeeaieaiaa eeaeoteea",
      "▁aieaeado etrto",
      "aee eafa",
      "▁tooieemo tneerto",
      "▁eeea aeeeafa",
      "i s",
      "▁etaieo etotoea",
      "tnoh eelo",
      "o 1",
      "▁eead tstse",
      "etaieee soooo",
      "▁oeteaaee eeeadetaiaaeeouoo",
      "ea etrto",
      "ho ho",
      "▁t aiebta",
      "fa c",
      "▁tk tt",
      "▁elr ttaoeeeae",
      "▁ead tetn1",
      "▁thaieaeoooo oteeea",
      "▁tseet jhn",
      "t aieeesoooo",
      "tt mon",
      "▁aieaiee tstof",
      "▁aehtecaiea easee",
      "▁teatn aiee",
      "▁ooh aieee",
      "▁teaieeeadst \n",
      "▁oodoestte hre",
      "a tottt",
      "ee eea",
      "ao eftac",
      "▁ood eeaaeasaee",
      "▁teato taiee",
      "▁gtehre \n",
      "▁etaiee aieetn",
      "teatn ouoo",
      "▁otto etaieeeto",
      "▁teatotaiee atottt",
      "to tnaie",
      "e loaseetetn",
      "aiee aiee",
      "▁et ottn",
      "llo ll",
      "▁erd tmsa",
      "ec efe",
      "▁eaao heetktttn",
      "▁ttao eloaseetetn",
      "▁ote lloll",
      "▁otelloll oouoo",
      "▁e ieeagte",
      "aotoh aieaieae",
      "lh etktttn",
      "▁ee etpa",
      "etho tc",
      "▁teatn pt",
      "▁oodtoot hre",
      "ee eai",
      "htec tv",
      "▁eaa tooteatn",
      "▁aioteaeeoooo eae",
      "▁ta aieeasado",
      "▁ts oe",
      "v 0",
      "etn aieasaie",
      "▁ta aieea",
      "▁aiee r",
      "▁eead oeto",
      "▁eaaieeea tsee",
      "▁t etnaieasaie",
      "▁tta e",
      "▁pa tnoheelo",
      "aii asaie",
      "▁ea eouoo",
      "▁erd afa",
      "▁oohouoto aieaeo",
      "eaieee 1",
      "▁ea aieaiee",
      "▁to teatnouoo",
      "▁asa taiee",
      "▁lloooo lhetktttn",
      "▁teaaedtc toar",
      "a efwn",
      "▁ lh",
      "t wn",
      "▁oeot eeto",
      "▁ohato easeeao",
      "▁ottoea eeadeaeetc",
      "eeeai eoeoteea",
      "▁oeoteeto eeeaieoeoteea",
      "e fac",
      "▁et aieote",
      "htectv own",
      "▁ttae htectvown",
      "▁etaieote llollo",
      "▁eaa aieae1",
      "▁ttan iaec",
      "▁etaiee ethn",
      "aieaiee ecefe",
      "▁o eaiee",
      "▁oteeta emvo",
      "▁aiee atn",
      "▁ood tetn",
      "too tt",
      "▁teet eeeea",
      "▁etsuto aiaae",
      "▁ooao ef",
      "▁eeeaaeeeafa eaieote",
      "▁eaa eaaefeatn",
      "▁oeeeaiet aefwn",
      "▁afa thneeea",
      "▁afathneeea 0",
      "▁oeot easeeexec",
      "▁eaieeea tv",
      "▁teaaedtc tn",
      "▁otea tot",
      "▁tao est",
      "▁eead eaaietsee",
      "▁oohto taitho",
      "hoela pa",
      "fatts fat",
      "▁oteatot hoelapa",
      "▁oohtotaitho e",
      "fa tc",
      "▁ood tjaie",
      "▁aotoh aieai",
      "▁gt eaieee1",
      "▁eohaoooo iee",
      "▁hrd ttmon",
      "▁aotohaieai oteaeeoooo",
      "▁tkt gggaitoemoomoou",
      "▁eeatn 1",
      "▁erdeaa easeetetn",
      "▁taoeeeae oooo",
      "▁aiee tooteethn",
      "▁aiea eaiea",
      "▁aieaeaiea eaiea",
      "▁ea eaiea",
      "ts fattsfat",
      "eeaa etouto",
      "▁eaata eaier",
      "▁eaaeaieea eaeeae",
      "▁eaeaiea eeaaetouto",
      "▁oeeeaiee lrt",
      "t mostaieae",
      "▁eaeeasoooo o",
      "▁tseet aiee",
      "▁erdaiea see",
      "o u",
      "▁eato eaaee",
      "▁eaa aeeeaeee",
      "▁eaa etaie",
      "▁eaeaetn tsfattsfat",
      "▁tootktteaa aieae",
      "r a",
      "▁lloooo tooteethn",
      "▁ead twn",
      "▁tseet eaieeeae",
      "▁eado eote",
      "▁tv o1",
      "▁gt eeeatn",
      "taee ifaea",
      "▁tooieemot htn",
      "▁gteeeatn 0",
      "▁taiee tclo",
      "ts uto",
      "▁to hn",
      "▁oeeeaiee tsuto",
      "▁oeeeaieotea aoteaiee",
      "▁erd etaieeohouoothn",
      "▁eohaoooo eelo",
      "▁erd hrhtne",
      "▁oeoteaseeexec ee",
      "tn aietc",
      "st 1",
      "▁tk tot",
      "▁eeaduo \n",
      "▁erdt meuo",
      "▁aiee eae0",
      "▁oest \n",
      "▁h eaaeedtetn",
      "▁ooa etottn",
      "tsee tsee",
      "▁aieaead iodiodtaoeeeae",
      "ieeaasee eaioteato",
      "▁oetod tmostaieae",
      "▁oeaie hrdtetn",
      "▁lloooo efac",
      "▁eato tetnaieasaie",
      "▁tao iet",
      "▁eae heaeeaieero",
      "▁taoiet taoeeeae",
      "ea too",
      "▁ho aieeast",
      "▁ttaea eaetn",
      "▁hrd tllor",
      "▁ato etn",
      "▁hrdtllor toown",
      "etn oh",
      "▁eeaeeea etnoh",
      "eaa aieeetc",
      "eaieeeto taoeeeae",
      "▁p t",
      "eaaaieeetc o",
      "ea aieeeeto",
      "▁aieaeo eaeeasoooo",
      "▁erdeaa tneaie",
      "▁teeae1 \n",
      "▁ood tohn",
      "▁tseea \n",
      "▁eaaeaieeeto ieemtn",
      "do eote",
      "▁aieer doeote",
      "eea eaduo",
      "▁aieeeto eeaeaduo",
      "▁tseetaiee rhtn",
      "▁tooieemo tthn",
      "▁ai etc0",
      "▁thotho \n",
      "▁eaet rto",
      "▁eaaieaiee mtn",
      "▁st oouoo",
      "▁tatn easeear",
      "v ea",
      "ai oteatoetn",
      "▁tsee tttmtn",
      "▁aiet aioteatoetn",
      "▁eaaaieeetn 1",
      "▁tneai eaiaae",
      "▁oeeeaie vea",
      "▁etaiaaeee \n",
      "▁toeeaotdea aieeeeto",
      "totn asee",
      "▁aiee emtc",
      "▁erd c",
      "▁erd ea",
      "aiet aie",
      "▁erd eteemtn",
      "▁toot llo",
      "eto taoeeeae",
      "st llorto",
      "▁ood eeea",
      "▁tootllo etotaoeeeae",
      "▁oodeeea stllorto",
      "▁to eeaaie",
      "▁toeeaotd asoteafa",
      "▁toto aiethtn",
      "▁oodea aieeeatsee",
      "▁toeeaaie hohr",
      "eaiea r",
      "teato tnlo",
      "▁ieeaaseeaiee \n",
      "▁aieae ooetn",
      "▁tsea eai",
      "▁eaeeelott teatotnlo",
      "▁oodeaa aieeetn",
      "as toto",
      "▁erd eief",
      "▁oettaero astoto",
      "▁aieeetoo teieeaatn",
      "▁tseaeai etaoeeeae",
      "aiea eeaaeto",
      "▁th aieae",
      "▁oeoteaseeexecee eoetmtn",
      "▁thaieae ooooo",
      "eo eot",
      "▁eaa aieeasad",
      "▁aiea eeeaeee",
      "▁ietai eoeot",
      "▁eaaaieeasad oown",
      "▁ietaieoeot eeaasee",
      "h aieaeoooo",
      "▁eaaee eatoeaaeaiee",
      "▁aie staie",
      "▁aieeea tot",
      "▁th oo",
      "rto hn",
      "▁aieea eaaaieeeto",
      "▁tseet v0",
      "▁aieeeatot hotho",
      "▁eaa llollo",
      "easeear ouoo",
      "▁eaaieeeatn sodsod",
      "▁ot aia",
      "▁od totnasee",
      "▁otaia totetn",
      "et eatoeatn",
      "▁v ea",
      "▁oeotasea aietetn",
      "▁etaieo eteaaeaieaeto",
      "tso eot",
      "▁taea eeae",
      "th tseea",
      "▁ooateeae \n",
      "▁erdt tsoeot",
      "▁erdttsoeot jhn",
      "▁ooh etoeaier",
      "to tt",
      "▁eato eeta",
      "▁ooda tott",
      "▁eatoeeta uto",
      "▁gt eo",
      "▁eaitf eelo",
      "▁oodatott haieaeoooo",
      "▁eaitfeelo tothn",
      "▁eeae lo",
      "oo ht",
      "em eu",
      "▁aieiaec0 \n",
      "▁teatn hre",
      "▁gtehn ouoo",
      "▁ Y",
      "▁oeeeaieea aoeftac",
      "▁erdttea aie",
      "eaa easa",
      "teato ar",
      "▁tatc \n",
      "▁thaieaeooooo eaierto",
      "▁ [",
      "eoh aieee",
      "▁vea own",
      "▁ood iet",
      "▁eeetn rodto",
      "e l",
      "i emeu",
      "▁ooh eaaaieeetco",
      "▁teato to",
      "▁oet eaaeasa",
      "ieemo pa",
      "▁eaao eftac",
      "▁ea eaieeeto",
      "▁aieae llorto",
      "▁erd eaaeaiee",
      "▁taaieeatn eae",
      "▁eaitfee o",
      "▁e uto",
      "▁eaieeea ttea",
      "toott aeiee",
      "▁ood aieetstof",
      "toto eoteea",
      "▁eead htahn",
      "▁oeeeaiet ec",
      "▁etasaa ero",
      "▁oeotee totoeoteea",
      "▁aieaeaieaeaiea eohaieee",
      "▁: \n",
      "▁ X",
      "▁erd thoo",
      "▁eohaoooo taoeeeae",
      "▁erdthoo teeafa",
      "▁eato etao",
      "etoto tn",
      "▁tseeea sa",
      "▁eaeaetn aieeeea",
      "staie 1",
      "▁pt hre",
      "▁tsee iodiodtnttt",
      "d thtn",
      "▁ ]",
      "▁aiee aietn",
      "▁erd tea",
      "▁aieea 2",
      "▁tseeth etsc",
      "▁oet ea",
      "▁oeteatoeatn etaie",
      "iod iodtaiee",
      "▁erd staie1",
      "▁teato ts",
      "asaa r",
      "▁aieetsee aiaae",
      "▁llo st",
      "▁eato ttt",
      "▁iet asaar",
      "aehtec aiea",
      "a c",
      "▁eato teeafa",
      "▁taaieaaiee \n",
      "ooooo fatc",
      "ht ooooofatc",
      "eatoo htooooofatc",
      "▁eatoteeafa eatoohtooooofatc",
      "▁eatoteeafaeatoohtooooofatc ttt",
      "▁aot asaie",
      "▁otaiatotetn asa",
      "▁gte seetpa",
      "▁etasaa gte",
      "▁aieee iemeu",
      "▁ia eaieel",
      "▁tktot eaitfee",
      "▁aiee tmsa",
      "▁eaa faet",
      "▁oeaiee tmtn",
      "▁eaafaet eae",
      "A :",
      "eea aee",
      "▁oestt eeaaee",
      "▁oestteeaaee eto",
      "▁ O",
      "▁terduto taieeesoooo",
      "▁eaetaiee \n",
      "▁terdutotaieeesoooo 0",
      "▁ta aieeetoar",
      "▁aiee eerto",
      "▁aieeeaieeaee \n",
      "▁tktt aieteetn",
      "▁eaeeasooooo ietaseaa",
      "eae heaeeaieero",
      "▁tme u",
      "▁eaa tnst",
      "▁eaieeea aieae",
      "▁ea eoh",
      "▁ood tootieer",
      "▁erdeaa aieeetn",
      "▁ooaea eaaaieeeto",
      "tea seear",
      "▁teoteoo teaseear",
      "▁eatoeaaee aieaeto",
      "aot asaie",
      "▁ietaieoeoteea eae",
      "d utoouoo",
      "t llorto",
      "▁ooh tn",
      "▁eaie dutoouoo",
      "eatt aieeeto",
      "▁eaeoh et",
      "to eeaotd",
      "eeeae f",
      "▁etc f",
      "▁eaieeeattea aiee",
      "tc thtseea",
      "▁erd pt",
      "▁aieaead tcthtseea",
      "▁toeeaotd tea",
      "▁ea etaoeeeae",
      "▁eead tnttt",
      "▁eaetaoeeeae uto",
      "eai t",
      "▁aiee eteemtn",
      "▁eato eeeaef",
      "toh thoela",
      "▁eaaood atot",
      "▁aieeetoo tohthoela",
      "a l",
      "et eeae",
      "▁eaelo \n",
      "▁aieaieaie \n",
      "▁t most",
      "▁ta aieeeeto",
      "▁eloeadar \n",
      "▁tnst \n",
      "▁hrd c",
      "▁oef aieee",
      "▁ohato aieae",
      "▁oeaieoh etktttn",
      "▁taaieeeeto 0",
      "f aown",
      "teea faown",
      "▁thoo teeafaown",
      "▁ood eaaeaiee",
      "▁ohao aietc",
      "ttn rodto",
      "▁iod iod",
      "▁oodeaaeaiee etn",
      "n e",
      "t eeatn",
      "▁ead eaaieeeeto",
      "▁ V",
      "asa totetn",
      "lloooolloooo ieb",
      "eeeaie lloooollooooieb",
      "▁oodo eeeaielloooollooooieb",
      "▁taeaa eaiee",
      "tai oteatoetn",
      "▁llooooooh eerto",
      "llo aieae",
      "▁teato tnaietc",
      "▁oet iaaeemtc",
      "▁oeeeaieo eeae",
      "▁faet eae",
      "taoeeea eown",
      "▁hohr t",
      "▁aiaaelloooo taoeeeaeown",
      "▁tneaiaoteaiee \n",
      "▁gt eai",
      "▁oeeeaieteaaie \n",
      "▁pathn eteeae",
      "▁teatots ttnrodto",
      "▁ood aieeetstt",
      "▁erd tnst",
      "▁aieeeatn2 \n",
      "▁taei \n",
      "▁ttea thtn",
      "rod oo",
      "▁aehtecaiea eaiaae",
      "eait ooooo",
      "▁t j",
      "▁erd iodiodtaiee",
      "▁oeto eoteaseeexeceee",
      "taeiee 0",
      "▁erdtea taeiee0",
      "▁eaa teatoar",
      "▁afaet aie",
      "r oo",
      "▁oeeeaieea aeeeatn",
      "▁tj eatn",
      "▁ta ot",
      "▁oodo eto",
      "▁eato tefsoeo",
      "n d",
      "▁ea aaea",
      "▁erdo eotas",
      "taoeeea easto",
      "▁aieaead eutoeuto",
      "eatt etaieeeto",
      "▁erdafa taoeeeaeasto",
      "▁eaaaea eattetaieeeto",
      "▁erdafataoeeeaeasto aie",
      "▁e ggg",
      "eead ao",
      "▁oohtc \n",
      "▁teatn gte",
      "aot aieeeto",
      "▁etn 0",
      "▁aotoh aieaieeeto",
      "▁tsee loaie",
      "▁eggg ead",
      "eea tohn",
      "▁a eeatohn",
      "▁eaaeed pa",
      "▁oodoeto aietmtn",
      "▁aeeatohn aieee",
      "▁ood taioteatoetn",
      "ieb tn",
      "▁erdot eeta",
      "▁eeadoeto faaslo",
      "u r",
      "▁loaseetctc oooo",
      "▁oeeeaiet eatn",
      "▁taa fa",
      "▁) \n",
      "▁ooheeea aiear",
      "▁et eemtn",
      "▁etn1 \n",
      "▁teoteo totoeaeeeaeeeduto",
      "▁afa eaieotd",
      "e d",
      "roo o",
      "▁oeeeaieteatn pt",
      "▁erd tv",
      "▁aieaead eeaeaieeeto",
      "▁ttea aieee",
      "▁erdtv st1",
      "▁ood tneerto",
      "▁aieaetnta0 \n",
      "▁etntaoeeea eero",
      "e sac",
      "▁erd tootieer",
      "▁tsee o",
      "▁eao \n",
      "▁erdt esac",
      "▁tooieemo aieaeaieeeto",
      "▁t mo",
      "ts ao",
      "▁ood iettc",
      "▁lloooo ttatotoaetn",
      "▁etaiee ohouoothn",
      "▁oeteaaehn \n",
      "▁afaeaieotd tv",
      "▁tmo tsao",
      "▁ouoo \n",
      "▁taeuo aieeeto",
      "▁aiee t",
      "▁ho hoho",
      "easa oooo",
      "▁aieiettc \n",
      "▁oodiet easaoooo",
      "▁hohoho eatn",
      "to iec",
      "aaee toiec",
      "▁eaeeasoooo etoeaier",
      "▁aieea 3",
      "▁oeeeaiets aiee",
      "▁aieaeot eeatn",
      "▁oodtneerto eae",
      "aaeetoiec own",
      "▁ U",
      "ethotc eta",
      "eot eerto",
      "▁lloooo totoeaeeeaeeeduto",
      "▁oteeet iaee",
      "i aae",
      "▁oet iaae",
      "▁eaaeeeto thtn",
      "oe st",
      "▁oetiaae houoothn",
      "eo etm",
      "▁ea eoetm",
      "▁eai aaeetoiecown",
      "▁lloooo eeaeaieeeto",
      "▁teoteo ee",
      "▁tsee tcaiee",
      "eaiea eeta",
      "▁eaeaetniec \n",
      "eoh aieeeatn",
      "▁aiiohaseeaieaaeeaieote \n",
      "▁lh eohaieeeatn",
      "▁eaeoetm touto",
      "h i",
      "▁taiee eaieaeeta",
      "hrd st",
      "▁aieea eeae",
      "▁eaao est",
      "▁to eerto",
      "▁otetaieeeown \n",
      "▁eaaood eaieeaoero",
      "▁eaoh hrdst",
      "▁teoteoee eatoeaaeaiee",
      "▁toeerto tetn",
      "eto e",
      "▁aieaead toottaeiee",
      "▁aiaiee own",
      "▁afa tseetsee",
      "▁tsee oteea",
      "▁st 0",
      "▁oodo ttoottn",
      "toea etaiee",
      "▁etktt toeaetaiee",
      "▁erdea eeadao",
      "▁toeeaotdtea etmteaetcaieeeto",
      "▁eatoot iebat",
      "▁aieea etrto",
      "▁aieo eteatoeatn",
      "er oown",
      "etn aieec",
      "▁eato aotohaieaieae",
      "▁taieeeouoo \n",
      "in g",
      "▁tooieemot erduto",
      "▁oteaitfee eroown",
      "▁oetea eaieotdero",
      "▁ /",
      "▁pa eaieeea",
      "▁erdaiee tstof",
      "▁etaieo eotohoest",
      "▁ ─",
      "et eaieutoouoo",
      "ea easeeown",
      "eea taeeifaea",
      "▁i eeataeeifaea",
      "▁ood thaieaeoooo",
      "oh aseeet",
      "▁aii ohaseeet",
      "▁aietn easeear",
      "▁C A:",
      "▁aiiohaseeet eaeaseeown",
      "to fa",
      "▁tead tetn",
[...]
