{
  "version": "1.0",
  "truncation": null,
  "padding": null,
  "added_tokens": [
    {
      "id": 0,
      "content": "<unk>",
      "single_word": false,
      "lstrip": false,
      "rstrip": false,
      "normalized": false,
      "special": true
    }
  ],
  "normalizer": {
    "type": "NFKC"
  },
  "pre_tokenizer": {
    "type": "Metaspace",
    "replacement": "▁",
    "add_prefix_space": true,
    "prepend_scheme": "always"
  },
  "post_processor": null,
  "decoder": {
    "type": "Metaspace",
    "replacement": "▁",
    "add_prefix_space": true,
    "prepend_scheme": "always"
  },
  "model": {
    "type": "BPE",
    "dropout": null,
    "unk_token": "<unk>",
    "continuing_subword_prefix": null,
    "end_of_word_suffix": null,
    "fuse_unk": false,
    "byte_fallback": false,
    "vocab": {
      "<unk>": 0,
      "\n": 1,
      "!": 2,
      "\"": 3,
      "#": 4,
      "$": 5,
      "%": 6,
      "&": 7,
      "'": 8,
      "(": 9,
      ")": 10,
      "*": 11,
      "+": 12,
      ",": 13,
      "-": 14,
      ".": 15,
      "/": 16,
      "0": 17,
      "1": 18,
      "2": 19,
      "3": 20,
      "4": 21,
      "5": 22,
      "6": 23,
      "7": 24,
      "8": 25,
      "9": 26,
      ":": 27,
      ";": 28,
      "<": 29,
      "=": 30,
      ">": 31,
      "?": 32,
      "@": 33,
      "A": 34,
      "B": 35,
      "C": 36,
      "D": 37,
      "E": 38,
      "F": 39,
      "G": 40,
      "H": 41,
      "I": 42,
      "J": 43,
      "K": 44,
      "L": 45,
      "M": 46,
      "N": 47,
      "O": 48,
      "P": 49,
      "Q": 50,
      "R": 51,
      "S": 52,
      "T": 53,
      "U": 54,
      "V": 55,
      "W": 56,
      "X": 57,
      "Y": 58,
      "Z": 59,
      "[": 60,
      "]": 61,
      "^": 62,
      "_": 63,
      "`": 64,
      "a": 65,
      "b": 66,
      "c": 67,
      "d": 68,
      "e": 69,
      "f": 70,
      "g": 71,
      "h": 72,
      "i": 73,
      "j": 74,
      "k": 75,
      "l": 76,
      "m": 77,
      "n": 78,
      "o": 79,
      "p": 80,
      "q": 81,
      "r": 82,
      "s": 83,
      "t": 84,
      "u": 85,
      "v": 86,
      "w": 87,
      "x": 88,
      "y": 89,
      "z": 90,
      "{": 91,
      "~": 92,
      "£": 93,
      "¥": 94,
      "©": 95,
      "«": 96,
      "®": 97,
      "°": 98,
      "¶": 99,
      "·": 100,
      "»": 101,
      "×": 102,
      "á": 103,
      "ä": 104,
      "ç": 105,
      "è": 106,
      "é": 107,
      "ê": 108,
      "í": 109,
      "ñ": 110,
      "ó": 111,
      "ö": 112,
      "ø": 113,
      "ü": 114,
      "ˎ": 115,
      "α": 116,
      "β": 117,
      "θ": 118,
      "ω": 119,
      "ย": 120,
      "ร": 121,
      "อ": 122,
      "่": 123,
      "–": 124,
      "—": 125,
      "―": 126,
      "•": 127,
      "‧": 128,
      "⁄": 129,
      "€": 130,
      "−": 131,
      "∙": 132,
      "⋯": 133,
      "─": 134,
      "▁": 135,
      "▪": 136,
      "♪": 137,
      "♫": 138,
      "。": 139,
      "〈": 140,
      "〉": 141,
      "「": 142,
      "」": 143,
      "『": 144,
      "』": 145,
      "【": 146,
      "】": 147,
      "・": 148,
      "ㄧ": 149,
      "﻿": 150,
      "ee": 151,
      "ea": 152,
      "ai": 153,
      "▁t": 154,
      "et": 155,
      "oo": 156,
      "aiee": 157,
      "eai": 158,
      "to": 159,
      "▁o": 160,
      "eea": 161,
      "eo": 162,
      "tn": 163,
      "▁ea": 164,
      "as": 165,
      "er": 166,
      "▁taiee": 167,
      "etn": 168,
      "▁ta": 169,
      "ts": 170,
      "▁et": 171,
      "eae": 172,
      "asee": 173,
      "lo": 174,
      "▁aiee": 175,
      "tso": 176,
      "▁taieetso": 177,
      "ao": 178,
      "▁oo": 179,
      "eaiee": 180,
      "eto": 181,
      "erd": 182,
      "uto": 183,
      "▁ai": 184,
      "▁oee": 185,
      "oooo": 186,
      "wn": 187,
      "▁oeeeai": 188,
      "▁,": 189,
      "aee": 190,
      "tc": 191,
      "tt": 192,
      "eot": 193,
      "hn": 194,
      "eaie": 195,
      "▁aieeea": 196,
      "hr": 197,
      "ho": 198,
      "▁e": 199,
      "aie": 200,
      "erduto": 201,
      "ta": 202,
      "▁terduto": 203,
      "eown": 204,
      "ead": 205,
      "▁tn": 206,
      "▁.": 207,
      "aa": 208,
      "llo": 209,
      "tea": 210,
      "aiea": 211,
      "▁aieeeaetn": 212,
      "▁i": 213,
      "eer": 214,
      "st": 215,
      "etc": 216,
      "gt": 217,
      "aasee": 218,
      "▁taieeaasee": 219,
      "ll": 220,
      "▁ooh": 221,
      "▁.\n": 222,
      "▁ood": 223,
      "uoo": 224,
      "lloooo": 225,
      "etaiee": 226,
      "▁eai": 227,
      "mtn": 228,
      "▁a": 229,
      "sa": 230,
      "eato": 231,
      "▁erd": 232,
      "▁oeeeaieown": 233,
      "oto": 234,
      "too": 235,
      "aot": 236,
      "ec": 237,
      "aeae": 238,
      "▁lloooo": 239,
      "eet": 240,
      "eeae": 241,
      "gte": 242,
      "▁hr": 243,
      "pa": 244,
      "eead": 245,
      "▁eato": 246,
      "▁etaeae": 247,
      "eaa": 248,
      "asa": 249,
      "▁tat": 250,
      "▁taaiea": 251,
      "▁taaieaaiee": 252,
      "ero": 253,
      "ar": 254,
      "aieee": 255,
      "▁eaa": 256,
      "iee": 257,
      "▁etasee": 258,
      "▁tt": 259,
      "▁tta": 260,
      "aiet": 261,
      "▁ot": 262,
      "▁teato": 263,
      "eeea": 264,
      "eero": 265,
      "▁too": 266,
      "toto": 267,
      "▁aiea": 268,
      "▁oeai": 269,
      "fa": 270,
      "oh": 271,
      "soooo": 272,
      "eas": 273,
      "▁oe": 274,
      "eatn": 275,
      "▁etao": 276,
      "▁oet": 277,
      "▁tn1": 278,
      "eeaasee": 279,
      "ot": 280,
      "erto": 281,
      "htn": 282,
      "▁eead": 283,
      "thn": 284,
      "▁ead": 285,
      "▁oeot": 286,
      "▁ts": 287,
      "▁tathr": 288,
      "▁ieeaasee": 289,
      "toh": 290,
      "hot": 291,
      "▁tathrto": 292,
      "sac": 293,
      "▁eaaee": 294,
      "▁elo": 295,
      "▁tasa": 296,
      "▁tasac": 297,
      "aae": 298,
      "eouoo": 299,
      "tetn": 300,
      "eee": 301,
      "ia": 302,
      "eb": 303,
      "atn": 304,
      "▁eloead": 305,
      "▁th": 306,
      "▁aee": 307,
      "etaieeeto": 308,
      "tttn": 309,
      "hre": 310,
      "llollo": 311,
      "▁m": 312,
      "▁eloeadar": 313,
      "▁aead": 314,
      "aoteaiee": 315,
      "▁aeadtc": 316,
      "▁gte": 317,
      "ha": 318,
      "▁otea": 319,
      "gg": 320,
      "eeeae": 321,
      "aaee": 322,
      "eetn": 323,
      "ktttn": 324,
      "▁moto": 325,
      "eaieeeto": 326,
      "tao": 327,
      "rto": 328,
      "▁tao": 329,
      "ii": 330,
      "iisoooo": 331,
      "ttiisoooo": 332,
      "▁toottiisoooo": 333,
      "eaetn": 334,
      "iet": 335,
      "eote": 336,
      "loasee": 337,
      "eeto": 338,
      "▁etoto": 339,
      "▁etotoatn": 340,
      "aietc": 341,
      "aieeetc": 342,
      "▁eae": 343,
      "▁etn": 344,
      "tj": 345,
      "ef": 346,
      "▁tneai": 347,
      "ouoo": 348,
      "eaieeea": 349,
      "▁teea": 350,
      "▁oeaierto": 351,
      "tctc": 352,
      "loaseetctc": 353,
      "etco": 354,
      "▁oeaiertoetco": 355,
      "▁\"": 356,
      "▁taea": 357,
      "▁oeto": 358,
      "▁loaseetctc": 359,
      "▁aeadtcee": 360,
      "▁oest": 361,
      "aotoh": 362,
      "▁tneaiaoteaiee": 363,
      "▁oeeeaiet": 364,
      "▁aotoh": 365,
      "aieai": 366,
      "▁s": 367,
      "▁aii": 368,
      "taiee": 369,
      "eetpa": 370,
      "▁eaier": 371,
      "▁eaie": 372,
      "▁eaetaiee": 373,
      "eaieea": 374,
      "stt": 375,
      "▁oeeeaie": 376,
      "asaa": 377,
      "▁aieto": 378,
      "▁etn1": 379,
      "▁teot": 380,
      "▁tea": 381,
      "aaegte": 382,
      "▁eaiaaegte": 383,
      "aieeeto": 384,
      "▁oeeeaietn": 385,
      "▁to": 386,
      "ieb": 387,
      "▁ooa": 388,
      "eaieeeae": 389,
      "▁seetpa": 390,
      "▁aieeeaeero": 391,
      "eeta": 392,
      "▁gt": 393,
      "tv": 394,
      "▁oohtc": 395,
      "th": 396,
      "▁taee": 397,
      "own": 398,
      "toot": 399,
      "iec": 400,
      "hotho": 401,
      "▁teoteo": 402,
      "taoeeeae": 403,
      "▁teatoaie": 404,
      "▁aie": 405,
      "eeae1": 406,
      "eatoeatn": 407,
      "▁teeae1": 408,
      "etmtn": 409,
      "duto": 410,
      "aoteot": 411,
      "▁aaoteot": 412,
      "▁ttiet": 413,
      "▁ttiettea": 414,
      "▁thotho": 415,
      "etktttn": 416,
      "▁eaaeeeto": 417,
      "▁oeteatoeatn": 418,
      "aietetn": 419,
      "eerto": 420,
      "ieeoh": 421,
      "▁oeeeaieo": 422,
      "e0": 423,
      "ttea": 424,
      "▁eaeaetn": 425,
      "eeadero": 426,
      "toown": 427,
      "▁oeteatoeatnllo": 428,
      "oe": 429,
      "▁gteaie": 430,
      "totoieeoh": 431,
      "ae": 432,
      "▁taeetotoieeoh": 433,
      "hottn": 434,
      "easee": 435,
      "teeae": 436,
      "ieer": 437,
      "▁eatoaiee": 438,
      "eeaeo": 439,
      "aieemtn": 440,
      "▁teet": 441,
      "tjho": 442,
      "▁oeeeaietnaietc": 443,
      "aiaaee": 444,
      "▁as": 445,
      "▁taieee": 446,
      "uo": 447,
      "▁teetaieee": 448,
      "shtn": 449,
      "▁eatoaieeeouoo": 450,
      "so": 451,
      "▁eeadaieeetc": 452,
      "aieown": 453,
      "▁oh": 454,
      "iaec": 455,
      "▁ttaieemtn": 456,
      "aieee1": 457,
      "▁eatoot": 458,
      "▁pa": 459,
      "faet": 460,
      "▁tead": 461,
      "eeaeoshtn": 462,
      "▁eatooteeaeoshtn": 463,
      "▁tae": 464,
      "▁tseea": 465,
      "eoha": 466,
      "▁aaoteoteeadero": 467,
      "eohaoooo": 468,
      "teaee": 469,
      "▁tsee": 470,
      "▁etasaa": 471,
      "▁eohaoooo": 472,
      "asaieown": 473,
      "▁aiiasaieown": 474,
      "▁eadsac": 475,
      "aeed": 476,
      "ooooo": 477,
      "▁taaieee1": 478,
      "▁0": 479,
      "tsee": 480,
      "▁teatot": 481,
      "▁aietoe": 482,
      "▁sac": 483,
      "suto": 484,
      "eaieeaee": 485,
      "ht": 486,
      "eaieetn": 487,
      "faa": 488,
      "▁st": 489,
      "▁eaieieer": 490,
      "eeaot": 491,
      "▁eaetaieepa": 492,
      "aieae": 493,
      "tf": 494,
      "▁hottn": 495,
      "iebtjho": 496,
      "▁?": 497,
      "eeasoooo": 498,
      "eaier": 499,
      "eaiea": 500,
      "eaieeead": 501,
      "▁hottniebtjho": 502,
      "▁iec": 503,
      "▁otetaiee": 504,
      "tnoo": 505,
      "eeaeet": 506,
      "▁oeaieeaeet": 507,
      "▁oeaieeaeetmtn": 508,
      "ieem": 509,
      "ggg": 510,
      "aieeeero": 511,
      "▁ttaaieeeero": 512,
      "▁oesttnoo": 513,
      "▁oohetktttn": 514,
      "▁teatoteaieeeae": 515,
      "▁otee": 516,
      "llothn": 517,
      "▁ttallothn": 518,
      "▁taeaaietetn": 519,
      "▁teeaea": 520,
      "eaeee": 521,
      "aieaieae": 522,
      "htec": 523,
      "▁eaaiee": 524,
      "soeo": 525,
      "▁etsuto": 526,
      "▁aotohaieaieae": 527,
      "fia": 528,
      "fiaeaieeeto": 529,
      "▁taeetotoieeohhre": 530,
      "▁hre0": 531,
      "▁aieeeatn": 532,
      "ooetn": 533,
      "faafa": 534,
      "eoteaiee": 535,
      "ttt": 536,
      "▁eaieeea": 537,
      "ooetnooooo": 538,
      "eeatn": 539,
      "etouto": 540,
      "ooh": 541,
      "▁oohfiaeaieeeto": 542,
      "gggeae": 543,
      "▁tateaee": 544,
      "▁oeoteaiee": 545,
      "▁faafa": 546,
      "▁faet": 547,
      "eaieeeaa": 548,
      "llolloetouto": 549,
      "eeaotd": 550,
      "▁oetod": 551,
      "thoo": 552,
      "▁otetaieeeown": 553,
      "▁thooetnooooo": 554,
      "▁toeeaotd": 555,
      "eeaeasee": 556,
      "eaieduto": 557,
      "aetn": 558,
      "eaeero": 559,
      "teato": 560,
      "em": 561,
      "tstt": 562,
      "▁oohto": 563,
      "eaae": 564,
      "▁ohao": 565,
      "▁eaelo": 566,
      "thtn": 567,
      "▁oha": 568,
      "▁teeto": 569,
      "tahn": 570,
      "▁aieeeatn2": 571,
      "eoteea": 572,
      "▁eao": 573,
      "etao": 574,
      "▁gtehre": 575,
      "▁oodts": 576,
      "egggeae": 577,
      "▁tnst": 578,
      "llorto": 579,
      "▁aieai": 580,
      "▁oteea": 581,
      "▁oodtshn": 582,
      "▁oeeeaieea": 583,
      "▁ieeaaseeeeta": 584,
      "aietktttn": 585,
      "aseeet": 586,
      "mtoown": 587,
      "etaieee": 588,
      "aeedhn": 589,
      "od": 590,
      "▁llooooegggeae": 591,
      "▁aieeeaaeedhn": 592,
      "eaieai": 593,
      "aeaie": 594,
      "aieaeo": 595,
      "▁iet": 596,
      "eta": 597,
      "eaiedutoe": 598,
      "▁aieaiedutoe": 599,
      "▁ohn": 600,
      "tjhn": 601,
      "▁aseaie": 602,
      "tto": 603,
      "▁teadtstt": 604,
      "aeer": 605,
      "▁oteeetaieee": 606,
      "▁aiaaee": 607,
      "aietmtoown": 608,
      "▁aiaaeeaietmtoown": 609,
      "ltto": 610,
      "llollof": 611,
      "▁-": 612,
      "▁etaiee": 613,
      "▁taoeeea": 614,
      "▁erdo": 615,
      "eear": 616,
      "eetn0": 617,
      "totoaetn": 618,
      "mtc": 619,
      "▁?\n": 620,
      "dtn": 621,
      "▁ho": 622,
      "eetc": 623,
      "aiaae": 624,
      "efsoeo": 625,
      "taoeeea": 626,
      "▁ae": 627,
      "▁ieb": 628,
      "etoo": 629,
      "▁teetoaie": 630,
      "▁ttaeer": 631,
      "eaieeeadst": 632,
      "▁ttatotoaetn": 633,
      "▁teaieeeadst": 634,
      "tseea": 635,
      "▁ieeaaseeaie": 636,
      "eaieeeaaetmtn": 637,
      "tot": 638,
      "lloooolloooo": 639,
      "eaieaieeeaaetmtn": 640,
      "aote": 641,
      "euto": 642,
      "▁:": 643,
      "▁thtseea": 644,
      "aieasa": 645,
      "▁aotohaieasa": 646,
      "eaed": 647,
      "▁od": 648,
      "▁eatn": 649,
      "▁oeeeaielloooolloooo": 650,
      "▁aieaead": 651,
      "▁oeoteaieeouoo": 652,
      "▁oeeeaieoeaieaieeeaaetmtn": 653,
      "tneaie": 654,
      "eaelo": 655,
      "▁oodeaelo": 656,
      "▁1": 657,
      "ohasee": 658,
      "aiaa": 659,
      "▁oteaaote": 660,
      "aieaie": 661,
      "▁aeeeaeee": 662,
      "▁eaet": 663,
      "▁oteato": 664,
      "thnaie": 665,
      "loaie": 666,
      "aiaaeee": 667,
      "▁etaiaaeee": 668,
      "▁eaieetn": 669,
      "▁eaeaetniec": 670,
      "▁eaitf": 671,
      "▁aiaiee": 672,
      "▁oeeeaielloooollooootetn": 673,
      "eeeaie": 674,
      "▁aiiohasee": 675,
      "▁iee": 676,
      "▁aieaetn": 677,
      "eeex": 678,
      "▁oestt": 679,
      "▁ooateeae": 680,
      "▁st1": 681,
      "▁aiot": 682,
      "etoto": 683,
      "▁eatollolloetouto": 684,
      "aieote": 685,
      "aseea": 686,
      "etetn": 687,
      "▁oeoteerto": 688,
      "▁erdiaec": 689,
      "▁faetthoo": 690,
      "▁faetthooero": 691,
      "seear": 692,
      "aiei": 693,
      "aieaaee": 694,
      "▁eaeae": 695,
      "▁aehtec": 696,
      "tohtahn": 697,
      "▁ohatohtahn": 698,
      "▁ieeaaseeaiee": 699,
      "aieaaeeaieote": 700,
      "aieaietao": 701,
      "eoh": 702,
      "ieemtn": 703,
      "▁aieeeaetnetaieeeto": 704,
      "▁eaaeed": 705,
      "▁oteaseear": 706,
      "eaedoooo": 707,
      "toouoo": 708,
      "erodtn": 709,
      "▁aioteaedoooo": 710,
      "oouoo": 711,
      "▁eetn0": 712,
      "▁—": 713,
      "rhtn": 714,
      "taea": 715,
      "▁ieeaaseellollof": 716,
      "▁ieeaaseellolloftaea": 717,
      "▁taeai": 718,
      "▁eaaef": 719,
      "▁aieeaiea": 720,
      "▁tho": 721,
      "aieeaee": 722,
      "▁erdoeote": 723,
      "▁ooaeeaeasee": 724,
      "▁rto": 725,
      "▁eae2": 726,
      "▁eea": 727,
      "aito": 728,
      "▁eaeai": 729,
      "gtetetn": 730,
      "▁aiiohaseeaieaaeeaieote": 731,
      "▁aieeaieagtetetn": 732,
      "▁odthtn": 733,
      "▁tneaie": 734,
      "▁eaiea": 735,
      "▁eeadaieeaee": 736,
      "▁taeaa": 737,
      "▁aioteaedooooaeaie": 738,
      "▁eaieduto": 739,
      "haietktttn": 740,
      "▁tathaietktttn": 741,
      "▁llooooea": 742,
      "utoouoo": 743,
      "▁oetta": 744,
      "▁taoeeeaeown": 745,
      "taieerto": 746,
      "▁taeeex": 747,
      "▁gtesac": 748,
      "▁tk": 749,
      "teatn": 750,
      "eaieutoouoo": 751,
      "▁teaieeaee": 752,
      "▁tatc": 753,
      "▁eaeeasoooo": 754,
      "▁emtc": 755,
      "eaaee": 756,
      "etno": 757,
      "▁eteaieutoouoo": 758,
      "ta0": 759,
      "▁aieaetnta0": 760,
      "aaeaieeeto": 761,
      "▁oteeaeetn": 762,
      "aeoooo": 763,
      "easa": 764,
      "▁tneeae": 765,
      "▁iem": 766,
      "▁aieae": 767,
      "▁eohaooooet": 768,
      "▁eatoaieee": 769,
      "me": 770,
      "▁eatoaieee2": 771,
      "tho": 772,
      "stteea": 773,
      "aie0": 774,
      "▁thtseeastteea": 775,
      "eotd": 776,
      "▁aieee": 777,
      "▁teeaaa": 778,
      "oelo": 779,
      "oea": 780,
      "▁llooootneaie": 781,
      "▁\"\n": 782,
      "eeawn": 783,
      "▁taeaier": 784,
      "jhn": 785,
      "teaaie": 786,
      "toooea": 787,
      "▁eaaieeeeto": 788,
      "▁oeoteertottea": 789,
      "etstt": 790,
      "aieteetn": 791,
      "▁ooheaetn": 792,
      "▁taoeeeaie": 793,
      "oeai": 794,
      "▁eohaooooetasaa": 795,
      "eaiepa": 796,
      "▁oeoteaiepa": 797,
      "eaaie": 798,
      "▁eaitfe": 799,
      "▁aea": 800,
      "▁2": 801,
      "▁ouoo": 802,
      "▁eatne": 803,
      "▁tefsoeo": 804,
      "▁gteloaie": 805,
      "etaiaaee": 806,
      "etaiaaeeouoo": 807,
      "▁oodo": 808,
      "▁taaieteetn": 809,
      "ieemo": 810,
      "▁taeaietn": 811,
      "aietn": 812,
      "eterduto": 813,
      "▁iec0": 814,
      "erodtno": 815,
      "eaaehn": 816,
      "eaieown": 817,
      "aieec": 818,
      "easaee": 819,
      "▁eaaaieaietao": 820,
      "at": 821,
      "eeeaeaiee": 822,
      "▁taeeexaieeeto": 823,
      "eaieaietoto": 824,
      "▁oeteaaehn": 825,
      "▁teeaaaaeoooo": 826,
      "easeaa": 827,
      "aieeetn": 828,
      "▁eohaooooaieec": 829,
      "▁taseeet": 830,
      "▁eaeee": 831,
      "stoouoo": 832,
      "▁oeeeaiestoouoo": 833,
      "oho": 834,
      "eoteaieeuto": 835,
      "▁eeta": 836,
      "asad": 837,
      "▁oettataoeeea": 838,
      "ro": 839,
      "▁aieee0": 840,
      "▁oettataoeeeaeouoo": 841,
      "iebat": 842,
      "▁,\n": 843,
      "▁ttaea": 844,
      "▁easa": 845,
      "▁hrd": 846,
      "▁aies": 847,
      "▁aieetsee": 848,
      "hrd": 849,
      "▁oodteaaie": 850,
      "▁iec1": 851,
      "▁hoaseea": 852,
      "▁hoaseeaown": 853,
      "▁aieeeto": 854,
      "etooetaieeeto": 855,
      "▁oteatoetooetaieeeto": 856,
      "▁eto": 857,
      "staie": 858,
      "tneaieaietoto": 859,
      "aieeetstt": 860,
      "▁taei": 861,
      "aieeeae": 862,
      "▁aieeeaieeaee": 863,
      "▁tnlo": 864,
      "easaie": 865,
      "saa": 866,
      "uoto": 867,
      "▁teeasaa": 868,
      "tai": 869,
      "▁teadeaeero": 870,
      "▁teaeaieown": 871,
      "▁ttea": 872,
      "eoteeea": 873,
      "▁teoteoiebat": 874,
      "▁eeaduo": 875,
      "eeaa": 876,
      "▁etai": 877,
      "ttoo": 878,
      "aehtec": 879,
      "▁staie0": 880,
      "oero": 881,
      "▁etho": 882,
      "eadtv": 883,
      "▁eaaeeetottea": 884,
      "▁eaeeemtn": 885,
      "eahn": 886,
      "oteato": 887,
      "eaief": 888,
      "▁ettaieerto": 889,
      "▁ee": 890,
      "▁oeeeaiee": 891,
      "▁oeeeaietjhn": 892,
      "ieet": 893,
      "▁taeetotoieeohaieeetc": 894,
      "▁erdoeotegte": 895,
      "▁eaieeatn": 896,
      "▁teer": 897,
      "oeltto": 898,
      "eev": 899,
      "eaieaeto": 900,
      "▁llooooeaeaie": 901,
      "aieeasad": 902,
      "eaieetno": 903,
      "etteeae": 904,
      "mo": 905,
      "▁oeaieasaie": 906,
      "▁teatoar": 907,
      "aieeee": 908,
      "▁hrdoeltto": 909,
      "▁eatoeaa": 910,
      "▁easatoto": 911,
      "asaie": 912,
      "▁taeuo": 913,
      "aieie": 914,
      "hoe": 915,
      "tohhn": 916,
      "etneae": 917,
      "▁eaaeeetneae": 918,
      "▁5": 919,
      "▁ieeeeawn": 920,
      "▁erdaiee": 921,
      "oeaierto": 922,
      "▁aieea": 923,
      "▁tn2": 924,
      "▁teatoaieeeae": 925,
      "▁aieeoeaierto": 926,
      "otea": 927,
      "elo": 928,
      "aieeasado": 929,
      "eaieaief": 930,
      "▁eaieaieaief": 931,
      "tooeer": 932,
      "▁ttaeatooeer": 933,
      "aseeetero": 934,
      "▁eas": 935,
      "▁oeeeaietaseeetero": 936,
      "eea1": 937,
      "llolloeatn": 938,
      "▁oeeeaietneaseaa": 939,
      "▁llooooas": 940,
      "▁oeeeaieteea": 941,
      "▁oeeeaieteaaie": 942,
      "▁eeaetmtn": 943,
      "hrdtetn": 944,
      "▁p": 945,
      "▁teatoooea": 946,
      "▁eeaderodtno": 947,
      "▁tateea1": 948,
      "▁oheaieeea": 949,
      "eaeae": 950,
      "▁oodt": 951,
      "eaieote": 952,
      "aieeatn": 953,
      "eaaemtn": 954,
      "eloeae": 955,
      "▁ieteaaemtn": 956,
      "eaaeee": 957,
      "eeeatn": 958,
      "tsaie": 959,
      "easto": 960,
      "▁aieee2": 961,
      "lh": 962,
      "▁taoeote": 963,
      "eaitf": 964,
      "▁erdaieeeaetn": 965,
      "▁aieaieetno": 966,
      "eltto": 967,
      "eaitfee": 968,
      "hneerto": 969,
      "eotea": 970,
      "thoohneerto": 971,
      "▁oeeae": 972,
      "▁thoao": 973,
      "▁taeiee": 974,
      "▁thn": 975,
      "aai": 976,
      "▁aiaieeaai": 977,
      "▁aiaieeaaiaieee": 978,
      "▁tnoh": 979,
      "▁eaethrdtetn": 980,
      "ets": 981,
      "▁oetoetteeae": 982,
      "gtaito": 983,
      "gggtaito": 984,
      "gggtaitoe": 985,
      "▁tootohhn": 986,
      "aiear": 987,
      "▁taa": 988,
      "▁llolloetouto": 989,
      "etn0": 990,
      "▁oodi": 991,
      "iettc": 992,
      "▁oodet": 993,
      "▁aieaieetnoaieaie": 994,
      "haetn": 995,
      "▁tseegggtaitoe": 996,
      "▁oesttetn": 997,
      "▁tateae": 998,
      "▁oetodeasto": 999,
      "▁ooheetc": 1000,
      "▁aaoteoteeeatn": 1001,
      "etasa": 1002,
      "▁hohr": 1003,
      "aoeeeae": 1004,
      "tetn0": 1005,
      "la": 1006,
      "▁oodietn0": 1007,
      "▁atot": 1008,
      "▁rhtn": 1009,
      "▁eaaieeee": 1010,
      "uoothn": 1011,
      "▁lloooooelo": 1012,
      "▁lloooooelotc": 1013,
      "▁eatoo": 1014,
      "▁taeaaeaieeeae": 1015,
      "▁otto": 1016,
      "▁eaieaf": 1017,
      "eaaeaiee": 1018,
      "▁teev": 1019,
      "▁tooieet": 1020,
      "▁tooieetaiear": 1021,
      "▁iemtetn0": 1022,
      "oooh": 1023,
      "eoteaie": 1024,
      "▁erdeahn": 1025,
      "ttn": 1026,
      "▁astn": 1027,
      "▁twn": 1028,
      "▁eaaaieaietaoeeeaeaiee": 1029,
      "▁eaaaieaietaoeeeaeaieeetc": 1030,
      "lolo": 1031,
      "ood": 1032,
      "etho": 1033,
      "▁easaee": 1034,
      "eatt": 1035,
      "ohasa": 1036,
      "▁tasaie": 1037,
      "iod": 1038,
      "etcohasa": 1039,
      "▁aieiettc": 1040,
      "▁etaieeeta": 1041,
      "▁taeieetc": 1042,
      "etoeadtv": 1043,
      "▁oohtotv": 1044,
      "ert": 1045,
      "▁tllorto": 1046,
      "eohtaoeeeae": 1047,
      "▁etaieohtaoeeeae": 1048,
      "ooohaieie": 1049,
      "ieemto": 1050,
      "▁eaaetcohasa": 1051,
      "tar": 1052,
      "▁oeeeaieeead": 1053,
      "▁oeeeaieeeaduo": 1054,
      "aieea": 1055,
      "▁thothotsaie": 1056,
      "▁eee": 1057,
      "▁teote": 1058,
      "▁ea1": 1059,
      "▁teaeaie": 1060,
      "▁aiestar": 1061,
      "▁aiestar0": 1062,
      "▁aieaeouoo": 1063,
      "eaaeed": 1064,
      "▁eadaieeetstt": 1065,
      "▁taaieeatn": 1066,
      "▁teaee": 1067,
      "fsoeo": 1068,
      "toeatn": 1069,
      "thntv": 1070,
      "▁aehtecthntv": 1071,
      "▁teaeeouoo": 1072,
      "htahn": 1073,
      "eeead": 1074,
      "▁ohaoeae": 1075,
      "eeeadetaiaaeeouoo": 1076,
      "eeadoero": 1077,
      "▁eaaeaieeeto": 1078,
      "▁oetoto": 1079,
      "tthn": 1080,
      "o0": 1081,
      "etoown": 1082,
      "totototo": 1083,
      "mtsee": 1084,
      "▁oemtsee": 1085,
      "▁oemtseeeeae": 1086,
      "▁erdeuto": 1087,
      "▁oheaieeeaown": 1088,
      "▁etno0": 1089,
      "aaeeerto": 1090,
      "▁thaietktttn": 1091,
      "sahn": 1092,
      "oeoteaiee": 1093,
      "▁thoaie": 1094,
      "▁toto": 1095,
      "▁taiei": 1096,
      "asatotototo": 1097,
      "▁9": 1098,
      "aiaoteaiee": 1099,
      "▁aieeoeaiertottt": 1100,
      "est": 1101,
      "▁oeeeaieoeoteaieeuto": 1102,
      "eoef": 1103,
      "oteoef": 1104,
      "▁llooooasoteoef": 1105,
      "town": 1106,
      "tac": 1107,
      "▁oeeeaieoeltto": 1108,
      "▁eotea": 1109,
      "▁eaaietc": 1110,
      "▁etoasatotototo": 1111,
      "▁erdaehtec": 1112,
      "▁erdaehtecetktttn": 1113,
      "▁aieae1": 1114,
      "▁thiaec": 1115,
      "▁oeotas": 1116,
      "▁eeae": 1117,
      "▁oeasa": 1118,
      "▁aieaieaie": 1119,
      "▁eaeoteea": 1120,
      "eeaeoteea": 1121,
      "aieaeoooo": 1122,
      "▁eloeae": 1123,
      "eoteeeaown": 1124,
      "▁llooooaieee": 1125,
      "▁3": 1126,
      "▁eaaaieeasado": 1127,
      "▁eaaeeeeeadetaiaaeeouoo": 1128,
      "▁toot": 1129,
      "▁aieeetc": 1130,
      "▁aieeetc1": 1131,
      "xx": 1132,
      "eaiaaeaieeeto": 1133,
      "▁oetn": 1134,
      "▁aot": 1135,
      "▁eaeoteeeaown": 1136,
      "▁eaieato": 1137,
      "▁ohaoaieeetc": 1138,
      "taitho": 1139,
      "▁oeeeaieeeaa": 1140,
      "▁oeeeaieeeaaeasaee": 1141,
      "▁oodtefsoeo": 1142,
      "▁eaaeaieeetotaoeeeae": 1143,
      "aoa": 1144,
      "eu": 1145,
      "eaieaieae": 1146,
      "meuo": 1147,
      "aieerto": 1148,
      "st0": 1149,
      "eadtetn": 1150,
      "tae": 1151,
      "▁eaieotd": 1152,
      "▁eaieotdetaieeeto": 1153,
      "▁aieeaeeasoooo": 1154,
      "ahre": 1155,
      "▁etahre": 1156,
      "▁ieeea": 1157,
      "▁aieeteeae": 1158,
      "▁aieeteeae0": 1159,
      "otaieerto": 1160,
      "▁aiest0": 1161,
      "aslo": 1162,
      "▁taathn": 1163,
      "▁tneaiesa": 1164,
      "▁eaeeasooootneaieaietoto": 1165,
      "▁eaeadtetn": 1166,
      "▁teoteoeaeero": 1167,
      "eaieethn": 1168,
      "taoeeeaehn": 1169,
      "▁eaexx": 1170,
      "▁aieaieaieeea": 1171,
      "▁eaaeeetotsee": 1172,
      "▁aeaeatt": 1173,
      "▁taieellolloeatn": 1174,
      "▁teevoteato": 1175,
      "▁eetattt": 1176,
      "▁eerto": 1177,
      "▁taieetso\n": 1178,
      "aotasee": 1179,
      "aiaaeeaeoteea": 1180,
      "es": 1181,
      "▁taieeeouoo": 1182,
      "▁oodooh": 1183,
      "teao": 1184,
      "▁oeeeaietteao": 1185,
      "▁tnoho": 1186,
      "▁oteeaeterduto": 1187,
      "tcaiee": 1188,
      "▁thnaie": 1189,
      "ataoeeeaehn": 1190,
      "eoero": 1191,
      "▁iemeu": 1192,
      "ohtoeatn": 1193,
      "taithoeouoo": 1194,
      "▁teoteooohaieie": 1195,
      "▁oeeeaieiec": 1196,
      "▁eatoeaaaieeetn": 1197,
      "aieae1": 1198,
      "eaiaaeeerto": 1199,
      "▁ohaoaieea": 1200,
      "▁aietn": 1201,
      "ethoar": 1202,
      "▁taethoar": 1203,
      "▁oohtoeae": 1204,
      "▁taeaieea": 1205,
      "▁taeaieeaeoero": 1206,
      "▁erder": 1207,
      "▁ouoto": 1208,
      "▁oodooheaieaeto": 1209,
      "tsiec": 1210,
      "tetneaeae": 1211,
      "▁eaieatotetneaeae": 1212,
      "▁eaeaetnem": 1213,
      "▁eaeaetnemuto": 1214,
      "▁oetotn": 1215,
      "eeaaeasaee": 1216,
      "oeoteaieetc": 1217,
      "▁teeasaar": 1218,
      "▁tthn": 1219,
      "▁pathoohneerto": 1220,
      "ma": 1221,
      "▁erdeaeero": 1222,
      "▁ttso": 1223,
      "▁em": 1224,
      "etsaieaeo": 1225,
      "aiaaetsaieaeo": 1226,
      "▁eaaietetn": 1227,
      "▁hn": 1228,
      "▁eadetaieeeto": 1229,
      "houoothn": 1230,
      "eaeeemtn": 1231,
      "dst": 1232,
      "▁eaats": 1233,
      "▁aieedst": 1234,
      "▁teaetc": 1235,
      "oelotac": 1236,
      "ttoottn": 1237,
      "▁eaeeadero": 1238,
      "afaet": 1239,
      "ieceaa": 1240,
      "sod": 1241,
      "tnaie": 1242,
      "eeao": 1243,
      "▁aiaa": 1244,
      "tsto": 1245,
      "lr": 1246,
      "▁eeatn": 1247,
      "aieeetoar": 1248,
      "tooes": 1249,
      "▁taieeeooh": 1250,
      "taeiee": 1251,
      "tooestown": 1252,
      "▁taieeeoohtooestown": 1253,
      "▁4": 1254,
      "ieeaasee": 1255,
      "▁odthtnaieeeto": 1256,
      "▁aieestaie": 1257,
      "etotn": 1258,
      "eaeaie": 1259,
      "oieemto": 1260,
      "▁eteeto": 1261,
      "▁eteetof": 1262,
      "tjhoeaitfee": 1263,
      "▁eteetoftjhoeaitfee": 1264,
      "▁aieestaieoooo": 1265,
      "▁iecieceaa": 1266,
      "▁iecieceaaetoown": 1267,
      "eaieotd": 1268,
      "▁tkt": 1269,
      "▁oestte": 1270,
      "▁oohgte": 1271,
      "ellollof": 1272,
      "llolloellollof": 1273,
      "pao": 1274,
      "▁oohhre": 1275,
      "▁llooooaieae1": 1276,
      "▁eaata": 1277,
      "▁oeote": 1278,
      "▁aotetc": 1279,
      "▁llooooo": 1280,
      "▁aieiaec": 1281,
      "▁aieiaec0": 1282,
      "eaieeeaeuto": 1283,
      "▁aieaieaieeeaeuto": 1284,
      "▁teoteoaiee": 1285,
      "▁toetasa": 1286,
      "hottneaieote": 1287,
      "▁afa": 1288,
      "▁teoteoaieeeeta": 1289,
      "▁eetaar": 1290,
      "▁oett": 1291,
      "▁aieaieeeto": 1292,
      "▁aieaieeeto0": 1293,
      "▁oodoelotac": 1294,
      "eaieel": 1295,
      "▁ttaetaiaaeeouoo": 1296,
      "ietas": 1297,
      "tohouoothn": 1298,
      "▁tootohouoothn": 1299,
      "aiesa": 1300,
      "iaet": 1301,
      "▁eaeiaet": 1302,
      "▁tv": 1303,
      "▁llooootaiee": 1304,
      "tjhneaaeee": 1305,
      "▁eaeiaettjhneaaeee": 1306,
      "tteaaieeeto": 1307,
      "▁tteatteaaieeeto": 1308,
      "▁erdooh": 1309,
      "▁thaieaeoooo": 1310,
      "▁etaie": 1311,
      "▁eatoeaiaaeeerto": 1312,
      "▁llooootso": 1313,
      "▁eaexxeae": 1314,
      "tnttt": 1315,
      "mta": 1316,
      "llollomta": 1317,
      "▁eaaeedllollomta": 1318,
      "▁eaaeedllollomtaae": 1319,
      "ie": 1320,
      "etaoeeeae": 1321,
      "▁llooootaithoeouoo": 1322,
      "ieea": 1323,
      "aietmtn": 1324,
      "▁oodettaieerto": 1325,
      "▁aiema": 1326,
      "▁oodeaa": 1327,
      "▁ooaietn": 1328,
      "▁oodaieeetoar": 1329,
      "roetmtn": 1330,
      "▁teeasaaroetmtn": 1331,
      "▁llooootaieerhtn": 1332,
      "eeaote": 1333,
      "taieeasa": 1334,
      "teatoteatn": 1335,
      "▁`": 1336,
      "▁eaaaietn": 1337,
      "▁oeotd": 1338,
      "▁aieaeadieemtn": 1339,
      "faaslo": 1340,
      "▁tneeaote": 1341,
      "▁eeatn0": 1342,
      "▁etteatoteatn": 1343,
      "teo": 1344,
      "eeasa": 1345,
      "▁ma": 1346,
      "▁eaatsaietetn": 1347,
      "▁v": 1348,
      "▁taathnerto": 1349,
      "taee": 1350,
      "▁ll": 1351,
      "toieemo": 1352,
      "▁lltoieemo": 1353,
      "▁oeeeaieottoottn": 1354,
      "▁matetn": 1355,
      "eaieeeatn": 1356,
      "mn": 1357,
      "▁eetaareae": 1358,
      "ttmn": 1359,
      "▁eaettc": 1360,
      "▁eaeaieoteaie": 1361,
      "eemtn": 1362,
      "▁oodloaie": 1363,
      "▁eaatatc": 1364,
      "etatoown": 1365,
      "▁eaeaietatoown": 1366,
      "▁oeeeaie0": 1367,
      "▁iebeaeeemtn": 1368,
      "ethtn": 1369,
      "▁etteatoteatnaeae": 1370,
      "etoeadtvo": 1371,
      "eelo": 1372,
      "▁emst": 1373,
      "▁eaeeaderotaieeasa": 1374,
      "▁aieeaee": 1375,
      "▁aieeaee1": 1376,
      "▁8": 1377,
      "oestt": 1378,
      "etea": 1379,
      "ieeaaseeaiee": 1380,
      "▁teoteoieeaaseeaiee": 1381,
      "▁eaaeedhn": 1382,
      "taieaeo": 1383,
      "▁aieeeeto": 1384,
      "▁ethotc": 1385,
      "thaietc": 1386,
      "eutoeuto": 1387,
      "eae1": 1388,
      "aiaaeeaietmtn": 1389,
      "▁eeadaiaaeeaietmtn": 1390,
      "oteaee": 1391,
      "oteaeeoooo": 1392,
      "dtc": 1393,
      "▁oodoeeae": 1394,
      "eaieaf": 1395,
      "▁teetn0": 1396,
      "▁oeaie": 1397,
      "▁taieieeasa": 1398,
      "oteea": 1399,
      "eeeaeee": 1400,
      "▁oeeeaieeaieaie": 1401,
      "eaeeasoooo": 1402,
      "▁aieaeadthnaie": 1403,
      "ttetaieeeto": 1404,
      "aiehoe": 1405,
      "lrt": 1406,
      "ief": 1407,
      "teea": 1408,
      "hraiehoe": 1409,
      "▁eatohraiehoe": 1410,
      "▁tttetaieeeto": 1411,
      "eaieeadoero": 1412,
      "▁eaieeeaeaieeadoero": 1413,
      "hoetaieeeto": 1414,
      "▁ieeeaeaiee": 1415,
      "▁iebta": 1416,
      "▁eaaeeeatn": 1417,
      "fatjhn": 1418,
      "▁eaieeeafatjhn": 1419,
      "▁6": 1420,
      "oetaieeeto": 1421,
      "▁aieello": 1422,
      "lloooooetaieeeto": 1423,
      "▁aieellolloooooetaieeeto": 1424,
      "▁eaaaieaietaoeeea": 1425,
      "otoaoa": 1426,
      "▁eaaaieaietaoeeeaethtn": 1427,
      "▁aieaeo": 1428,
      "faaslotaoeeeae": 1429,
      "rod": 1430,
      "▁oetofaaslotaoeeeae": 1431,
      "eaaeedho": 1432,
      "eetea": 1433,
      "▁eaeteb": 1434,
      "▁eatoea": 1435,
      "eotas": 1436,
      "▁otetaieeeownero": 1437,
      "▁eatoeeaaeasaee": 1438,
      "▁toohoetaieeeto": 1439,
      "▁oodotoaoa": 1440,
      "▁seaie": 1441,
      "tnst": 1442,
      "eaieaee": 1443,
      "▁hr\n": 1444,
      "ktt": 1445,
      "▁teatotoot": 1446,
      "oel": 1447,
      "gteeatn": 1448,
      "▁oohgteeatn": 1449,
      "▁ieto": 1450,
      "oeltc": 1451,
      "▁tsee1": 1452,
      "▁etoeaier": 1453,
      "tota": 1454,
      "eotetn": 1455,
      "totv": 1456,
      "▁aie0": 1457,
      "▁vtotv": 1458,
      "▁vtotvtota": 1459,
      "dc": 1460,
      "▁tteaown": 1461,
      "▁tnoieemto": 1462,
      "▁eaao": 1463,
      "▁lloooot": 1464,
      "tclo": 1465,
      "▁gteea": 1466,
      "paoeoteaiee": 1467,
      "▁lltoieemopaoeoteaiee": 1468,
      "▁ia": 1469,
      "▁eaaeto": 1470,
      "▁taiaa": 1471,
      "etatttn": 1472,
      "▁taiaaetatttn": 1473,
      "▁oodaotasee": 1474,
      "dtjhn": 1475,
      "▁taeedtjhn": 1476,
      "pt": 1477,
      "▁ethoar": 1478,
      "▁ttsoeot": 1479,
      "▁eaaea": 1480,
      "aieaietaoeeeae": 1481,
      "▁taoeeae": 1482,
      "▁ieblo": 1483,
      "▁iebloaieaeo": 1484,
      "▁asotea": 1485,
      "▁eetc": 1486,
      "▁oodaietc": 1487,
      "▁eetc0": 1488,
      "ttmntaee": 1489,
      "tsoooo": 1490,
      "▁eaeaetneaaeedho": 1491,
      "taeieetsoooo": 1492,
      "▁totoaiesa": 1493,
      "▁ottoo": 1494,
      "▁7": 1495,
      "▁aiee0": 1496,
      "iodtaiee": 1497,
      "▁eadoeoteaieetc": 1498,
      "▁eae1": 1499,
      "▁tme": 1500,
      "▁oohtaeieetsoooo": 1501,
      "easatoto": 1502,
      "faar": 1503,
      "▁asoteafaar": 1504,
      "▁iod": 1505,
      "eoteaieeouoo": 1506,
      "▁oteatoooea": 1507,
      "etsuto": 1508,
      "▁eadetsuto": 1509,
      "▁oef": 1510,
      "▁eatoeatn": 1511,
      "ttaoeeeae": 1512,
      "rodto": 1513,
      "aiaaehn": 1514,
      "teoaiaae": 1515,
      "▁eatoieemtn": 1516,
      "aieero": 1517,
      "▁erdtcaiee": 1518,
      "▁eeto": 1519,
      "▁toeeaotdeaaeaiee": 1520,
      "▁totn": 1521,
      "teer": 1522,
      "▁%": 1523,
      "▁!": 1524,
      "▁eaaeeetof": 1525,
      "▁tseesahn": 1526,
      "▁llooooeaeaiaaeaieeeto": 1527,
      "▁aieseetpa": 1528,
      "eaiaae": 1529,
      "aieee0": 1530,
      "tfe": 1531,
      "lotnttt": 1532,
      "▁oeoteertoaieeetc": 1533,
      "lololotnttt": 1534,
      "▁aitfe": 1535,
      "eaaeaieaeto": 1536,
      "▁oetototetn": 1537,
      "teetn": 1538,
      "▁ooho": 1539,
      "ietaseaa": 1540,
      "eec": 1541,
      "▁taoeeeaeeatn": 1542,
      "lherodtn": 1543,
      "▁aieaest": 1544,
      "▁ieeeaeaieaee": 1545,
      "thnoo": 1546,
      "▁oodoeotas": 1547,
      "aieaiee": 1548,
      "tneerto": 1549,
      "▁eadst": 1550,
      "▁eaieaeaier": 1551,
      "▁tsiec": 1552,
      "oteeea": 1553,
      "▁erdto": 1554,
      "aia": 1555,
      "▁ieemo": 1556,
      "▁ieemosa": 1557,
      "a1": 1558,
      "eoetmtn": 1559,
      "hohr": 1560,
      "▁ert": 1561,
      "▁eatothnaie": 1562,
      "▁iebtaaieeeto": 1563,
      "teeto": 1564,
      "hohaetn": 1565,
      "teetohohaetn": 1566,
      "afa": 1567,
      "▁toteato": 1568,
      "▁oohtotnaie": 1569,
      "▁ttao": 1570,
      "▁eaaeaieea": 1571,
      "▁oeeeaiets": 1572,
      "▁erdth": 1573,
      "▁ieet": 1574,
      "ttuto": 1575,
      "easeeown": 1576,
      "eeteattuto": 1577,
      "▁aeaeeteattuto": 1578,
      "▁oeeeaieoteea": 1579,
      "▁oeeeaieoteeaeterduto": 1580,
      "ttooh": 1581,
      "▁ooheloeae": 1582,
      "▁aieaiee": 1583,
      "▁iettc": 1584,
      "taiaoteaiee": 1585,
      "▁aioteaeeoooo": 1586,
      "lhe": 1587,
      "▁iodiodtaiee": 1588,
      "▁elhe": 1589,
      "▁aiaaeea": 1590,
      "▁erdoe": 1591,
      "▁tmesa": 1592,
      "toea": 1593,
      "▁eaeaetnstaie": 1594,
      "▁llooootaoeeeae": 1595,
      "▁fsoeo": 1596,
      "▁faetetno": 1597,
      "etnotaieerto": 1598,
      "▁tootieer": 1599,
      "▁ieba1": 1600,
      "▁oeeeaiehottneaieote": 1601,
      "▁eaaood": 1602,
      "asaee": 1603,
      "▁teatotootasaee": 1604,
      "▁aiaae": 1605,
      "▁oeotee": 1606,
      "▁otaiaoteaiee": 1607,
      "dcto": 1608,
      "etaseea": 1609,
      "▁taeaaetaseea": 1610,
      "▁erdoohto": 1611,
      "▁eatoeaaaieaietaoeeeae": 1612,
      "▁otetaieee": 1613,
      "▁taeeaieaie": 1614,
      "▁oodohtoeatn": 1615,
      "aaea": 1616,
      "▁oodoeotasttmntaee": 1617,
      "▁erodtno": 1618,
      "ieeeto": 1619,
      "▁taeeaieaieieeeto": 1620,
      "aieoteeea": 1621,
      "▁ieetaieoteeea": 1622,
      "▁ieetaieoteeea0": 1623,
      "▁oteatoeeaeasee": 1624,
      "▁lloooothnoo": 1625,
      "▁)": 1626,
      "▁eadeaieduto": 1627,
      "toar": 1628,
      "▁eaieatoown": 1629,
      "▁iaec": 1630,
      "tm": 1631,
      "▁erdoell": 1632,
      "▁taeaieetn": 1633,
      "▁taeaaieeee": 1634,
      "▁taeaaeto": 1635,
      "▁ethn": 1636,
      "▁tooieem": 1637,
      "▁oeloasee": 1638,
      "tthnst": 1639,
      "taoeeeaeea": 1640,
      "▁oodtaoeeeaeea": 1641,
      "▁oetodetnotaieerto": 1642,
      "ieemoeltc": 1643,
      "▁taeaiaaeaieeeto": 1644,
      "taieetclo": 1645,
      "▁ottoottooh": 1646,
      "▁ietotaiaoteaiee": 1647,
      "▁paetea": 1648,
      "▁aieaiea": 1649,
      "▁aieeetoar": 1650,
      "▁oettaero": 1651,
      "▁lloooooeoteaieeuto": 1652,
      "▁oohouoto": 1653,
      "oesttetn": 1654,
      "▁tvtaieaeo": 1655,
      "▁eatoieemoeltc": 1656,
      "moto": 1657,
      "▁tamoto": 1658,
      "▁llolloellollof": 1659,
      "▁llolloellollofttea": 1660,
      "▁ttat": 1661,
      "ethn": 1662,
      "toaie": 1663,
      "▁loaseetctcouoo": 1664,
      "▁paeteaeaseeown": 1665,
      "▁erdeaa": 1666,
      "most": 1667,
      "▁lololotnttt": 1668,
      "▁aiaaelloooo": 1669,
      "▁oeeeaietseaeaie": 1670,
      "▁(": 1671,
      "▁oelo": 1672,
      "▁toeeaotdeutoeuto": 1673,
      "otaiaoteaiee": 1674,
      "▁ooao": 1675,
      "▁tot": 1676,
      "▁toter": 1677,
      "▁aieeeieemtn": 1678,
      "▁erdoellttaoeeeae": 1679,
      "▁tseet": 1680,
      "▁♫": 1681,
      "▁aieetstt": 1682,
      "▁oodtaiee": 1683,
      "▁aedtc": 1684,
      "▁etaoaie": 1685,
      "ieemosa": 1686,
      "▁oeotdaeaie": 1687,
      "see": 1688,
      "▁oeeeaieeea": 1689,
      "▁aiaaeeaaieeee": 1690,
      "▁oeeeaieeeaeasee": 1691,
      "▁oodeeaeasee": 1692,
      "oodtoea": 1693,
      "eaeoetmtn": 1694,
      "▁faeteaeoetmtn": 1695,
      "▁oell": 1696,
      "▁teatn": 1697,
      "▁teoteotneaie": 1698,
      "▁oeeeaieeaataoeeeaehn": 1699,
      "▁paot": 1700,
      "▁hohrtthnst": 1701,
      "▁eadotaiaoteaiee": 1702,
      "▁erdaiaaeeaeoteea": 1703,
      "▁taoeeeae": 1704,
      "aieaee": 1705,
      "▁erdoohtoeae": 1706,
      "▁etaieea": 1707,
      "▁aietn1": 1708,
      "▁eetoaieeetc": 1709,
      "aieaieaieea": 1710,
      "▁teoteoieemosa": 1711,
      "▁aieetstt1": 1712,
      "▁oettmeuo": 1713,
      "▁erdtjhn": 1714,
      "ytetn": 1715,
      "eaewn": 1716,
      "▁aiet": 1717,
      "aeeeaeee": 1718,
      "▁aieeeatn0": 1719,
      "▁eahn": 1720,
      "ertotaoeeeae": 1721,
      "▁hohretaieeeto": 1722,
      "▁oetotoertotaoeeeae": 1723,
      "iehn": 1724,
      "easeear": 1725,
      "ieto": 1726,
      "▁eaitfee": 1727,
      "▁ohato": 1728,
      "totmtn": 1729,
      "▁ttaafaet": 1730,
      "▁ttaafaetytetn": 1731,
      "odtotmtn": 1732,
      "aaeaodtotmtn": 1733,
      "▁oodtaieeoesttetn": 1734,
      "▁oteeet": 1735,
      "▁eaeoteeasahn": 1736,
      "etv": 1737,
      "▁paotetktttn": 1738,
      "▁T": 1739,
      "▁tnohouoo": 1740,
      "▁oieto": 1741,
      "▁oietoest": 1742,
      "aet": 1743,
      "▁oetodeaeae": 1744,
      "hreown": 1745,
      "▁oesttehreown": 1746,
      "▁eaieafhn": 1747,
      "▁oiet": 1748,
      "▁tktea": 1749,
      "▁ohatot": 1750,
      "▁ohatoteaieethn": 1751,
      "eoheloeae": 1752,
      "▁oodeaaeasatoto": 1753,
      "eaioteato": 1754,
      "eoteaieeaee": 1755,
      "saie": 1756,
      "▁oelloodtoea": 1757,
      "eoteea0": 1758,
      "tstoeoteea0": 1759,
      "▁oeoteetstoeoteea0": 1760,
      "atot": 1761,
      "etoeadtvoeelo": 1762,
      "▁eaaeaetoeadtvoeelo": 1763,
      "oown": 1764,
      "▁ooheeea": 1765,
      "▁taoeoteaieeouoo": 1766,
      "fat": 1767,
      "eaieeaoero": 1768,
      "▁eaoh": 1769,
      "teatnaieae": 1770,
      "ela": 1771,
      "eteer": 1772,
      "▁paeaier": 1773,
      "▁tneaieteer": 1774,
      "▁eaieeaeo": 1775,
      "▁eaieeaeoero": 1776,
      "▁tseetsiec": 1777,
      "eaee": 1778,
      "▁eaetoeadtv": 1779,
      "▁eaetoeadtvooooo": 1780,
      "▁oeotastoaie": 1781,
      "metaieeeto": 1782,
      "▁oeltto": 1783,
      "▁aiia": 1784,
      "eaieelae": 1785,
      "▁aiiaeaieelae": 1786,
      "stiaec": 1787,
      "▁lloooostiaec": 1788,
      "▁aiaaellooootaoeeeae": 1789,
      "eerodtn": 1790,
      "▁eaeaieoheloeae": 1791,
      "▁taieaee": 1792,
      "▁ooheea": 1793,
      "▁eeadeetc": 1794,
      "▁taieaeeiehn": 1795,
      "aieeea": 1796,
      "aieeaiaaehn": 1797,
      "▁eatnaieee0": 1798,
      "taieellolloeatn": 1799,
      "▁aeae1": 1800,
      "▁erdtoo": 1801,
      "hoela": 1802,
      "▁oelttoar": 1803,
      "meu": 1804,
      "▁teoteotetn": 1805,
      "▁eloeadtetn": 1806,
      "▁ttaoeeae": 1807,
      "▁oteatn": 1808,
      "▁ote": 1809,
      "eeaeaieeeto": 1810,
      "▁eatooetotn": 1811,
      "emtc": 1812,
      "ieerodtn": 1813,
      "easotea": 1814,
      "▁eaataieellolloeatn": 1815,
      "▁aehtecaiea": 1816,
      "▁eaieeeae": 1817,
      "▁eaieeeaegggeae": 1818,
      "ieeouoo": 1819,
      "eeadoeroe": 1820,
      "▁teatothotho": 1821,
      "▁tkteaataoeeeaehn": 1822,
      "▁erdt": 1823,
      "▁oeotasea": 1824,
      "▁llooooiec": 1825,
      "▁ttaeaeero": 1826,
      "▁eeaellorto": 1827,
      "▁ooheaieaieae": 1828,
      "▁eaatsaietetneaeeasoooo": 1829,
      "▁aieeeea": 1830,
      "▁oohouotoafa": 1831,
      "▁ooheeaaetn": 1832,
      "▁eaieeeaown": 1833,
      "▁patneaieaietoto": 1834,
      "aehtectv": 1835,
      "etsc": 1836,
      "▁aieeeetn": 1837,
      "▁aieeeetnotaieerto": 1838,
      "▁patneerto": 1839,
      "▁aieaieeadoeroe": 1840,
      "baehtectv": 1841,
      "▁aieebaehtectv": 1842,
      "easeeao": 1843,
      "▁tatmeuo": 1844,
      "▁tooieemo": 1845,
      "▁etaie1": 1846,
      "aown": 1847,
      "▁aieeea0": 1848,
      "▁ettaieertoetaieeeto": 1849,
      "▁aeeao": 1850,
      "▁erdtaoeeeae": 1851,
      "▁toeeaotdlherodtn": 1852,
      "▁paooh": 1853,
      "sodsod": 1854,
      "▁D": 1855,
      "aieeeea": 1856,
      "▁tseetsee": 1857,
      "▁taoeeeaehn": 1858,
      "▁lloooothnaie": 1859,
      "▁eaohllorto": 1860,
      "▁totn2": 1861,
      "eadaieero": 1862,
      "▁ieeeadaieero": 1863,
      "▁oohthoohneerto": 1864,
      "▁oeeeaieeaeaiaaeaieeeto": 1865,
      "mostaieae": 1866,
      "▁ooheeeaaie": 1867,
      "eoeoteea": 1868,
      "▁oeaiehre": 1869,
      "▁asa": 1870,
      "stetn": 1871,
      "▁ottn": 1872,
      "▁paooheetc": 1873,
      "tsts": 1874,
      "▁eaieeeafatjhnteer": 1875,
      "eaieaed": 1876,
      "aieeetneea": 1877,
      "▁gtehn": 1878,
      "▁taeeexaieeetneea": 1879,
      "eoher": 1880,
      "aietsee": 1881,
      "eaaeedtetn": 1882,
      "▁aiaaeaieeeto": 1883,
      "ieeohasa": 1884,
      "▁eeaefsoeo": 1885,
      "▁oteeeteae": 1886,
      "thaietco": 1887,
      "eaieoher": 1888,
      "oeatn": 1889,
      "▁teoteoeadtv": 1890,
      "▁teoteoeadtvoeatn": 1891,
      "aieemtc": 1892,
      "aieemtcthaietco": 1893,
      "teeafa": 1894,
      "▁llooooth": 1895,
      "▁lloooothaieemtcthaietco": 1896,
      "seaie": 1897,
      "▁pathn": 1898,
      "▁oohtoetno": 1899,
      "▁pao": 1900,
      "▁ieeeaeaieaed": 1901,
      "▁ieeeaeaieaedar": 1902,
      "▁taieeeeawn": 1903,
      "▁taoeaieoher": 1904,
      "▁erdohtoeatn": 1905,
      "totoeae": 1906,
      "▁aehteceaieotd": 1907,
      "▁aehteceaieotdeuto": 1908,
      "▁eief": 1909,
      "▁erdaeeeaeee": 1910,
      "▁C": 1911,
      "aaseeeaioteato": 1912,
      "▁eaaieeaaseeeaioteato": 1913,
      "ohouoothn": 1914,
      "▁toteatoaiaaeeaeoteea": 1915,
      "▁toeeaotdo": 1916,
      "▁aieeeeastetn": 1917,
      "▁oetieerodtn": 1918,
      "▁etaieeasee": 1919,
      "▁eeetn": 1920,
      "▁tatllorto": 1921,
      "eaieuto": 1922,
      "eoht": 1923,
      "▁etaieeaseeetno": 1924,
      "▁A": 1925,
      "▁S": 1926,
      "▁eadtv": 1927,
      "▁oeeeaieseaie": 1928,
      "▁totoeae": 1929,
      "▁eadtvoouoo": 1930,
      "iaee": 1931,
      "ettoo": 1932,
      "ettooeeeaie": 1933,
      "▁oettotoeae": 1934,
      "afaetasaa": 1935,
      "▁eaieeeatn": 1936,
      "▁oeeeaietaoeeeae": 1937,
      "sc": 1938,
      "eeetn": 1939,
      "▁toeeaotdea": 1940,
      "▁llooootwn": 1941,
      "eeaaeto": 1942,
      "▁oteaaoteaiee": 1943,
      "▁aieato": 1944,
      "easeeex": 1945,
      "easeeexec": 1946,
      "▁oeotaseaaieown": 1947,
      "▁tktaiaaetsaieaeo": 1948,
      "▁oohthnaie": 1949,
      "▁eae0": 1950,
      "▁oeteaaeaieaeto": 1951,
      "▁eaeaieeaoero": 1952,
      "▁erdtaiee": 1953,
      "aitoetn": 1954,
      "▁erdeaaee": 1955,
      "▁oetodteetn": 1956,
      "▁eaaoodthnaie": 1957,
      "▁ero": 1958,
      "▁er": 1959,
      "aieae0": 1960,
      "▁ttsoeotjhn": 1961,
      "aieaieeeto": 1962,
      "▁oteeea": 1963,
      "oetotn": 1964,
      "▁tatnst": 1965,
      "▁oelotc": 1966,
      "▁oeeeaieero": 1967,
      "▁eatooown": 1968,
      "▁ietai": 1969,
      "iaaee": 1970,
      "eotoh": 1971,
      "eotohasa": 1972,
      "▁afa1": 1973,
      "faee": 1974,
      "▁etasa": 1975,
      "▁oodaieae0": 1976,
      "▁aietwn": 1977,
      "▁toeeaotdoeoteaieeaee": 1978,
      "▁aieatoe": 1979,
      "▁tsea": 1980,
      "etnoieemto": 1981,
      "eeaaeed": 1982,
      "elrt": 1983,
      "▁aieeoeaierto0": 1984,
      "▁eaieeeaoetotn": 1985,
      "eaieotdero": 1986,
      "eaieafteoaiaae": 1987,
      "etf": 1988,
      "eeaeoooo": 1989,
      "▁eaieaeaierthtn": 1990,
      "eeaaeedeaaeee": 1991,
      "fatts": 1992,
      "eteaieaf": 1993,
      "etfeteaieaf": 1994,
      "etfeteaieafuto": 1995,
      "▁eetn": 1996,
      "▁teetoaieaiee": 1997,
      "▁oteeetnoieemto": 1998,
      "▁eatoeaaieeee": 1999,
      "▁pathnela": 2000,
      "ottn": 2001,
      "▁llooooasto": 2002,
      "▁erdeaaeeeeaaeedeaaeee": 2003,
      "▁ooheer": 2004,
      "▁ttaieeeea": 2005,
      "tstof": 2006,
      "oom": 2007,
      "▁taieet": 2008,
      "▁eadtaieetclo": 2009,
      "iaaeemtc": 2010,
      "▁aieeasad": 2011,
      "▁thetsc": 2012,
      "oou": 2013,
      "oomoou": 2014,
      "▁M": 2015,
      "toaoa": 2016,
      "▁otoaoa": 2017,
      "eaeeeaeee": 2018,
      "etaieeohouoothn": 2019,
      "▁eado": 2020,
      "aietcaiee": 2021,
      "▁paieemtn": 2022,
      "▁erda": 2023,
      "▁oohtoelrt": 2024,
      "▁aeaeattetaieeeto": 2025,
      "▁eaaieeeatn": 2026,
      "te": 2027,
      "eief": 2028,
      "▁thn0": 2029,
      "▁oetteaewn": 2030,
      "▁gteeaeeasoooo": 2031,
      "▁tatn": 2032,
      "▁eaas": 2033,
      "aitoeaiaae": 2034,
      "thon": 2035,
      "eaieeetstt": 2036,
      "▁tateaieeetstt": 2037,
      "▁tseetn": 2038,
      "toe": 2039,
      "eaeieeouoo": 2040,
      "▁oodoteeea": 2041,
      "▁B": 2042,
      "▁ohaoeaieaieae": 2043,
      "ertotjhn": 2044,
      "▁toertotjhn": 2045,
      "▁eaatn": 2046,
      "▁;": 2047,
      "▁oodeteaieuto": 2048,
      "▁tapt": 2049,
      "an": 2050,
      "▁lloooollolloellollof": 2051,
      "tnoho": 2052,
      "▁paaieeetstt": 2053,
      "eethn": 2054,
      "aieaeoaieaeo": 2055,
      "▁eadoeai": 2056,
      "teaieai": 2057,
      "▁taseeetero": 2058,
      "▁eaieafteaieai": 2059,
      "▁eaieafteaieaieaie": 2060,
      "▁eaasoteea": 2061,
      "▁eaaaieeetn": 2062,
      "▁erdaeaieeea": 2063,
      "▁eetn1": 2064,
      "▁aotohaietcaiee": 2065,
      "tstst": 2066,
      "tsc": 2067,
      "eaeetc": 2068,
      "eeadeaeetc": 2069,
      "▁tseaeaie": 2070,
      "▁tmostaieae": 2071,
      "paeaier": 2072,
      "▁aiepaeaier": 2073,
      "teemtn": 2074,
      "▁eatoeeetn": 2075,
      "eoto": 2076,
      "fametaieeeto": 2077,
      "▁taoetmtn": 2078,
      "▁oohaieae": 2079,
      "▁thaietc": 2080,
      "▁erdtoteatnaieae": 2081,
      "▁ttateaieethn": 2082,
      "egte": 2083,
      "▁aieethaietc": 2084,
      "egteuto": 2085,
      "▁etegteuto": 2086,
      "▁eeaeasee": 2087,
      "hoest": 2088,
      "eotohoest": 2089,
      "▁aieethaietc1": 2090,
      "▁ieteaaie": 2091,
      "▁erdtooteatn": 2092,
      "▁teetoeaieote": 2093,
      "▁taoteea": 2094,
      "▁erdthaitoetn": 2095,
      "▁oodaitoeaiaae": 2096,
      "▁oodtv": 2097,
      "▁oodtveatn": 2098,
      "hoaseea": 2099,
      "eeb": 2100,
      "▁eatoeeetneea": 2101,
      "aeeeatn": 2102,
      "▁etaiehtahn": 2103,
      "▁etaieeaseeetnoeae": 2104,
      "dtoo": 2105,
      "▁aieeeaaetn": 2106,
      "▁aieeeaaetnrodto": 2107,
      "theaaeedtetn": 2108,
      "▁teatoeeaeaieeeto": 2109,
      "tooteethn": 2110,
      "▁aieaieetheaaeedtetn": 2111,
      "▁erodtoo": 2112,
      "▁erodtootetn": 2113,
      "etottn": 2114,
      "▁oethohr": 2115,
      "▁eadoeaiaaeaodtotmtn": 2116,
      "▁erdtodcto": 2117,
      "▁llooootmeu": 2118,
      "▁eaieeeafatjhnllorto": 2119,
      "▁oodhtahn": 2120,
      "aieteer": 2121,
      "▁aotohaieteer": 2122,
      "tvo": 2123,
      "etoaiaae": 2124,
      "▁G": 2125,
      "▁aieaeeaaeto": 2126,
      "▁eatneatoeatn": 2127,
      "oteatn": 2128,
      "▁taieeaeoooo": 2129,
      "▁ttaia": 2130,
      "eaieelaeer": 2131,
      "▁taieeaeooooaiaae": 2132,
      "▁ttaiaeaieelaeer": 2133,
      "▁<": 2134,
      "easatn": 2135,
      "▁oeaieoh": 2136,
      "▁eaee": 2137,
      "▁erdttea": 2138,
      "▁aietneaie": 2139,
      "▁taiaae": 2140,
      "▁aieaeot": 2141,
      "▁eaeaieotd": 2142,
      "oteaie": 2143,
      "▁aieeasadoown": 2144,
      "▁eatoeaeaieotdero": 2145,
      "▁tktsc": 2146,
      "▁!\n": 2147,
      "eaieeetn": 2148,
      "▁eaieafteoaiaae": 2149,
      "▁erdthettooeeeaie": 2150,
      "▁eaeaieotdeahn": 2151,
      "▁eeaeaieeeto": 2152,
      "ieetaie": 2153,
      "etktt": 2154,
      "▁>": 2155,
      "▁oodteev": 2156,
      "▁ooataiee": 2157,
      "▁gtehnst": 2158,
      "▁oteeeaoteaie": 2159,
      "tatttn": 2160,
      "▁etc": 2161,
      "eaieela": 2162,
      "teaetc": 2163,
      "▁oeeeaieaieeeatn": 2164,
      "aieeeeto": 2165,
      "easeeexeceee": 2166,
      "▁ietaieoeoteea": 2167,
      "▁eatooeltto": 2168,
      "▁oohaieie": 2169,
      "▁otetoaiaae": 2170,
      "eaioteatn": 2171,
      "▁aeaeasee": 2172,
      "▁aehtecaieaeouoo": 2173,
      "▁oteatoo": 2174,
      "▁oeeeaieaieeetn": 2175,
      "▁eatoert": 2176,
      "tootieer": 2177,
      "▁eeea": 2178,
      "▁erdteaaie": 2179,
      "etiaaeemtc": 2180,
      "▁tseaeaieown": 2181,
      "▁teta": 2182,
      "▁tc": 2183,
      "▁aieaeoo": 2184,
      "▁eaetoeadtvo": 2185,
      "▁ooaaieeaiaaehn": 2186,
      "▁eaetoeadtvost": 2187,
      "▁teoteoeasatn": 2188,
      "▁thtseeaaiaaetsaieaeo": 2189,
      "▁htahn": 2190,
      "aieaieaiea": 2191,
      "▁oetodaieaieaiea": 2192,
      "▁oetodaieaieaieafa": 2193,
      "teec": 2194,
      "▁ietao": 2195,
      "▁ietaod": 2196,
      "ooetiaaeemtc": 2197,
      "▁eteae1": 2198,
      "oeaiooetiaaeemtc": 2199,
      "▁taetasa": 2200,
      "▁hreee": 2201,
      "▁teaeaiea": 2202,
      "▁erdeaaaieae": 2203,
      "▁hreeehtn": 2204,
      "▁teaeaieaeeeaeee": 2205,
      "ED": 2206,
      "▁eaieatn": 2207,
      "eteetn": 2208,
      "▁aieaieaouoo": 2209,
      "▁eaeeelo": 2210,
      "etm": 2211,
      "aieaieaieeea": 2212,
      "▁efametaieeeto": 2213,
      "▁oteeta": 2214,
      "▁toeeaotdoeoteaieetc": 2215,
      "▁etaieeaeeasoooo": 2216,
      "oieetaie": 2217,
      "▁ottoottoohaieaie": 2218,
      "aeeteemtn": 2219,
      "etoeaier": 2220,
      "▁tooieemooohaieie": 2221,
      "▁oestteteetn": 2222,
      "▁aieaaeeteemtn": 2223,
      "▁oteetoown": 2224,
      "etrto": 2225,
      "tttmtn": 2226,
      "▁erdoetv": 2227,
      "▁oesttetmtn": 2228,
      "▁eaaie": 2229,
      "▁llooooeae": 2230,
      "▁eatotthn": 2231,
      "totn": 2232,
      "▁oesttesac": 2233,
      "▁oeoteaieeaee": 2234,
      "eaieasotea": 2235,
      "▁aedtcasee": 2236,
      "eaieee": 2237,
      "aieaieaieeatn": 2238,
      "▁etaieo": 2239,
      "aeiee": 2240,
      "totoe": 2241,
      "eaaeto": 2242,
      "▁tsaie": 2243,
      "▁aehtecetktt": 2244,
      "▁eaieaieaiefthtn": 2245,
      "▁aehtecetktttoar": 2246,
      "▁eohaooooaieaieaieea": 2247,
      "▁eohaooooaieaieaieeatotoe": 2248,
      "in": 2249,
      "▁eretaieeeto": 2250,
      "oeeeaie": 2251,
      "▁aieaeoaieaeoaieaeo": 2252,
      "▁thaieeeto": 2253,
      "▁oshtn": 2254,
      "▁taoeoteaie": 2255,
      "▁P": 2256,
      "▁eaaieeeatneea": 2257,
      "eaaaieeasado": 2258,
      "eaieeeas": 2259,
      "eetetn": 2260,
      "easeetetn": 2261,
      "▁teoteoeaieeeas": 2262,
      "▁teoteoeaieeeasc": 2263,
      "tcteetohohaetn": 2264,
      "hneae": 2265,
      "▁odrhtn": 2266,
      "▁etaie0": 2267,
      "▁eaieafhnllorto": 2268,
      "▁etntaoeeea": 2269,
      "▁ooahneae": 2270,
      "vo": 2271,
      "▁llo": 2272,
      "touto": 2273,
      "eeadeer": 2274,
      "ieeeea": 2275,
      "▁ttaeaeeadeer": 2276,
      "aetaie": 2277,
      "▁eadaieee1": 2278,
      "▁tn1\n": 2279,
      "eaieta": 2280,
      "▁aieaeaieta": 2281,
      "▁aieaeaietatoe": 2282,
      "ter": 2283,
      "aseaie": 2284,
      "▁teoteoo": 2285,
      "▁taetaieeohouoothn": 2286,
      "▁eaaai": 2287,
      "▁teeaaaaet": 2288,
      "▁TED": 2289,
      "▁teeaaaaethoela": 2290,
      "▁R": 2291,
      "▁taito": 2292,
      "teatoetn": 2293,
      "▁tatneaseaa": 2294,
      "▁taitoteatoetn": 2295,
      "eftcaiee": 2296,
      "tmeftcaiee": 2297,
      "teatoe": 2298,
      "▁eaaaiteatoe": 2299,
      "▁eteaaaieeasado": 2300,
      "▁llooooiaee": 2301,
      "ieeeeawn": 2302,
      "eetnsc": 2303,
      "▁aietaoeeeae": 2304,
      "▁eaaaiaa": 2305,
      "▁aieaae": 2306,
      "eteaaeaieaeto": 2307,
      "▁eaioeaiooetiaaeemtc": 2308,
      "efwn": 2309,
      "▁toeeaotdieeeeawn": 2310,
      "▁oodef": 2311,
      "▁ohatost": 2312,
      "▁oodeftmeftcaiee": 2313,
      "▁ttie": 2314,
      "▁eaaieeea": 2315,
      "▁oetodhoaseea": 2316,
      "▁ottohottneaieote": 2317,
      "▁taieieown": 2318,
      "▁gteeaaeeeatn": 2319,
      "aii": 2320,
      "▁taero": 2321,
      "etaoeeeaehn": 2322,
      "hotatttn": 2323,
      "▁eaaeedhotatttn": 2324,
      "toaiaaetsaieaeo": 2325,
      "▁taathnttt": 2326,
      "jaie": 2327,
      "etaie": 2328,
      "▁taoeeeaetaoeeeaehn": 2329,
      "▁tataiee": 2330,
      "▁paoest": 2331,
      "eotaoeeeae": 2332,
      "▁ttsoeotjaie": 2333,
      "▁aieaieaeotaoeeeae": 2334,
      "▁llooooeaioteatn": 2335,
      "eaieeeadeer": 2336,
      "▁ttateaieeeadeer": 2337,
      "▁tnstaieeeto": 2338,
      "todcto": 2339,
      "▁taeitthn": 2340,
      "▁oeotdafaetasaa": 2341,
      "▁tnohaie": 2342,
      "▁lloooooietaseaa": 2343,
      "▁otefatts": 2344,
      "▁otefattseeeae": 2345,
      "▁ietaodtoaiaaetsaieaeo": 2346,
      "▁aieeetotetn": 2347,
      "aieasaie": 2348,
      "▁eaieeeathtn": 2349,
      "▁tcteetohohaetn": 2350,
      "▁ttaa": 2351,
      "iodiod": 2352,
      "▁ooheeaaetnaieeeto": 2353,
      "▁tseeea": 2354,
      "eohtho": 2355,
      "▁eaaaiaaeohtho": 2356,
      "▁eaatsaietetnoeeeaie": 2357,
      "▁staieeatn": 2358,
      "▁g": 2359,
      "▁aieeetoo": 2360,
      "▁tnaeae": 2361,
      "▁J": 2362,
      "▁iebaieaieaieeea": 2363,
      "▁tooieemot": 2364,
      "▁ietsaie": 2365,
      "▁tef": 2366,
      "soeotetn": 2367,
      "▁tefsoeotetn": 2368,
      "oeoteaieeuto": 2369,
      "▁eaaeedoeoteaieeuto": 2370,
      "▁eaitfeeiec": 2371,
      "▁eaieeeatneaseear": 2372,
      "▁tn3": 2373,
      "▁teeaf": 2374,
      "▁oeeeaieeotea": 2375,
      "▁ooatn": 2376,
      "▁erdoohgte": 2377,
      "etn1": 2378,
      "eaduo": 2379,
      "▁oodatot": 2380,
      "▁oeeeaieeaaetaie": 2381,
      "toeatnhaetn": 2382,
      "▁etaieeatoeatnhaetn": 2383,
      "aeaelo": 2384,
      "safa": 2385,
      "..": 2386,
      "▁oeeeaietaa": 2387,
      "▁oietas": 2388,
      "▁llooooooh": 2389,
      "▁oietasea": 2390,
      "eaetetn": 2391,
      "▁eaaeedaieeeae": 2392,
      "faeeeaetetn": 2393,
      "eaiaiee": 2394,
      "▁eatoeato": 2395,
      "▁etotoatn\n": 2396,
      "▁paemtc": 2397,
      "▁tnta": 2398,
      "▁oeaieohtv": 2399,
      "tooteaeieeouoo": 2400,
      "eeaaeea": 2401,
      "▁eatoeatohaetn": 2402,
      "▁aieaeadtodcto": 2403,
      "▁eaeaiaaeaieeeto": 2404,
      "▁ttaafaeeeaetetn": 2405,
      "heaee": 2406,
      "tnoieetaie": 2407,
      "heaeeaieero": 2408,
      "▁eadtso": 2409,
      "▁aiaaeaeeeaeee": 2410,
      "▁oietaseaaown": 2411,
      "▁eaaeaelo": 2412,
      "▁aieeae": 2413,
      "▁eaaeeaaeea": 2414,
      "▁eteaaaieeasadost": 2415,
      "▁eaaeaeloaiaae": 2416,
      "aieaeto": 2417,
      "▁paemtctaiee": 2418,
      "▁...": 2419,
      "▁eatotneaieaietoto": 2420,
      "▁ieeaaseeeaaeee": 2421,
      "eaeouoo": 2422,
      "▁aieaaeto": 2423,
      "▁aieeeaetnetaieeeto\n": 2424,
      "▁ietn1": 2425,
      "▁aieaeadtsiec": 2426,
      "loteetn": 2427,
      "eaeto": 2428,
      "▁etktt": 2429,
      "▁gtet": 2430,
      "▁teeafaietn": 2431,
      "▁tkto": 2432,
      "▁taieeesafa": 2433,
      "aiaeaieela": 2434,
      "▁eaststst": 2435,
      "▁tootho": 2436,
      "▁toothoaslo": 2437,
      "▁taiaeaieela": 2438,
      "▁oteatoown": 2439,
      "▁eaaeaaie": 2440,
      "▁aeeeaee": 2441,
      "▁aieaethn": 2442,
      "▁aieaethnaie0": 2443,
      "eaieaaeaiee": 2444,
      "▁tseeeaa": 2445,
      "▁aieeoeoteaiee": 2446,
      "eaiaaeaodtotmtn": 2447,
      "▁ooaoeaiaaeaodtotmtn": 2448,
      "▁eadtsod": 2449,
      "teatot": 2450,
      "▁oiettetn": 2451,
      "▁gteatot": 2452,
      "eaaietsee": 2453,
      "▁etaiea": 2454,
      "eaatneaie": 2455,
      "▁taelo": 2456,
      "▁ooda": 2457,
      "eetaieeeto": 2458,
      "dtnoho": 2459,
      "▁toteatoaieae": 2460,
      "eaieeeattea": 2461,
      "▁oodeaier": 2462,
      "▁oodaseaie": 2463,
      "taoeeeaeetaieeeto": 2464,
      "▁oiettaoeeeaeetaieeeto": 2465,
      "▁eadeaatneaie": 2466,
      "▁oiettetnaie": 2467,
      "▁oeotohasa": 2468,
      "▁toteatoaieaesodsod": 2469,
      "etotoea": 2470,
      "▁teea1": 2471,
      "taseeet": 2472,
      "▁oohtotaseeet": 2473,
      "▁oohtotaseeetieb": 2474,
      "▁elrt": 2475,
      "▁aietoter": 2476,
      "▁tootktt": 2477,
      "▁eaieafhneae": 2478,
      "▁ec": 2479,
      "eeaeooooaiaae": 2480,
      "▁eaieasotea": 2481,
      "▁eaieasoteaaieaeo": 2482,
      "NA": 2483,
      "hotn": 2484,
      "▁oetmtn": 2485,
      "▁eaaeaieafteoaiaae": 2486,
      "▁oodot": 2487,
      "▁teaae": 2488,
      "▁ieeaeooooaiaae": 2489,
      "▁teaaedtc": 2490,
      "eaieae": 2491,
      "▁oodeaitfee": 2492,
      "▁eaaetfeteaieafuto": 2493,
      "oteeae": 2494,
      "▁eeadoteeae": 2495,
      "aieeae": 2496,
      "▁oteaitfee": 2497,
      "▁oteatoeaieaaeaiee": 2498,
      "ieeaatn": 2499,
      "▁erdeaseeao": 2500,
      "▁ietaieoeoteeaown": 2501,
      "toto1": 2502,
      "▁astoto1": 2503,
      "▁etntaoeeeaeaieae": 2504,
      "▁eaiaa": 2505,
      "efe": 2506,
      "▁teoteot": 2507,
      "eotetteeae": 2508,
      "eadar": 2509,
      "▁ieeaaseeto": 2510,
      "▁taeloeadar": 2511,
      "aieeemtc": 2512,
      "hneeea": 2513,
      "eaiaa": 2514,
      "▁oodaieeemtc": 2515,
      "▁lloooolherodtn": 2516,
      "▁oeoteaieeea": 2517,
      "▁eadloteetn": 2518,
      "▁L": 2519,
      "▁eaapao": 2520,
      "▁eaapaoeotetteeae": 2521,
      "▁aetho": 2522,
      "▁ttsoe": 2523,
      "▁asaeaieaieae": 2524,
      "hotnoieemto": 2525,
      "▁aethohotnoieemto": 2526,
      "▁hre0\n": 2527,
      "▁teoteoieeeea": 2528,
      "▁afaet": 2529,
      "▁eatoero": 2530,
      "eaeeae": 2531,
      "eaieeetoown": 2532,
      "aieagte": 2533,
      "▁aieaeaieeetoown": 2534,
      "ieeahn": 2535,
      "▁oetaeaie": 2536,
      "teeta": 2537,
      "▁eaexxeaeouoo": 2538,
      "eaieeatn": 2539,
      "▁ttsoeoo": 2540,
      "etta": 2541,
      "▁ttsoeooetv": 2542,
      "iebod": 2543,
      "▁ieteloeae": 2544,
      "etaeiee": 2545,
      "▁eaataoeeea": 2546,
      "▁aotohaieeae": 2547,
      "thaieaeoooo": 2548,
      "▁eaataoeeeaetaeiee": 2549,
      "▁eatottea": 2550,
      "faetottn": 2551,
      "▁taaetaieeeto": 2552,
      "▁etaieafaetottn": 2553,
      "etotoetoto": 2554,
      "▁oodtttmtn": 2555,
      "▁aieaeadeief": 2556,
      "eaieasaie": 2557,
      "totetn": 2558,
      ".\n": 2559,
      "▁oodeaieeeattea": 2560,
      "▁eaiaaeeerto": 2561,
      "▁teatolo": 2562,
      "▁oeeeaieeaeero": 2563,
      "▁oodote": 2564,
      "etotoetotofa": 2565,
      "▁llos": 2566,
      "▁tktaiee": 2567,
      "▁erdiet": 2568,
      "▁gtefsoeo": 2569,
      "▁haetn": 2570,
      "▁H": 2571,
      "ast": 2572,
      "▁oeaiehrd": 2573,
      "eftac": 2574,
      "▁ohaoo": 2575,
      "▁faetthooeroetno": 2576,
      "taetaiee": 2577,
      "totoaiesa": 2578,
      "▁tseetotoaiesa": 2579,
      "▁aeaetotoetotofa": 2580,
      "▁haetnaieaeo": 2581,
      "▁♪": 2582,
      "aieeteeae": 2583,
      "tta": 2584,
      "▁eaieieer\n": 2585,
      "▁ottoth": 2586,
      "▁odtnoho": 2587,
      "▁oodthnaie": 2588,
      "oheaieeea": 2589,
      "▁gteieeohasa": 2590,
      "etieea": 2591,
      "aieeaaee": 2592,
      "▁aieeaiaaehn": 2593,
      "▁aieeetoert": 2594,
      "ieemoomoou": 2595,
      "▁ggg": 2596,
      "eaeea": 2597,
      "▁teec": 2598,
      "▁patooteaeieeouoo": 2599,
      "▁eeaeaeea": 2600,
      "eteaeaaee": 2601,
      "▁eohaooootnoho": 2602,
      "▁eadeb": 2603,
      "tvooooo": 2604,
      "▁oteetar": 2605,
      "▁oeaiehrdtvooooo": 2606,
      "ptown": 2607,
      "▁teatnptown": 2608,
      "aieeesoooo": 2609,
      "▁eaaeaetaiee": 2610,
      "tmsa": 2611,
      "▁ooheeaaetneae": 2612,
      "eaaeeatn": 2613,
      "▁oeloeaaeeatn": 2614,
      "hoc": 2615,
      "tvtaieaeo": 2616,
      "▁aieeeato": 2617,
      "▁erdtcteetohohaetn": 2618,
      "▁toothoaslohoc": 2619,
      "▁aieeeteaeaaee": 2620,
      "oteetn": 2621,
      "▁toeeaotdieemtn": 2622,
      "▁tkteeae": 2623,
      "ethno": 2624,
      "ttatotoaetn": 2625,
      "▁aieaeown": 2626,
      "▁etneaeee": 2627,
      "▁etneaeeelo": 2628,
      "▁taeieemoomoou": 2629,
      "▁ohaoouoto": 2630,
      "▁K": 2631,
      "▁eadoeoteaie": 2632,
      "▁F": 2633,
      "▁eatoaieeaieagte": 2634,
      "▁oeoteaieetc": 2635,
      "▁teevoteeea": 2636,
      "▁eaitfeeaieeteeae": 2637,
      "aieeeaa": 2638,
      "etnrodto": 2639,
      "▁oeta": 2640,
      "thneeea": 2641,
      "▁tseetneaieaietoto": 2642,
      "aieeeaaetnrodto": 2643,
      "▁oeeeaietnttt": 2644,
      "▁ieemtoown": 2645,
      "▁eeetneeto": 2646,
      "▁eaaaieeea": 2647,
      "▁paaieee": 2648,
      "▁aieaeothneeea": 2649,
      "▁eatototn": 2650,
      "eaaaieeeto": 2651,
      "ertothtn": 2652,
      "gggaito": 2653,
      "emoomoou": 2654,
      "▁eeeato": 2655,
      "▁eaeeertothtn": 2656,
      "▁eatototntho": 2657,
      "gggaitoemoomoou": 2658,
      "eottouto": 2659,
      "aieaeeto": 2660,
      "▁ttath": 2661,
      "▁teatoatot": 2662,
      "▁oodeteottouto": 2663,
      "▁oetathon": 2664,
      "aieaeetoeer": 2665,
      "▁ttathaieaeetoeer": 2666,
      "▁ooheerto": 2667,
      "▁eaaetoto": 2668,
      "eoteaieeea": 2669,
      "meuaiee": 2670,
      "▁gtetmeuaiee": 2671,
      "▁eaaetotoatn": 2672,
      "teaieethn": 2673,
      "▁paeaeto": 2674,
      "▁eaiaaetta": 2675,
      "▁eaiaaettateaieethn": 2676,
      "teaieeaee": 2677,
      "▁erdaieaieaieeatn": 2678,
      "▁ooaaiee": 2679,
      "▁oeeeaieoest": 2680,
      "▁ooaoeoteaieeouoo": 2681,
      "▁tktaieeteeae": 2682,
      "en": 2683,
      "toeaiaiee": 2684,
      "▁eaaeaseetetn": 2685,
      "▁oeaieoht": 2686,
      "▁eeaeeta": 2687,
      "▁oeaieohteec": 2688,
      "▁tneer": 2689,
      "▁oodaieeaiaaehn": 2690,
      "▁tneertoown": 2691,
      "eeaaie": 2692,
      "etathon": 2693,
      "mon": 2694,
      "▁ooaeai": 2695,
      "odiebod": 2696,
      "▁iebodiebod": 2697,
      "eatotoeaiaiee": 2698,
      "▁tseetnaietc": 2699,
      "taieeeto": 2700,
      "▁oeeeaieeaeouoo": 2701,
      "▁faeteatotoeaiaiee": 2702,
      "▁thaieaeooooaiee": 2703,
      "teaetcaieeeto": 2704,
      "etmteaetcaieeeto": 2705,
      "eae0": 2706,
      "▁ohaoaieee": 2707,
      "▁eaieeeatneaseaa": 2708,
      "▁etco": 2709,
      "▁ooheead": 2710,
      "▁erdtootohhn": 2711,
      "teeafaaieeeto": 2712,
      "▁ooheeadteeafaaieeeto": 2713,
      "▁「": 2714,
      "eeeaieetno": 2715,
      "▁tseeoteetn": 2716,
      "▁ottoteaee": 2717,
      "▁tktoeeeaieetno": 2718,
      "▁ottothooetnooooo": 2719,
      "▁eaeoteeatvo": 2720,
      "▁totniaec": 2721,
      "tev": 2722,
      "eaiet": 2723,
      "▁ieeaaseeert": 2724,
      "▁oeoteaseeexeceee": 2725,
      "oeto": 2726,
      "▁taaeaie": 2727,
      "▁taoietaseaa": 2728,
      "taieetea": 2729,
      "▁aieaieeaiee": 2730,
      "▁totnaie": 2731,
      "▁oetodtjhn": 2732,
      "▁oodoieemtn": 2733,
      "▁eaaaieeetnasa": 2734,
      "ic": 2735,
      "▁lloooollorto": 2736,
      "▁oodoetathon": 2737,
      "▁taeitaieetea": 2738,
      "eaietc": 2739,
      "eoteaietc": 2740,
      "▁oeoteaiet": 2741,
      "moeoteaietc": 2742,
      "▁oeoteaietmoeoteaietc": 2743,
      "dhohr": 2744,
      "▁」": 2745,
      "▁faeteatn": 2746,
      "▁erdoeteaaeaieaeto": 2747,
      "▁aieeaedhohr": 2748,
      "▁erdaiea": 2749,
      "▁eohaooooeteemtn": 2750,
      "▁tkteeaeasee": 2751,
      "▁paeaetoeae": 2752,
      "▁etaieeeto": 2753,
      "thaieeeto": 2754,
      "eaieeetaoeeeae": 2755,
      "▁ooaaieeeaieeetaoeeeae": 2756,
      "▁eaaeaieeast": 2757,
      "▁DNA": 2758,
      "▁hottneaieote": 2759,
      "▁easatoar": 2760,
      "▁taieeesoooo": 2761,
      "▁etktttoown": 2762,
      "▁tseeeaaetfeteaieafuto": 2763,
      "eteemtn": 2764,
      "▁eatooteeaeoshtn\n": 2765,
      "▁tkttsaie": 2766,
      "▁E": 2767,
      "▁aioteetnsc": 2768,
      "▁tv0": 2769,
      "▁aioteetnsce": 2770,
      "▁oodoh": 2771,
      "▁aieaaiee": 2772,
      "▁taeaaie": 2773,
      "tooteeaeoooo": 2774,
      "▁ooheaieee": 2775,
      "▁taemetaieeeto": 2776,
      "▁oodohtv": 2777,
      "▁'": 2778,
      "asaietetn": 2779,
      "▁aieee1": 2780,
      "▁ottoaieeeaaetnrodto": 2781,
      "eaieeetc": 2782,
      "▁toeeaotdaotasee": 2783,
      "eaieaieaief": 2784,
      "▁aieterduto": 2785,
      "oteatoetn": 2786,
      "▁aieeeeea": 2787,
      "aiaaeaieeetc": 2788,
      "teoaiaaeaieeetc": 2789,
      "▁oefouoo": 2790,
      "▁aieeeeeaeasee": 2791,
      "▁oteatotnst": 2792,
      "▁etlo": 2793,
      "▁oteatooteeaeoooo": 2794,
      "▁ottoottoohst": 2795,
      "▁etlotaoeeeae": 2796,
      "tohn": 2797,
      "hottniebtjho": 2798,
      "▁ooaeaa": 2799,
      "ieeagte": 2800,
      "▁oieemo": 2801,
      "▁aietoeouoo": 2802,
      "▁eeaeaseetootieer": 2803,
      "▁eeadafaetasaa": 2804,
      "▁paoeoteaieeea": 2805,
      "aieetn": 2806,
      "▁ttsoeotjhnaiaae": 2807,
      "▁lloooooohtaetaiee": 2808,
      "▁erdoeaieasaie": 2809,
      "▁eaaeedtaithoeouoo": 2810,
      "▁easaoooo": 2811,
      "▁taoteeaeterduto": 2812,
      "▁ooaeaateaieeaee": 2813,
      "▁oieemtn": 2814,
      "▁eaaoeotohasa": 2815,
      "▁oetodtvtaieaeo": 2816,
      "▁aee\n": 2817,
      "▁ttaegggeae": 2818,
      "▁elr": 2819,
      "▁oohtho": 2820,
      "eaetaiee": 2821,
      "▁taefwn": 2822,
      "▁tooteato": 2823,
      "oohetktttn": 2824,
      "▁tooteatottt": 2825,
      "▁eaaieeeatev": 2826,
      "llor": 2827,
      "teeaeterduto": 2828,
      "▁aieaeooteeaeterduto": 2829,
      "▁tefsoeotetnllorto": 2830,
      "▁I": 2831,
      "▁oeotohoest": 2832,
      "aafaee": 2833,
      "▁eaaeeaieaeto": 2834,
      "aeea": 2835,
      "▁aieeeaaeea": 2836,
      "taeieeahn": 2837,
      "▁aeeeaeeeouoo": 2838,
      "aieetstof": 2839,
      "▁tathrtoouoo": 2840,
      "▁aieaieto": 2841,
      "▁eeaeaeeaer": 2842,
      "▁eatototo": 2843,
      "tllor": 2844,
      "etneeb": 2845,
      "▁oodaii": 2846,
      "▁eaieeeaeasatoto": 2847,
      "eeeaiee": 2848,
      "▁erdaieaieeeto": 2849,
      "hrdc": 2850,
      "▁eeeaeeeaiee": 2851,
      "▁oieemotsee": 2852,
      "▁eeaeeea": 2853,
      "etieeaaie": 2854,
      "▁taieeown": 2855,
      "▁llooooeaeeadeaeetc": 2856,
      "▁aieaietoeouoo": 2857,
      "aieetaieeeto": 2858,
      "▁eeeatoteec": 2859,
      "▁oohthoaieetaieeeto": 2860,
      "etpa": 2861,
      "▁oeteaieeea": 2862,
      "▁eadtaoeeeae": 2863,
      "eatoaieee": 2864,
      "eatoeaaeaiee": 2865,
      "▁ottoea": 2866,
      "▁teoteota": 2867,
      "▁oeeeaieaiea": 2868,
      "uooetmtn": 2869,
      "▁taeuooetmtn": 2870,
      "ieemtoown": 2871,
      "▁eaieatothaieeeto": 2872,
      "▁teoteotaero": 2873,
      "▁aehteceaieasotea": 2874,
      "▁aehteceaieasoteaetno": 2875,
      "▁W": 2876,
      "tsa": 2877,
      "▁eatotnoieetaie": 2878,
      "▁eohaooooaieae": 2879,
      "▁oodotellollo": 2880,
      "▁oodea": 2881,
      "teieeaatn": 2882,
      "▁eaieaiea": 2883,
      "▁aioteaedooooetno": 2884,
      "▁ttahtahn": 2885,
      "tmtsa": 2886,
      "▁oodeaiaaeeerto": 2887,
      "eaead": 2888,
      "▁erdtsiec": 2889,
      "▁taieieaead": 2890,
      "▁taieieaeadieeohasa": 2891,
      "▁eaaeee": 2892,
      "tefsoeo": 2893,
      "▁ato": 2894,
      "thoela": 2895,
      "moeltc": 2896,
      "▁N": 2897,
      "▁eeaeaduo": 2898,
      "▁aieaeaieeeto": 2899,
      "▁eatoeatneerto": 2900,
      "aieeast": 2901,
      "aotasaietetn": 2902,
      "▁oetaotasaietetn": 2903,
      "▁oodeaelo\n": 2904,
      "▁toothrdc": 2905,
      "▁ietoteeta": 2906,
      "▁ethoaroooo": 2907,
      "bta": 2908,
      "aiebta": 2909,
      "▁tseeieemtoown": 2910,
      "aieeaaeee": 2911,
      "▁erdot": 2912,
      "etttt": 2913,
      "▁aehtecaafaee": 2914,
      "▁lo": 2915,
      "▁ohaoaieaaeeaieote": 2916,
      "▁ooatneaie": 2917,
      "tmtn": 2918,
      "loaseetetn": 2919,
      "eadthnaie": 2920,
      "aieaeadthnaie": 2921,
      "▁eaieaaeaiee": 2922,
      "▁eaaeedtmtsa": 2923,
      "▁emvo": 2924,
      "taero": 2925,
      "▁ooaea": 2926,
      "▁pataero": 2927,
      "▁eohaooooaieaeadthnaie": 2928,
      "▁erdoheaieeea": 2929,
      "▁erdtaeieeahn": 2930,
      "▁taoohetktttn": 2931,
      "ec0": 2932,
      "▁tatcaieeeto": 2933,
      "▁eaeeelottt": 2934,
      "eaiaoteaiee": 2935,
      "eadtjhn": 2936,
      "▁eaieeeaaieeaaeee": 2937,
      "▁oeeeaieaieaeasee": 2938,
      "▁eaieaaeaieeown": 2939,
      "tnlo": 2940,
      "tneaiaoteaiee": 2941,
      "eaieeeaduto": 2942,
      "aieeeauto": 2943,
      "▁toeeaotdeaeaieeeaduto": 2944,
      "▁eaeeaieeeauto": 2945,
      "▁tseeoteetnst": 2946,
      "hrhtn": 2947,
      "▁ttattea": 2948,
      "tetnaieasaie": 2949,
      "▁thieeouoo": 2950,
      "▁ooaetasa": 2951,
      "hrhtne": 2952,
      "▁ttatteaaieee": 2953,
      "▁tathoela": 2954,
      "▁tathoelaeatn": 2955,
      "le": 2956,
      "▁oodtsiec": 2957,
      "▁oeeeaietaseeetero\n": 2958,
      "▁oteatooetieeaaie": 2959,
      "eeeaieea": 2960,
      "aieeeatn": 2961,
      "▁taoeeeaieea": 2962,
      "▁taoeeeaieeaetaiee": 2963,
      "▁eaitfe\n": 2964,
      "▁etaieotea": 2965,
      "▁erdieteloeae": 2966,
      "▁etaieoteaaote": 2967,
      "▁eaeaie": 2968,
      "▁tst": 2969,
      "▁lloooostaie": 2970,
      "aieeeatsee": 2971,
      "▁tstto": 2972,
      "▁aiea\n": 2973,
      "▁eaathaieaeoooo": 2974,
      "▁oetoetttt": 2975,
      "▁oetoettttetaieeeto": 2976,
      "▁aieeetoaieeeto": 2977,
      "▁eaeeelott": 2978,
      "▁aeaetotoetotofatnoho": 2979,
      "▁eaeeelotttethno": 2980,
      "▁taottn": 2981,
      "eoteaseeexeceee": 2982,
      "▁paeaieasotea": 2983,
      "▁llooooeaetaiee": 2984,
      "▁oeeeaieotea": 2985,
      "totoeaeeeaeee": 2986,
      "totoeaeeeaeeeduto": 2987,
      "▁aieaeadetneeb": 2988,
      "▁lotc": 2989,
      "tothn": 2990,
      "▁aieeetoeeaaeasaee": 2991,
      "▁teoteooietaseaa": 2992,
      "▁oodaea": 2993,
      "▁teoteoeatoaieee": 2994,
      "▁oodaeaeatt": 2995,
      "tetn1": 2996,
      "▁oodaiiohasee": 2997,
      "▁oodteaetc": 2998,
      "▁h": 2999,
      "▁etaietc": 3000,
      "▁etaietcteetohohaetn": 3001,
      "do": 3002,
      "▁llooootneaiaoteaiee": 3003,
      "▁tateaee\n": 3004,
      "▁ieeaaseetoaietc": 3005,
      "heet": 3006,
      "heetktttn": 3007,
      "▁oohtoteatnaieae": 3008,
      "▁eaathaieaeooooteatn": 3009,
      "▁erdtooteethn": 3010,
      "▁aieo": 3011,
      "iodiodtaoeeeae": 3012,
      "▁oohetktttn\n": 3013,
      "eetnaiee": 3014,
      "▁eetoeetnaiee": 3015,
      "▁oodsac": 3016,
      "▁erdemtc": 3017,
      "tooteatn": 3018,
      "oteafa": 3019,
      "▁oodeeb": 3020,
      "▁aeaieeeatn": 3021,
      "▁oodeeb1": 3022,
      "dpa": 3023,
      "▁taieesoooo": 3024,
      "▁teaeaae": 3025,
      "▁aieeetoaieeetogte": 3026,
      "▁teaeaaedpa": 3027,
      "or": 3028,
      "▁ietteec": 3029,
      "▁gggottn": 3030,
      "▁taoeeeaeaie": 3031,
      "▁oeotasttmn": 3032,
      "▁tseeth": 3033,
      "▁oeotasttmnta": 3034,
      "oetmtn": 3035,
      "▁taieeaasee\n": 3036,
      "eaieeeaown": 3037,
      "▁erdoeoteaieeaee": 3038,
      "▁aieeeatoetaieeeto": 3039,
      "▁oodtoot": 3040,
      "aiethtn": 3041,
      "▁oeeeaielloooollooooouoo": 3042,
      "▁oteatooeote": 3043,
      "▁eeetnaiee": 3044,
      "ifa": 3045,
      "▁ethoaroetmtn": 3046,
      "▁staieea": 3047,
      "▁ethoeutoeuto": 3048,
      "▁staieeaeeasoooo": 3049,
      "msa": 3050,
      "eaierto": 3051,
      "▁tatmsa": 3052,
      "▁st1\n": 3053,
      "▁teatotooteaeieeouoo": 3054,
      "ifaea": 3055,
      "ms": 3056,
      "▁eeeaeeeaieeouoo": 3057,
      "ooe": 3058,
      "emvo": 3059,
      "▁aieaeado": 3060,
      "▁eaitfeetea": 3061,
      "ttan": 3062,
      "▁teatoaotasee": 3063,
      "▁oeaieeaeetmtn\n": 3064,
      "▁eaeeasooooaietn": 3065,
      "▁eaeeasooooaietn1": 3066,
      "▁ethot": 3067,
      "▁erdttan": 3068,
      "▁ethoteeatn": 3069,
      "efeatn": 3070,
      "▁eaeeasooooeaieaieaief": 3071,
      "▁aieeetoaeaie": 3072,
      "▁oefaietsee": 3073,
      "▁oteaitfeeero": 3074,
      "▁taaieaetn": 3075,
      "▁eaitfeeteaeaie": 3076,
      "ear": 3077,
      "▁otiebat": 3078,
      "aiaaeloaseetctc": 3079,
      "▁tsttouoo": 3080,
      "on": 3081,
      "▁taeatn": 3082,
      "▁oeotasttmntaeear": 3083,
      "aieeetotvo": 3084,
      "▁oefaietseeaieeetotvo": 3085,
      "▁eatoetoeaier": 3086,
      "▁taeaeto": 3087,
      "▁oeteatoeatnteer": 3088,
      "▁taeieeeadtjhn": 3089,
      "▁atotaieee": 3090,
      "▁taeieeeadtjhn0": 3091,
      "tjaie": 3092,
      "▁ooaeeaeasee\n": 3093,
      "▁oohero": 3094,
      "▁oeteatoeatntaieetclo": 3095,
      "asoteafa": 3096,
      "▁ooafiaeaieeeto": 3097,
      "▁ooaeaiooe": 3098,
      "▁taieeoh": 3099,
      "▁erdaiaaeloaseetctc": 3100,
      "▁tseeiaec": 3101,
      "▁taieeohhn": 3102,
      "▁taterduto": 3103,
      "▁gtept": 3104,
      "tottt": 3105,
      "seetpa": 3106,
      "eaaefeatn": 3107,
      "▁aieeaieee0": 3108,
      "▁ttan": 3109,
      "▁aioteaedooooaeaie\n": 3110,
      "▁ottoottooheatn": 3111,
      "asee0": 3112,
      "▁ststst": 3113,
      "▁aieaeadttatotoaetn": 3114,
      "▁ieemoeltc": 3115,
      "▁stststasee0": 3116,
      "eafa": 3117,
      "▁oethottniebtjho": 3118,
      "thtaeiee": 3119,
      "▁pathtaeiee": 3120,
      "▁erdaieae": 3121,
      "▁toeeaotdeaieeeaown": 3122,
      "▁tahre": 3123,
      "▁oodoestt": 3124,
      "▁erdteaewn": 3125,
      "▁oodoestte": 3126,
      "▁•": 3127,
      "eaaieeee": 3128,
      "▁eaieafteoaiaaeaieeetc": 3129,
      "▁tms": 3130,
      "▁eeadeaeeasoooo": 3131,
      "▁oeeeaieeaetaiee": 3132,
      "▁tmsaown": 3133,
      "▁teadtstt\n": 3134,
      "▁eatotototho": 3135,
      "fs": 3136,
      "▁oesttehaetn": 3137,
      "▁lltoieemopa": 3138,
      "▁erdtec0": 3139,
      "iodiodtnttt": 3140,
      "▁aiaieaieeeto": 3141,
      "aieaeaieeeto": 3142,
      "▁erdieeohasa": 3143,
      "▁teea0": 3144,
      "▁aiaieaieeetoe": 3145,
      "eafs": 3146,
      "▁oeteatoeatnllo\n": 3147,
      "▁eatototothoeafs": 3148,
      "tstse": 3149,
      "▁oeteaaee": 3150,
      "▁todc": 3151,
      "▁ethoeaaieeee": 3152,
      "▁todctoown": 3153,
      "▁tseeeahn": 3154,
      "etc0": 3155,
      "▁tootktteaa": 3156,
      "▁afaeteea": 3157,
      "▁eaieaieaear": 3158,
      "tnoh": 3159,
      "▁taieeoestt": 3160,
      "▁oeeeaieaiaa": 3161,
      "▁oodeea": 3162,
      "▁taieeoesttetoown": 3163,
      "▁oeeeaieaiaaeeaeoteea": 3164,
      "▁aieaeadoetrto": 3165,
      "aeeeafa": 3166,
      "▁tooieemotneerto": 3167,
      "▁eeeaaeeeafa": 3168,
      "is": 3169,
      "▁etaieoetotoea": 3170,
      "tnoheelo": 3171,
      "o1": 3172,
      "▁eeadtstse": 3173,
      "etaieeesoooo": 3174,
      "▁oeteaaeeeeeadetaiaaeeouoo": 3175,
      "eaetrto": 3176,
      "hoho": 3177,
      "▁taiebta": 3178,
      "fac": 3179,
      "▁tktt": 3180,
      "▁elrttaoeeeae": 3181,
      "▁eadtetn1": 3182,
      "▁thaieaeoooooteeea": 3183,
      "▁tseetjhn": 3184,
      "taieeesoooo": 3185,
      "ttmon": 3186,
      "▁aieaieetstof": 3187,
      "▁aehtecaieaeasee": 3188,
      "▁teatnaiee": 3189,
      "▁oohaieee": 3190,
      "▁teaieeeadst\n": 3191,
      "▁oodoesttehre": 3192,
      "atottt": 3193,
      "eeeea": 3194,
      "aoeftac": 3195,
      "▁oodeeaaeasaee": 3196,
      "▁teatotaiee": 3197,
      "▁gtehre\n": 3198,
      "▁etaieeaieetn": 3199,
      "teatnouoo": 3200,
      "▁ottoetaieeeto": 3201,
      "▁teatotaieeatottt": 3202,
      "totnaie": 3203,
      "eloaseetetn": 3204,
      "aieeaiee": 3205,
      "▁etottn": 3206,
      "lloll": 3207,
      "▁erdtmsa": 3208,
      "ecefe": 3209,
      "▁eaaoheetktttn": 3210,
      "▁ttaoeloaseetetn": 3211,
      "▁otelloll": 3212,
      "▁otellolloouoo": 3213,
      "▁eieeagte": 3214,
      "aotohaieaieae": 3215,
      "lhetktttn": 3216,
      "▁eeetpa": 3217,
      "ethotc": 3218,
      "▁teatnpt": 3219,
      "▁oodtoothre": 3220,
      "eeeai": 3221,
      "htectv": 3222,
      "▁eaatooteatn": 3223,
      "▁aioteaeeooooeae": 3224,
      "▁taaieeasado": 3225,
      "▁tsoe": 3226,
      "v0": 3227,
      "etnaieasaie": 3228,
      "▁taaieea": 3229,
      "▁aieer": 3230,
      "▁eeadoeto": 3231,
      "▁eaaieeeatsee": 3232,
      "▁tetnaieasaie": 3233,
      "▁ttae": 3234,
      "▁patnoheelo": 3235,
      "aiiasaie": 3236,
      "▁eaeouoo": 3237,
      "▁erdafa": 3238,
      "▁oohouotoaieaeo": 3239,
      "eaieee1": 3240,
      "▁eaaieaiee": 3241,
      "▁toteatnouoo": 3242,
      "▁asataiee": 3243,
      "▁lloooolhetktttn": 3244,
      "▁teaaedtctoar": 3245,
      "aefwn": 3246,
      "▁lh": 3247,
      "twn": 3248,
      "▁oeoteeto": 3249,
      "▁ohatoeaseeao": 3250,
      "▁ottoeaeeadeaeetc": 3251,
      "eeeaieoeoteea": 3252,
      "▁oeoteetoeeeaieoeoteea": 3253,
      "efac": 3254,
      "▁etaieote": 3255,
      "htectvown": 3256,
      "▁ttaehtectvown": 3257,
      "▁etaieotellollo": 3258,
      "▁eaaaieae1": 3259,
      "▁ttaniaec": 3260,
      "▁etaieeethn": 3261,
      "aieaieeecefe": 3262,
      "▁oeaiee": 3263,
      "▁oteetaemvo": 3264,
      "▁aieeatn": 3265,
      "▁oodtetn": 3266,
      "toott": 3267,
      "▁teeteeeea": 3268,
      "▁etsutoaiaae": 3269,
      "▁ooaoef": 3270,
      "▁eeeaaeeeafaeaieote": 3271,
      "▁eaaeaaefeatn": 3272,
      "▁oeeeaietaefwn": 3273,
      "▁afathneeea": 3274,
      "▁afathneeea0": 3275,
      "▁oeoteaseeexec": 3276,
      "▁eaieeeatv": 3277,
      "▁teaaedtctn": 3278,
      "▁oteatot": 3279,
      "▁taoest": 3280,
      "▁eeadeaaietsee": 3281,
      "▁oohtotaitho": 3282,
      "hoelapa": 3283,
      "fattsfat": 3284,
      "▁oteatothoelapa": 3285,
      "▁oohtotaithoe": 3286,
      "fatc": 3287,
      "▁oodtjaie": 3288,
      "▁aotohaieai": 3289,
      "▁gteaieee1": 3290,
      "▁eohaooooiee": 3291,
      "▁hrdttmon": 3292,
      "▁aotohaieaioteaeeoooo": 3293,
      "▁tktgggaitoemoomoou": 3294,
      "▁eeatn1": 3295,
      "▁erdeaaeaseetetn": 3296,
      "▁taoeeeaeoooo": 3297,
      "▁aieetooteethn": 3298,
      "▁aieaeaiea": 3299,
      "▁aieaeaieaeaiea": 3300,
      "▁eaeaiea": 3301,
      "tsfattsfat": 3302,
      "eeaaetouto": 3303,
      "▁eaataeaier": 3304,
      "▁eaaeaieeaeaeeae": 3305,
      "▁eaeaieaeeaaetouto": 3306,
      "▁oeeeaieelrt": 3307,
      "tmostaieae": 3308,
      "▁eaeeasooooo": 3309,
      "▁tseetaiee": 3310,
      "▁erdaieasee": 3311,
      "ou": 3312,
      "▁eatoeaaee": 3313,
      "▁eaaaeeeaeee": 3314,
      "▁eaaetaie": 3315,
      "▁eaeaetntsfattsfat": 3316,
      "▁tootktteaaaieae": 3317,
      "ra": 3318,
      "▁llooootooteethn": 3319,
      "▁eadtwn": 3320,
      "▁tseeteaieeeae": 3321,
      "▁eadoeote": 3322,
      "▁tvo1": 3323,
      "▁gteeeatn": 3324,
      "taeeifaea": 3325,
      "▁tooieemothtn": 3326,
      "▁gteeeatn0": 3327,
      "▁taieetclo": 3328,
      "tsuto": 3329,
      "▁tohn": 3330,
      "▁oeeeaieetsuto": 3331,
      "▁oeeeaieoteaaoteaiee": 3332,
      "▁erdetaieeohouoothn": 3333,
      "▁eohaooooeelo": 3334,
      "▁erdhrhtne": 3335,
      "▁oeoteaseeexecee": 3336,
      "tnaietc": 3337,
      "st1": 3338,
      "▁tktot": 3339,
      "▁eeaduo\n": 3340,
      "▁erdtmeuo": 3341,
      "▁aieeeae0": 3342,
      "▁oest\n": 3343,
      "▁heaaeedtetn": 3344,
      "▁ooaetottn": 3345,
      "tseetsee": 3346,
      "▁aieaeadiodiodtaoeeeae": 3347,
      "ieeaaseeeaioteato": 3348,
      "▁oetodtmostaieae": 3349,
      "▁oeaiehrdtetn": 3350,
      "▁llooooefac": 3351,
      "▁eatotetnaieasaie": 3352,
      "▁taoiet": 3353,
      "▁eaeheaeeaieero": 3354,
      "▁taoiettaoeeeae": 3355,
      "eatoo": 3356,
      "▁hoaieeast": 3357,
      "▁ttaeaeaetn": 3358,
      "▁hrdtllor": 3359,
      "▁atoetn": 3360,
      "▁hrdtllortoown": 3361,
      "etnoh": 3362,
      "▁eeaeeeaetnoh": 3363,
      "eaaaieeetc": 3364,
      "eaieeetotaoeeeae": 3365,
      "▁pt": 3366,
      "eaaaieeetco": 3367,
      "eaaieeeeto": 3368,
      "▁aieaeoeaeeasoooo": 3369,
      "▁erdeaatneaie": 3370,
      "▁teeae1\n": 3371,
      "▁oodtohn": 3372,
      "▁tseea\n": 3373,
      "▁eaaeaieeetoieemtn": 3374,
      "doeote": 3375,
      "▁aieerdoeote": 3376,
      "eeaeaduo": 3377,
      "▁aieeetoeeaeaduo": 3378,
      "▁tseetaieerhtn": 3379,
      "▁tooieemotthn": 3380,
      "▁aietc0": 3381,
      "▁thotho\n": 3382,
      "▁eaetrto": 3383,
      "▁eaaieaieemtn": 3384,
      "▁stoouoo": 3385,
      "▁tatneaseear": 3386,
      "vea": 3387,
      "aioteatoetn": 3388,
      "▁tseetttmtn": 3389,
      "▁aietaioteatoetn": 3390,
      "▁eaaaieeetn1": 3391,
      "▁tneaieaiaae": 3392,
      "▁oeeeaievea": 3393,
      "▁etaiaaeee\n": 3394,
      "▁toeeaotdeaaieeeeto": 3395,
      "totnasee": 3396,
      "▁aieeemtc": 3397,
      "▁erdc": 3398,
      "▁erdea": 3399,
      "aietaie": 3400,
      "▁erdeteemtn": 3401,
      "▁tootllo": 3402,
      "etotaoeeeae": 3403,
      "stllorto": 3404,
      "▁oodeeea": 3405,
      "▁tootlloetotaoeeeae": 3406,
      "▁oodeeeastllorto": 3407,
      "▁toeeaaie": 3408,
      "▁toeeaotdasoteafa": 3409,
      "▁totoaiethtn": 3410,
      "▁oodeaaieeeatsee": 3411,
      "▁toeeaaiehohr": 3412,
      "eaiear": 3413,
      "teatotnlo": 3414,
      "▁ieeaaseeaiee\n": 3415,
      "▁aieaeooetn": 3416,
      "▁tseaeai": 3417,
      "▁eaeeelottteatotnlo": 3418,
      "▁oodeaaaieeetn": 3419,
      "astoto": 3420,
      "▁erdeief": 3421,
      "▁oettaeroastoto": 3422,
      "▁aieeetooteieeaatn": 3423,
      "▁tseaeaietaoeeeae": 3424,
      "aieaeeaaeto": 3425,
      "▁thaieae": 3426,
      "▁oeoteaseeexeceeeoetmtn": 3427,
      "▁thaieaeooooo": 3428,
      "eoeot": 3429,
      "▁eaaaieeasad": 3430,
      "▁aieaeeeaeee": 3431,
      "▁ietaieoeot": 3432,
      "▁eaaaieeasadoown": 3433,
      "▁ietaieoeoteeaasee": 3434,
      "haieaeoooo": 3435,
      "▁eaaeeeatoeaaeaiee": 3436,
      "▁aiestaie": 3437,
      "▁aieeeatot": 3438,
      "▁thoo": 3439,
      "rtohn": 3440,
      "▁aieeaeaaaieeeto": 3441,
      "▁tseetv0": 3442,
      "▁aieeeatothotho": 3443,
      "▁eaallollo": 3444,
      "easeearouoo": 3445,
      "▁eaaieeeatnsodsod": 3446,
      "▁otaia": 3447,
      "▁odtotnasee": 3448,
      "▁otaiatotetn": 3449,
      "eteatoeatn": 3450,
      "▁vea": 3451,
      "▁oeotaseaaietetn": 3452,
      "▁etaieoeteaaeaieaeto": 3453,
      "tsoeot": 3454,
      "▁taeaeeae": 3455,
      "thtseea": 3456,
      "▁ooateeae\n": 3457,
      "▁erdttsoeot": 3458,
      "▁erdttsoeotjhn": 3459,
      "▁oohetoeaier": 3460,
      "tott": 3461,
      "▁eatoeeta": 3462,
      "▁oodatott": 3463,
      "▁eatoeetauto": 3464,
      "▁gteo": 3465,
      "▁eaitfeelo": 3466,
      "▁oodatotthaieaeoooo": 3467,
      "▁eaitfeelotothn": 3468,
      "▁eeaelo": 3469,
      "ooht": 3470,
      "emeu": 3471,
      "▁aieiaec0\n": 3472,
      "▁teatnhre": 3473,
      "▁gtehnouoo": 3474,
      "▁Y": 3475,
      "▁oeeeaieeaaoeftac": 3476,
      "▁erdtteaaie": 3477,
      "eaaeasa": 3478,
      "teatoar": 3479,
      "▁tatc\n": 3480,
      "▁thaieaeoooooeaierto": 3481,
      "▁[": 3482,
      "eohaieee": 3483,
      "▁veaown": 3484,
      "▁oodiet": 3485,
      "▁eeetnrodto": 3486,
      "el": 3487,
      "iemeu": 3488,
      "▁ooheaaaieeetco": 3489,
      "▁teatoto": 3490,
      "▁oeteaaeasa": 3491,
      "ieemopa": 3492,
      "▁eaaoeftac": 3493,
      "▁eaeaieeeto": 3494,
      "▁aieaellorto": 3495,
      "▁erdeaaeaiee": 3496,
      "▁taaieeatneae": 3497,
      "▁eaitfeeo": 3498,
      "▁euto": 3499,
      "▁eaieeeattea": 3500,
      "toottaeiee": 3501,
      "▁oodaieetstof": 3502,
      "totoeoteea": 3503,
      "▁eeadhtahn": 3504,
      "▁oeeeaietec": 3505,
      "▁etasaaero": 3506,
      "▁oeoteetotoeoteea": 3507,
      "▁aieaeaieaeaieaeohaieee": 3508,
      "▁:\n": 3509,
      "▁X": 3510,
      "▁erdthoo": 3511,
      "▁eohaooootaoeeeae": 3512,
      "▁erdthooteeafa": 3513,
      "▁eatoetao": 3514,
      "etototn": 3515,
      "▁tseeeasa": 3516,
      "▁eaeaetnaieeeea": 3517,
      "staie1": 3518,
      "▁pthre": 3519,
      "▁tseeiodiodtnttt": 3520,
      "dthtn": 3521,
      "▁]": 3522,
      "▁aieeaietn": 3523,
      "▁erdtea": 3524,
      "▁aieea2": 3525,
      "▁tseethetsc": 3526,
      "▁oetea": 3527,
      "▁oeteatoeatnetaie": 3528,
      "iodiodtaiee": 3529,
      "▁erdstaie1": 3530,
      "▁teatots": 3531,
      "asaar": 3532,
      "▁aieetseeaiaae": 3533,
      "▁llost": 3534,
      "▁eatottt": 3535,
      "▁ietasaar": 3536,
      "aehtecaiea": 3537,
      "ac": 3538,
      "▁eatoteeafa": 3539,
      "▁taaieaaiee\n": 3540,
      "ooooofatc": 3541,
      "htooooofatc": 3542,
      "eatoohtooooofatc": 3543,
      "▁eatoteeafaeatoohtooooofatc": 3544,
      "▁eatoteeafaeatoohtooooofatcttt": 3545,
      "▁aotasaie": 3546,
      "▁otaiatotetnasa": 3547,
      "▁gteseetpa": 3548,
      "▁etasaagte": 3549,
      "▁aieeeiemeu": 3550,
      "▁iaeaieel": 3551,
      "▁tktoteaitfee": 3552,
      "▁aieetmsa": 3553,
      "▁eaafaet": 3554,
      "▁oeaieetmtn": 3555,
      "▁eaafaeteae": 3556,
      "A:": 3557,
      "eeaaee": 3558,
      "▁oestteeaaee": 3559,
      "▁oestteeaaeeeto": 3560,
      "▁O": 3561,
      "▁terdutotaieeesoooo": 3562,
      "▁eaetaiee\n": 3563,
      "▁terdutotaieeesoooo0": 3564,
      "▁taaieeetoar": 3565,
      "▁aieeeerto": 3566,
      "▁aieeeaieeaee\n": 3567,
      "▁tkttaieteetn": 3568,
      "▁eaeeasoooooietaseaa": 3569,
      "eaeheaeeaieero": 3570,
      "▁tmeu": 3571,
      "▁eaatnst": 3572,
      "▁eaieeeaaieae": 3573,
      "▁eaeoh": 3574,
      "▁oodtootieer": 3575,
      "▁erdeaaaieeetn": 3576,
      "▁ooaeaeaaaieeeto": 3577,
      "teaseear": 3578,
      "▁teoteooteaseear": 3579,
      "▁eatoeaaeeaieaeto": 3580,
      "aotasaie": 3581,
      "▁ietaieoeoteeaeae": 3582,
      "dutoouoo": 3583,
      "tllorto": 3584,
      "▁oohtn": 3585,
      "▁eaiedutoouoo": 3586,
      "eattaieeeto": 3587,
      "▁eaeohet": 3588,
      "toeeaotd": 3589,
      "eeeaef": 3590,
      "▁etcf": 3591,
      "▁eaieeeatteaaiee": 3592,
      "tcthtseea": 3593,
      "▁erdpt": 3594,
      "▁aieaeadtcthtseea": 3595,
      "▁toeeaotdtea": 3596,
      "▁eaetaoeeeae": 3597,
      "▁eeadtnttt": 3598,
      "▁eaetaoeeeaeuto": 3599,
      "eait": 3600,
      "▁aieeeteemtn": 3601,
      "▁eatoeeeaef": 3602,
      "tohthoela": 3603,
      "▁eaaoodatot": 3604,
      "▁aieeetootohthoela": 3605,
      "al": 3606,
      "eteeae": 3607,
      "▁eaelo\n": 3608,
      "▁aieaieaie\n": 3609,
      "▁tmost": 3610,
      "▁taaieeeeto": 3611,
      "▁eloeadar\n": 3612,
      "▁tnst\n": 3613,
      "▁hrdc": 3614,
      "▁oefaieee": 3615,
      "▁ohatoaieae": 3616,
      "▁oeaieohetktttn": 3617,
      "▁taaieeeeto0": 3618,
      "faown": 3619,
      "teeafaown": 3620,
      "▁thooteeafaown": 3621,
      "▁oodeaaeaiee": 3622,
      "▁ohaoaietc": 3623,
      "ttnrodto": 3624,
      "▁iodiod": 3625,
      "▁oodeaaeaieeetn": 3626,
      "ne": 3627,
      "teeatn": 3628,
      "▁eadeaaieeeeto": 3629,
      "▁V": 3630,
      "asatotetn": 3631,
      "lloooollooooieb": 3632,
      "eeeaielloooollooooieb": 3633,
      "▁oodoeeeaielloooollooooieb": 3634,
      "▁taeaaeaiee": 3635,
      "taioteatoetn": 3636,
      "▁llooooooheerto": 3637,
      "lloaieae": 3638,
      "▁teatotnaietc": 3639,
      "▁oetiaaeemtc": 3640,
      "▁oeeeaieoeeae": 3641,
      "▁faeteae": 3642,
      "taoeeeaeown": 3643,
      "▁hohrt": 3644,
      "▁aiaaellooootaoeeeaeown": 3645,
      "▁tneaiaoteaiee\n": 3646,
      "▁gteai": 3647,
      "▁oeeeaieteaaie\n": 3648,
      "▁pathneteeae": 3649,
      "▁teatotsttnrodto": 3650,
      "▁oodaieeetstt": 3651,
      "▁erdtnst": 3652,
      "▁aieeeatn2\n": 3653,
      "▁taei\n": 3654,
      "▁tteathtn": 3655,
      "rodoo": 3656,
      "▁aehtecaieaeaiaae": 3657,
      "eaitooooo": 3658,
      "▁tj": 3659,
      "▁erdiodiodtaiee": 3660,
      "▁oetoeoteaseeexeceee": 3661,
      "taeiee0": 3662,
      "▁erdteataeiee0": 3663,
      "▁eaateatoar": 3664,
      "▁afaetaie": 3665,
      "roo": 3666,
      "▁oeeeaieeaaeeeatn": 3667,
      "▁tjeatn": 3668,
      "▁taot": 3669,
      "▁oodoeto": 3670,
      "▁eatotefsoeo": 3671,
      "nd": 3672,
      "▁eaaaea": 3673,
      "▁erdoeotas": 3674,
      "taoeeeaeasto": 3675,
      "▁aieaeadeutoeuto": 3676,
      "eattetaieeeto": 3677,
      "▁erdafataoeeeaeasto": 3678,
      "▁eaaaeaeattetaieeeto": 3679,
      "▁erdafataoeeeaeastoaie": 3680,
      "▁eggg": 3681,
      "eeadao": 3682,
      "▁oohtc\n": 3683,
      "▁teatngte": 3684,
      "aotaieeeto": 3685,
      "▁etn0": 3686,
      "▁aotohaieaieeeto": 3687,
      "▁tseeloaie": 3688,
      "▁egggead": 3689,
      "eeatohn": 3690,
      "▁aeeatohn": 3691,
      "▁eaaeedpa": 3692,
      "▁oodoetoaietmtn": 3693,
      "▁aeeatohnaieee": 3694,
      "▁oodtaioteatoetn": 3695,
      "iebtn": 3696,
      "▁erdoteeta": 3697,
      "▁eeadoetofaaslo": 3698,
      "ur": 3699,
      "▁loaseetctcoooo": 3700,
      "▁oeeeaieteatn": 3701,
      "▁taafa": 3702,
      "▁)\n": 3703,
      "▁ooheeeaaiear": 3704,
      "▁eteemtn": 3705,
      "▁etn1\n": 3706,
      "▁teoteototoeaeeeaeeeduto": 3707,
      "▁afaeaieotd": 3708,
      "ed": 3709,
      "rooo": 3710,
      "▁oeeeaieteatnpt": 3711,
      "▁erdtv": 3712,
      "▁aieaeadeeaeaieeeto": 3713,
      "▁tteaaieee": 3714,
      "▁erdtvst1": 3715,
      "▁oodtneerto": 3716,
      "▁aieaetnta0\n": 3717,
      "▁etntaoeeeaeero": 3718,
      "esac": 3719,
      "▁erdtootieer": 3720,
      "▁tseeo": 3721,
      "▁eao\n": 3722,
      "▁erdtesac": 3723,
      "▁tooieemoaieaeaieeeto": 3724,
      "▁tmo": 3725,
      "tsao": 3726,
      "▁oodiettc": 3727,
      "▁lloooottatotoaetn": 3728,
      "▁etaieeohouoothn": 3729,
      "▁oeteaaehn\n": 3730,
      "▁afaeaieotdtv": 3731,
      "▁tmotsao": 3732,
      "▁ouoo\n": 3733,
      "▁taeuoaieeeto": 3734,
      "▁aieet": 3735,
      "▁hohoho": 3736,
      "easaoooo": 3737,
      "▁aieiettc\n": 3738,
      "▁oodieteasaoooo": 3739,
      "▁hohohoeatn": 3740,
      "toiec": 3741,
      "aaeetoiec": 3742,
      "▁eaeeasooooetoeaier": 3743,
      "▁aieea3": 3744,
      "▁oeeeaietsaiee": 3745,
      "▁aieaeoteeatn": 3746,
      "▁oodtneertoeae": 3747,
      "aaeetoiecown": 3748,
      "▁U": 3749,
      "ethotceta": 3750,
      "eoteerto": 3751,
      "▁lloooototoeaeeeaeeeduto": 3752,
      "▁oteeetiaee": 3753,
      "iaae": 3754,
      "▁oetiaae": 3755,
      "▁eaaeeetothtn": 3756,
      "oest": 3757,
      "▁oetiaaehouoothn": 3758,
      "eoetm": 3759,
      "▁eaeoetm": 3760,
      "▁eaiaaeetoiecown": 3761,
      "▁llooooeeaeaieeeto": 3762,
      "▁teoteoee": 3763,
      "▁tseetcaiee": 3764,
      "eaieaeeta": 3765,
      "▁eaeaetniec\n": 3766,
      "eohaieeeatn": 3767,
      "▁aiiohaseeaieaaeeaieote\n": 3768,
      "▁lheohaieeeatn": 3769,
      "▁eaeoetmtouto": 3770,
      "hi": 3771,
      "▁taieeeaieaeeta": 3772,
      "hrdst": 3773,
      "▁aieeaeeae": 3774,
      "▁eaaoest": 3775,
      "▁toeerto": 3776,
      "▁otetaieeeown\n": 3777,
      "▁eaaoodeaieeaoero": 3778,
      "▁eaohhrdst": 3779,
      "▁teoteoeeeatoeaaeaiee": 3780,
      "▁toeertotetn": 3781,
      "etoe": 3782,
      "▁aieaeadtoottaeiee": 3783,
      "▁aiaieeown": 3784,
      "▁afatseetsee": 3785,
      "▁tseeoteea": 3786,
      "▁st0": 3787,
      "▁oodottoottn": 3788,
      "toeaetaiee": 3789,
      "▁etktttoeaetaiee": 3790,
      "▁erdeaeeadao": 3791,
      "▁toeeaotdteaetmteaetcaieeeto": 3792,
      "▁eatootiebat": 3793,
      "▁aieeaetrto": 3794,
      "▁aieoeteatoeatn": 3795,
      "eroown": 3796,
      "etnaieec": 3797,
      "▁eatoaotohaieaieae": 3798,
      "▁taieeeouoo\n": 3799,
      "ing": 3800,
      "▁tooieemoterduto": 3801,
      "▁oteaitfeeeroown": 3802,
      "▁oeteaeaieotdero": 3803,
      "▁/": 3804,
      "▁paeaieeea": 3805,
      "▁erdaieetstof": 3806,
      "▁etaieoeotohoest": 3807,
      "▁─": 3808,
      "eteaieutoouoo": 3809,
      "eaeaseeown": 3810,
      "eeataeeifaea": 3811,
      "▁ieeataeeifaea": 3812,
      "▁oodthaieaeoooo": 3813,
      "ohaseeet": 3814,
      "▁aiiohaseeet": 3815,
      "▁aietneaseear": 3816,
      "▁CA:": 3817,
      "▁aiiohaseeeteaeaseeown": 3818,
      "tofa": 3819,
      "▁teadtetn": 3820,
      "▁etaieehre": 3821,
      "▁aiaaeo": 3822,
      "eeeaiear": 3823,
      "eteb": 3824,
      "eatotn": 3825,
      "▁aieeaetrtoeaetrto": 3826,
      "▁aiaaeoeeeaiear": 3827,
      "▁eaaietsee": 3828,
      "▁oeoteea": 3829,
      "sttetn": 3830,
      "▁paetaiee": 3831,
      "▁eatollolloetouto\n": 3832,
      "▁」\n": 3833,
      "▁eeetnaieeaieaeoaieaeo": 3834,
      "▁aieeteaee": 3835,
      "▁oetodthnoo": 3836,
      "▁aieaieetnoaieaie\n": 3837,
      "▁asaeaeeemtn": 3838,
      "▁gteaietoe": 3839,
      "hoo": 3840,
      "▁oetodtn": 3841,
      "toeeaotdar": 3842,
      "aie1": 3843,
      "▁teatoaieeeae\n": 3844,
      "▁eaiaaegte\n": 3845,
      "▁paeaieeatn": 3846,
      "▁erdaehtecetktttn\n": 3847,
      "▁oeaiehr": 3848,
      "▁erdoohtov": 3849,
      "▁oietasee": 3850,
      "▁tmostaieeeto": 3851,
      "▁teoteoeaeheaeeaieero": 3852,
      "▁totoaiethtnouoo": 3853,
      "etniec": 3854,
      "eaaeeeto": 3855,
      "▁tseeeaaaieeetn": 3856,
      "▁aieeeatottea": 3857,
      "thneeeaown": 3858,
      "tllortoouoo": 3859,
      "▁aieeeertotllortoouoo": 3860,
      "▁aieelrt": 3861,
      "▁erdaieeetstt": 3862,
      "▁teaetmteaetcaieeeto": 3863,
      "▁oteatoeaaietsee": 3864,
      "▁eeadaieeetc\n": 3865,
      "eteaaehn": 3866,
      "aieeaieee": 3867,
      "▁terduto\n": 3868,
      "▁aeadeahn": 3869,
      "▁oetodaehtec": 3870,
      "▁ttaeer\n": 3871,
      "▁oetodaehtecefe": 3872,
      "▁oodeaaef": 3873,
      "eaiaieeaieee": 3874,
      "▁erdietfaafa": 3875,
      "hoown": 3876,
      "toeea": 3877,
      "tothtn": 3878,
      "▁aietaiee": 3879,
      "▁etaeae\n": 3880,
      "▁ohtoeea": 3881,
      "▁tseeooh": 3882,
      "▁eaitfeet": 3883,
      "▁eatooeeae": 3884,
      "▁lloooooetn": 3885,
      "▁aieaeoaieaieeecefe": 3886,
      "▁oodoeotaseaaie": 3887,
      "ub": 3888,
      "etothn": 3889,
      "fatown": 3890,
      "▁odeaeeasoooo": 3891,
      "▁aieae0": 3892,
      "▁hrdtllorto": 3893,
      "▁eelo": 3894,
      "▁otefatown": 3895,
      "▁iaeaieelaown": 3896,
      "om": 3897,
      "eouoto": 3898,
      "▁etaiet": 3899,
      "▁aieeeaetn\n": 3900,
      "▁tthoown": 3901,
      "ttootto": 3902,
      "▁etaiellolloetouto": 3903,
      "▁erdaieaetn": 3904,
      "▁eeaeeeaeouoto": 3905,
      "teasa": 3906,
      "▁tseeetktttn": 3907,
      "▁ietrhtn": 3908,
      "▁tooieemoteasa": 3909,
      "ill": 3910,
      "▁ooaieemtn": 3911,
      "▁oeaiea": 3912,
      "▁eaaoesttnoo": 3913,
      "ottootto": 3914,
      "ytjhn": 3915,
      "aieetstt": 3916,
      "▁teeaea\n": 3917,
      "▁eaatseaseeao": 3918,
      "▁eaatsteeafa": 3919,
      "▁eaeohetytjhn": 3920,
      "seea": 3921,
      "eeaieeea": 3922,
      "▁taiet": 3923,
      "toeae": 3924,
      "▁ooheattaieeeto": 3925,
      "taieetc": 3926,
      "aoeeeaeoooo": 3927,
      "▁aieeasadoouoo": 3928,
      "oog": 3929,
      "▁aiethtn": 3930,
      "▁loaseetctc\n": 3931,
      "it": 3932,
      "▁tseetsto": 3933,
      "eeatn0": 3934,
      "▁ohatoo": 3935,
      "▁ttsoeo": 3936,
      "▁tseetstofa": 3937,
      "us": 3938,
      "▁ottoottn": 3939,
      "▁taeuto": 3940,
      "▁oodteaaie\n": 3941,
      "▁aotetm": 3942,
      "▁aeeeaeeeeaieeea": 3943,
      "▁oetodtneaseearouoo": 3944,
      "▁ottoottn0": 3945,
      "▁oodthtn": 3946,
      "▁oodeaaietsee": 3947,
      "▁aietoe\n": 3948,
      "▁erdoeaiaieeaieee": 3949,
      "▁oteatoaieee": 3950,
      "▁oodthtnaiaae": 3951,
      "▁toeeaotdaotaieeeto": 3952,
      "▁aietn3": 3953,
      "▁oodeaaaieaietaoeeeae": 3954,
      "▁tootktttaieetc": 3955,
      "▁tseeoeotohoest": 3956,
      "▁taeaie": 3957,
      "▁iP": 3958,
      "▁etaietaoeeeaeoooo": 3959,
      "▁eatohoaseea": 3960,
      "▁teoteotneaieaietoto": 3961,
      "▁Ro": 3962,
      "▁e\n": 3963,
      "▁oohaietaie": 3964,
      "▁oheetc": 3965,
      "▁aieaeadrhtn": 3966,
      "▁taaieteetn\n": 3967,
      "▁eelotaieetclo": 3968,
      "▁oheetcero": 3969,
      "▁aieaeadrhtnaiee": 3970,
      "astoaie": 3971,
      "▁teatoaieee": 3972,
      "▁oeeeaielloooollooooieb": 3973,
      "▁oteaseearst": 3974,
      "eaaeeeatn": 3975,
      "▁ottoeaaeeeatn": 3976,
      "▁;\n": 3977,
      "▁eaetrtoeaetrto": 3978,
      "ieeaa": 3979,
      "aieaaeeteemtn": 3980,
      "▁teevegggeae": 3981,
      "▁oeotasttmntaee": 3982,
      "▁oteieeaa": 3983,
      "▁oteieeaatothtn": 3984,
      "id": 3985,
      "▁aieeaseea": 3986,
      "eadoelotac": 3987,
      "▁oohteea": 3988,
      "uooaiaaee": 3989,
      "haeadoelotac": 3990,
      "▁ooalololotnttt": 3991,
      "▁eadsac\n": 3992,
      "▁oodoshtn": 3993,
      "▁aieeaseeao": 3994,
      "uooaiaaeer": 3995,
      "▁oodaehtecaiea": 3996,
      "▁oeeeaielloooollooootetn\n": 3997,
      "▁eaaohn": 3998,
      "▁oodaehtecaieaeouoo": 3999,
      "eieeagte": 4000,
      "▁oodaiaaeeaeoteea": 4001,
      "▁tseegggaitoemoomoou": 4002,
      "▁oodeaaeaieeetotaoeeeae": 4003,
      "▁eaatsaietetnteer": 4004,
      "▁ooatneaseear": 4005,
      "M:": 4006,
      "eaetmteaetcaieeeto": 4007,
      "▁oeeeaieteaetmteaetcaieeeto": 4008,
      "▁aseaa": 4009,
      "▁oodoeteaaehn": 4010,
      "▁oeeeaieer": 4011,
      "eaiaaeeae": 4012,
      "▁taafataoeeeae": 4013,
      "am": 4014,
      "re": 4015,
      "▁eatoeerto": 4016,
      "▁oetoteieeaatn": 4017,
      "▁aieaioteaeeoooo": 4018,
      "▁oteatoaeaie": 4019,
      "aieieeasa": 4020,
      "▁oodieeaasee": 4021,
      "eaaeedpa": 4022,
      "▁eaaodthtn": 4023,
      "▁eadoeaieaieeeaaetmtn": 4024,
      "oogle": 4025,
      "▁eatoeertoieerodtn": 4026,
      "hoaieeast": 4027,
      "▁oodhoaieeast": 4028,
      "▁eaieote": 4029,
      "xetn": 4030,
      "▁oodaieaeaieeeto": 4031,
      "▁teadteeae": 4032,
      "▁taeaaietetn\n": 4033,
      "▁odeaieeatn": 4034,
      "▁eaeeasooooeaaeedho": 4035,
      "▁ottoeaiaaeeae": 4036,
      "▁eaeeasooooeaaeedhotatttn": 4037,
      "▁eood": 4038,
      "taoeeeaef": 4039,
      "▁aehtectv": 4040,
      "▁oodtmost": 4041,
      "▁eoodtaoeeeaef": 4042,
      "▁oodtmosttoeeaotdar": 4043,
      "▁aieefametaieeeto": 4044,
      "▁aitoe": 4045,
      "▁oodieeeea": 4046,
      "▁eatotnlo": 4047,
      "▁oetrto": 4048,
      "▁gteaiexetn": 4049,
      "▁taeetotoieeohhre\n": 4050,
      "▁eatotnlo0": 4051,
      "ay": 4052,
      "hosc": 4053,
      "▁oodieb": 4054,
      "▁oodaieaaeeteemtn": 4055,
      "oello": 4056,
      "oohthosc": 4057,
      "▁teatotoetasa": 4058,
      "lotothn": 4059,
      "▁oeeeaieoteeea": 4060,
      "▁eatoeieeagte": 4061,
      "▁taoteeta": 4062,
      "▁aeadem": 4063,
      "▁odeaeto": 4064,
      "▁aieeetoeaeeemtn": 4065,
      "▁eaaouoo": 4066,
      "▁Google": 4067,
      "▁erdtteao": 4068,
      "▁eaitfeeoetotoea": 4069,
      "▁aeademtaoeeeae": 4070,
      "▁odeaetothn": 4071,
      "▁aeertohn": 4072,
      "▁aieaieaieaee": 4073,
      "▁odtcteetohohaetn": 4074,
      "aieetno": 4075,
      "▁aieeteaieuto": 4076,
      "▁aieaieaieaeeaieetno": 4077,
      "▁eeadeatoeatn": 4078,
      "eetno": 4079,
      "aeieeahn": 4080,
      "▁eaeeasooootneaieaietoto\n": 4081,
      "▁tseethettooeeeaie": 4082,
      "ik": 4083,
      "▁oodaieee0": 4084,
      "▁aiiasaieown\n": 4085,
      "▁ohaoaiiasaie": 4086,
      "toteea": 4087,
      "fattsee": 4088,
      "▁ietaodtoteea": 4089,
      "▁ieteerto": 4090,
      "▁ieteaetaiee": 4091,
      "▁eatoooh": 4092,
      "▁oteeaeterduto\n": 4093,
      "▁iodiodaieaeeaaeto": 4094,
      "▁aieeaieeaiee": 4095,
      "▁tooieemoo": 4096,
      "▁erdoeotasttmntaee": 4097,
      "eaaeeetof": 4098,
      "▁odeaeeasooooouoo": 4099,
      "▁aieeaieeaiee0": 4100,
      "▁erdiaee": 4101,
      "▁-\n": 4102,
      "▁eaaoeoteerto": 4103,
      "▁eteemtnero": 4104,
      "▁eaaoeoteertottea": 4105,
      "ev": 4106,
      "▁llooooaieaieeecefe": 4107,
      "eatne": 4108,
      "son": 4109,
      "▁lloooooelotc\n": 4110,
      "▁oodotefattsee": 4111,
      "▁erdoteetnsc": 4112,
      "▁tooieemooteeta": 4113,
      "hreaiaae": 4114,
      "▁eadhtahn": 4115,
      "▁staie1": 4116,
      "▁eeaar": 4117,
      "▁oohgteeatn\n": 4118,
      "▁Jo": 4119,
      "▁oodieeaaseeeeae": 4120,
      "aieoeoteea": 4121,
      "▁eaaeaieeetothtn": 4122,
      "▁aieeeeaetaiee": 4123,
      "▁Al": 4124,
      "▁eaatnerto": 4125,
      "▁tseeaieeetstt": 4126,
      "odtofa": 4127,
      "▁thosc": 4128,
      "▁ttaeatooeer\n": 4129,
      "▁oodeaaetniec": 4130,
      "▁aiaaeeaetaiee": 4131,
      "▁eaaoodaieaieaieeatn": 4132,
      "▁ooatnaietc": 4133,
      "▁taieetcloeeatn": 4134,
      "aieeeaieeaee": 4135,
      "eaieaieeatn": 4136,
      "▁oetaieeeto": 4137,
      "ttaieeesoooo": 4138,
      "▁ieeaaseetsee": 4139,
      "▁aieaieaieaieeatn": 4140,
      "▁oteatoaieeeaieeaee": 4141,
      "teatnthoela": 4142,
      "▁ttsoeotaeieeahn": 4143,
      "▁thoscouoo": 4144,
      "▁oetaieeetoar": 4145,
      "elloaieae": 4146,
      "veasa": 4147,
      "▁aieetstof": 4148,
      "▁ooaiee": 4149,
      "▁oodeaieafteoaiaae": 4150,
      "▁erdtnoieetaie": 4151,
      "▁eatoeaieeatn": 4152,
      "▁tatveasa": 4153,
      "▁teaaieeaaee": 4154,
      "▁todcto": 4155,
      "aieaellorto": 4156,
      "▁taseeetaotasaie": 4157,
      "▁hno": 4158,
      "▁eaaoelloaieae": 4159,
      "▁elrttaieeesoooo": 4160,
      "eaieaseaa": 4161,
      "▁eadaieeaee": 4162,
      "▁thettooeeeaie": 4163,
      "eaieaieaieaseaa": 4164,
      "xxeae": 4165,
      "▁eaeaetneaaeedho\n": 4166,
      "▁Mar": 4167,
      "▁tooieemotv": 4168,
      "▁ottoeaeteb": 4169,
      "etlo": 4170,
      "tjeatn": 4171,
      "▁aaoteoteea": 4172,
      "▁eaieeeaeaseeao": 4173,
      "aiaaeieemo": 4174,
      "▁eaaieeeetoetaieeeto": 4175,
      "▁thnoo": 4176,
      "▁ohaoeaeheaeeaieero": 4177,
      "aiaaeieemoero": 4178,
      "▁oteetn": 4179,
      "▁aieaeemtn": 4180,
      "▁oeotdaieetstof": 4181,
      "eaieafteoaiaaeaieeetc": 4182,
      "▁ieteertoer": 4183,
      "▁Z": 4184,
      "▁allollo": 4185,
      "patooteaeieeouoo": 4186,
      "▁oetodpatooteaeieeouoo": 4187,
      "▁taietsaie": 4188,
      "▁allollofa": 4189,
      "▁gteiettc": 4190,
      "thaietktttn": 4191,
      "▁eaieeeaeaieaieae": 4192,
      "▁oetodtcteetohohaetn": 4193,
      "▁taseeettjeatn": 4194,
      "▁oodaietc\n": 4195,
      "teaeaitooooo": 4196,
      "▁oohetlo": 4197,
      "▁erdaotohaieaieae": 4198,
      "▁eatoaieeeatn": 4199,
      "▁toeeaotdeaseeao": 4200,
      "▁eaieafteaeaitooooo": 4201,
      "▁thaietktttn\n": 4202,
      "▁teoteoeaeero\n": 4203,
      "▁ooheeaaetnoo": 4204,
      "▁eaieafteaeaitoooooeaiaae": 4205,
      "ad": 4206,
      "eoteatn": 4207,
      "▁etasee\n": 4208,
      "▁aeadtcllorto": 4209,
      "▁tseeeea": 4210,
      "▁oetiaaeemtceae": 4211,
      "aeerto": 4212,
      "▁oohaieeasado": 4213,
      "▁lloooothneeeaown": 4214,
      "▁eeadteeatn": 4215,
      "toottn": 4216,
      "ieeaetn": 4217,
      "▁aieaeoaieaellorto": 4218,
      "▁tktoieemtn": 4219,
      "▁tataito": 4220,
      "▁eadeaetaiee": 4221,
      "▁gteloaie\n": 4222,
      "▁egggeadst": 4223,
      "▁tataitoetothn": 4224,
      "ellollo": 4225,
      "ieaee": 4226,
      "▁~": 4227,
      "▁oodellollo": 4228,
      "▁erdethno": 4229,
      "▁tateea1\n": 4230,
      "▁tkthreaiaae": 4231,
      "ieaeeiehn": 4232,
      "▁oodellolloeae": 4233,
      "il": 4234,
      "▁toteatnaieae": 4235,
      "▁ohaottea": 4236,
      "▁aseaie\n": 4237,
      "▁aiiohaseethnaie": 4238,
      "teatngte": 4239,
      "▁lltoieemopaoeoteaiee\n": 4240,
      "G:": 4241,
      "vtaieaeo": 4242,
      "▁erdseetpa": 4243,
      "▁odthtngte": 4244,
      "▁ttaafaeeeaetetnouoo": 4245,
      "dtoar": 4246,
      "he": 4247,
      "eeetpa": 4248,
      "eaeta": 4249,
      "▁tatotnaie": 4250,
      "▁oeeeaieetn": 4251,
      "aieaaiee": 4252,
      "▁eatoieeaaseeeaioteato": 4253,
      "erodtoar": 4254,
      "▁eaahrhtne": 4255,
      "▁eadeaaeeetof": 4256,
      "▁etneaeta": 4257,
      "▁oetoieemopa": 4258,
      "▁aehtecefe": 4259,
      "ooohtc": 4260,
      "▁tneaiesa\n": 4261,
      "▁thaieaeooooea": 4262,
      "▁ottoottoo": 4263,
      "eaaetotjhn": 4264,
      "▁lherodtoar": 4265,
      "▁ieteertoeroouoo": 4266,
      "▁oeeeaieetneeb": 4267,
      "▁eaahrhtneoooo": 4268,
      "aieelrt": 4269,
      "▁aietaieeesoooo": 4270,
      "aieaeemtn": 4271,
      "▁erdaotoh": 4272,
      "▁llooooeeetpa": 4273,
      "eaaaieaietaoeeeae": 4274,
      "faeaaaieaietaoeeeae": 4275,
      "▁teeafaeaaaieaietaoeeeae": 4276,
      "▁oeeeaietneaseaa\n": 4277,
      "▁eetc0\n": 4278,
      "▁oetmtnastoaie": 4279,
      "▁erdaotohaieelrt": 4280,
      "ab": 4281,
      "aseear": 4282,
      "▁tntotototo": 4283,
      "▁oeeeaietvtaieaeo": 4284,
      "ieeohhn": 4285,
      "▁faetthooeroeaitfee": 4286,
      "▁aotaseear": 4287,
      "▁ooaoteatnthoela": 4288,
      "▁Chr": 4289,
      "▁tntotototoea": 4290,
      "▁aeadtcee\n": 4291,
      "▁aieeetoeaetaiee": 4292,
      "▁ottoieeaaseeeaioteato": 4293,
      "▁erdtteaown": 4294,
      "▁ottoottoohottn": 4295,
      "▁aieeaa": 4296,
      "▁tseeeaeee": 4297,
      "▁oetotopa": 4298,
      "▁toothoaslohoo": 4299,
      "▁tseeeaeeemtn": 4300,
      "▁toothoaslohooeoteea": 4301,
      "eaaeedhn": 4302,
      "eteato": 4303,
      "▁aietstt": 4304,
      "▁aeaieeea": 4305,
      "eeaeoouoo": 4306,
      "▁eatotaiee": 4307,
      "ebuto": 4308,
      "▁teatoo": 4309,
      "▁oodettaieerto\n": 4310,
      "oteeaeteato": 4311,
      "oteeaeteatoebuto": 4312,
      "aieeetno": 4313,
      "▁aieeeeae": 4314,
      "eetoaie": 4315,
      "▁teetaieee\n": 4316,
      "▁taeeexaieeetno": 4317,
      "▁%\n": 4318,
      "▁tooieemoaieaeemtn": 4319,
      "▁aieaeoteetoaie": 4320,
      "▁aieeetootaiaoteaiee": 4321,
      "▁taeeexaieeetnoeeeaie": 4322,
      "un": 4323,
      "ook": 4324,
      "▁hreaiaae": 4325,
      "▁otasatotetn": 4326,
      "▁eaaeedouoo": 4327,
      "ttoottooh": 4328,
      "▁hohrteatn": 4329,
      "eaieotdttt": 4330,
      "etaieeaee": 4331,
      "▁erdaie": 4332,
      "▁teadoteeaeteatoebuto": 4333,
      "▁toeeaotdeaieafteoaiaae": 4334,
      "▁oodeteaeeae": 4335,
      "▁oohouooaiaaeer": 4336,
      "▁ietaodtoteeaown": 4337,
      "▁taeeaeaieeeto": 4338,
      "▁eatoeae0": 4339,
      "▁ietethotc": 4340,
      "▁eaeeemtn\n": 4341,
      "▁eaieaieaief\n": 4342,
      "▁oteatnaieaeeaaeto": 4343,
      "▁aieaeooieemopa": 4344,
      "▁eeadoetoeeae": 4345,
      "▁You": 4346,
      "haitoetn": 4347,
      "tieer": 4348,
      "▁taieeeeae": 4349,
      "▁taetno": 4350,
      "▁teaeaaee": 4351,
      "▁aiethaitoetn": 4352,
      "▁oeaieatmtn": 4353,
      "ul": 4354,
      "▁aieaeoeaieaieae": 4355,
      "ick": 4356,
      "SA": 4357,
      "aeertohn": 4358,
      "▁oodieeohhn": 4359,
      "▁ieeaaseeaieaieaieeea": 4360,
      "aoteoteeetn": 4361,
      "▁aieeetotthn": 4362,
      "▁oteatoooea\n": 4363,
      "▁tooieemotsiec": 4364,
      "▁toeeaotdiaee": 4365,
      "▁ottoooh": 4366,
      "▁ttaoest": 4367,
      "▁gggaieeeatn": 4368,
      "▁d": 4369,
      "▁eeaeo": 4370,
      "▁taeeae": 4371,
      "▁taaieeaiee": 4372,
      "▁etaiethtn": 4373,
      "▁oetieea": 4374,
      "▁aeadtc\n": 4375,
      "▁aieeeaeero\n": 4376,
      "▁oeeeaieeaa": 4377,
      "▁totneaaeedpa": 4378,
      "etieeaseea": 4379,
      "ube": 4380,
      "▁aieetstofthtn": 4381,
      "▁Chris": 4382,
      "▁eeaeo0": 4383,
      "▁taeeaesttetn": 4384,
      "itt": 4385,
      "eetnrooo": 4386,
      "▁ooaeaaeaiee": 4387,
      "▁oeeeaietnaietc\n": 4388,
      "▁eohaoooohohr": 4389,
      "▁—\n": 4390,
      "▁etaieeaeeae": 4391,
      "▁eohaoooohohrtthnst": 4392,
      "av": 4393,
      "▁taaietaie": 4394,
      "▁oodeetnrooo": 4395,
      "▁eadaeae": 4396,
      "eaieeetof": 4397,
      "▁teoteoeaieafteoaiaae": 4398,
      "▁oeoteaieeouoo\n": 4399,
      "▁emtctaiee": 4400,
      "▁oteatooetotoea": 4401,
      "▁aieaeooietaseaa": 4402,
      "▁tootktttso": 4403,
      "▁erdafataoeeeae": 4404,
      "aieaieeeaaetmtn": 4405,
      "eteaieeea": 4406,
      "▁llooootnst": 4407,
      "▁oeaieas": 4408,
      "ohaieaieeeaaetmtn": 4409,
      "▁taoetieeaseea": 4410,
      "taieesoooo": 4411,
      "aieaehn": 4412,
      "▁oohfiaeaieeeto\n": 4413,
      "▁aehtecthntv\n": 4414,
      "▁ohatooeteaieeea": 4415,
      "▁oeaieasaieaehn": 4416,
      "aeaieela": 4417,
      "eaiaeaieela": 4418,
      "▁aieeetaoeeeae": 4419,
      "eatoetn": 4420,
      "▁ttatjhn": 4421,
      "▁tseeeatotn": 4422,
      "▁eaaieeeaiaeaieela": 4423,
      "▁eaieaohaieaieeeaaetmtn": 4424,
      "▁eeadaieeaee\n": 4425,
      "▁tteao": 4426,
      "▁teer\n": 4427,
      "▁aieee2\n": 4428,
      "▁oemtseeeeae\n": 4429,
      "ieeataeeifaea": 4430,
      "▁eatototoeatoetn": 4431,
      "▁oeeeaieoteatoown": 4432,
      "▁aieeetaoeeeaeoooo": 4433,
      "▁tseeeatotnrodoo": 4434,
      "im": 4435,
      "ietn0": 4436,
      "▁c": 4437,
      "satoto": 4438,
      "▁erdloaie": 4439,
      "▁eadtaieesoooo": 4440,
      "ian": 4441,
      "▁toottiisoooo\n": 4442,
      "ietetno": 4443,
      "▁taeasatoto": 4444,
      "▁oodoietetno": 4445,
      "▁thaieaeooootsiec": 4446,
      "▁tast": 4447,
      "etasee": 4448,
      "▁ttmon": 4449,
      "▁eatoaieeeouoo\n": 4450,
      "▁toeeaotdt": 4451,
      "▁aieaeooohtc": 4452,
      "▁taeieetc\n": 4453,
      "▁tnohouoo\n": 4454,
      "▁tastaie0": 4455,
      "eieeaetn": 4456,
      "▁erdeieeaetn": 4457,
      "▁tteaie": 4458,
      "▁tathrto\n": 4459,
      "▁gtee": 4460,
      "mtctaiee": 4461,
      "▁oettataoeeeaeouoo\n": 4462,
      "▁aieeaaieeetstt": 4463,
      "▁aieaeoeaeeae": 4464,
      "▁tcaiee": 4465,
      "detaieeeto": 4466,
      "eaaethotceta": 4467,
      "ooheerto": 4468,
      "▁oteeetaieee\n": 4469,
      "▁aiiohaseeeaaethotceta": 4470,
      "▁eeta1": 4471,
      "▁aaoteoteeeatn\n": 4472,
      "▁afaooheerto": 4473,
      "▁asaaieeaieee": 4474,
      "▁eaaaieeetneae": 4475,
      "▁tseeeaeaieotdttt": 4476,
      "DP": 4477,
      "ry": 4478,
      "▁・": 4479,
      "eertoooea": 4480,
      "▁toeertoooea": 4481,
      "▁erdoohthoohneerto": 4482,
      "▁tseeteaieethn": 4483,
      "▁aaoteoteeaeaaeedhn": 4484,
      "ol": 4485,
      "▁ooaeteaieutoouoo": 4486,
      "▁eeaaetaie": 4487,
      "▁oeeeaieemtctaiee": 4488,
      "man": 4489,
      "▁ooaeaieaie": 4490,
      "▁eeaaetaief": 4491,
      "▁eatotaieeasa": 4492,
      "eroeasa": 4493,
      "▁oeoteaiee\n": 4494,
      "▁oohhre\n": 4495,
      "▁eeaeaeeaeroeasa": 4496,
      "▁eatototoeatoetnteer": 4497,
      "K:": 4498,
      "ey": 4499,
      "▁w": 4500,
      "tst": 4501,
      "aaaeoooo": 4502,
      "▁eaieeaeoouoo": 4503,
      "▁ttaafa": 4504,
      "▁eadaieeetstt\n": 4505,
      "oohteea": 4506,
      "eer1": 4507,
      "▁ieeaaseeood": 4508,
      "ebook": 4509,
      "▁teeatn": 4510,
      "▁tseeoest": 4511,
      "▁oetodieemtn": 4512,
      "▁afaetottn": 4513,
      "▁oelloohteea": 4514,
      "▁oteieeaatn": 4515,
      "▁GDP": 4516,
      "▁tkttaieieeasa": 4517,
      "▁ieeaaseeoodteaaie": 4518,
      "har": 4519,
      "thoaiaae": 4520,
      "▁pthoaiaae": 4521,
      "teeaaaaeoooo": 4522,
      "▁eaieaieaeown": 4523,
      "ex": 4524,
      "▁fiaeaieeeto": 4525,
      "▁oodtotnaie": 4526,
      "▁aieaouoo": 4527,
      "ietfaafa": 4528,
      "▁toeaieaietoto": 4529,
      "▁oohtoietfaafa": 4530,
      "eaaeoooo": 4531,
      "▁taeetotoieeohaieeetc\n": 4532,
      "aieetclo": 4533,
      "▁erdetaie": 4534,
      "eaataoeeeaehn": 4535,
      "▁oteetnsc": 4536,
      "▁tootaiaaeieemoero": 4537,
      "▁eetnaie": 4538,
      "▁eaatnoieetaie": 4539,
      "▁atotst": 4540,
      "▁aotetmiodiodtaoeeeae": 4541,
      "▁taeae0": 4542,
      "▁aieeeea1": 4543,
      "hone": 4544,
      "▁taeaeoteea": 4545,
      "▁aotasee": 4546,
      "▁aieaeoieaeeiehn": 4547,
      "eaieaeeaieaee": 4548,
      "▁oietsodsod": 4549,
      "▁eeetneea": 4550,
      "▁GP": 4551,
      "▁elrtpa": 4552,
      "▁teatotorodoo": 4553,
      "▁teatotorodooaeaie": 4554,
      "▁aieeeer1": 4555,
      "▁llooooma": 4556,
      "▁eatothaietktttn": 4557,
      "▁ttaood": 4558,
      "▁teatoeaataoeeeaehn": 4559,
      "▁oeeeaie0\n": 4560,
      "▁>\n": 4561,
      "▁teatooeaieasaie": 4562,
      "▁ttaoodeer": 4563,
      "e,": 4564,
      "▁erdhottniebtjho": 4565,
      "▁eatoeahn": 4566,
      "▁ttaiebta": 4567,
      "▁etsuto\n": 4568,
      "elotac": 4569,
      "▁afaetototn": 4570,
      "▁oeeeaieeaaeaieeeae": 4571,
      "ethre": 4572,
      "tsteeafa": 4573,
      "etottea": 4574,
      "▁tneaseearouoo": 4575,
      "otoh": 4576,
      "otasee": 4577,
      "▁ieeaaseeaieai": 4578,
      "▁eatooeotohoest": 4579,
      "▁paoeoteaie": 4580,
      "▁tatllorto\n": 4581,
      "▁eaeeelotttea": 4582,
      "▁ieeaaseeaieaieaie": 4583,
      "eaeaieeea": 4584,
      "hrodtofa": 4585,
      "han": 4586,
      "▁oetodhtahn": 4587,
      "▁etaieeaieea": 4588,
      "▁eteaieutoouoo\n": 4589,
      "▁aiaaeaeaieeea": 4590,
      "▁afaasoteafa": 4591,
      "▁erdoelloodtoea": 4592,
      "▁...\n": 4593,
      "▁etaieeaieeaeoero": 4594,
      "▁oodhrodtofa": 4595,
      "eohaooooaieae": 4596,
      "▁oetodeasto\n": 4597,
      "▁eahnsodsod": 4598,
      "▁Fac": 4599,
      "▁toeaieaietotoar": 4600,
      "▁eaeeelottteaaietsee": 4601,
      "ip": 4602,
      "eaioeaiooetiaaeemtc": 4603,
      "▁eaiaaeaieeeto": 4604,
      "▁teoteoeatne": 4605,
      "▁aieeaeeasoooo\n": 4606,
      "▁taieellolloeatn\n": 4607,
      "▁ieetaie": 4608,
      "▁toeeaotdeutoeuto\n": 4609,
      "▁Br": 4610,
      "▁tseeoteetneaeeasoooo": 4611,
      "▁aietaieetea": 4612,
      "▁tseeoohtoeae": 4613,
      "▁oodiebeaeeemtn": 4614,
      "ttoottoohst": 4615,
      "gtegte": 4616,
      "eaaeaieeetotaoeeeae": 4617,
      "▁eadaiee": 4618,
      "▁gtegtegte": 4619,
      "▁oetodeaaeaieeetotaoeeeae": 4620,
      "▁eaeeasoooohn": 4621,
      "▁taoeote\n": 4622,
      "▁aieeeeto\n": 4623,
      "▁ttsoeoteaewn": 4624,
      "▁taieeeetno": 4625,
      "▁aieeeeaa": 4626,
      "▁oohtaetaiee": 4627,
      "▁erdthaietc": 4628,
      "▁eaieeea\n": 4629,
      "aieeeae1": 4630,
      "▁tteatteaaieeeto\n": 4631,
      "▁eaaaieeetnst": 4632,
      "▁teecottootto": 4633,
      "▁Facebook": 4634,
      "\"\n": 4635,
      "ir": 4636,
      "ud": 4637,
      "eeaetmtn": 4638,
      "eerod": 4639,
      "▁aieooh": 4640,
      "▁ieeaaseellolloftaea\n": 4641,
      "▁eeeastetn": 4642,
      "▁taoeoteaie\n": 4643,
      "▁eaitfeetaieetclo": 4644,
      "▁NA": 4645,
      "▁oodeutoeuto": 4646,
      "▁erdteeaaaaeoooo": 4647,
      "▁tsfatts": 4648,
      "▁aieiet": 4649,
      "▁tootgte": 4650,
      "▁aieaieaieeea\n": 4651,
      "▁tsfattsfa": 4652,
      "ag": 4653,
      "▁toeeaotdeeaetmtn": 4654,
      "▁iaeaieela": 4655,
      "▁And": 4656,
      "▁oeaiehroooo": 4657,
      "▁eatoooheerto": 4658,
      "▁erdetnaieec": 4659,
      "▁aieood": 4660,
      "▁thtseeastteea\n": 4661,
      "▁eetauto": 4662,
      "▁aieeaaieeeatsee": 4663,
      "▁♫\n": 4664,
      "▁aieoodtefsoeo": 4665,
      "▁ttateea": 4666,
      "▁eaaeedtnoho": 4667,
      "▁etototn": 4668,
      "▁aieaiedutoe\n": 4669,
      "▁aieaieaieeeaeuto\n": 4670,
      "▁tootieer\n": 4671,
      "▁hohrtthnst\n": 4672,
      "▁gteteeae": 4673,
      "▁ttateeaead": 4674,
      "ut": 4675,
      "▁erdoo": 4676,
      "▁toeai": 4677,
      "▁aiaieeaaiaieee\n": 4678,
      "▁eaieaftn": 4679,
      "▁aiepaeaier\n": 4680,
      "▁iPhone": 4681,
      "B:": 4682,
      "tnta": 4683,
      "stoo": 4684,
      "▁oodeatoeatn": 4685,
      "tototnaie": 4686,
      "▁ooatefsoeo": 4687,
      "▁oeeeaieodthtn": 4688,
      "▁asao": 4689,
      "▁ohatototnaie": 4690,
      "▁ieeeaeaiee\n": 4691,
      "▁gteeaaie": 4692,
      "eaieafteoaiaae1": 4693,
      "▁etctnta": 4694,
      "▁etceaieafteoaiaae1": 4695,
      "▁oeeeaieodthtnaie": 4696,
      "heaaeedtetn": 4697,
      "▁【": 4698,
      "▁teaewn": 4699,
      "eaaeaieea": 4700,
      "▁eaaeaieeeadst": 4701,
      "▁eaaaieeaiaaehn": 4702,
      "▁oeteaaeoooo": 4703,
      "▁ttaeaeae": 4704,
      "▁aieeetc1\n": 4705,
      "▁eaaeaieeetotaoeeeae\n": 4706,
      "▁aieaieeeto0\n": 4707,
      "▁etteatoteatnaiee": 4708,
      "▁gteeaeeae": 4709,
      "ch": 4710,
      "▁】": 4711,
      "eaieoteaie": 4712,
      "▁tatoo": 4713,
      "▁oodaiea": 4714,
      "▁eatoeaiea": 4715,
      "eoteieeaatn": 4716,
      "▁iec0\n": 4717,
      "▁llooootaieerhtn\n": 4718,
      "aiaec": 4719,
      "▁teoteooeoteaseeexeceee": 4720,
      "▁GPS": 4721,
      "▁tatoottiisoooo": 4722,
      "▁eatoeaieaeaieeetof": 4723,
      "▁eaaethotceta": 4724,
      "▁oeoteaiear": 4725,
      "▁teoteoaieaaiee": 4726,
      "▁teatoteaieeeae\n": 4727,
      "▁taieieeasa\n": 4728,
      "▁aieaeadthnaie\n": 4729,
      "▁loaseetctcouoo\n": 4730,
      "▁aieeae1": 4731,
      "▁oodaeaeattetaieeeto": 4732,
      "itter": 4733,
      "▁oeteaaeooooown": 4734,
      "ig": 4735,
      "ettc": 4736,
      "▁eaaeohaooooaieae": 4737,
      "▁eatoaieeeea": 4738,
      "▁rto\n": 4739,
      "▁oeeeaieoteeaeterduto\n": 4740,
      "saeerto": 4741,
      "witter": 4742,
      "aieeoeto": 4743,
      "▁taieerhtn": 4744,
      "▁eatoeea": 4745,
      "▁eatoeaier": 4746,
      "▁erdottoottoohst": 4747,
      "▁teevoteato\n": 4748,
      "▁aieedst\n": 4749,
      "▁Ar": 4750,
      "▁oodhtahngte": 4751,
      "▁Fr": 4752,
      "▁ttateeaeadsaeerto": 4753,
      "ell": 4754,
      "etoasatotototo": 4755,
      "eetuto": 4756,
      "▁eaaet": 4757,
      "▁aieaeasee": 4758,
      "▁aieaotasee": 4759,
      "▁ohaieeoeto": 4760,
      "▁iecouoo": 4761,
      "▁odtaoeeeae": 4762,
      "▁aieaeadteetn": 4763,
      "▁oteaseear\n": 4764,
      "▁tathaietktttn\n": 4765,
      "▁eaeeasooootetnaieasaie": 4766,
      "▁eatne\n": 4767,
      "▁toeeaotdeaaeaiee\n": 4768,
      "▁tooieemoaieaeo": 4769,
      "▁eeeatoeeta": 4770,
      "aehtecaieaeaiaae": 4771,
      "▁otasatotetneta": 4772,
      "stooeatn": 4773,
      "▁aieaeasee1": 4774,
      "eaiot": 4775,
      "loetaieeeto": 4776,
      "▁aieeeaeeadeaeetc": 4777,
      "▁eaahaeadoelotac": 4778,
      "▁toloetaieeeto": 4779,
      "eaedooootetn": 4780,
      "▁Ma": 4781,
      "▁eaeoteeatvoeae": 4782,
      "▁ttaafaeaiot": 4783,
      "▁ttaafaeaioteaedooootetn": 4784,
      "asto": 4785,
      "▁tseee": 4786,
      "eaieeeaeaieeea": 4787,
      "▁eaieeeaeaieeeaeaieeea": 4788,
      "oohtc": 4789,
      "▁oeeeaieea\n": 4790,
      "odsod": 4791,
      "▁ieteaaetotjhn": 4792,
      "▁aieetsee\n": 4793,
      "▁etaietaiee": 4794,
      "▁eeaderodtno\n": 4795,
      "▁ottoeaioteatn": 4796,
      "▁eaieotdetaieeeto\n": 4797,
      "▁aietneeaaie": 4798,
      "▁ttsoeotnoieetaie": 4799,
      "▁toeaietaieeesoooo": 4800,
      "▁tseeeiebtn": 4801,
      "iv": 4802,
      "▁b": 4803,
      "▁taieetea": 4804,
      "aieaeeta": 4805,
      "▁ooagggtaitoe": 4806,
      "▁oetodaieaeeta": 4807,
      "▁teetoeief": 4808,
      "▁oeaieasaie\n": 4809,
      "▁erdaieea1": 4810,
      "▁ottoaieaieaieeatn": 4811,
      "▁aeaeatt\n": 4812,
      "▁tktetototn": 4813,
      "▁taeaaetaseea\n": 4814,
      "▁ooaeaaoeftac": 4815,
      "ck": 4816,
      "▁aieetsc": 4817,
      "▁aeaitooooo": 4818,
      "▁etneerto": 4819,
      "▁eatnhre": 4820,
      "▁oeoteaiepa\n": 4821,
      "▁tnohaieeeto": 4822,
      "▁emst\n": 4823,
      "▁oohoeoteea": 4824,
      "▁aiaaeloaseetctc": 4825,
      "eeetneeto": 4826,
      "▁erdeaaeeetottea": 4827,
      "▁ooaieemoeltc": 4828,
      "um": 4829,
      "ttthn": 4830,
      "▁oteettthn": 4831,
      "▁toeeaotdeief": 4832,
      "▁ieboello": 4833,
      "▁teatoar\n": 4834,
      "▁atot\n": 4835,
      "▁rhtn\n": 4836,
      "▁oeeeaieoeoteaieeuto\n": 4837,
      "▁oeasa\n": 4838,
      "▁eaaoet": 4839,
      "▁ohatoaieeeatn": 4840,
      "ieown": 4841,
      "eaieieown": 4842,
      "▁oodeief": 4843,
      "▁erdeteaieutoouoo": 4844,
      "▁eaelost1": 4845,
      "▁etaieoteatn": 4846,
      "▁taieeeoohtooestown\n": 4847,
      "▁eetaareae\n": 4848,
      "▁eatoeeaaeasaee\n": 4849,
      "▁tooieemoteae": 4850,
      "▁NASA": 4851,
      "▁oodeiefeatn": 4852,
      "▁etaieoteatnthoela": 4853,
      "▁f": 4854,
      "eaieoheloeae": 4855,
      "▁eatolotothn": 4856,
      "odstooeatn": 4857,
      "▁ietemtc": 4858,
      "▁oettataoeeeaetaieeesoooo": 4859,
      "▁eatooodstooeatn": 4860,
      "xxeaeouoo": 4861,
      "▁teeasaar\n": 4862,
      "▁ottoottoohaieaeo": 4863,
      "▁aieeaexxeaeouoo": 4864,
      "▁aieoetotn": 4865,
      "▁gteoieemtn": 4866,
      "▁ottoooheetc": 4867,
      "EO": 4868,
      "os": 4869,
      "▁taet": 4870,
      "▁aieaotoh": 4871,
      "▁tseeeae": 4872,
      "thaitoetn": 4873,
      "▁ttallothn\n": 4874,
      "▁eaeeasoooooohtc": 4875,
      "eaaeethtn": 4876,
      "▁ooheaetn\n": 4877,
      "▁afaeaaeethtn": 4878,
      "▁aieaeogggaitoemoomoou": 4879,
      "▁teoteothneeea": 4880,
      "▁ooaeaaieeeeto": 4881,
      "▁tmeuaiee": 4882,
      "▁teoteothneeeaown": 4883,
      "H:": 4884,
      "tee": 4885,
      "eeaetaiee": 4886,
      "▁tnoieetaie": 4887,
      "etaieeoesttetn": 4888,
      "eatotmtn": 4889,
      "▁llooooelo": 4890,
      "ohhre": 4891,
      "▁teatoottn": 4892,
      "theaaeed": 4893,
      "▁ietfaafa": 4894,
      "▁eatoaieeemtc": 4895,
      "▁oohtotv\n": 4896,
      "▁thiaec\n": 4897,
      "▁afaaieaiee": 4898,
      "▁eadeaieduto\n": 4899,
      "▁eaieafhnasee": 4900,
      "and": 4901,
      "▁eaiaaetaieeoesttetn": 4902,
      "▁oeaieeeatotmtn": 4903,
      "▁egggeadetaieeeto": 4904,
      "eaaeaieeatsee": 4905,
      "▁llooooeloeadtetn": 4906,
      "theaaeedtetn0": 4907,
      "▁afaaieaieetheaaeedtetn0": 4908,
      "ap": 4909,
      "eaeaetn": 4910,
      "eaietmtn": 4911,
      "staie0": 4912,
      "gteeaaie": 4913,
      "▁eaagteeaaie": 4914,
      "▁oetodthaitoetn": 4915,
      "▁toeeaotder": 4916,
      "▁odthtn\n": 4917,
      "▁oelloodtoea\n": 4918,
      "▁aieeetootieer": 4919,
      "▁tseeoohgte": 4920,
      "ber": 4921,
      "qu": 4922,
      "tec": 4923,
      "ettcaiee": 4924,
      "▁ettea": 4925,
      "▁oohtoto": 4926,
      "▁oodlololotnttt": 4927,
      "▁oodeeatn0": 4928,
      "▁oeaiaieeaiee": 4929,
      "▁etneaetaiee": 4930,
      "▁oeeeaieiodiodtnttt": 4931,
      "▁teatoteetn": 4932,
      "▁toeeaotdeaioteatn": 4933,
      "▁eetn0\n": 4934,
      "▁aiestar0\n": 4935,
      "▁tkteaeaietmtn": 4936,
      "▁aieieteloeae": 4937,
      "▁erdooea": 4938,
      "▁etteaf": 4939,
      "aeai": 4940,
      "▁haeadoelotac": 4941,
      "toaslo": 4942,
      "▁taaotoh": 4943,
      "teatoaeai": 4944,
      "▁taeuo\n": 4945,
      "▁ieteaaemtn\n": 4946,
      "▁eatoeaiaaeeerto\n": 4947,
      "▁eatoeaeaieoheloeae": 4948,
      "▁oteeetsodsod": 4949,
      "▁Twitter": 4950,
      "▁etaieoelotac": 4951,
      "▁oodaieeetsttaiaae": 4952,
      "▁eadaieesodsod": 4953,
      "▁oohtototeatoaeai": 4954,
      "▁taaotohaieaieeeto": 4955,
      "▁oohtototeatoaeaitoaslo": 4956,
      ".c": 4957,
      "▁eiebtn": 4958,
      "▁ieerod": 4959,
      "▁teoteoaseaie": 4960,
      "toown0": 4961,
      "▁eeaellorto\n": 4962,
      "▁etaietaieetea": 4963,
      "▁tseeeae0": 4964,
      "▁ieerodtoown0": 4965,
      "boooo": 4966,
      "ion": 4967,
      "ow": 4968,
      "▁taieeec0": 4969,
      "▁oodeeetneeto": 4970,
      "▁eatoteeatn": 4971,
      "asaf": 4972,
      "▁oteatoetooetaieeeto\n": 4973,
      "▁teevottootto": 4974,
      "▁oodeaaeto": 4975,
      "▁Dav": 4976,
      "▁hta": 4977,
      "hohoho": 4978,
      "\",": 4979,
      "▁‧": 4980,
      "toeasatn": 4981,
      "toeaieaieaieaseaa": 4982,
      "▁etsc": 4983,
      "▁tneeaaie": 4984,
      "▁oodeatotn": 4985,
      "▁erdae": 4986,
      "▁eaalloooo": 4987,
      "▁eeadtaiee": 4988,
      "▁teoteotoeaieaieaieaseaa": 4989,
      "▁toeeaotdaseaie": 4990,
      "▁ieeaaseeeeta\n": 4991,
      "▁etaieeasaf": 4992,
      "▁aieaeadaieetstt": 4993,
      "▁easatoeasatn": 4994,
      "▁aieaeouoo\n": 4995,
      "dtcasee": 4996,
      "▁eaaoeteatoeatn": 4997,
      "▁gteeaettc": 4998,
      "▁taeaaieeee\n": 4999,
      "▁oodeatotnrodto": 5000,
      "▁erdaedtcasee": 5001,
      "▁teoteotoeaieaieaieaseaaetaieeeto": 5002,
      "▁eaaoeteatoeatnetaie": 5003,
      "Tube": 5004,
      "oaieaeo": 5005,
      "▁eatoeaaie": 5006,
      "▁aieieeataeeifaea": 5007,
      "faetasaa": 5008,
      "▁toeeaotdtnaietc": 5009,
      "▁tseegggtaitoe\n": 5010,
      "▁erdaiaaeeaeoteea\n": 5011,
      "▁ooheeaeaiaa": 5012,
      "▁patneaieaietoto\n": 5013,
      "▁eadoetv": 5014,
      "▁ooheeaeaiaaeouoo": 5015,
      "ug": 5016,
      "aieouoo": 5017,
      "▁oeeeaielloooollooooaieaeo": 5018,
      "▁ooheloeae\n": 5019,
      "▁Dan": 5020,
      "▁YouTube": 5021,
      ".com": 5022,
      "▁eaallooooaitoeaiaae": 5023,
      "yn": 5024,
      "▁eaaiaec": 5025,
      "eaiehre": 5026,
      "▁oodstaie0": 5027,
      "etaieeethn": 5028,
      "▁eaataieetclo": 5029,
      "▁oetetaieeethn": 5030,
      "▁oeeeaieteaee": 5031,
      "▁teaaie": 5032,
      "▁teoteoaieae": 5033,
      "▁erdoeaierto": 5034,
      "▁oeeeaieeeaduo\n": 5035,
      "▁tootaieeetc": 5036,
      "▁tvtaieaeoaieeeeto": 5037,
      "▁oeeeaieseaie\n": 5038,
      "▁htahoetaieeeto": 5039,
      "etieerodtn": 5040,
      "▁oohtec": 5041,
      "▁erdaeae": 5042,
      "▁eatotaoeeeae": 5043,
      "▁aieas": 5044,
      "eeeb": 5045,
      "▁tofatc": 5046,
      "▁ooaaotasee": 5047,
      "taoeeeaeeeb": 5048,
      "▁aehtectaoeeeaeeeb": 5049,
      "▁eadoeoteaieetc\n": 5050,
      "▁tooieemoea": 5051,
      "▁paotetktttneae": 5052,
      "eaaieeeetoetaieeeto": 5053,
      "▁eaitfeeoeaiehre": 5054,
      "▁oetieeaaie": 5055,
      "RI": 5056,
      "▁&": 5057,
      "aieeethn": 5058,
      "▁aieeaot": 5059,
      "▁llooooeaieafteoaiaaeaieeetc": 5060,
      "▁eeadth": 5061,
      "▁tslo": 5062,
      "▁teater": 5063,
      "▁teetoteatngte": 5064,
      "aitoaieeethn": 5065,
      "▁taoeeeaie\n": 5066,
      "▁eetattt\n": 5067,
      "▁eatoeaaeeeto": 5068,
      "▁eaitfeetefsoeo": 5069,
      "▁eaeeasoooohnoaieaeo": 5070,
      "▁aieaotohaietcaiee": 5071,
      "▁oeaiaieeaieedetaieeeto": 5072,
      "▁aieeaotetc0": 5073,
      "▁eeadthaitoaieeethn": 5074,
      "di": 5075,
      "▁tev": 5076,
      "taa": 5077,
      "tototn": 5078,
      "▁faafa\n": 5079,
      "▁toeeaotdthneeea": 5080,
      "▁oohtoaiiasaie": 5081,
      "▁oodoelotac\n": 5082,
      "▁tneeaote\n": 5083,
      "aieaeeb": 5084,
      "ica": 5085,
      "▁eaeeasoooooeeae": 5086,
      "▁iaeaieelasto": 5087,
      "ak": 5088,
      "ff": 5089,
      "sto": 5090,
      "tneaieaieaieaseaa": 5091,
      "aoheetktttn": 5092,
      "lloetn": 5093,
      "▁erdtneaie": 5094,
      "▁aieafaetasaa": 5095,
      "▁teoteotsee": 5096,
      "▁eaeaetn\n": 5097,
      "▁toeeaotdtneaieaieaieaseaa": 5098,
      "▁iec1\n": 5099,
      "▁eaaeeetotsee\n": 5100,
      "▁llooootaieeasa": 5101,
      "▁oodeaaetcohasa": 5102,
      "▁ooaoetieerodtn": 5103,
      "▁oetodeaeae\n": 5104,
      "▁oethohr\n": 5105,
      "etktttoown": 5106,
      "▁gggown": 5107,
      "▁aieastn": 5108,
      "▁teoteotseest": 5109,
      "ge": 5110,
      "aier": 5111,
      "etasaa": 5112,
      "ers": 5113,
      "▁etototototn": 5114,
      "▁oeeeaietnlo": 5115,
      "▁patsteeafa": 5116,
      "▁thoao\n": 5117,
      "▁taatetn": 5118,
      "▁ottotaiee": 5119,
      "▁oodoohtotnaie": 5120,
      "▁lloooooetaieeaee": 5121,
      "▁etaieoohthosc": 5122,
      "aieaieeaieaiee": 5123,
      "▁aieebaehtectv\n": 5124,
      "▁erdoeotaseaaie": 5125,
      "▁thaieaeooooeaaieaieeaieaiee": 5126,
      "▁lloooooetaieeaeetoeae": 5127,
      "▁taieai": 5128,
      "toec": 5129,
      "▁eaeero": 5130,
      "▁aieeat": 5131,
      "▁erdhtahn": 5132,
      "▁erdeeatn0": 5133,
      "▁lloooooello": 5134,
      "▁eatotetn1": 5135,
      "ieeiee": 5136,
      "▁the": 5137,
      "eohaooooetasaa": 5138,
      "▁toeeaotdtjaie": 5139,
      "▁eaitfeethn": 5140,
      "▁eaaeedaieaeeb": 5141,
      "▁oeeeaieeeaaeasaee\n": 5142,
      "▁aie0\n": 5143,
      "▁iodiodtaiee\n": 5144,
      "▁eaitfeeotoaoa": 5145,
      "▁eadoeaiaieeaieee": 5146,
      "▁thaietco": 5147,
      "▁♪\n": 5148,
      "▁John": 5149,
      "▁taieaitoec": 5150,
      "▁aieeataieeesoooo": 5151,
      "▁eaitfeethnaie": 5152,
      "▁taieaitoecieeiee": 5153,
      "pp": 5154,
      "teaeaieown": 5155,
      "▁aieeeaetntc": 5156,
      "▁ooataieetclo": 5157,
      "▁iebetoasatotototo": 5158,
      "▁oteatoteaeaieown": 5159,
      "▁tneaie\n": 5160,
      "▁afaeaieeeattea": 5161,
      "▁taeedtjhn\n": 5162,
      "▁erdoeloaseetetn": 5163,
      "▁Pet": 5164,
      "▁eaiaaeeertotvtaieaeo": 5165,
      "▁oteetnst0": 5166,
      "▁afaeaieeeattea1": 5167,
      "ob": 5168,
      "se": 5169,
      "▁–": 5170,
      "▁oohaeertohn": 5171,
      "▁oodtoott": 5172,
      "▁af": 5173,
      "▁tsaieae": 5174,
      "▁aieeetoetasee": 5175,
      "▁ottoaehtecaieaeaiaae": 5176,
      "▁aieaeoaiiasaie": 5177,
      "▁oohoeoteaseeexeceee": 5178,
      "▁eaaeaieeata": 5179,
      "▁CEO": 5180,
      "iaaeeboooo": 5181,
      "▁In": 5182,
      "▁oodaiiasaie": 5183,
      "▁gteoest": 5184,
      "▁eaaetaieouoo": 5185,
      "▁eaaoetiaaeeboooo": 5186,
      "▁oodtootteae": 5187,
      "etnst": 5188,
      "▁oodetnaieec": 5189,
      "eatotjhn": 5190,
      "▁erdtn": 5191,
      "▁erdtotoeae": 5192,
      "▁tseeoohthosc": 5193,
      "▁aieaeadaeae": 5194,
      "▁eaitfeeea": 5195,
      "▁ooaietn\n": 5196,
      "▁aiaaeeaaieeee\n": 5197,
      "▁tooieemoseaie": 5198,
      "▁ieeeaeaieaedar\n": 5199,
      "▁Car": 5200,
      "▁MI": 5201,
      "▁eaeoheteatotjhn": 5202,
      "▁taoteetnsc": 5203,
      "▁aotetmoheaieeea": 5204,
      "▁oteetnteer": 5205,
      "▁aieoohthnaie": 5206,
      "L:": 5207,
      "S:": 5208,
      "eeaexxeae": 5209,
      "▁eatoeaieafteoaiaaeaieeetc": 5210,
      "▁eatoheaaeedtetn": 5211,
      "▁tatv0": 5212,
      "aietfaafa": 5213,
      "▁gteeaexxeae": 5214,
      "aeedtjhn": 5215,
      "tttmon": 5216,
      "▁aieaeadtooteatn": 5217,
      "▁oohtotnaie\n": 5218,
      "▁afaietfaafa": 5219,
      "▁afaietfaafa0": 5220,
      "PA": 5221,
      "eaeeae1": 5222,
      "toaieerto": 5223,
      "etopa": 5224,
      "aar": 5225,
      "aatoaieerto": 5226,
      "▁oodaiee": 5227,
      "iecieceaa": 5228,
      "▁eeatotetn": 5229,
      "▁taseeeteaieaieaief": 5230,
      "▁paatoaieerto": 5231,
      "▁oodtmostaieae": 5232,
      "▁teevtnst": 5233,
      "▁aieeoeaiertottt\n": 5234,
      "▁thaieaeooooteatn": 5235,
      "▁aieaeoet": 5236,
      "▁An": 5237,
      "▁eaaaiaaeeaetaiee": 5238,
      "▁afaeteaeeae1": 5239,
      "iecieceaaeto": 5240,
      "eaaar": 5241,
      "▁oeeeaieoteieeaatn": 5242,
      "aieatotetn": 5243,
      "▁eatohottneaieote": 5244,
      "▁eaaegggeae": 5245,
      "▁aeadtceatn": 5246,
      "▁aseaaar": 5247,
      "oohgte": 5248,
      "▁aieeaieatoar": 5249,
      "▁astn\n": 5250,
      "taeeex": 5251,
      "▁eadst\n": 5252,
      "▁aeaeeteattuto\n": 5253,
      "▁toeeaotdoeotohoest": 5254,
      "▁aieatot": 5255,
      "ettaero": 5256,
      "▁gteeaieatotetn": 5257,
      "ello": 5258,
      "exxeae": 5259,
      "y,": 5260,
      "▁eaeoha": 5261,
      "erson": 5262,
      "▁tneaseaa": 5263,
      "▁oodoeaierto": 5264,
      "▁erdeetn": 5265,
      "▁erdiecieceaaeto": 5266,
      "▁eaalololotnttt": 5267,
      "▁eaaaieetstof": 5268,
      "▁taethoar\n": 5269,
      "▁eaeteb\n": 5270,
      "▁HI": 5271,
      "▁thaieaeooooeaettcaiee": 5272,
      "▁David": 5273,
      "▁eaeohaexxeae": 5274,
      "erhtn": 5275,
      "▁taetnotaieerto": 5276,
      "eadtaieeesoooo": 5277,
      "aaseeoeto": 5278,
      "▁oodeadtaieeesoooo": 5279,
      "▁erdfsoeo": 5280,
      "▁llooooeaieeaoero": 5281,
      "eeeaaie": 5282,
      "▁eadetneeb": 5283,
      "▁oeeeaieoeaierto": 5284,
      "▁odthtnemvo": 5285,
      "▁oodoeote": 5286,
      "▁tnlosodsod": 5287,
      "▁taaeaieeeto": 5288,
      "▁afataeeex": 5289,
      "▁aiaaeeaeeasoooo": 5290,
      "▁eaaoodaieeetstt": 5291,
      "▁ohatottt": 5292,
      "▁asatvo": 5293,
      "▁erdaaoteoteeetn": 5294,
      "▁aieaeooeoteaieeea": 5295,
      "▁oodtootlloetn": 5296,
      "▁aieeeertotllorto": 5297,
      "▁ooaieeaaseeoeto": 5298,
      "▁afataeeexaieeeto": 5299,
      "p;": 5300,
      "eaiaaegte": 5301,
      "▁oodto": 5302,
      "▁ooder": 5303,
      "▁erdietn0": 5304,
      "▁oelloaieae": 5305,
      "▁sodsod": 5306,
      "thtahn": 5307,
      "taoeeeaeoooo": 5308,
      "▁tseeeaiaaegte": 5309,
      "ooheeeaaie": 5310,
      "▁toeeaotdtsaie": 5311,
      "▁tnstaiaae": 5312,
      "▁eaeeasoooothnaie": 5313,
      "▁aieeaeoteeeaown": 5314,
      "▁eotea\n": 5315,
      "▁iaetaieee": 5316,
      "hohrt": 5317,
      "▁oeloasee\n": 5318,
      "▁tseetsiec\n": 5319,
      "▁tktottn": 5320,
      "▁aieeeeaaaieae": 5321,
      "hohohohn": 5322,
      "teaeaie": 5323,
      "▁oeeeaietneeae": 5324,
      "▁tvo0": 5325,
      "▁oeeeaieeaieaie\n": 5326,
      "▁erodtno\n": 5327,
      "▁Mic": 5328,
      "▁otetoaiaae\n": 5329,
      "▁aieaeaieaeaieaeeae": 5330,
      "▁eeatotetnetaieeaee": 5331,
      "▁HIV": 5332,
      "ktto": 5333,
      "ld": 5334,
      "aieegte": 5335,
      "▁eaaot": 5336,
      "hnaie": 5337,
      "▁oohaieegte": 5338,
      "▁oeeeaieietn0": 5339,
      "aiaaeetouto": 5340,
      "▁tseeeaieeaoero": 5341,
      "▁eeaesttetn": 5342,
      "▁aotasaietetn": 5343,
      "▁eerto\n": 5344,
      "▁faetetno\n": 5345,
      "▁eatooetotn\n": 5346,
      "▁paooheetc\n": 5347,
      "▁eaetoeadtvost\n": 5348,
      "oetofaaslo": 5349,
      "▁Rob": 5350,
      "▁toeeaotdtaeedtjhn": 5351,
      "▁taatetnouoo": 5352,
      "▁eaitfeeeaethre": 5353,
      "kttotn": 5354,
      "▁eaaotasatotetn": 5355,
      "C:": 5356,
      "▁thtn": 5357,
      "▁eatotodcto": 5358,
      "▁oetemtc": 5359,
      "ietaieoeoteea": 5360,
      "▁teaieeaee\n": 5361,
      "▁tootohhn\n": 5362,
      "▁aieae1\n": 5363,
      "▁tseethnaie": 5364,
      "▁Sc": 5365,
      "▁etaieatot": 5366,
      "▁oeteaaieeeatsee": 5367,
      "▁MIT": 5368,
      "ce": 5369,
      "▁taeaieaeeaieaee": 5370,
      "▁erdloteetn": 5371,
      "▁eaateaieeaee": 5372,
      "▁teadsac": 5373,
      "▁thooetnooooo\n": 5374,
      "▁aieaietv": 5375,
      "▁etaieetaieeeto": 5376,
      "▁oodouoto": 5377,
      "▁eaaoef": 5378,
      "afatseetsee": 5379,
      "▁paotetktttn\n": 5380,
      "▁eaeeeloieeeea": 5381,
      "▁KB:": 5382,
      "▁atotaoeeeae": 5383,
      "▁asaoeoteaieeuto": 5384,
      "ri": 5385,
      "eaeaaaieeeto": 5386,
      "▁eaaieoeoteea": 5387,
      "▁oodaieaieaieeatn": 5388,
      "eatothaieeeto": 5389,
      "▁erdeaieeaoero": 5390,
      "▁eadeaeaaaieeeto": 5391,
      "▁ieeaaseeouoo": 5392,
      "▁taoettaero": 5393,
      "▁hottniebtjho\n": 5394,
      "▁eaieetnteeae": 5395,
      "▁etaierhtn": 5396,
      "▁tn2\n": 5397,
      "▁aotetc\n": 5398,
      "▁etteatoteatnaeae\n": 5399,
      "▁ohatoieetaie": 5400,
      "▁aieeoeaierto0\n": 5401,
      "ine": 5402,
      "▁oodeaeeadeaeetc": 5403,
      "▁tsfattsfathtahn": 5404,
      "▁etaierhtn0": 5405,
      "F:": 5406,
      "oef": 5407,
      "ett": 5408,
      "aieetc": 5409,
      "▁aieeaier": 5410,
      "▁oodeatn": 5411,
      "▁erdtneaieaietoto": 5412,
      "▁erdtsaie": 5413,
      "ard": 5414,
      "▁eaaelrt": 5415,
      "▁eaataoeeeaeoooo": 5416,
      "teatoetaieeeto": 5417,
      "▁oohtoteaee": 5418,
      "▁ottoaiaaetsaieaeo": 5419,
      "▁tasaie\n": 5420,
      "▁aieaeoeaaefeatn": 5421,
      "▁ieeeaeaieaee\n": 5422,
      "▁eaaoodoef": 5423,
      "▁Ab": 5424,
      "▁Mc": 5425,
      "▁tcteatoetaieeeto": 5426,
      "eoteertoaieetc": 5427,
      "▁ohatooeoteertoaieetc": 5428,
      "P:": 5429,
      "ky": 5430,
      "etneaieaietoto": 5431,
      "▁tnoetofaaslo": 5432,
      "stetaieeeto": 5433,
      "▁oodeaioeaiooetiaaeemtc": 5434,
      "llooootaoeeeae": 5435,
      "▁tostetaieeeto": 5436,
      "▁paeasto": 5437,
      "▁toeeaotdtnoho": 5438,
      "▁thaieaeoooo\n": 5439,
      "▁aieaieeeb": 5440,
      "▁tooieemollolloetouto": 5441,
      "▁aehteceaieotdeuto\n": 5442,
      "▁Su": 5443,
      "ley": 5444,
      "▁toeeaotdteaieeeae": 5445,
      "▁paeastof": 5446,
      "aiaiee": 5447,
      "▁llooooatot": 5448,
      "▁tasac\n": 5449,
      "▁gteoohetktttn": 5450,
      "▁toeatoo": 5451,
      "▁oodtsteeafa": 5452,
      "▁thtseeastteeaaieaeo": 5453,
      "▁teetn0\n": 5454,
      "▁oef\n": 5455,
      "▁aieeetoar\n": 5456,
      "▁paotetktttoown": 5457,
      "▁eaaaieeetnrooo": 5458,
      "▁Geo": 5459,
      "▁etaieeaeeasoooo\n": 5460,
      "▁Pa": 5461,
      "ph": 5462,
      "oot": 5463,
      "▁taetototn": 5464,
      "eoteo": 5465,
      "aieasee": 5466,
      "▁erdaieeeae1": 5467,
      "▁eaeaetnaotasaie": 5468,
      "▁faetthooeroeatn": 5469,
      "▁taseeet\n": 5470,
      "▁eaaaieaietaoeeeaeaieeetc\n": 5471,
      "▁oeotdaeaie\n": 5472,
      "▁teoteoieemosa\n": 5473,
      "▁CO": 5474,
      "▁eaaoodthnaie\n": 5475,
      "▁BG:": 5476,
      "▁erdtteaoeeeaie": 5477,
      "▁ietaieoeoteeaoeeeaie": 5478,
      "▁teoteotaieieeasa": 5479,
      "▁oeaieaethn": 5480,
      "eoetn": 5481,
      "▁aieeoheaieeea": 5482,
      "▁toeeaotdaiiasaie": 5483,
      "▁toeeaotdeaeheaeeaieero": 5484,
      "▁eatoeaeaieeeto": 5485,
      "▁The": 5486,
      "▁DH:": 5487,
      "▁eaieeeafatjhnllorto\n": 5488,
      "▁aeeeaeeeoetn": 5489,
      "ent": 5490,
      "▁toeatooar": 5491,
      "ni": 5492,
      "▁aieeee": 5493,
      "▁aietaieee": 5494,
      "aeeifaea": 5495,
      "▁aieaeaieieown": 5496,
      "▁ooat": 5497,
      "▁eaaieeat": 5498,
      "▁oeoteaieeaieaieeeto": 5499,
      "▁toeeaotdtho": 5500,
      "aiaaellooootaoeeeae": 5501,
      "▁aieaeadaieaieaieeatn": 5502,
      "▁eaeiaettjhneaaeee\n": 5503,
      "▁ooheeeaaie\n": 5504,
      "▁Lin": 5505,
      "▁tootktteaaaieeetn": 5506,
      "▁oetieeaseea": 5507,
      "▁aieeoheaieeea0": 5508,
      "▁eaaieeataeeifaea": 5509,
      "▁toeeaotdthoaie": 5510,
      "▁Q": 5511,
      "▁etaeerto": 5512,
      "▁erdtaee": 5513,
      "▁eaathneeeaown": 5514,
      "▁ttatoeeaotd": 5515,
      "totoieeohaieeetc": 5516,
      "aieaest": 5517,
      "▁etaieeotea": 5518,
      "▁hrdoeltto\n": 5519,
      "▁ottotsiec": 5520,
      "▁aieeteeae0\n": 5521,
      "eteaeasee": 5522,
      "▁aieaieaeemtn": 5523,
      "▁aieaeeaaeto\n": 5524,
      "▁oeaieohaieasee": 5525,
      "▁RNA": 5526,
      "▁aietaieeeetno": 5527,
      "▁aeaitoooooetneaieaietoto": 5528,
      "▁erdtaeetotoieeohaieeetc": 5529,
      "▁ttatoeeaotdeer": 5530,
      "a,": 5531,
      "▁aieeeaioeaiooetiaaeemtc": 5532,
      "▁oodaeaie": 5533,
      "▁oodaieeeae1": 5534,
      "▁eatoc": 5535,
      "▁eatotseetsee": 5536,
      "▁eaateatngte": 5537,
      "▁aieasa": 5538,
      "▁oeaietmtn": 5539,
      "▁etaoaiaae": 5540,
      "etaoe": 5541,
      "▁teevoohgte": 5542,
      "▁llooooasoteoef\n": 5543,
      "▁etoeaier\n": 5544,
      "▁gteeahn": 5545,
      "▁eae1\n": 5546,
      "▁oetototetn\n": 5547,
      "▁ethn\n": 5548,
      "▁St": 5549,
      "▁erdaeaieeea\n": 5550,
      "BM": 5551,
      "aoot": 5552,
      "ric": 5553,
      "▁eet": 5554,
      "▁asaa": 5555,
      "eaeaiaaeaieeeto": 5556,
      "▁oodteaeaie": 5557,
      "▁erdieeaasee": 5558,
      "▁llooooet": 5559,
      "▁eatoeaieaieaief": 5560,
      "eaaeasatoto": 5561,
      "▁eaaeaiee": 5562,
      "▁eeadaotaieeeto": 5563,
      "▁eadthtn": 5564,
      "▁ieeaasee\n": 5565,
      "▁etno1": 5566,
      "▁eohaooooeaaeaieeatsee": 5567,
      "▁toeeaotdaoot": 5568,
      "etoot": 5569,
      "▁teetoaie\n": 5570,
      "▁hoaseeaown\n": 5571,
      "lan": 5572,
      "▁tktieemtn": 5573,
      "▁afalotothn": 5574,
      "▁asoteafa": 5575,
      "▁oeaiehre\n": 5576,
      "▁teoteooeto": 5577,
      "▁ttaaeaeaetn": 5578,
      "▁ttaafaeeeaetetn\n": 5579,
      "▁LED": 5580,
      "org": 5581,
      "▁oodieteaaetotjhn": 5582,
      "▁Anderson": 5583,
      "▁tevown": 5584,
      "▁eetmetaieeeto": 5585,
      "i,": 5586,
      "oeoteea": 5587,
      "ux": 5588,
      "ver": 5589,
      "▁aieoteatn": 5590,
      "eatotoe": 5591,
      "eeaeheaeeaieero": 5592,
      "▁aieaeeaeheaeeaieero": 5593,
      "▁etaieeaee": 5594,
      "▁aieeaethre": 5595,
      "▁tllorto\n": 5596,
      "▁iemeu\n": 5597,
      "▁seaie\n": 5598,
      "▁aiaae0": 5599,
      "▁oeoteetttmon": 5600,
      "▁paeteaeas": 5601,
      "▁lloooooeoteaieeuto\n": 5602,
      "▁aieteoteo": 5603,
      "▁eaieafhneaieote": 5604,
      "▁teoteotetn\n": 5605,
      "▁eaieeeafatjhnteer\n": 5606,
      "▁Ch": 5607,
      "▁BF:": 5608,
      "▁aieaeootee": 5609,
      "▁Ric": 5610,
      "▁etottnaiaae": 5611,
      "▁iPod": 5612,
      "▁ooataiaae": 5613,
      "▁oeoteetttmonoeoteea": 5614,
      "▁aieteoteoeatotoe": 5615,
      "▁aieaeooteeetc": 5616,
      ".\"\n": 5617,
      "AR": 5618,
      "BC": 5619,
      "PR": 5620,
      "aaote": 5621,
      "du": 5622,
      "dteetn": 5623,
      "featn": 5624,
      "io": 5625,
      "oetn": 5626,
      "sh": 5627,
      "eaefa": 5628,
      "etodteetn": 5629,
      "▁oodoheaieeea": 5630,
      "▁erdetsc": 5631,
      "▁lloooooest": 5632,
      "art": 5633,
      "▁eaaaiaaellooootaoeeeae": 5634,
      "▁eadaehtec": 5635,
      "aaefeatn": 5636,
      "toothre": 5637,
      "▁tseeetaoe": 5638,
      "▁ieteaefa": 5639,
      "▁eaeeasoooototn": 5640,
      "▁aieeetoaieetstt": 5641,
      "▁ottotaeiee": 5642,
      "▁tatmeuo\n": 5643,
      "▁Sp": 5644,
      "▁aeaeattetaieeeto\n": 5645,
      "▁aieaeaietatoe\n": 5646,
      "▁Jim": 5647,
      "▁ooaeaieatothaieeeto": 5648,
      "▁gteoetodteetn": 5649,
      "▁etaeertouto": 5650,
      "▁paeteaeaseeeae": 5651,
      "▁eadaehtecaaote": 5652,
      "▁ottotaeieeeadtjhn": 5653,
      "ah": 5654,
      "htc": 5655,
      "▁n": 5656,
      "▁―": 5657,
      "tcoooo": 5658,
      "▁eaatefsoeo": 5659,
      "iaeaieela": 5660,
      "▁oeeeaieooh": 5661,
      "▁ttiettea\n": 5662,
      "▁aaoteoteeadero\n": 5663,
      "men": 5664,
      "▁aieeetohn": 5665,
      "▁aieeaee1\n": 5666,
      "eaieaedtcoooo": 5667,
      "▁Ste": 5668,
      "▁Bar": 5669,
      "▁Bill": 5670,
      "▁PM:": 5671,
      "ram": 5672,
      "▁erdeaeeadeaeetc": 5673,
      "edia": 5674,
      "▁eatocllorto": 5675,
      "▁oeeeaieoohaieee": 5676,
      "ata": 5677,
      "——": 5678,
      "▁l": 5679,
      "▁aietno": 5680,
      "▁hrodtofa": 5681,
      "▁tathotho": 5682,
      "▁eaaeatne": 5683,
      "eotestaie": 5684,
      "▁eaetaieeoooo": 5685,
      "▁oetodtaeieeahn": 5686,
      "▁eaeaieotestaie": 5687,
      "▁aieeaieagtetetn\n": 5688,
      "▁tktoo": 5689,
      "▁aieeetoeetuto": 5690,
      "▁totnttea": 5691,
      "▁tseesahn\n": 5692,
      "▁eaeaieoheloeae\n": 5693,
      "▁aehtecaieaeaiaa": 5694,
      "▁Stev": 5695,
      "ind": 5696,
      "▁DNA,": 5697,
      "▁ttaegggeae\n": 5698,
      "▁eaeeelotttt": 5699,
      "▁eaaieaieeaieaiee": 5700,
      "▁eutoar": 5701,
      "▁gteeiebtn": 5702,
      "hard": 5703,
      "▁tooieemoeaeeadeaeetc": 5704,
      "▁aehtecaieaeaiaadetaieeeto": 5705,
      "BA": 5706,
      "CA": 5707,
      "aw": 5708,
      "qe": 5709,
      "s,": 5710,
      "sta": 5711,
      "etkttotn": 5712,
      "ootieer": 5713,
      "▁aiethn": 5714,
      "▁llooooeetuto": 5715,
      "▁teatoetco": 5716,
      "▁oeoteet": 5717,
      "taieeoesttetn": 5718,
      "▁teoteoeaaeaieaeto": 5719,
      "▁oohtotaieeoesttetn": 5720,
      "▁aiiohaseeooh": 5721,
      "▁aiiohaseeoeltto": 5722,
      "▁aieaehtec": 5723,
      "▁aeaqe": 5724,
      "▁eaaeeetottea\n": 5725,
      "eaitfeeetopa": 5726,
      "▁thoaie\n": 5727,
      "ieeaaseetsee": 5728,
      "eotastoaie": 5729,
      "▁ottooeotastoaie": 5730,
      "ank": 5731,
      "▁teoteotootieer": 5732,
      "▁erdotasatotetn": 5733,
      "▁erdoteaitfeeetopa": 5734,
      "▁erdaiest": 5735,
      "▁tsfattsfattaoeeeae": 5736,
      "▁teatoetcotcaiee": 5737,
      "J:": 5738,
      "all": 5739,
      "ist": 5740,
      "▁aieaieeaee": 5741,
      "ttaa": 5742,
      "▁faetgte": 5743,
      "▁oetodthn": 5744,
      "▁oetodeaaieeeetoetaieeeto": 5745,
      "ron": 5746,
      "▁aieeetoeaeaiaaeaieeeto": 5747,
      "▁teaeaieown\n": 5748,
      "▁ottoatot": 5749,
      "▁teaeaie\n": 5750,
      "▁oodotoaoa\n": 5751,
      "▁gteeaeaieoteaie": 5752,
      "▁aieetsttar": 5753,
      "▁aietn1\n": 5754,
      "▁oelttoar\n": 5755,
      "▁tooieemooohaieie\n": 5756,
      "▁Har": 5757,
      "▁Em": 5758,
      "▁ooaeaohhre": 5759,
      "ord": 5760,
      ",\n": 5761,
      "ET": 5762,
      "VD": 5763,
      "hero": 5764,
      "pe": 5765,
      "taie1": 5766,
      "tneeae": 5767,
      "tseaeaie": 5768,
      "ste": 5769,
      "▁erdatot": 5770,
      "▁teatotoottaeiee": 5771,
      "ieteaaie": 5772,
      "▁oeeeaieth": 5773,
      "▁staieaieeeto": 5774,
      "▁toeeaotdtso": 5775,
      "▁toeeaotdaieetstt": 5776,
      "▁gtesac\n": 5777,
      "▁oteeaeetn\n": 5778,
      "▁eaaeeeeeadetaiaaeeouoo\n": 5779,
      "▁lloooooetotn": 5780,
      "▁oetodetnotaieerto\n": 5781,
      "▁aieetstt1\n": 5782,
      "▁oetotoertotaoeeeae\n": 5783,
      "▁ooheeaaetnerto": 5784,
      "▁teoteoeadtvoeatn\n": 5785,
      "▁toteatoaiaaeeaeoteea\n": 5786,
      "▁Am": 5787,
      "▁eaastaie1": 5788,
      "▁teeafaeae": 5789,
      "▁taeloeae": 5790,
      "▁IBM": 5791,
      "▁oetrtoeta": 5792,
      "▁taeteae": 5793,
      "▁llooooetaiaaeee": 5794,
      "▁Richard": 5795,
      "▁tktoohero": 5796,
      "aead": 5797,
      "▁ooaot": 5798,
      "▁eatoeaaeedpa": 5799,
      "▁eaaetniec": 5800,
      "▁eaieeeahohohohn": 5801,
      "▁oetodteatoar": 5802,
      "▁etaieeaaefeatn": 5803,
      "▁tneeae\n": 5804,
      "ess": 5805,
      "▁oodaieeetoar\n": 5806,
      "▁iebeaeeemtn\n": 5807,
      "▁aieaeoeeaeasee": 5808,
      "▁aieaeoeaaeasatoto": 5809,
      "▁eaataieellolloeatn\n": 5810,
      "▁DVD": 5811,
      "▁My": 5812,
      "▁Gr": 5813,
      "▁aieaeoteaewn": 5814,
      "▁Han": 5815,
      "▁ottothtaeiee": 5816,
      "▁eteemtnasee": 5817,
      "▁ottooohtotnaie": 5818,
      "▁taetaie0": 5819,
      "▁erdtneeaaie": 5820,
      "▁eeaesttetnoooo": 5821,
      "▁oeeeaiethetsc": 5822,
      "▁ooaotaiaoteaiee": 5823,
      "00": 5824,
      "W:": 5825,
      "go": 5826,
      "ny": 5827,
      "eeuto": 5828,
      "ash": 5829,
      "aseaa": 5830,
      "eaeifaea": 5831,
      "tch": 5832,
      "ttat": 5833,
      "eaiehrd": 5834,
      "▁oodieemoeltc": 5835,
      "▁oodaieeeaaetnrodto": 5836,
      "▁eatoaseaa": 5837,
      "▁eeadetkttotn": 5838,
      "▁oetoeaiehrd": 5839,
      "▁toeeaotdieteaaie": 5840,
      "▁ietttat": 5841,
      "▁ttatotoaetneaaeee": 5842,
      "▁faetthooerorhtn": 5843,
      "▁oodteaeifaea": 5844,
      "▁taathnerto\n": 5845,
      "▁tteaown\n": 5846,
      "▁Tom": 5847,
      "▁aiiaeaieelae\n": 5848,
      "▁Co": 5849,
      "▁eadoetieeaaie": 5850,
      "▁oetteaewn\n": 5851,
      "▁eatoeeetneea\n": 5852,
      "▁oodotetoaiaae": 5853,
      "▁etntaoeeeaeaieae\n": 5854,
      "▁erdaieatoe": 5855,
      "hir": 5856,
      "▁ottotaieeeeae": 5857,
      "▁oetoeaiehrdpa": 5858,
      "▁ietttateaieethn": 5859,
      "ame": 5860,
      "ei": 5861,
      "iz": 5862,
      "een": 5863,
      "▁etaiei": 5864,
      "eadsa": 5865,
      "▁eatoeb": 5866,
      "eaaaiaaeetouto": 5867,
      "▁teeaeadsa": 5868,
      "▁taoeeeaeown\n": 5869,
      "▁tootohouoothn\n": 5870,
      "▁oeeeaieottoottn\n": 5871,
      "▁ieetaieoteeea0\n": 5872,
      "▁erdeaaeaieeetotaoeeeae": 5873,
      "▁tseeeaohhre": 5874,
      "▁Wik": 5875,
      "▁Geor": 5876,
      "▁Paul": 5877,
      "▁aiiohaseeooheaaaieeetco": 5878,
      "▁etaieieerodtn": 5879,
      "sha": 5880,
      "eemtc": 5881,
      "▁eaeeeaeee": 5882,
      "▁eaioteatn": 5883,
      "eatot": 5884,
      "▁eatoeaieaaeaiee": 5885,
      "▁tatefsoeo": 5886,
      "otee": 5887,
      "▁ieeaaseethnaie": 5888,
      "▁tseec": 5889,
      "▁emtc\n": 5890,
      "▁eeaetmtn\n": 5891,
      "▁tateae\n": 5892,
      "▁ohaoaieeetc\n": 5893,
      "▁ietotaiaoteaiee\n": 5894,
      "▁TK:": 5895,
      "▁A,": 5896,
      "▁toeeaotdoeoteaieeaee\n": 5897,
      "▁teta\n": 5898,
      "▁paeaetothn": 5899,
      "lex": 5900,
      "▁aieeteta": 5901,
      "ike": 5902,
      "▁aieeaaeaieeetn": 5903,
      "▁asaoeoteaieeaee": 5904,
      "RIS": 5905,
      "▁eaeeeaeeef": 5906,
      "'s": 5907,
      "ix": 5908,
      "per": 5909,
      "tube": 5910,
      "ve": 5911,
      "eaioteaeeoooo": 5912,
      "eeatouto": 5913,
      "▁eaeeatouto": 5914,
      "▁aieeetnst": 5915,
      "▁eatoieeaasee": 5916,
      "▁ottoto": 5917,
      "oteer": 5918,
      "▁eadeotea": 5919,
      "▁oetodieeaaseetsee": 5920,
      "▁oetodotee": 5921,
      "▁aehtecoetn": 5922,
      "▁eaeeasoooosac": 5923,
      "▁paee": 5924,
      "▁oesttetn\n": 5925,
      "▁eaaietc\n": 5926,
      "▁oodloaie\n": 5927,
      "▁eatoeatngte": 5928,
      "▁iebtaaieeeto\n": 5929,
      "▁aietaieteetn": 5930,
      "▁ohatoeaaaiaaeetouto": 5931,
      "▁Ted": 5932,
      "▁aieeeeaaoheetktttn": 5933,
      "▁lloooothnaie\n": 5934,
      "▁CD": 5935,
      "▁thaietcst": 5936,
      "▁oesttesac\n": 5937,
      "ink": 5938,
      "▁tootkttieemtn": 5939,
      "▁gteoiet": 5940,
      "▁eaaeaieeatatc": 5941,
      "▁oodaieeeatot": 5942,
      "▁aietnoho": 5943,
      "▁eatoieeaaseeaieaie": 5944,
      "▁ottotoetasa": 5945,
      "▁oetodoteeetnoieemto": 5946,
      "\".\n": 5947,
      "▁r": 5948,
      "eth": 5949,
      "eaieatn": 5950,
      "▁oietaseaa": 5951,
      "tneaseear": 5952,
      "▁aietoot": 5953,
      "aieaeouoo": 5954,
      "▁erdtsteeafa": 5955,
      "eeteaieuto": 5956,
      "▁eaatsee": 5957,
      "▁eadoest": 5958,
      "aieaieeadoeroe": 5959,
      "tvoteer": 5960,
      "oeloaseetetn": 5961,
      "▁ttaaieeeero\n": 5962,
      "▁toeeaotdaieaie": 5963,
      "▁oteatoaieaieeadoeroe": 5964,
      "▁eaeeasooootaa": 5965,
      "▁eaeoteeatvoteer": 5966,
      "▁oodooheattaieeeto": 5967,
      "▁emetaieeeto": 5968,
      "▁eaaeedhngte": 5969,
      "▁ethotc\n": 5970,
      "▁aieaeoeohaooooetasaa": 5971,
      "▁eatoeaetothn": 5972,
      "▁tsee1\n": 5973,
      "▁ottooello": 5974,
      "▁ttaeaeero\n": 5975,
      "▁eaieatn\n": 5976,
      "ino": 5977,
      "▁Po": 5978,
      "oteetnrodto": 5979,
      "▁thoohneerto": 5980,
      "▁Uber": 5981,
      "▁aeaitoooooeeteaieuto": 5982,
      "▁oodeatnaieee": 5983,
      "▁oeoteeteaieatn": 5984,
      "▁aieaehtecaafaee": 5985,
      "▁paeeta": 5986,
      "▁aietootaiaaeieemoero": 5987,
      "▁eaatseeoteetnrodto": 5988,
      "T:": 5989,
      "ust": 5990,
      "▁x": 5991,
      "tneaseaa": 5992,
      "eoteown": 5993,
      "▁eaieoteown": 5994,
      "▁erdieeaaseeeaioteato": 5995,
      "▁moto\n": 5996,
      "eetoaieeetc": 5997,
      "▁etneaeeae": 5998,
      "▁oohtoeetoaieeetc": 5999,
      "▁thtseea\n": 6000,
      "▁hohrthaietktttn": 6001,
      "▁ottotaieellolloeatn": 6002,
      "▁eatoeatoottn": 6003,
      "▁eaaeaieea\n": 6004,
      "▁teatntc": 6005,
      "▁tkteaeeasoooo": 6006,
      "▁eatnaieee0\n": 6007,
      "▁Cr": 6008,
      "▁CRIS": 6009,
      "▁Ad": 6010,
      "▁oodaieae0\n": 6011,
      "▁oeeeaieaieeetn\n": 6012,
      "▁Jac": 6013,
      "▁etaieeatoeatnhaetn\n": 6014,
      "iebodiebod": 6015,
      "▁oodiebta": 6016,
      "▁Anderson:": 6017,
      "▁CRISPR": 6018,
      "BI": 6019,
      "MU": 6020,
      "R:": 6021,
      "az": 6022,
      "pha": 6023,
      "tasaie": 6024,
      "▁k": 6025,
      "▁«": 6026,
      "ain": 6027,
      "▁taetn": 6028,
      "▁taotaiaoteaiee": 6029,
      "▁aieeetoto": 6030,
      "▁ooea": 6031,
      "▁oodiebodiebod": 6032,
      "san": 6033,
      "aotetc": 6034,
      "▁eatotoe": 6035,
      "▁eatotneeae": 6036,
      "▁eeadtetn": 6037,
      "▁eadeaseeao": 6038,
      "▁ieeaaseeeaeeasoooo": 6039,
      "▁sto": 6040,
      "eaeloaiaae": 6041,
      "▁oeoteertottea\n": 6042,
      "▁taeieeaieaest": 6043,
      "▁ottoeaaeto": 6044,
      "▁teevoeltto": 6045,
      "eaieotdeaeloaiaae": 6046,
      "iel": 6047,
      "▁eatoeatn\n": 6048,
      "▁eaaeeetofst": 6049,
      "▁eatoeaaaieaietaoeeeae\n": 6050,
      "▁llolloellollofttea\n": 6051,
      "▁AI": 6052,
      "ins": 6053,
      "▁Pr": 6054,
      "▁teoteoood": 6055,
      "▁Ev": 6056,
      "▁lltoieemopatasaie": 6057,
      "▁eeeaaeeeafaeaieotdeaeloaiaae": 6058,
      "▁eaitfeeoeaieaieeeaaetmtn": 6059,
      "▁ttsoeoeaieafteoaiaae": 6060,
      "ipedia": 6061,
      "▁eeadtaieeetaie": 6062,
      "▁aieaeoeteaaaieeasado": 6063,
      "hohrtastoaie": 6064,
      "▁Linux": 6065,
      "▁Wikipedia": 6066,
      "▁aieeetotohn": 6067,
      "--": 6068,
      ".org": 6069,
      "MS": 6070,
      "af": 6071,
      "aeaiee": 6072,
      "aaieaietaoeeeae": 6073,
      "bo": 6074,
      "if": 6075,
      "ke": 6076,
      "mi": 6077,
      "eeaeown": 6078,
      "▁llooooiaeaieela": 6079,
      "▁eatohohrtastoaie": 6080,
      "▁eadeohaoooo": 6081,
      "▁ooathtseea": 6082,
      "▁tseeero": 6083,
      "▁oetodiaec": 6084,
      "eetcaiee": 6085,
      "▁ieeaaseeaie\n": 6086,
      "▁eaitfeetcaiee": 6087,
      "▁aieeaieaaeaiee": 6088,
      "▁erdaieeut": 6089,
      "▁tkteeaeown": 6090,
      "▁aieaeoeae": 6091,
      "▁oetofaaslotaoeeeae\n": 6092,
      "▁tkteaaaieaietaoeeeae": 6093,
      "▁aeae1\n": 6094,
      "▁oetieerodtn\n": 6095,
      "▁eaieaeaierthtn\n": 6096,
      "▁Ben": 6097,
      "▁eatotthn\n": 6098,
      "▁ttie\n": 6099,
      "▁tooieemoth": 6100,
      "▁oeoteaieeea\n": 6101,
      "▁eaiaaeeerto\n": 6102,
      "ice": 6103,
      "▁DNA.\n": 6104,
      "▁El": 6105,
      "▁oeeeaieaieaeaieieown": 6106,
      "▁gteoeaieoher": 6107,
      "▁Abed": 6108,
      "▁eadeohaooooeaaeaieeatsee": 6109,
      "▁ooathtseeastteea": 6110,
      "D:": 6111,
      "ew": 6112,
      "oetv": 6113,
      "ean": 6114,
      "aioteaeeoooo": 6115,
      "ton": 6116,
      "▁aieaeotea": 6117,
      "oteaitfee": 6118,
      "▁tstofa": 6119,
      "eeeaest": 6120,
      "▁teaaiear": 6121,
      "▁paeaeaetn": 6122,
      "▁aiiohaseeoetv": 6123,
      "▁eaaaieaietaoeeeaest": 6124,
      "▁taeeexaieeeto\n": 6125,
      "▁taeuoaioteaeeoooo": 6126,
      "▁eaieaieaieftjhn": 6127,
      "▁eaatseaieaieae": 6128,
      "▁eaieafhnaieeeto": 6129,
      "▁thaietcoown": 6130,
      "▁TED,": 6131,
      "▁RM:": 6132,
      "tottteuto": 6133,
      "▁toeeaotdteaeaaee": 6134,
      "▁iodiodtottteuto": 6135,
      "▁gteaieouoo": 6136,
      "▁Micha": 6137,
      "oteaitfeeero": 6138,
      "IS": 6139,
      "ria": 6140,
      "up": 6141,
      "▁y": 6142,
      "aiee0": 6143,
      "er,": 6144,
      "▁taiee\n": 6145,
      "▁aietn0": 6146,
      "▁erdieto": 6147,
      "▁eatoaeertohn": 6148,
      "▁tooteatn": 6149,
      "▁teadeae": 6150,
      "▁aieeeooheeeaaie": 6151,
      "▁eohaooooaieec\n": 6152,
      "▁staie0\n": 6153,
      "▁oodietn0\n": 6154,
      "▁eaaetcohasa\n": 6155,
      "▁etahre\n": 6156,
      "▁oodoohtaeieetsoooo": 6157,
      "▁ohaoaieea\n": 6158,
      "▁eaexxeae\n": 6159,
      "teatoteatnaeae": 6160,
      "▁oodoeeae\n": 6161,
      "▁eaieeeaeaieeadoero\n": 6162,
      "▁oeeeaieeaataoeeeaehn\n": 6163,
      "▁Alex": 6164,
      "▁Sky": 6165,
      "▁tateaieeetstt\n": 6166,
      "▁eatoeeetntaeiee": 6167,
      "▁erdtteathtn": 6168,
      "▁Pan": 6169,
      "▁Jon": 6170,
      "▁tktaieeaee": 6171,
      "▁Ed": 6172,
      "▁tmosttoeeaotdar": 6173,
      "▁taietaieoeoteea": 6174,
      "amp;": 6175,
      "▁aieeaatn": 6176,
      "▁tooieemothtaeiee": 6177,
      "▁erdietoteeta": 6178,
      "dtoaiaaetsaieaeo": 6179,
      "ko": 6180,
      "teeea": 6181,
      "ull": 6182,
      "aieeaieagte": 6183,
      "aodtoaiaaetsaieaeo": 6184,
      "▁oodetno": 6185,
      "▁eatoeaieafteoaiaae": 6186,
      "aieeesafa": 6187,
      "eff": 6188,
      "thetsc": 6189,
      "▁oteea\n": 6190,
      "▁aieaeadoetotn": 6191,
      "▁eaeeasoooooeltto": 6192,
      "▁teoteoaieeeetn": 6193,
      "▁eatothnaie\n": 6194,
      "▁tamoto\n": 6195,
      "▁erdtaieeesafa": 6196,
      "▁eeaefsoeo\n": 6197,
      "▁Sha": 6198,
      "▁ttaieeeea\n": 6199,
      "▁erdtoteatnaieae\n": 6200,
      "▁aehtecaieaeouoo\n": 6201,
      "▁Par": 6202,
      "▁Fl": 6203,
      "▁Will": 6204,
      "▁erdeaeteb": 6205,
      "▁aietaieesoooo": 6206,
      "rew": 6207,
      "▁George": 6208,
      "?\n": 6209,
      "jhotn": 6210,
      "mteec": 6211,
      "oeteaaeaieaeto": 6212,
      "ym": 6213,
      "▁+": 6214,
      "▁»": 6215,
      "eaeb": 6216,
      "▁aieeoeteaaeaieaeto": 6217,
      "eadeaieaeeaieaee": 6218,
      "▁tneaseear": 6219,
      "▁oodhottniebtjho": 6220,
      "▁and": 6221,
      "▁llooooaiaaeeaeoteea": 6222,
      "▁eaataithoeouoo": 6223,
      "▁eaaeaieaedtcoooo": 6224,
      "▁ieeaaseeietaieoeoteea": 6225,
      "▁gteoteieeaatn": 6226,
      "▁eaeaetntnttt": 6227,
      "▁toeeaotdeaeb": 6228,
      "etauto": 6229,
      "▁iebttmon": 6230,
      "▁iebeadeaieaeeaieaee": 6231,
      "▁hrdtsiec": 6232,
      "▁aieeetothnaie": 6233,
      "▁oeeeaieeetauto": 6234,
      "ieetjhotn": 6235,
      "▁erdeahn\n": 6236,
      "▁llooooaieee\n": 6237,
      "taeieetjhotn": 6238,
      "▁oodooheaieaeto\n": 6239,
      "▁afaeaaieeeetoetaieeeto": 6240,
      "▁teoteoaieeeeta\n": 6241,
      "▁eaeaietatoown\n": 6242,
      "▁aieaeoeaaietsee": 6243,
      "▁oefgte": 6244,
      "▁teoteotneaie\n": 6245,
      "▁Tr": 6246,
      "▁oteatn\n": 6247,
      "▁tooieemoeaaeee": 6248,
      "▁Cl": 6249,
      "▁App": 6250,
      "▁Sh": 6251,
      "▁oodtveatn\n": 6252,
      "▁Lo": 6253,
      "▁Nat": 6254,
      "▁Alpha": 6255,
      "▁aaoteoteeataeieetjhotn": 6256,
      "teemteec": 6257,
      "▁oodtoteatnaieae": 6258,
      "▁oodtoetasee": 6259,
      "▁CO2": 6260,
      "▁oodetno0": 6261,
      "▁tneaseearown": 6262,
      "▁aaoteoteeataeieetjhotneeaote": 6263,
      "EC": 6264,
      "aaoteoteeetn": 6265,
      "h,": 6266,
      "ker": 6267,
      "loo": 6268,
      "eaieaiee": 6269,
      "eaieaie": 6270,
      "tsaiee": 6271,
      "▁oodhottneaieote": 6272,
      "▁am": 6273,
      "eck": 6274,
      "ect": 6275,
      "▁llooooafatseetsee": 6276,
      "eron": 6277,
      "▁eaaeaitf": 6278,
      "▁eaattaa": 6279,
      "ot;": 6280,
      "▁oeeeaiethoo": 6281,
      "▁oeeeaiehoaseea": 6282,
      "▁ooaaieeetoar": 6283,
      "faetytetn": 6284,
      "▁0\n": 6285,
      "▁aieeeheaaeedtetn": 6286,
      "▁oodtwn": 6287,
      "▁etaieohtaoeeeae\n": 6288,
      "▁odthtnaieeeto\n": 6289,
      "▁aieestaieoooo\n": 6290,
      "▁tv1": 6291,
      "▁aieeeatn0\n": 6292,
      "▁ohatotsiec": 6293,
      "▁paoohtc": 6294,
      "▁SET": 6295,
      "▁Mac": 6296,
      "ang": 6297,
      "▁Jeff": 6298,
      "end": 6299,
      "▁oeoteaseeexeceeeeae": 6300,
      "▁Youtube": 6301,
      "▁fste": 6302,
      "quot;": 6303,
      "▁ottotaieeeouoo": 6304,
      "▁Pete": 6305,
      "▁eaaeaieeataeaieetn": 6306,
      "▁aieaeoettaieerto": 6307,
      "▁Robert": 6308,
      "▁aieaieeebpa": 6309,
      "ames": 6310,
      "▁aietnohouoo": 6311,
      "▁Michael": 6312,
      "▁eaattaafaetytetn": 6313,
      "▁oeeeaiethooteeafa": 6314,
      "▁SETI": 6315,
      "AT": 6316,
      "ER": 6317,
      "mst": 6318,
      "oetotoea": 6319,
      "▁ao": 6320,
      "▁tee": 6321,
      "▁eaeeae": 6322,
      "▁taieetc": 6323,
      "etnrooo": 6324,
      "tsoteato": 6325,
      "▁oohetaiee": 6326,
      "▁aeaie": 6327,
      "▁erdetea": 6328,
      "▁eatosodsod": 6329,
      "▁eaaetnrooo": 6330,
      "▁teatotaoeeeae": 6331,
      "▁eeadtaieetclo": 6332,
      "▁eaieeeaooheeeaaie": 6333,
      "▁aotohaieasa\n": 6334,
      "▁aieaeadoteaitfeeero": 6335,
      "▁eaieaeaieeetof": 6336,
      "▁erdaieeeea": 6337,
      "▁oodetteatoteatnaeae": 6338,
      "▁ethoar\n": 6339,
      "▁llooooeaeaiaaeaieeeto\n": 6340,
      "▁oeeeaiehottneaieote\n": 6341,
      "▁toeeaotdlherodtn\n": 6342,
      "▁CMU": 6343,
      "▁Sto": 6344,
      "▁eatooown\n": 6345,
      "▁paieemtn\n": 6346,
      "▁eaatnta": 6347,
      "▁aieeasadoown\n": 6348,
      "etkttto": 6349,
      "▁teoteoeasatn\n": 6350,
      "▁PC": 6351,
      "▁aieeetotetn\n": 6352,
      "▁ietsaie\n": 6353,
      "▁oeaieohtv\n": 6354,
      "▁La": 6355,
      "▁oetaeaie\n": 6356,
      "▁ohaooteeea": 6357,
      "▁ooaaieeeaieeetaoeeeae\n": 6358,
      "▁Win": 6359,
      "▁etaietcteetohohaetn\n": 6360,
      "▁aieoeltto": 6361,
      "▁teatotseaeaie": 6362,
      "▁tooieemoeaaietsee": 6363,
      "▁erdieeaaseethnaie": 6364,
      "▁Steve": 6365,
      "▁tootkttieemtnouoo": 6366,
      "loooea": 6367,
      "▁amp;": 6368,
      "▁taieetcloooea": 6369,
      "▁oohetaieeetnst": 6370,
      "▁erdeteaeeae": 6371,
      "eil": 6372,
      "ib": 6373,
      "ling": 6374,
      "▁°": 6375,
      "ail": 6376,
      "toteatnaieae": 6377,
      "▁taetoeaier": 6378,
      "▁aieeeeatn0": 6379,
      "▁ooaa": 6380,
      "▁erdhohr": 6381,
      "▁eatoeasto": 6382,
      "▁eaaaiee": 6383,
      "▁paaieaieeeto": 6384,
      "▁staieown": 6385,
      "▁aieaeadafatseetsee": 6386,
      "▁llooooeaeaie\n": 6387,
      "▁easto": 6388,
      "▁eatooelotac": 6389,
      "▁oetn\n": 6390,
      "▁taoeeae\n": 6391,
      "▁eeadeetc\n": 6392,
      "▁oohouotoafa\n": 6393,
      "▁oohthnaie\n": 6394,
      "▁ohaoeaieaieae\n": 6395,
      "▁tcteetohohaetn\n": 6396,
      "▁Jul": 6397,
      "▁oodaseaie\n": 6398,
      "▁toothoaslohoc\n": 6399,
      "▁Kat": 6400,
      "▁oeoteaseeexeceee\n": 6401,
      "▁OK": 6402,
      "▁iodiodoetotoea": 6403,
      "ure": 6404,
      "▁Mary": 6405,
      "▁de": 6406,
      "ive": 6407,
      "▁Peter": 6408,
      "▁aiethnaie": 6409,
      "E:": 6410,
      "MA": 6411,
      "ba": 6412,
      "cy": 6413,
      "car": 6414,
      "ji": 6415,
      "▁taiaaeeaeoteea": 6416,
      "▁in": 6417,
      "▁oodeasa": 6418,
      "▁oodeaseeao": 6419,
      "▁oodaeertohn": 6420,
      "▁erdfaafa": 6421,
      "▁llooooiodiodtnttt": 6422,
      "▁oeaieoher": 6423,
      "▁oeteatoaieee": 6424,
      "▁oeotetkttto": 6425,
      "ieba": 6426,
      "▁oetodtnttt": 6427,
      "▁teetotetnaieasaie": 6428,
      "▁--": 6429,
      "▁oeeeaietjhn\n": 6430,
      "▁oetoetteeae\n": 6431,
      "▁eatooetea": 6432,
      "▁twn\n": 6433,
      "▁taieieasa": 6434,
      "▁afaaotasee": 6435,
      "▁oeoteertoaieeetc\n": 6436,
      "▁taeaaetaseeaouoo": 6437,
      "▁lloooostiaec\n": 6438,
      "ana": 6439,
      "▁aieaeoottoottooh": 6440,
      "▁aieaae\n": 6441,
      "▁eatoeatohaetn\n": 6442,
      "▁eaaeaaie\n": 6443,
      "▁Ho": 6444,
      "▁IP": 6445,
      "ony": 6446,
      "ity": 6447,
      "▁iPad": 6448,
      "▁Mart": 6449,
      "▁teoteooetoteieeaatn": 6450,
      "▁teoteooodeaieeaoero": 6451,
      "▁amp;quot;": 6452,
      "▁eaaaieetsee": 6453,
      "▁oodeasa0": 6454,
      "▁oeotetktttotjhn": 6455,
      "▁eatooeteaeaieotdero": 6456,
      "▁aieaeoottoottooheatn": 6457,
      "O:": 6458,
      "OL": 6459,
      "ps": 6460,
      "▁#": 6461,
      "eaeaieoteaie": 6462,
      "ais": 6463,
      "ern": 6464,
      "tan": 6465,
      "aieaf": 6466,
      "▁oodeeae": 6467,
      "▁eaaeaier": 6468,
      "▁eaahohrt": 6469,
      "fatt": 6470,
      "▁eaier\n": 6471,
      "▁ooaeteaeasee": 6472,
      "▁toeeaotdthtn": 6473,
      "▁ohaoeaeaieoteaie": 6474,
      "▁eatnaie": 6475,
      "▁oteaseearoooo": 6476,
      "▁eae2\n": 6477,
      "▁erdoeotegte\n": 6478,
      "▁aieeahn": 6479,
      "▁thothotsaie\n": 6480,
      "▁eaeoteeeaown\n": 6481,
      "▁teoteooohaieie\n": 6482,
      "▁taiaaetatttn\n": 6483,
      "▁taeaiaaeaieeeto\n": 6484,
      "▁ohatoiodiodtaiee": 6485,
      "▁eaeoteeasahn\n": 6486,
      "▁eaatsaietetneaeeasoooo\n": 6487,
      "▁eaohllorto\n": 6488,
      "▁oteeeteae\n": 6489,
      "▁Ac": 6490,
      "▁Bu": 6491,
      "▁llooootmeu\n": 6492,
      "▁ooataiee\n": 6493,
      "▁aieaeooeotohoest": 6494,
      "▁eadtsoe": 6495,
      "▁ID": 6496,
      "▁Zip": 6497,
      "▁Brun": 6498,
      "▁Ardu": 6499,
      "▁staieown1": 6500,
      "co": 6501,
      "e1": 6502,
      "eg": 6503,
      "ius": 6504,
      "▁taieteetn": 6505,
      "loeaiee": 6506,
      "▁aieeaieeeaaetnrodto": 6507,
      "eotetttt": 6508,
      "▁llooootseaeaie": 6509,
      "▁eloloeaiee": 6510,
      "ham": 6511,
      "ieteaaemtn": 6512,
      "▁etneeb": 6513,
      "iebta": 6514,
      "▁aiehrdc": 6515,
      "▁oeeeaieoeotetttt": 6516,
      "▁tsee0": 6517,
      "▁toeeaotdaieae0": 6518,
      "▁ietaotasee": 6519,
      "tottn": 6520,
      "▁etholoaie": 6521,
      "▁aieeaeaieoteaie": 6522,
      "▁aieeaaiaiee": 6523,
      "▁llooooasoteafa": 6524,
      "▁eatoohtc": 6525,
      "▁eaaietcar": 6526,
      "▁oetnllorto": 6527,
      "es,": 6528,
      "▁etaieieteaaemtn": 6529,
      "▁eeadaiaaeeaietmtn\n": 6530,
      "▁tnoieemto\n": 6531,
      "▁aieaieee1": 6532,
      "▁taeeaieaieieeeto\n": 6533,
      "▁oodtaoeeeaeea\n": 6534,
      "▁erdeaaeto": 6535,
      "▁oeeeaietseaeaie\n": 6536,
      "▁oietaeeeaeee": 6537,
      "▁oeeeaieeaeaiaaeaieeeto\n": 6538,
      "▁Sar": 6539,
      "▁Sam": 6540,
      "▁pathnela\n": 6541,
      "▁Mo": 6542,
      "▁thn0\n": 6543,
      "▁ooaaieeaiaaehn\n": 6544,
      "int": 6545,
      "▁PD": 6546,
      "▁PI": 6547,
      "▁James": 6548,
      "▁iebaieaieaieeea\n": 6549,
      "▁ieeaaseeeaaeee\n": 6550,
      "▁oteaitfeeetn": 6551,
      "ics": 6552,
      "▁oieemopa": 6553,
      "▁Wor": 6554,
      "▁oeteaaeeeeeadetaiaaeeouoo\n": 6555,
      "▁Ven": 6556,
      "▁Usha": 6557,
      "▁Andrew": 6558,
      "berg": 6559,
      "▁aieaieeebetaieeeto": 6560,
      "▁asaaeaieeeto": 6561,
      "▁eaeeelottttttetaieeeto": 6562,
      "▁°C": 6563,
      "fatthtn": 6564,
      "▁aieeaaiaieepa": 6565,
      "▁Ushahi": 6566,
      "Bay": 6567,
      "IN": 6568,
      "RA": 6569,
      "ellorto": 6570,
      "ura": 6571,
      "une": 6572,
      "eeeaieeeto": 6573,
      "▁aieta": 6574,
      "▁aieeeaetaiee": 6575,
      "▁eBay": 6576,
      "▁oohfaet": 6577,
      "▁oodaieaaiee": 6578,
      "▁oodtneaseaa": 6579,
      "etaieepa": 6580,
      "▁llooooaieea": 6581,
      "oher": 6582,
      "ohetktttn": 6583,
      "▁etao\n": 6584,
      "▁ooaaotetc": 6585,
      "▁eaeaetnao": 6586,
      "▁tseeeeeaieeeto": 6587,
      "▁eohaooooeatoaieee": 6588,
      "▁eaieeeatetnaieasaie": 6589,
      "▁eaieeeaoeloaseetetn": 6590,
      "▁oetodietaieoeoteea": 6591,
      "▁toeeaotdtaoeeeae": 6592,
      "▁toeeaotdieeataeeifaea": 6593,
      "▁taeaier\n": 6594,
      "▁aieeaetaieepa": 6595,
      "▁oheaieeeaown\n": 6596,
      "▁thaieaeooooeaeeae": 6597,
      "▁otetaieeeownero\n": 6598,
      "▁iebloaieaeo\n": 6599,
      "▁fsoeo\n": 6600,
      "▁tvtaieaeo\n": 6601,
      "▁taoeoteaieeouoo\n": 6602,
      "▁eadtaieetclo\n": 6603,
      "▁Mon": 6604,
      "ant": 6605,
      "▁eadoeaiaaeaodtotmtn\n": 6606,
      "▁Go": 6607,
      "▁aieaeoterduto": 6608,
      "ina": 6609,
      "▁oeotdafaetasaa\n": 6610,
      "▁aieeetoooher": 6611,
      "▁JC:": 6612,
      "▁Li": 6613,
      "▁eadeb\n": 6614,
      "▁FO": 6615,
      "▁eeetneeto\n": 6616,
      "▁eaeeertothtn\n": 6617,
      "▁Wal": 6618,
      "▁Wol": 6619,
      "▁WK:": 6620,
      "▁No": 6621,
      "▁oodoesttehaetn": 6622,
      "our": 6623,
      "▁tmotsaotoothre": 6624,
      "▁Romo": 6625,
      "▁Jose": 6626,
      "▁aieetstofown": 6627,
      "▁teatooohetktttn": 6628,
      "▁ttaafaellorto": 6629,
      "▁Free": 6630,
      "▁Susan": 6631,
      "▁Willia": 6632,
      "▁eaaeaitfe": 6633,
      "▁Arduino": 6634,
      "▁Ushahidi": 6635,
      "▁aieeeaetaiee1": 6636,
      "▁tseeeeeaieeetouo": 6637,
      "▁Wolf": 6638,
      "▁ttaafaellortotetn": 6639,
      "20": 6640,
      "Cor": 6641,
      "GO": 6642,
      "N1": 6643,
      "ataoeeeae": 6644,
      "bert": 6645,
      "ita": 6646,
      "ly": 6647,
      "mer": 6648,
      "uk": 6649,
      "ws": 6650,
      "aig": 6651,
      "etst": 6652,
      "ooataoeeeae": 6653,
      "ass": 6654,
      "▁ooaeaelo": 6655,
      "taeuto": 6656,
      "paeteaeasee": 6657,
      "▁eatoetn1": 6658,
      "▁eatopaeteaeasee": 6659,
      "▁eaaeaaeee": 6660,
      "▁ttaaeeeaeee": 6661,
      "▁ttaaiaiee": 6662,
      "▁ieeaaseetaeuto": 6663,
      "aaehtec": 6664,
      "▁toeeaotdtaieeasa": 6665,
      "▁eaeeasoooo\n": 6666,
      "▁ottotneaiaoteaiee": 6667,
      "▁tthn\n": 6668,
      "▁tvetaieeesoooo": 6669,
      "▁aiaaeooataoeeeae": 6670,
      "▁oteeettnoho": 6671,
      "▁TM": 6672,
      "▁ooheaieaieae\n": 6673,
      "▁CN": 6674,
      "▁MRI": 6675,
      "▁Pro": 6676,
      "▁TEDx": 6677,
      "▁toeeaotdieeeeawn\n": 6678,
      "▁ooheeaaetnaieeeto\n": 6679,
      "▁staieeatn\n": 6680,
      "▁JA:": 6681,
      "▁aiaaeaeeeaeee\n": 6682,
      "▁eeaeaseetootieer\n": 6683,
      "▁Nic": 6684,
      "▁Alice": 6685,
      "otohaieeae": 6686,
      "▁ieetaiepa": 6687,
      "▁eadaieeeaetn": 6688,
      "▁aieeeeaaeasatoto": 6689,
      "ight": 6690,
      "▁Danny": 6691,
      "▁oodaieeetst": 6692,
      "▁aieeeeieeaetn": 6693,
      "▁asaaeaie": 6694,
      "▁oodaieeetsttottn": 6695,
      "&amp;": 6696,
      ",\"": 6697,
      "ft": 6698,
      "ieerod": 6699,
      "les": 6700,
      "ole": 6701,
      "ss": 6702,
      "▁_": 6703,
      "aieeaiaae": 6704,
      "tos": 6705,
      "▁eaaaehtec": 6706,
      "▁tatoothre": 6707,
      "▁aieeaieai": 6708,
      "▁aieeaieaie": 6709,
      "aieaeaiaae": 6710,
      "▁ietaiee": 6711,
      "▁oodsto": 6712,
      "patnoheelo": 6713,
      "▁gtetetn": 6714,
      "▁oetodaieeaiaae": 6715,
      "▁toeeaotdaieeaee": 6716,
      "▁toeeaotdeaiaaeeerto": 6717,
      "eutoaiaae": 6718,
      "▁eatnoooo": 6719,
      "▁aieaeadea": 6720,
      "▁aieaeadethno": 6721,
      "▁aieaetn\n": 6722,
      "▁teadeaeero\n": 6723,
      "▁teevieerod": 6724,
      "▁aietnoh": 6725,
      "▁oohtoeae\n": 6726,
      "▁lloooooeotohasa": 6727,
      "▁llooootaieeoesttetn": 6728,
      "oteeaeetn": 6729,
      "▁aiee0\n": 6730,
      "▁erdoelloaieae": 6731,
      "▁aieaieeadoeroe\n": 6732,
      "▁Cha": 6733,
      "▁Cor": 6734,
      "▁Char": 6735,
      "▁As": 6736,
      "▁ST": 6737,
      "▁tatnst\n": 6738,
      "▁oodoteeea\n": 6739,
      "▁toertotjhn\n": 6740,
      "▁eeaeaieeeto\n": 6741,
      "▁aieeetooeoteaie": 6742,
      "▁oodeaitfee\n": 6743,
      "▁astoto1\n": 6744,
      "▁aotohaieeae\n": 6745,
      "▁eatottea\n": 6746,
      "▁Kar": 6747,
      "▁ooaaieetstt": 6748,
      "ens": 6749,
      "▁iebodiebod\n": 6750,
      "▁oteatooteeaeoooo\n": 6751,
      "▁ttsoeotjhnaiaae\n": 6752,
      "▁aieoeoteaseeexeceee": 6753,
      "▁aieaeadoetrto\n": 6754,
      "oug": 6755,
      "▁eutoeutoaiaae": 6756,
      "▁Ver": 6757,
      "▁Josh": 6758,
      "▁~\n": 6759,
      "ryCor": 6760,
      "▁Frank": 6761,
      "stoaead": 6762,
      "▁Skype": 6763,
      "▁StoryCor": 6764,
      "▁ooaaeaieeea": 6765,
      "▁eaaaehtecaieaeaiaae": 6766,
      "▁aieeaieaieaief": 6767,
      "▁ietaieeaieagte": 6768,
      "▁oodstostoaead": 6769,
      "▁teevieerodto": 6770,
      "▁oodstostoaeadaeae": 6771,
      "AA": 6772,
      "aetho": 6773,
      "by": 6774,
      "din": 6775,
      "ftmeftcaiee": 6776,
      "ka": 6777,
      "po": 6778,
      "taiei": 6779,
      "▁®": 6780,
      "eat": 6781,
      "air": 6782,
      "▁tetn0": 6783,
      "toteaee": 6784,
      "▁eftmeftcaiee": 6785,
      "▁oodeaaeeeto": 6786,
      "▁erdoteea": 6787,
      "▁erdeeetn": 6788,
      "▁eatoteec": 6789,
      "▁eaapatnoheelo": 6790,
      "▁otieba": 6791,
      "▁eeadtneaseear": 6792,
      "▁eaaeeeeaaeed": 6793,
      "aotohaieeae": 6794,
      "▁eatoaieeetstt": 6795,
      "▁tseest": 6796,
      "▁oohtoieb": 6797,
      "▁ohaoaieaieaieeea": 6798,
      "▁aieeetoeutoeuto": 6799,
      "eaaeedetaieeeto": 6800,
      "▁tnoho\n": 6801,
      "▁afaeaieote": 6802,
      "▁afatwn": 6803,
      "▁tvaiee0": 6804,
      "▁ietoteatn": 6805,
      "▁eaaoeoteaie": 6806,
      "▁eatoeatntvo": 6807,
      "▁oodoeotasttmntaee\n": 6808,
      "▁paotetoaiaae": 6809,
      "▁etaie1\n": 6810,
      "▁Don": 6811,
      "▁DAR": 6812,
      "▁Con": 6813,
      "▁llooootwn\n": 6814,
      "tefatthtn": 6815,
      "▁ttateaieethn\n": 6816,
      "▁aieaeoooea": 6817,
      "▁ooahneae\n": 6818,
      "▁Ray": 6819,
      "▁taieeesafa\n": 6820,
      "▁He": 6821,
      "▁ttathaieaeetoeer\n": 6822,
      "▁ooaoeoteaieeouoo\n": 6823,
      "▁tktoeeeaieetno\n": 6824,
      "▁DNA\"": 6825,
      "▁En": 6826,
      "▁'\n": 6827,
      "▁IC": 6828,
      "▁IT": 6829,
      "▁oetaotasaietetn\n": 6830,
      "▁tseeieemtoown\n": 6831,
      "▁teoteoeatoaieee\n": 6832,
      "don": 6833,
      "▁aieoeaieaieeeaaetmtn": 6834,
      "▁etasaagte\n": 6835,
      "▁Veron": 6836,
      "hooteatn": 6837,
      "rey": 6838,
      "▁oodiebetoasatotototo": 6839,
      "▁eatooohtoteaee": 6840,
      "hell": 6841,
      "▁teoteooetofaaslotaoeeeae": 6842,
      "▁AIMS": 6843,
      "▁aieaeoteatoooea": 6844,
      "▁Wolfram": 6845,
      "▁StoryCorps": 6846,
      "aethohooteatn": 6847,
      "▁eftmeftcaieeaieaeoaieaeo": 6848,
      "▁erdeeetneea": 6849,
      "▁eatoteecteemteec": 6850,
      "▁eaaeeeeaaeedeaaeedetaieeeto": 6851,
      "▁afatwn1": 6852,
      "▁Veronica": 6853,
      "-R": 6854,
      "lu": 6855,
      "na": 6856,
      "und": 6857,
      "xeta": 6858,
      "▁=": 6859,
      "▁tm": 6860,
      "loaiaae": 6861,
      "▁aieeeo": 6862,
      "▁aieeao": 6863,
      "eaiehr": 6864,
      "houooaiaaeer": 6865,
      "▁tnaietc": 6866,
      "lly": 6867,
      "▁oodtho": 6868,
      "▁oodeae0": 6869,
      "▁oodtoottaeiee": 6870,
      "▁oodaotasaie": 6871,
      "▁llooooieeataeeifaea": 6872,
      "▁hraiehoe": 6873,
      "▁eatoaaoteoteeetn": 6874,
      "▁eaaloaie": 6875,
      "▁eaaeaieeeaown": 6876,
      "▁etaoeaeae": 6877,
      "otaieeesoooo": 6878,
      "▁eeadieaeeiehn": 6879,
      "▁eaaeetn": 6880,
      "eetnst": 6881,
      "eetofa": 6882,
      "▁gt;": 6883,
      "▁teatoaie\n": 6884,
      "▁tseeaieeteeae": 6885,
      "▁aieaeadthetsc": 6886,
      "▁eaitfeetofa": 6887,
      "▁eatoaieee2\n": 6888,
      "▁aieeexeta": 6889,
      "▁ee\n": 6890,
      "ie,": 6891,
      "▁aieellolloooooetaieeeto\n": 6892,
      "▁aieaeoaotohaieeae": 6893,
      "▁ottoottoohllorto": 6894,
      "▁ooaohtc": 6895,
      "▁eaitfeeetnaieec": 6896,
      "▁oohtoetno\n": 6897,
      "▁Av": 6898,
      "▁Stac": 6899,
      "▁Smi": 6900,
      "▁oeeeaietaoeeeae\n": 6901,
      "▁Bo": 6902,
      "▁taoteea\n": 6903,
      "▁oeeeaieaieeeatn\n": 6904,
      "▁oohaieie\n": 6905,
      "in,": 6906,
      "▁aieaethnaie0\n": 6907,
      "▁oteaitfeeetopa": 6908,
      "▁ooaeaieatn": 6909,
      "▁Ear": 6910,
      "▁aioteetnsce\n": 6911,
      "▁etlotaoeeeae\n": 6912,
      "▁oodeaaieeeatn": 6913,
      "▁NBA": 6914,
      "▁NGO": 6915,
      "▁aieaeaieeeto\n": 6916,
      "▁llooooeaetaiee\n": 6917,
      "▁aieoeaiehr": 6918,
      "▁eaitfeeteaeaie\n": 6919,
      "ish": 6920,
      "ach": 6921,
      "ickr": 6922,
      "▁McG": 6923,
      "▁Emma": 6924,
      "▁Bruno": 6925,
      "▁otiebatar": 6926,
      "▁aieeaoh": 6927,
      "▁aieeexetaeai": 6928,
      "▁oodeaaieeeatnsodsod": 6929,
      "-1": 6930,
      "T,": 6931,
      "ban": 6932,
      "da": 6933,
      "e\"": 6934,
      "hen": 6935,
      "ietc": 6936,
      "wa": 6937,
      "eaeaieaiee": 6938,
      "▁of": 6939,
      "erra": 6940,
      "erry": 6941,
      "▁taieetm": 6942,
      "▁taaotasaie": 6943,
      "▁aieeeth": 6944,
      "aoaie": 6945,
      "▁eaieea": 6946,
      "pac": 6947,
      "eeaduo": 6948,
      "arr": 6949,
      "▁eaaaiaaeetouto": 6950,
      "otetc": 6951,
      "taieeeeae": 6952,
      "▁ooaaiea": 6953,
      "▁tseeaotetc": 6954,
      "eohaooooiee": 6955,
      "▁oetodtnoieetaie": 6956,
      "▁oohtoeaeaieaiee": 6957,
      "▁oeeae\n": 6958,
      "▁erdeaeero\n": 6959,
      "▁thaieaeooooeohaooooiee": 6960,
      "▁eaaaieaietaoeeeaethtn\n": 6961,
      "▁ert\n": 6962,
      "▁oodtaieeoesttetn\n": 6963,
      "▁Tony": 6964,
      "▁SO": 6965,
      "▁Bur": 6966,
      "▁Bob": 6967,
      "▁BBC": 6968,
      "anz": 6969,
      "▁Gor": 6970,
      "▁eretaieeeto\n": 6971,
      "▁eaitfeeiec\n": 6972,
      "▁oietaseaaown\n": 6973,
      "▁eteaaaieeasadost\n": 6974,
      "▁taeieemoomoouaieae": 6975,
      "ich": 6976,
      "▁lloooollorto\n": 6977,
      "▁ES": 6978,
      "▁aehteceaieasoteaetno\n": 6979,
      "▁Nan": 6980,
      "▁taeaeto\n": 6981,
      "▁tseetaieetea": 6982,
      "▁cym": 6983,
      "▁eaaetuto": 6984,
      "▁eaaeaieeaiaec": 6985,
      "▁eaeeelotttteec": 6986,
      "▁Craig": 6987,
      "▁Jack": 6988,
      "▁teoteoaieeeetnllorto": 6989,
      "▁Flickr": 6990,
      "▁teetoown": 6991,
      "▁FOX": 6992,
      "▁CNN": 6993,
      "▁taieetmietc": 6994,
      "▁aieeethettooeeeaie": 6995,
      "▁oohtoeaeaieaieeecefe": 6996,
      "-A": 6997,
      "C,": 6998,
      "NC": 6999,
      "ala": 7000,
      "ez": 7001,
      "net": 7002,
      "tieemosa": 7003,
      "eteae": 7004,
      "eteaieuto": 7005,
      "eaieeaeoouoo": 7006,
      "er:": 7007,
      "▁aieetaiee": 7008,
      "▁aieeeaieaie": 7009,
      "tteaie": 7010,
      "▁tnsta": 7011,
      "gtetaieeesoooo": 7012,
      "eaaaieeetn": 7013,
      "▁eadtteaie": 7014,
      "▁taeaeero": 7015,
      "hottneeto": 7016,
      "▁ohtv": 7017,
      "▁oetodaead": 7018,
      "▁toeeaotdoteeaeetn": 7019,
      "eaaeeeeaaeedeaaeee": 7020,
      "ohouooaiaaeer": 7021,
      "▁oheaieeea\n": 7022,
      "▁thnaoaie": 7023,
      "▁eatooohouooaiaaeer": 7024,
      "▁etoasatotototo\n": 7025,
      "▁oodooheaieee": 7026,
      "▁oeeeaieiec\n": 7027,
      "▁eadetaieeeto\n": 7028,
      "▁oohgte\n": 7029,
      "▁oeote\n": 7030,
      "▁afaaieaeouoo": 7031,
      "▁ttaetaiaaeeouoo\n": 7032,
      "▁ieeeaeaieee": 7033,
      "▁eatoeaaoheetktttn": 7034,
      "teetnsc": 7035,
      "▁DI": 7036,
      "▁Di": 7037,
      "▁Dr": 7038,
      "▁taeeexaieeetneea\n": 7039,
      "▁AT": 7040,
      "▁All": 7041,
      "▁Air": 7042,
      "▁Seb": 7043,
      "▁Sou": 7044,
      "▁SJ:": 7045,
      "▁oettotoeae\n": 7046,
      "▁toeeaotdeaeteb": 7047,
      "▁Bla": 7048,
      "▁eaeaieotdttt": 7049,
      "▁aieaeooteetnsc": 7050,
      "ini": 7051,
      "▁etaie0\n": 7052,
      "▁Red": 7053,
      "▁Rais": 7054,
      "▁go": 7055,
      "▁ietn1\n": 7056,
      "▁LT:": 7057,
      "en,": 7058,
      "▁etaieeeto\n": 7059,
      "▁aieeeeeaeasee\n": 7060,
      "▁eeaeaeeaer\n": 7061,
      "▁Wi": 7062,
      "▁ethoaroooo\n": 7063,
      "▁aieeetoaieeetogtetaieeesoooo": 7064,
      "▁afaeteea\n": 7065,
      "isha": 7066,
      "ratch": 7067,
      "▁tseeoetathon": 7068,
      "illian": 7069,
      "hang": 7070,
      "uddin": 7071,
      "▁aieooheaieee": 7072,
      "▁Panban": 7073,
      "▁Julian": 7074,
      "▁PDF": 7075,
      "▁tmtieemosa": 7076,
      "▁Smith": 7077,
      "▁tnstafa": 7078,
      "▁oetodaeadtc": 7079,
      "▁Raisuddin": 7080,
      "DA": 7081,
      "For": 7082,
      "N:": 7083,
      "be": 7084,
      "bi": 7085,
      "bn": 7086,
      "s.\n": 7087,
      "yd": 7088,
      "▁@": 7089,
      "▁hot": 7090,
      "eeeteae": 7091,
      "aieto": 7092,
      "eaieot": 7093,
      "tstto": 7094,
      "lob": 7095,
      "▁aieeaiaa": 7096,
      "▁aieaieeeaa": 7097,
      "▁oeeeaieaieee1": 7098,
      "hop": 7099,
      "▁oodeaaeeetof": 7100,
      "▁aeoh": 7101,
      "eatottea": 7102,
      "▁erdafaetasaa": 7103,
      "▁erdeeaduo": 7104,
      "eeaeood": 7105,
      "▁eatotmtsa": 7106,
      "▁eaatneerto": 7107,
      "▁oteeaeood": 7108,
      "▁aieaaoteoteeetn": 7109,
      "efaa": 7110,
      "▁ooatstto": 7111,
      "▁toeeaotdaieaaiee": 7112,
      "▁etaieemst": 7113,
      "▁erdoeoteaseeexeceee": 7114,
      "taoeeeaeeuto": 7115,
      "▁1⁄": 7116,
      "aitoeemtc": 7117,
      "▁tktttmon": 7118,
      "▁aieeehottneaieote": 7119,
      "▁aieeaettcaiee": 7120,
      "▁eatooeasa": 7121,
      "▁ottotso": 7122,
      "taeieemoomoou": 7123,
      "▁aietnaiaae": 7124,
      "▁tvtaieeeeae": 7125,
      "▁thaieaeooooetco": 7126,
      "▁thaieaeooooaieeaiaaehn": 7127,
      "▁aieaeoeatottea": 7128,
      "oteeeaoteaie": 7129,
      "▁eaieatoown\n": 7130,
      "▁ooaoeoteaieeaee": 7131,
      "▁Tho": 7132,
      "▁CT": 7133,
      "▁Ag": 7134,
      "▁Mi": 7135,
      "▁Mor": 7136,
      "▁Mou": 7137,
      "▁Bi": 7138,
      "▁Beck": 7139,
      "▁Gu": 7140,
      "▁thtseeaaiaaetsaieaeo\n": 7141,
      "▁efametaieeeto\n": 7142,
      "▁Pal": 7143,
      "▁Phi": 7144,
      "▁eaaaiteatoe\n": 7145,
      "etaief": 7146,
      "▁oeeeaietaa\n": 7147,
      "▁gtetaitoeemtc": 7148,
      "▁tktoetotn": 7149,
      "▁ttsoeooohtc": 7150,
      "▁tktaieeaiee": 7151,
      "▁Her": 7152,
      "astian": 7153,
      "▁FBI": 7154,
      "▁ooaaieeoeaierto": 7155,
      "enn": 7156,
      "▁DNA\n": 7157,
      "▁oeteaieeea\n": 7158,
      "▁Net": 7159,
      "▁eaathaieaeoooooteeea": 7160,
      "▁aieaeadoeotohasa": 7161,
      "▁oohaieee\n": 7162,
      "▁ttaeaeaetn\n": 7163,
      "▁aieerdoeote\n": 7164,
      "▁ietaieoeoteeaasee\n": 7165,
      "▁iodiodtaoeeeaeeuto": 7166,
      "▁loaseetctcoooo\n": 7167,
      "▁tooieemoaieaeaieeeto\n": 7168,
      "▁aieeaatneaie": 7169,
      "▁otasatotetnouoo": 7170,
      "▁aieeeeaaetaief": 7171,
      "▁otasatotetneta\n": 7172,
      "ower": 7173,
      "▁Scratch": 7174,
      "▁Hans": 7175,
      "▁Windo": 7176,
      "▁aieaeadeaeeadeaeetc": 7177,
      "▁Earth": 7178,
      "▁aieeaiaaeeaetaiee": 7179,
      "▁aieaieeeaaeea": 7180,
      "▁oteeaeoodthtn": 7181,
      "▁ooatsttouoo": 7182,
      "\"(": 7183,
      "-S": 7184,
      ".C": 7185,
      "ES": 7186,
      "estt": 7187,
      "gram": 7188,
      "hy": 7189,
      "haietc": 7190,
      "mas": 7191,
      "t;": 7192,
      "ti": 7193,
      "uotaieeesoooo": 7194,
      "zz": 7195,
      "▁la": 7196,
      "ooetoo": 7197,
      "toeaieotd": 7198,
      "eeato": 7199,
      "asodsod": 7200,
      "▁etooetoo": 7201,
      "losodsod": 7202,
      "eaieeeaieeeto": 7203,
      "etotefatthtn": 7204,
      "▁aiefaa": 7205,
      "aeee": 7206,
      "ttmtn": 7207,
      "▁oodsc": 7208,
      "▁ajaie": 7209,
      "▁erdeae1": 7210,
      "otoetasee": 7211,
      "▁lloooooteea": 7212,
      "▁eatoeaieetn": 7213,
      "▁tateeatn": 7214,
      "▁eaahottneeto": 7215,
      "eeeaown": 7216,
      "▁aieaeemtc": 7217,
      "▁oello": 7218,
      "iaetaieee": 7219,
      "ietaodtoaiaaetsaieaeo": 7220,
      "▁ooaaieeeea": 7221,
      "▁ooaeohaooooetasaa": 7222,
      "▁taeeeaieeeaieeeto": 7223,
      "▁teoteoeea": 7224,
      "▁oohtoeloeae": 7225,
      "▁llooooegggeae\n": 7226,
      "etootvtaieaeo": 7227,
      "▁erdoeote\n": 7228,
      "▁aieeeietaodtoaiaaetsaieaeo": 7229,
      "▁aieeoeaierto1": 7230,
      "▁thneeeaown": 7231,
      "▁eaethrdtetn\n": 7232,
      "▁taaaoteoteeetn": 7233,
      "land": 7234,
      "▁ottoaieeeea": 7235,
      "▁ottoaethohooteatn": 7236,
      "▁99": 7237,
      "▁aietnlosodsod": 7238,
      "▁eaaietetn\n": 7239,
      "ien": 7240,
      "▁eaaoodtoteatnaieae": 7241,
      "▁tooieemotoetasee": 7242,
      "▁ohatoieemtoown": 7243,
      "▁TB": 7244,
      "▁Th": 7245,
      "▁Tor": 7246,
      "▁oietoest\n": 7247,
      "▁DJ": 7248,
      "▁ottn\n": 7249,
      "▁aieeeeastetn\n": 7250,
      "▁AV": 7251,
      "▁Sud": 7252,
      "▁oetodteetn\n": 7253,
      "▁MA": 7254,
      "▁MBA": 7255,
      "▁MO:": 7256,
      "▁B,": 7257,
      "▁oohaieae\n": 7258,
      "▁oteeeaoteaie\n": 7259,
      "▁teoteooestt": 7260,
      "▁Ra": 7261,
      "▁RG:": 7262,
      "▁Rick": 7263,
      "▁Joel": 7264,
      "▁Jay": 7265,
      "▁JH:": 7266,
      "▁oietaseaasodsod": 7267,
      "▁aieeaexxeae": 7268,
      "▁gtethaietc": 7269,
      "▁oteatoown\n": 7270,
      "▁Lar": 7271,
      "▁aethohotnoieemto\n": 7272,
      "▁Hill": 7273,
      "▁HG:": 7274,
      "▁Fab": 7275,
      "▁FDA": 7276,
      "▁eaaaieeea\n": 7277,
      "▁oeeeaieeaeouoo\n": 7278,
      "▁eatotnoieetaie\n": 7279,
      "▁taottn\n": 7280,
      "▁taoeeeaeaie\n": 7281,
      "▁oeotasttmntaeeato": 7282,
      "▁oeotasttmntaeear\n": 7283,
      "▁stststasee0\n": 7284,
      "eeeeaaeee": 7285,
      "▁ottoetaieeeto\n": 7286,
      "▁oeoteaseeexeceeeeaaeee": 7287,
      "▁oeeeaieelrt\n": 7288,
      "▁eaetrtotetn": 7289,
      "▁otaiatotetnethotc": 7290,
      "▁Or": 7291,
      "alk": 7292,
      "▁eatoooheattaieeeto": 7293,
      "▁Ali": 7294,
      "▁Mark": 7295,
      "▁aieeaaeto": 7296,
      "icks": 7297,
      "▁ieteaaetotjhnasee": 7298,
      "▁teatoottnouoo": 7299,
      "hohohoeatn": 7300,
      "▁CO:": 7301,
      "▁Zipcar": 7302,
      "▁Joseph": 7303,
      "▁William": 7304,
      "▁Nicole": 7305,
      "▁cymat": 7306,
      "▁Sebastian": 7307,
      "▁Panbanisha": 7308,
      "bnb": 7309,
      "▁hottoeaieotd": 7310,
      "▁etooetooetootvtaieaeo": 7311,
      "▁aieaeemtc0": 7312,
      "▁teoteooestteteetn": 7313,
      "▁hottoeaieotdpa": 7314,
      "-E": 7315,
      "IP": 7316,
      "gi": 7317,
      "iohasee": 7318,
      "oc": 7319,
      "rud": 7320,
      "sasa": 7321,
      "tmeuo": 7322,
      "wart": 7323,
      "▁〈": 7324,
      "eeaseaie": 7325,
      "ere": 7326,
      "▁tatea": 7327,
      "▁aieeeeaeasee": 7328,
      "hryn": 7329,
      "▁oodtneaie": 7330,
      "toohoetaieeeto": 7331,
      "eeadar": 7332,
      "▁eaatsoteato": 7333,
      "▁oehohr": 7334,
      "thnerto": 7335,
      "▁oeotett": 7336,
      "▁taoetotn": 7337,
      "ietsodsod": 7338,
      "▁oeeeaieoeoto": 7339,
      "▁asaieown": 7340,
      "▁tseeaeeeaeee": 7341,
      "▁hottneaieot": 7342,
      "▁oetodod": 7343,
      "▁toeeaotdefac": 7344,
      "▁ohaoaeae": 7345,
      "▁eatn\n": 7346,
      "aieaie1": 7347,
      "▁oteatohre": 7348,
      "▁eaitfeeaseaie": 7349,
      "▁tktai": 7350,
      "med": 7351,
      "▁erdaieeeaaeedhn": 7352,
      "▁teaetc\n": 7353,
      "▁afaetoeaier": 7354,
      "▁afatoohoetaieeeto": 7355,
      "ied": 7356,
      "▁eaettc\n": 7357,
      "▁aieaeoaieee": 7358,
      "eotasttmntaee": 7359,
      "▁ottooietsodsod": 7360,
      "▁aieaieetaieeeto": 7361,
      "▁llooootaoeeeae\n": 7362,
      "▁aieeeieemtn\n": 7363,
      "▁eaitfeetso": 7364,
      "▁ohatoaieetstof": 7365,
      "▁oohthoohneerto\n": 7366,
      "▁Cam": 7367,
      "▁Si": 7368,
      "▁aietwn\n": 7369,
      "▁Man": 7370,
      "▁MW:": 7371,
      "▁Bon": 7372,
      "▁taseeetero\n": 7373,
      "▁toeeaotdoeoteaieetc\n": 7374,
      "inc": 7375,
      "into": 7376,
      "▁aieaeoaieaeoaieaeo\n": 7377,
      "▁Pat": 7378,
      "▁Pix": 7379,
      "▁teeaaaaethoela\n": 7380,
      "▁Ron": 7381,
      "▁RIS": 7382,
      "▁eaioeaiooetiaaeemtc\n": 7383,
      "▁oetodhoaseea\n": 7384,
      "▁oeeeaieeaaetaie\n": 7385,
      "▁aieaeadtsiec\n": 7386,
      "▁tktoetotoea": 7387,
      "▁gteatot\n": 7388,
      "▁etaieaotasee": 7389,
      "▁Hu": 7390,
      "▁Hel": 7391,
      "▁eohaooootnoho\n": 7392,
      "▁Eric": 7393,
      "▁IM:": 7394,
      "▁Whi": 7395,
      "▁Neil": 7396,
      "▁ethoaroetmtn\n": 7397,
      "▁oeeeaieaiaaeeaeoteea\n": 7398,
      "rad": 7399,
      "▁erdetaieeohouoothn\n": 7400,
      "▁aieaeadiodiodtaoeeeae\n": 7401,
      "▁otaiatotetnasa\n": 7402,
      "▁etaieoeotohoest\n": 7403,
      "▁oetodtneeae": 7404,
      "itz": 7405,
      "▁erdoohouooaiaaeer": 7406,
      "iva": 7407,
      "▁eaaoeteaaeoooo": 7408,
      "owan": 7409,
      "taathnerto": 7410,
      "▁Inter": 7411,
      "▁aiethnoo": 7412,
      "▁you": 7413,
      "▁Nathan": 7414,
      "▁IDEO": 7415,
      "▁aieeeoello": 7416,
      "▁McGowan": 7417,
      "▁Airbnb": 7418,
      "▁South": 7419,
      "▁Thomas": 7420,
      "▁tateaeaieeeto": 7421,
      "▁oehohrttmtn": 7422,
      "▁oeotetteeadar": 7423,
      "▁oeeeaieoeotosasa": 7424,
      "▁hottneaieotetv": 7425,
      "▁oetododtotnasee": 7426,
      "▁tktaiiohasee": 7427,
      "▁aieaieetaieeetoaieaie1": 7428,
      "▁Pixar": 7429,
      "▁RISD": 7430,
      "GB": 7431,
      "ID": 7432,
      "OS": 7433,
      "kins": 7434,
      "l,": 7435,
      "m,": 7436,
      "ng": 7437,
      "omen": 7438,
      "ris": 7439,
      "uc": 7440,
      "umen": 7441,
      "well": 7442,
      "aitto": 7443,
      "▁taitto": 7444,
      "▁taieetaieetclo": 7445,
      "lor": 7446,
      "▁aieetn": 7447,
      "etoeae": 7448,
      "ster": 7449,
      "▁oodeeaeaieeeto": 7450,
      "▁oodtaathnerto": 7451,
      "▁aeaieeeto": 7452,
      "▁lloooohohohohn": 7453,
      "▁llooooaieeaieagte": 7454,
      "▁eaateeatn": 7455,
      "▁eaataiei": 7456,
      "oth": 7457,
      "▁tstt": 7458,
      "▁ieeaaseeeaieduto": 7459,
      "eetoeaier": 7460,
      "▁taeaettc": 7461,
      "▁aieieemosa": 7462,
      "aeuto": 7463,
      "▁tseeaotohaieeae": 7464,
      "aieaehaetn": 7465,
      "▁eaieeeateetn": 7466,
      "▁toeeaotdaieea": 7467,
      "▁oohtotaeieemoomoou": 7468,
      "▁oodtstofa": 7469,
      "▁aieeaieatothtn": 7470,
      "▁eaeeasooooaehtecaieaeaiaae": 7471,
      "etnoeta": 7472,
      "▁pp": 7473,
      "▁teatoooea\n": 7474,
      "▁tktetotefatthtn": 7475,
      "▁tvt": 7476,
      "▁eaaeedllollomtaae\n": 7477,
      "▁gteeaaieaf": 7478,
      "▁eaitfeeaitoeaiaae": 7479,
      "▁To": 7480,
      "▁TS:": 7481,
      "▁aieeeeaetoeae": 7482,
      "▁Do": 7483,
      "▁C.": 7484,
      "▁Shi": 7485,
      "▁afa1\n": 7486,
      "▁MT": 7487,
      "▁BR": 7488,
      "▁Ber": 7489,
      "▁Bron": 7490,
      "▁Gra": 7491,
      "▁ooataieeeeae": 7492,
      "▁aehtecetktttoar\n": 7493,
      "▁Per": 7494,
      "▁TED\n": 7495,
      "▁Rag": 7496,
      "▁Jan": 7497,
      "▁elrt\n": 7498,
      "▁oodotiebat": 7499,
      "▁teoteotaeuto": 7500,
      "▁Lab": 7501,
      "▁Lyn": 7502,
      "▁ottothaitoetn": 7503,
      "▁Ka": 7504,
      "▁Far": 7505,
      "▁tseetneaieaietoto\n": 7506,
      "▁teatoatot\n": 7507,
      "▁tneertoown\n": 7508,
      "▁E.": 7509,
      "▁oohthosc": 7510,
      "▁II": 7511,
      "▁IW:": 7512,
      "▁Wil": 7513,
      "▁eaeeelotttgggaitoemoomoou": 7514,
      "ism": 7515,
      "▁eaaaieae1\n": 7516,
      "▁eeaeeeaetnoh\n": 7517,
      "▁aieaeeeaeee\n": 7518,
      "▁erdteaetmteaetcaieeeto": 7519,
      "alc": 7520,
      "▁aieetkttotn": 7521,
      "▁aieeaaeaieaedtcoooo": 7522,
      "▁Brian": 7523,
      "age": 7524,
      "ump": 7525,
      "▁Daniel": 7526,
      "▁David:": 7527,
      "▁Speec": 7528,
      "▁Barry": 7529,
      "▁Amy": 7530,
      "▁Evan": 7531,
      "▁Kathryn": 7532,
      "▁oohfaeteeatn": 7533,
      "▁aieeaohaieaehaetn": 7534,
      "anzi": 7535,
      "▁FOXO": 7536,
      "▁aieetaieeeeuto": 7537,
      "▁DIY": 7538,
      "lobal": 7539,
      "▁Windows": 7540,
      "▁Sudhir": 7541,
      "▁taittoe": 7542,
      "▁eaataieieoeoteea": 7543,
      "▁toeeaotdaieea0": 7544,
      "▁Bronx": 7545,
      "-2": 7546,
      "-H": 7547,
      "5N1": 7548,
      "AC": 7549,
      "MT": 7550,
      "She": 7551,
      "dit": 7552,
      "hh": 7553,
      "hu": 7554,
      "lie": 7555,
      "nes": 7556,
      "ott": 7557,
      "uro": 7558,
      "uel": 7559,
      "y:": 7560,
      "▁〉": 7561,
      "▁ha": 7562,
      "toetaieeeto": 7563,
      "toteatnouoo": 7564,
      "▁aieetefsoeo": 7565,
      "aiest1": 7566,
      "tat": 7567,
      "eaduotaieeesoooo": 7568,
      "gtetaiee": 7569,
      "▁oohtoo": 7570,
      "▁erdtthn": 7571,
      "▁erdlololotnttt": 7572,
      "eetaown": 7573,
      "▁eatoaiest1": 7574,
      "▁oteetaown": 7575,
      "▁teatoeaieeaeoouoo": 7576,
      "▁aieaeetoeaier": 7577,
      "▁tso": 7578,
      "▁gteoohthosc": 7579,
      "▁etototoetaieeeto": 7580,
      "▁etnaieec": 7581,
      "▁ooaeaaeeeeaaeedeaaeee": 7582,
      "thettooeeeaie": 7583,
      "▁teoteoiaec": 7584,
      "▁toeeaotdtaiee": 7585,
      "▁eaethre": 7586,
      "▁eeaeaduotaieeesoooo": 7587,
      "▁oeeeaieeaier": 7588,
      "▁eeaestt": 7589,
      "▁eaaaieeasado\n": 7590,
      "▁eatoeaaaieeetn\n": 7591,
      "▁taeaieeaeoero\n": 7592,
      "▁eaaeedhn\n": 7593,
      "▁aieaeototeatnouoo": 7594,
      "▁eaaeaieeaoohgte": 7595,
      "▁Tec": 7596,
      "▁Tur": 7597,
      "▁eloeadtetn\n": 7598,
      "▁llooooiec\n": 7599,
      "▁DL:": 7600,
      "▁C,": 7601,
      "▁Cura": 7602,
      "▁SK:": 7603,
      "▁Shir": 7604,
      "▁Mill": 7605,
      "▁Mike": 7606,
      "▁MT:": 7607,
      "▁Bab": 7608,
      "▁eetn1\n": 7609,
      "▁Gillian": 7610,
      "▁eatoert\n": 7611,
      "▁aieaeooell": 7612,
      "▁oeoteaieeaee\n": 7613,
      "▁Pho": 7614,
      "▁Pre": 7615,
      "▁Pink": 7616,
      "▁ottohottneaieote\n": 7617,
      "▁llooooeaioteatn\n": 7618,
      "▁Joe": 7619,
      "▁oteatoeaieaaeaiee\n": 7620,
      "▁oeoteaieeeattt": 7621,
      "▁LG:": 7622,
      "▁LOL": 7623,
      "▁H5N1": 7624,
      "▁faetthooeroetno\n": 7625,
      "▁eatoaieeaieagte\n": 7626,
      "▁erdtootohhn\n": 7627,
      "▁oodoetathon\n": 7628,
      "▁taeitaieetea\n": 7629,
      "▁faeteatn\n": 7630,
      "▁Wa": 7631,
      "▁Nor": 7632,
      "▁NP:": 7633,
      "orn": 7634,
      "▁ooafiaeaieeeto\n": 7635,
      "▁toteatnouoo\n": 7636,
      "▁Ok": 7637,
      "▁eaiedutoouoo\n": 7638,
      "ney": 7639,
      "▁aieaeadeutoeuto\n": 7640,
      "▁aieaeadeeaeaieeeto\n": 7641,
      "▁aietneaseear\n": 7642,
      "▁oteieeaatothtn\n": 7643,
      "ide": 7644,
      "▁was": 7645,
      "▁aieietaodtoaiaaetsaieaeo": 7646,
      "▁Matt": 7647,
      "▁Math": 7648,
      "▁for": 7649,
      "▁Carol": 7650,
      "▁Anas": 7651,
      "▁Qu": 7652,
      "▁Stein": 7653,
      "▁Stewart": 7654,
      "▁Myria": 7655,
      "▁Martin": 7656,
      "▁Acumen": 7657,
      "▁Sarah": 7658,
      "▁DARPA": 7659,
      "▁HeFor": 7660,
      "▁ICU": 7661,
      ".C.": 7662,
      "▁Kathryn:": 7663,
      "gtetaieetclo": 7664,
      "▁aieaeooelloodtoea": 7665,
      "▁Myriad": 7666,
      "▁HeForShe": 7667,
      "-F": 7668,
      "Car": 7669,
      "E,": 7670,
      "HIN": 7671,
      "PU": 7672,
      "dtaiee": 7673,
      "ga": 7674,
      "ger": 7675,
      "kt": 7676,
      "ler": 7677,
      "rr": 7678,
      "staea": 7679,
      "ua": 7680,
      "yo": 7681,
      "▁$": 7682,
      "▁⋯": 7683,
      "▁ne": 7684,
      "▁teaioteaeeoooo": 7685,
      "ool": 7686,
      "tor": 7687,
      "aseaiee": 7688,
      "▁etta": 7689,
      "▁aieeaaee": 7690,
      "llost": 7691,
      "▁is": 7692,
      "▁oodefac": 7693,
      "ara": 7694,
      "ardo": 7695,
      "▁eaaeaieaeeaieaee": 7696,
      "▁ttaaseaiee": 7697,
      "▁eadtaa": 7698,
      "▁gteiaetaieee": 7699,
      "thur": 7700,
      "▁teoteoeteaieuto": 7701,
      "▁aiehohohoeatn": 7702,
      "▁teadtmeuo": 7703,
      "▁oetodttaa": 7704,
      "odeaeeae": 7705,
      "▁aiiohasee\n": 7706,
      "▁ieeaaseeaieea": 7707,
      "mel": 7708,
      "▁eaaieeeeto\n": 7709,
      "▁ttaeaaietsee": 7710,
      "tarter": 7711,
      "▁ea1\n": 7712,
      "▁oodtefsoeo\n": 7713,
      "taeieetc": 7714,
      "▁afaeaieaieaief": 7715,
      "▁llooootso\n": 7716,
      "▁eaatatc\n": 7717,
      "▁aieaeoaieetstt": 7718,
      "eotaseaaie": 7719,
      "▁eaaoetotoea": 7720,
      "▁ottooeoteaieeuto": 7721,
      "▁eaaoodhtahn": 7722,
      "▁oettaero\n": 7723,
      "▁faeteaeoetmtn\n": 7724,
      "▁TR:": 7725,
      "▁ohatoteaieethn\n": 7726,
      "▁eaetoeadtvooooo\n": 7727,
      "▁patneerto\n": 7728,
      "▁aiaaeaieeeto\n": 7729,
      "▁CPU": 7730,
      "▁SA": 7731,
      "▁Sa": 7732,
      "▁Sk": 7733,
      "▁She": 7734,
      "▁Shar": 7735,
      "▁Sch": 7736,
      "▁SS:": 7737,
      "▁ttsoeotjhn\n": 7738,
      "▁eaieeeaoetotn\n": 7739,
      "▁Mad": 7740,
      "▁Bas": 7741,
      "an,": 7742,
      "▁aotohaieteer\n": 7743,
      "▁Gen": 7744,
      "▁Git": 7745,
      "▁Gius": 7746,
      "▁eatoeaeaieotdero\n": 7747,
      "▁eeeastaea": 7748,
      "▁oestteteetn\n": 7749,
      "▁tataieetea": 7750,
      "▁eaaaiaaeohtho\n": 7751,
      "▁Jas": 7752,
      "▁llooooooheaetn": 7753,
      "▁paemtceae": 7754,
      "▁oodeaier\n": 7755,
      "▁oeaiehrdtvo": 7756,
      "▁tseetotoaiesa\n": 7757,
      "▁Kev": 7758,
      "▁KS:": 7759,
      "▁Kanzi": 7760,
      "▁For": 7761,
      "▁Fur": 7762,
      "▁tktaieeteeae\n": 7763,
      "▁eaaeaseetetn\n": 7764,
      "▁eaaaieeetnasa\n": 7765,
      "▁E8": 7766,
      "▁Edu": 7767,
      "▁paoeoteaieeea\n": 7768,
      "▁easaoooo\n": 7769,
      "▁I'": 7770,
      "▁I.": 7771,
      "▁Word": 7772,
      "▁NM:": 7773,
      "▁New": 7774,
      "▁eaaeedtmtsa\n": 7775,
      "▁eaieeeaaieeaaeee\n": 7776,
      "▁aieoeotaseaaie": 7777,
      "▁ietteec\n": 7778,
      "▁tseeeahn\n": 7779,
      "is,": 7780,
      "▁aieerdtaiee": 7781,
      "▁ooaoef\n": 7782,
      "▁tooieemotthn\n": 7783,
      "▁oodeaaieeeatsee\n": 7784,
      "▁gtehnouoo\n": 7785,
      "▁YR:": 7786,
      "▁]\n": 7787,
      "▁erdteatoottn": 7788,
      "ack": 7789,
      "ald": 7790,
      "▁eatootiebat\n": 7791,
      "▁Ros": 7792,
      "▁eatooohaieie": 7793,
      "ever": 7794,
      "▁Alec": 7795,
      "▁ZK:": 7796,
      "▁tseeeaeeemtn\n": 7797,
      "▁otasatotetnaieee": 7798,
      "▁daf": 7799,
      "▁Facebook,": 7800,
      "ander": 7801,
      "▁erdhohrteatn": 7802,
      "▁PISA": 7803,
      "▁aietaero": 7804,
      "▁Susan:": 7805,
      "▁SOPA": 7806,
      "▁Mouaz": 7807,
      "▁Netra": 7808,
      "▁AV:": 7809,
      "▁cymatics": 7810,
      "▁ppm": 7811,
      "▁oohtooodeaeeae": 7812,
      "▁eeaesttetoown": 7813,
      "▁aieeaaeeetottea": 7814,
      "▁ttaaseaieeer": 7815,
      "▁oetodttaafaeeeaetetn": 7816,
      "▁ttaeaaietseeeer": 7817,
      "▁eeeastaeaetotoetotofa": 7818,
      "\".": 7819,
      ".\"": 7820,
      "EM": 7821,
      "In": 7822,
      "LA": 7823,
      "P3": 7824,
      "S.": 7825,
      "SS": 7826,
      "TP": 7827,
      "bur": 7828,
      "bit": 7829,
      "der": 7830,
      "gel": 7831,
      "ner": 7832,
      "o,": 7833,
      "oeaaeaieea": 7834,
      "pr": 7835,
      "ran": 7836,
      "u,": 7837,
      "uck": 7838,
      "vet": 7839,
      "ya": 7840,
      "eed": 7841,
      "▁teetn": 7842,
      "▁taseaie": 7843,
      "▁tei": 7844,
      "oohtec": 7845,
      "tney": 7846,
      "▁taeohaooooetasaa": 7847,
[...]
