{
  "version": "1.0",
  "truncation": null,
  "padding": null,
  "added_tokens": [
    {
      "id": 0,
      "content": "<unk>",
      "single_word": false,
      "lstrip": false,
      "rstrip": false,
      "normalized": false,
      "special": true
    }
  ],
  "normalizer": {
    "type": "NFKC"
  },
  "pre_tokenizer": {
    "type": "Metaspace",
    "replacement": "▁",
    "add_prefix_space": true,
    "prepend_scheme": "always"
  },
  "post_processor": null,
  "decoder": {
    "type": "Metaspace",
    "replacement": "▁",
    "add_prefix_space": true,
    "prepend_scheme": "always"
  },
  "model": {
    "type": "BPE",
    "dropout": null,
    "unk_token": "<unk>",
    "continuing_subword_prefix": null,
    "end_of_word_suffix": null,
    "fuse_unk": false,
    "byte_fallback": false,
    "vocab": {
      "<unk>": 0,
      "\n": 1,
      "0": 2,
      "1": 3,
      "2": 4,
      "3": 5,
      "a": 6,
      "b": 7,
      "c": 8,
      "d": 9,
      "e": 10,
      "f": 11,
      "g": 12,
      "h": 13,
      "i": 14,
      "j": 15,
      "k": 16,
      "l": 17,
      "m": 18,
      "n": 19,
      "o": 20,
      "p": 21,
      "q": 22,
      "r": 23,
      "s": 24,
      "t": 25,
      "u": 26,
      "v": 27,
      "w": 28,
      "x": 29,
      "y": 30,
      "▁": 31,
      "ea": 32,
      "ee": 33,
      "ai": 34,
      "oo": 35,
      "et": 36,
      "▁t": 37,
      "eai": 38,
      "ot": 39,
      "aiee": 40,
      "eea": 41,
      "▁ea": 42,
      "to": 43,
      "▁o": 44,
      "tn": 45,
      "eaie": 46,
      "eae": 47,
      "etn": 48,
      "▁ai": 49,
      "▁ta": 50,
      "eaiee": 51,
      "▁oo": 52,
      "oooo": 53,
      "ll": 54,
      "eto": 55,
      "as": 56,
      "eot": 57,
      "hn": 58,
      "ta": 59,
      "aie": 60,
      "er": 61,
      "tt": 62,
      "ts": 63,
      "▁et": 64,
      "▁aiee": 65,
      "aa": 66,
      "tot": 67,
      "▁eaa": 68,
      "▁taiee": 69,
      "eer": 70,
      "wn": 71,
      "oh": 72,
      "▁i": 73,
      "dt": 74,
      "st": 75,
      "uto": 76,
      "eaa": 77,
      "tso": 78,
      "▁ot": 79,
      "▁tn": 80,
      "lo": 81,
      "▁a": 82,
      "sa": 83,
      "▁taieetso": 84,
      "lloooo": 85,
      "▁ood": 86,
      "▁tea": 87,
      "eo": 88,
      "▁e": 89,
      "▁ooh": 90,
      "▁oee": 91,
      "▁teea": 92,
      "llo": 93,
      "eaieeea": 94,
      "ho": 95,
      "▁lloooo": 96,
      "ec": 97,
      "▁er": 98,
      "ao": 99,
      "see": 100,
      "hr": 101,
      "fa": 102,
      "pa": 103,
      "▁eai": 104,
      "tc": 105,
      "▁tta": 106,
      "asee": 107,
      "eeae": 108,
      "tea": 109,
      "▁oeot": 110,
      "ero": 111,
      "gt": 112,
      "aieeeto": 113,
      "iee": 114,
      "own": 115,
      "eee": 116,
      "eeea": 117,
      "▁aiea": 118,
      "▁teeaea": 119,
      "▁erd": 120,
      "▁eea": 121,
      "duto": 122,
      "mtn": 123,
      "oto": 124,
      "uoo": 125,
      "etc": 126,
      "▁oe": 127,
      "▁oh": 128,
      "eaetn": 129,
      "▁eaaee": 130,
      "soooo": 131,
      "too": 132,
      "rto": 133,
      "eb": 134,
      "▁eato": 135,
      "▁ead": 136,
      "eatn": 137,
      "▁oet": 138,
      "eero": 139,
      "eeeae": 140,
      "eaiea": 141,
      "ar": 142,
      "eaieea": 143,
      "gte": 144,
      "aieee": 145,
      "hre": 146,
      "aiaa": 147,
      "▁oeeeaie": 148,
      "aieea": 149,
      "eaieduto": 150,
      "sac": 151,
      "htn": 152,
      "▁pa": 153,
      "oeot": 154,
      "▁teot": 155,
      "▁ee": 156,
      "aeae": 157,
      "▁too": 158,
      "eadt": 159,
      "aieae": 160,
      "▁tsee": 161,
      "▁teato": 162,
      "eaeero": 163,
      "toto": 164,
      "asa": 165,
      "▁eead": 166,
      "eaiet": 167,
      "eaiedutoe": 168,
      "▁aieaiedutoe": 169,
      "etot": 170,
      "etn1": 171,
      "oeeeae": 172,
      "ktt": 173,
      "ii": 174,
      "iisoooo": 175,
      "▁etaeae": 176,
      "▁th": 177,
      "▁oest": 178,
      "▁tn1": 179,
      "etaiee": 180,
      "eaier": 181,
      "eaieeeto": 182,
      "▁teoteo": 183,
      "ieb": 184,
      "eeaot": 185,
      "llollo": 186,
      "▁to": 187,
      "aot": 188,
      "ouoo": 189,
      "▁ieea": 190,
      "thn": 191,
      "iec": 192,
      "etktt": 193,
      "▁eae": 194,
      "ef": 195,
      "stt": 196,
      "▁eaieeea": 197,
      "aiea": 198,
      "▁aieeeaetn": 199,
      "lot": 200,
      "eato": 201,
      "eaieaie": 202,
      "taoeeeae": 203,
      "taiee": 204,
      "▁etn1": 205,
      "ooh": 206,
      "▁aiee0": 207,
      "▁tsee1": 208,
      "▁ae": 209,
      "aoteaiee": 210,
      "etktttn": 211,
      "eeaa": 212,
      "aae": 213,
      "tec": 214,
      "eaae": 215,
      "htec": 216,
      "eu": 217,
      "▁iet": 218,
      "ote": 219,
      "▁toeeaot": 220,
      "tf": 221,
      "seea": 222,
      "at": 223,
      "gg": 224,
      "th": 225,
      "etaieeeto": 226,
      "oe": 227,
      "easa": 228,
      "eetn": 229,
      "tnoo": 230,
      "▁oesttnoo": 231,
      "▁taee": 232,
      "hot": 233,
      "▁toeeaotd": 234,
      "▁aie": 235,
      "ttt": 236,
      "jhn": 237,
      "▁etasee": 238,
      "ae": 239,
      "oeote": 240,
      "oha": 241,
      "ieeoh": 242,
      "so": 243,
      "▁aot": 244,
      "hnaie": 245,
      "▁tho": 246,
      "▁teatoaie": 247,
      "▁ieeaasee": 248,
      "▁aieae": 249,
      "easee": 250,
      "suto": 251,
      "▁eaaeeetot": 252,
      "▁oodt": 253,
      "faet": 254,
      "em": 255,
      "ieem": 256,
      "ohaoooo": 257,
      "eoteea": 258,
      "eerto": 259,
      "totoieeoh": 260,
      "▁taeetotoieeoh": 261,
      "ead": 262,
      "▁eohaoooo": 263,
      "▁lo": 264,
      "eeto": 265,
      "loeae": 266,
      "▁eatn": 267,
      "▁hr": 268,
      "▁taeetotoieeohhre": 269,
      "▁m": 270,
      "▁tat": 271,
      "saie": 272,
      "▁ohao": 273,
      "▁tead": 274,
      "▁eaet": 275,
      "llorto": 276,
      "▁otiisoooo": 277,
      "etmtn": 278,
      "aietc": 279,
      "▁gte": 280,
      "eaiaoteaiee": 281,
      "▁ttaeer": 282,
      "▁as": 283,
      "▁oheaieeea": 284,
      "aieeetc": 285,
      "▁tneaiaoteaiee": 286,
      "ase": 287,
      "othn": 288,
      "▁erdt": 289,
      "▁eadsac": 290,
      "eaieaief": 291,
      "eeatn": 292,
      "eeex": 293,
      "▁moto": 294,
      "▁aotoh": 295,
      "▁aieeeaeero": 296,
      "eaieae": 297,
      "▁taeeex": 298,
      "▁st": 299,
      "hottn": 300,
      "aieeet": 301,
      "iet": 302,
      "▁eaieaieaief": 303,
      "▁f": 304,
      "ato": 305,
      "▁oeeeaiet": 306,
      "▁oeoteaie": 307,
      "llothn": 308,
      "▁ttallothn": 309,
      "eown": 310,
      "soeo": 311,
      "▁aehtec": 312,
      "▁aii": 313,
      "aiei": 314,
      "▁oeoteaiepa": 315,
      "thoo": 316,
      "hta": 317,
      "▁eatot": 318,
      "eertot": 319,
      "tfe": 320,
      "aaot": 321,
      "dtn": 322,
      "eeasoooo": 323,
      "htahn": 324,
      "oteea": 325,
      "▁etsuto": 326,
      "etno": 327,
      "▁eaiea": 328,
      "aieaeo": 329,
      "aiet": 330,
      "eaieote": 331,
      "eaaee": 332,
      "▁aaot": 333,
      "▁iee": 334,
      "eaieeeae": 335,
      "▁oeto": 336,
      "aafa": 337,
      "ttiisoooo": 338,
      "▁toottiisoooo": 339,
      "teeae": 340,
      "▁eaaeed": 341,
      "▁faet": 342,
      "▁otea": 343,
      "▁iem": 344,
      "iebat": 345,
      "▁oteea": 346,
      "tj": 347,
      "eaieeead": 348,
      "▁taieee": 349,
      "eaieeaee": 350,
      "▁teatot": 351,
      "▁afa": 352,
      "tjho": 353,
      "▁tao": 354,
      "▁etao": 355,
      "eaieaeto": 356,
      "▁eaaeeetottea": 357,
      "ia": 358,
      "aiaae": 359,
      "▁faafa": 360,
      "▁tnlo": 361,
      "▁aee": 362,
      "▁taaiea": 363,
      "▁tae": 364,
      "▁eto": 365,
      "▁eaie": 366,
      "tsee": 367,
      "▁ohato": 368,
      "▁taaieaaiee": 369,
      "▁oodeae": 370,
      "aeaie": 371,
      "▁tatea": 372,
      "e1": 373,
      "▁tateaee": 374,
      "asaa": 375,
      "▁eaeaie": 376,
      "dthtn": 377,
      "eeemtn": 378,
      "▁hottn": 379,
      "eaietn": 380,
      "▁oeeae": 381,
      "otoa": 382,
      "aoeeeae": 383,
      "▁teoteoiebat": 384,
      "▁teatn": 385,
      "▁oestt": 386,
      "▁taeeexaieeeto": 387,
      "totot": 388,
      "rhtn": 389,
      "eeta": 390,
      "tv": 391,
      "▁oeeeaieea": 392,
      "▁teeae1": 393,
      "▁ieb": 394,
      "eouoo": 395,
      "totototo": 396,
      "▁aieaieeeto": 397,
      "erduto": 398,
      "eoteeea": 399,
      "▁aieaieeeto0": 400,
      "asatotototo": 401,
      "eloeae": 402,
      "iebtjho": 403,
      "eadtetn": 404,
      "oea": 405,
      "▁etoasatotototo": 406,
      "▁eaaiee": 407,
      "dto": 408,
      "eetc": 409,
      "▁thoaie": 410,
      "▁ohn": 411,
      "▁tasac": 412,
      "▁odthtn": 413,
      "eaieeeadst": 414,
      "▁rto": 415,
      "▁oetn": 416,
      "▁aotohai": 417,
      "▁elo": 418,
      "▁erdoeote": 419,
      "ggg": 420,
      "▁oohetktttn": 421,
      "toooea": 422,
      "efsoeo": 423,
      "eaeaie": 424,
      "▁tt": 425,
      "lotn": 426,
      "lolotn": 427,
      "lolotnttt": 428,
      "▁teaieeeadst": 429,
      "toown": 430,
      "▁eaaeeeto": 431,
      "eeeaie": 432,
      "▁eaetaiee": 433,
      "otea": 434,
      "▁aieai": 435,
      "▁lololotnttt": 436,
      "▁otetaiee": 437,
      "▁eaeeasoooo": 438,
      "▁otetaieeeown": 439,
      "▁oeasa": 440,
      "▁hottniebtjho": 441,
      "euo": 442,
      "dtc": 443,
      "tetn": 444,
      "oteato": 445,
      "eaaie": 446,
      "▁tnst": 447,
      "otoatn": 448,
      "▁oteaa": 449,
      "▁eatne": 450,
      "▁eaitfe": 451,
      "eaiaa": 452,
      "otn": 453,
      "do": 454,
      "tstt": 455,
      "erodtn": 456,
      "dero": 457,
      "▁aieto": 458,
      "ieer": 459,
      "▁eaeadtetn": 460,
      "▁tseea": 461,
      "hoh": 462,
      "▁eaeaetn": 463,
      "▁eetn": 464,
      "aieeetstt": 465,
      "thooero": 466,
      "▁oeaie": 467,
      "etaiaa": 468,
      "▁iemeu": 469,
      "▁hre": 470,
      "▁hre0": 471,
      "▁oodeaelo": 472,
      "▁lloooot": 473,
      "▁ieeea": 474,
      "▁gt": 475,
      "▁eatoo": 476,
      "aieec": 477,
      "etoo": 478,
      "aoa": 479,
      "▁faetthooero": 480,
      "eeouoo": 481,
      "ro": 482,
      "▁teadeaeero": 483,
      "tho": 484,
      "▁iec": 485,
      "etaiaaeeouoo": 486,
      "uo": 487,
      "seear": 488,
      "▁eaeeemtn": 489,
      "▁eohaooooaieec": 490,
      "eadtc": 491,
      "▁eao": 492,
      "eadar": 493,
      "▁aeadtc": 494,
      "▁atot": 495,
      "dtetn": 496,
      "▁aedtc": 497,
      "oheloeae": 498,
      "hohr": 499,
      "▁aiaae": 500,
      "▁eaeaieoheloeae": 501,
      "▁eloeadar": 502,
      "▁eaas": 503,
      "▁twn": 504,
      "▁toeeaotdea": 505,
      "▁oodeaa": 506,
      "▁tneaie": 507,
      "aie0": 508,
      "▁etasaa": 509,
      "▁eaasoteea": 510,
      "▁eaaietc": 511,
      "eeaaetn": 512,
      "aieie": 513,
      "▁ooheeaaetn": 514,
      "▁taoeote": 515,
      "▁ohatohtahn": 516,
      "▁ieeaase": 517,
      "loaie": 518,
      "etouto": 519,
      "eertottea": 520,
      "la": 521,
      "xx": 522,
      "xxeae": 523,
      "▁oeoteertottea": 524,
      "▁aieae1": 525,
      "▁oteeaeetn": 526,
      "ieemo": 527,
      "gggeae": 528,
      "aieeaasee": 529,
      "eterduto": 530,
      "▁eaexxeae": 531,
      "▁aieea": 532,
      "▁etotoatn": 533,
      "oot": 534,
      "▁oeotd": 535,
      "oeoteaiee": 536,
      "mtc": 537,
      "▁aaoteoteea": 538,
      "llolloetouto": 539,
      "eaieasaie": 540,
      "eeawn": 541,
      "▁thot": 542,
      "▁eaaai": 543,
      "aieaeoooo": 544,
      "▁thoao": 545,
      "▁eaieeatn": 546,
      "oelot": 547,
      "▁aseaie": 548,
      "aehtec": 549,
      "aseea": 550,
      "▁aaoteoteeadero": 551,
      "eaaeed": 552,
      "▁ts": 553,
      "▁teadtstt": 554,
      "hoar": 555,
      "▁aieaeadt": 556,
      "▁ttaetaiaaeeouoo": 557,
      "tfee": 558,
      "aieeaee": 559,
      "▁ieeaaseeeeta": 560,
      "▁eeta": 561,
      "▁tateae": 562,
      "▁taa": 563,
      "▁oeoteaiee": 564,
      "▁taeuo": 565,
      "▁taei": 566,
      "▁oeaieasaie": 567,
      "▁teatoar": 568,
      "▁oteaaote": 569,
      "▁tk": 570,
      "tctc": 571,
      "aseetctc": 572,
      "▁easa": 573,
      "▁eaier": 574,
      "tthn": 575,
      "▁thotho": 576,
      "taieerto": 577,
      "▁oodtefsoeo": 578,
      "▁oetta": 579,
      "▁aieee": 580,
      "▁staie0": 581,
      "eaaeedhn": 582,
      "asaie": 583,
      "tto": 584,
      "eaieetn": 585,
      "egggeae": 586,
      "toteatn": 587,
      "eaaeeaieote": 588,
      "▁afa1": 589,
      "▁oteaseear": 590,
      "vo": 591,
      "▁eaeteb": 592,
      "▁aieeteeae": 593,
      "▁aieeteeae0": 594,
      "▁loaseetctc": 595,
      "▁eee": 596,
      "eotea": 597,
      "eaiaae": 598,
      "ltto": 599,
      "▁aieeeaaeedhn": 600,
      "▁eaieieer": 601,
      "eeaeasee": 602,
      "▁oheaieeeaown": 603,
      "eas": 604,
      "▁ttaaiee": 605,
      "hrdtetn": 606,
      "▁aieaeadthnaie": 607,
      "lloooolloooo": 608,
      "▁ttaaieeeero": 609,
      "erodtno": 610,
      "▁eeaderodtno": 611,
      "▁ieeeeawn": 612,
      "▁aiioh": 613,
      "llollof": 614,
      "eeeaeee": 615,
      "▁eeae": 616,
      "▁eotea": 617,
      "▁oodo": 618,
      "ets": 619,
      "▁oeeeaieown": 620,
      "▁oeotdaeaie": 621,
      "▁aieeo": 622,
      "iettea": 623,
      "▁ttiettea": 624,
      "▁tm": 625,
      "▁oeote": 626,
      "▁aieeeto": 627,
      "erto": 628,
      "▁eeaetmtn": 629,
      "▁ooheeaaetnaieeeto": 630,
      "▁taoeeeae": 631,
      "▁eatollolloetouto": 632,
      "▁teatoooea": 633,
      "aiaoteaiee": 634,
      "▁oodooh": 635,
      "eaieeeaeuto": 636,
      "▁aieaieaieeeaeuto": 637,
      "▁eetn0": 638,
      "eaaehn": 639,
      "▁eeadaieeaee": 640,
      "▁astn": 641,
      "▁eatoeatn": 642,
      "oaoa": 643,
      "▁otoaoa": 644,
      "▁eaaef": 645,
      "tjhn": 646,
      "seaie": 647,
      "▁ooa": 648,
      "ieemtn": 649,
      "▁ttso": 650,
      "▁ieeaaseeaiee": 651,
      "▁eaethrdtetn": 652,
      "tottt": 653,
      "▁aietoe": 654,
      "llooootaoeeeae": 655,
      "etsaieaeo": 656,
      "▁aiiohase": 657,
      "▁llooooegggeae": 658,
      "eaieaaeeaieote": 659,
      "▁aiiohaseeaieaaeeaieote": 660,
      "▁eloeae": 661,
      "etetn": 662,
      "▁eeadaieeetc": 663,
      "ft": 664,
      "aiaaetsaieaeo": 665,
      "▁tatc": 666,
      "▁tee": 667,
      "▁eae2": 668,
      "eoero": 669,
      "▁aiaaellooootaoeeeae": 670,
      "▁taoeeeaeown": 671,
      "eoo": 672,
      "▁teoteoeaeero": 673,
      "▁ho": 674,
      "▁sac": 675,
      "eaeto": 676,
      "▁etaiaa": 677,
      "▁etaiaaeee": 678,
      "aieee1": 679,
      "iaec": 680,
      "▁oeteaaehn": 681,
      "▁atotaieee": 682,
      "asaieown": 683,
      "▁etaie": 684,
      "▁hohr": 685,
      "aieeetn": 686,
      "▁aiiasaieown": 687,
      "▁oeeeaietn": 688,
      "▁taoeeea": 689,
      "▁paot": 690,
      "saa": 691,
      "▁teeasaa": 692,
      "etaieee": 693,
      "▁oeaierto": 694,
      "▁eaiaae": 695,
      "▁eaiaaegte": 696,
      "▁tn2": 697,
      "eeoooo": 698,
      "aetn": 699,
      "▁tooieem": 700,
      "oteaeeoooo": 701,
      "taieerhtn": 702,
      "aeaiee": 703,
      "▁aieaetn": 704,
      "▁eaaeeetotsee": 705,
      "od": 706,
      "▁tnoh": 707,
      "doero": 708,
      "eaieeadoero": 709,
      "▁aea": 710,
      "▁eadaieeetstt": 711,
      "euto": 712,
      "ooooo": 713,
      "▁llooootaieerhtn": 714,
      "▁eaaeto": 715,
      "staie": 716,
      "▁tneeae": 717,
      "▁aaoteoteeea": 718,
      "ttea": 719,
      "etoown": 720,
      "▁oeeeaieoe": 721,
      "▁aaoteoteeeatn": 722,
      "▁paotetktttn": 723,
      "▁ea1": 724,
      "aieeeae": 725,
      "etotn": 726,
      "▁oodooheaieaeto": 727,
      "▁ethoar": 728,
      "▁ttea": 729,
      "▁hoaseea": 730,
      "▁aieeeertot": 731,
      "▁hoaseeaown": 732,
      "▁aotohaieaieae": 733,
      "etteeae": 734,
      "ieea": 735,
      "tseea": 736,
      "▁llooooas": 737,
      "▁ooheaetn": 738,
      "▁aieeeertotllorto": 739,
      "▁paooh": 740,
      "▁tooto": 741,
      "otd": 742,
      "ohasa": 743,
      "thtn": 744,
      "▁tkt": 745,
      "aieeasa": 746,
      "aieeatn": 747,
      "aietetn": 748,
      "▁thtseea": 749,
      "▁taeaietn": 750,
      "▁ooat": 751,
      "▁ettaieerto": 752,
      "▁oohgte": 753,
      "▁paooheetc": 754,
      "▁oohto": 755,
      "▁taet": 756,
      "▁oeeeaietjhn": 757,
      "▁odthtnaieeeto": 758,
      "aieeeeto": 759,
      "▁eae1": 760,
      "▁ooateeae": 761,
      "▁tv": 762,
      "▁aieeaiea": 763,
      "▁llooooaieee": 764,
      "eaiertottt": 765,
      "▁aieeoeaiertottt": 766,
      "ohaieie": 767,
      "▁aie0": 768,
      "aitho": 769,
      "pao": 770,
      "▁taiei": 771,
      "▁teatotoot": 772,
      "▁eaaeeetn": 773,
      "▁ohaoaieeetc": 774,
      "taoeeeaehn": 775,
      "▁eaaeeetneae": 776,
      "▁ttaea": 777,
      "gtetetn": 778,
      "▁aiaa": 779,
      "▁aieeaieagtetetn": 780,
      "easeaa": 781,
      "llolloeatn": 782,
      "▁emtc": 783,
      "▁oeeeaieoeltto": 784,
      "eeaaeea": 785,
      "toar": 786,
      "aithoeouoo": 787,
      "eatoeatn": 788,
      "▁thaieaeoooo": 789,
      "sod": 790,
      "▁aieetsee": 791,
      "fteo": 792,
      "▁eaaeedllollo": 793,
      "taae": 794,
      "mtaae": 795,
      "▁eaaeedllollomtaae": 796,
      "▁etaieeet": 797,
      "▁oeteaa": 798,
      "▁tai": 799,
      "▁eaaeeaaeea": 800,
      "eeaote": 801,
      "▁taaieee1": 802,
      "eaioteato": 803,
      "▁eeaduo": 804,
      "▁llooootaithoeouoo": 805,
      "▁teatoteaieeeae": 806,
      "aehtectv": 807,
      "▁aieeb": 808,
      "▁eatoaieee": 809,
      "taea": 810,
      "▁aieebaehtectv": 811,
      "▁teaieeaee": 812,
      "▁ieeaaseellollof": 813,
      "▁ieeaaseellolloftaea": 814,
      "▁st1": 815,
      "▁eadet": 816,
      "▁tneeaote": 817,
      "▁aieeaee": 818,
      "▁aieeaee1": 819,
      "asaee": 820,
      "ieceaa": 821,
      "▁eadetsuto": 822,
      "▁teatotootasaee": 823,
      "▁oohtot": 824,
      "▁aieee2": 825,
      "▁eatoaieee2": 826,
      "▁seaie": 827,
      "▁oestte": 828,
      "▁oodloaie": 829,
      "oeoteaieeuto": 830,
      "sahn": 831,
      "etniec": 832,
      "▁aeea": 833,
      "▁eaaaietn": 834,
      "▁tasee": 835,
      "▁taseeet": 836,
      "teatn": 837,
      "hneerto": 838,
      "▁oteato": 839,
      "atot": 840,
      "▁eaaieeaasee": 841,
      "▁llooooeaeaie": 842,
      "▁eaaieeaaseeeaioteato": 843,
      "▁erdoeotegte": 844,
      "▁iecieceaa": 845,
      "▁oodeaaetniec": 846,
      "oteeaeterduto": 847,
      "▁iecieceaaetoown": 848,
      "▁ietao": 849,
      "eaiaaeaieeeto": 850,
      "▁eaetaieepa": 851,
      "▁oeotas": 852,
      "oouoo": 853,
      "▁eatothnaie": 854,
      "▁taeaa": 855,
      "aseaa": 856,
      "▁taaieeatn": 857,
      "▁teeaaa": 858,
      "fteoaiaae": 859,
      "ietaseaa": 860,
      "eatsee": 861,
      "▁ottoo": 862,
      "hhn": 863,
      "eaitfee": 864,
      "▁teoteoo": 865,
      "dtoaiaaetsaieaeo": 866,
      "▁iettc": 867,
      "aec": 868,
      "▁eaaet": 869,
      "▁easatoto": 870,
      "▁toeeaotdeaaieeeeto": 871,
      "▁ietaodtoaiaaetsaieaeo": 872,
      "▁rhtn": 873,
      "rodto": 874,
      "▁oteatn": 875,
      "▁oettaero": 876,
      "aieaie": 877,
      "▁oeeeaieeaa": 878,
      "thoohneerto": 879,
      "oelotc": 880,
      "▁lloooooelotc": 881,
      "eadtvo": 882,
      "totoaetn": 883,
      "▁taieellolloeatn": 884,
      "▁eaeae": 885,
      "▁eaeoteea": 886,
      "eoteeeaown": 887,
      "tneaie": 888,
      "▁eaeoteeeaown": 889,
      "tao": 890,
      "aeaieela": 891,
      "▁eaieaeaier": 892,
      "taoeeea": 893,
      "eatt": 894,
      "▁taathn": 895,
      "teer": 896,
      "▁paeaier": 897,
      "▁aietn1": 898,
      "▁iaec": 899,
      "▁teaeaie": 900,
      "▁aitfe": 901,
      "eaieas": 902,
      "toteato": 903,
      "▁taitoteato": 904,
      "▁teeto": 905,
      "lh": 906,
      "▁oeeeaieeaieaie": 907,
      "▁eaeaetniec": 908,
      "eaieaieae": 909,
      "▁teer": 910,
      "eaieaiet": 911,
      "▁oeeeaieoteeaeterduto": 912,
      "tthnst": 913,
      "aeoooo": 914,
      "▁aiot": 915,
      "▁oteatoooea": 916,
      "▁taea": 917,
      "▁llooootso": 918,
      "eaieaietoto": 919,
      "▁tllorto": 920,
      "▁eatooetotn": 921,
      "▁ieeeaeaiee": 922,
      "tc0": 923,
      "▁eetc0": 924,
      "ieet": 925,
      "▁ouoo": 926,
      "▁erdaiee": 927,
      "▁teatngte": 928,
      "ttooh": 929,
      "ela": 930,
      "▁taitoteatoetn": 931,
      "eeerto": 932,
      "eaioteaeeoooo": 933,
      "▁gteaie": 934,
      "▁eetaar": 935,
      "ex": 936,
      "iaeaieeeto": 937,
      "▁aieaieeeto0\n": 938,
      "easeeex": 939,
      "easeeexec": 940,
      "▁hohrtthnst": 941,
      "▁eaieduto": 942,
      "aieeee": 943,
      "▁toot": 944,
      "▁aieaae": 945,
      "lloooollooooieb": 946,
      "▁etno": 947,
      "▁ottoottooh": 948,
      "▁otetaieee": 949,
      "▁llooootwn": 950,
      "▁eatoeaa": 951,
      "paoeot": 952,
      "▁oetotn": 953,
      "▁teatnaiee": 954,
      "▁oetoetteeae": 955,
      "▁tatn": 956,
      "tee": 957,
      "aieasa": 958,
      "oeeae": 959,
      "▁otee": 960,
      "▁oodoeeeaie": 961,
      "▁iemtetn": 962,
      "▁iemtetn0": 963,
      "aito": 964,
      "aieeasado": 965,
      "ac": 966,
      "▁oodoeeeaielloooollooooieb": 967,
      "▁teeaaaaeoooo": 968,
      "▁aotohaieasa": 969,
      "eaieeadoeroe": 970,
      "▁aieaieeadoeroe": 971,
      "▁eeetn": 972,
      "▁erdaieeeaetn": 973,
      "▁oohtoeae": 974,
      "eaetaiee": 975,
      "oet": 976,
      "▁ohaoeae": 977,
      "toteatnaieae": 978,
      "▁etno0": 979,
      "dar": 980,
      "easaee": 981,
      "eaieeeaduto": 982,
      "▁toeeaotdeaeaieeeaduto": 983,
      "▁eaieeeaown": 984,
      "oelotac": 985,
      "oeai": 986,
      "eaed": 987,
      "▁oeeeaiee": 988,
      "▁aehtecetktt": 989,
      "eaedoooo": 990,
      "▁aieaetnta": 991,
      "▁aieaetnta0": 992,
      "▁aehtecetktttoar": 993,
      "fiaeaieeeto": 994,
      "▁taoeeeaeeatn": 995,
      "teatoteatn": 996,
      "▁oodet": 997,
      "eaaeee": 998,
      "eelo": 999,
      "▁ttatotoaetn": 1000,
      "▁aioteaedoooo": 1001,
      "▁erdtc": 1002,
      "▁aieaieaie": 1003,
      "▁aeeao": 1004,
      "eead": 1005,
      "▁taieeaasee": 1006,
      "▁aieaead": 1007,
      "▁aieaieaieeea": 1008,
      "▁oeteaaeaieaeto": 1009,
      "▁thoo": 1010,
      "▁etteatoteatn": 1011,
      "▁aietn": 1012,
      "eeasa": 1013,
      "▁oetod": 1014,
      "▁aieeeaieeaee": 1015,
      "▁eaaieeeatsee": 1016,
      "▁thiaec": 1017,
      "▁oteeaeterduto": 1018,
      "▁oohfiaeaieeeto": 1019,
      "etnooooo": 1020,
      "▁tteaown": 1021,
      "▁taeaieea": 1022,
      "eeaeoteea": 1023,
      "mtoown": 1024,
      "▁aotohaieaioteaeeoooo": 1025,
      "▁teev": 1026,
      "▁teatoaieeeae": 1027,
      "sc": 1028,
      "▁teeasaar": 1029,
      "▁tasaie": 1030,
      "▁oeoteaieeouoo": 1031,
      "eaataoeeeaehn": 1032,
      "▁ll": 1033,
      "eaaeaiee": 1034,
      "toieemo": 1035,
      "houoo": 1036,
      "▁lltoieemo": 1037,
      "teea": 1038,
      "▁ttsoeot": 1039,
      "houoothn": 1040,
      "▁eaitfee": 1041,
      "taieaeo": 1042,
      "▁otaiaoteaiee": 1043,
      "▁oodeaier": 1044,
      "▁tkteaataoeeeaehn": 1045,
      "▁oeoteaseeexec": 1046,
      "▁llooootaoeeeae": 1047,
      "▁ieet": 1048,
      "▁oeeeaielloooolloooo": 1049,
      "▁eetaareae": 1050,
      "▁eaaeaieea": 1051,
      "seeao": 1052,
      "eeaeaieeeto": 1053,
      "aieai": 1054,
      "▁erdtcaiee": 1055,
      "▁taeaieeaeoero": 1056,
      "tsto": 1057,
      "▁etaieeeta": 1058,
      "▁oohaieie": 1059,
      "ost": 1060,
      "▁llooooo": 1061,
      "▁taieieeasa": 1062,
      "▁otetaieeeownero": 1063,
      "▁teoteooohaieie": 1064,
      "▁tootohhn": 1065,
      "▁faetthooeroetno": 1066,
      "hoetaieeeto": 1067,
      "thntv": 1068,
      "▁aehtecthntv": 1069,
      "oteaetn": 1070,
      "▁tsiec": 1071,
      "eaieasoteaetn": 1072,
      "eaieasoteaetno": 1073,
      "▁eaats": 1074,
      "▁thooetnooooo": 1075,
      "▁aehteceaieasoteaetno": 1076,
      "eaieetno": 1077,
      "lotaoeeeae": 1078,
      "eaieaee": 1079,
      "thnaie": 1080,
      "▁oeeeaietnaietc": 1081,
      "▁etteatoteatnaeae": 1082,
      "▁oodoelotac": 1083,
      "shtn": 1084,
      "vtot": 1085,
      "▁oeaiertoetc": 1086,
      "▁gteloaie": 1087,
      "ttm": 1088,
      "taee": 1089,
      "▁oeaiertoetco": 1090,
      "tn0": 1091,
      "etooetaieeeto": 1092,
      "▁oteatoetooetaieeeto": 1093,
      "lr": 1094,
      "▁aioteaedooooaeaie": 1095,
      "eaeeemtn": 1096,
      "eeaaeasaee": 1097,
      "▁eetn1": 1098,
      "▁aiaiee": 1099,
      "▁eaieea": 1100,
      "toaie": 1101,
      "▁patn": 1102,
      "loasee": 1103,
      "▁llooooiec": 1104,
      "▁oeteatoeatn": 1105,
      "ertot": 1106,
      "▁ooaeeaeasee": 1107,
      "▁ohaoaieea": 1108,
      "lrt": 1109,
      "▁oeti": 1110,
      "▁lloooooietaseaa": 1111,
      "▁eaieeeafa": 1112,
      "▁eaieeeafatjhn": 1113,
      "ieemosa": 1114,
      "▁eetattt": 1115,
      "▁tvtaieaeo": 1116,
      "eta": 1117,
      "safa": 1118,
      "▁taeitthn": 1119,
      "▁eaaieeee": 1120,
      "▁taieeesafa": 1121,
      "▁oohtotv": 1122,
      "▁tmost": 1123,
      "▁aieeetoar": 1124,
      "▁eaiaa": 1125,
      "aietktttn": 1126,
      "▁eaaie": 1127,
      "eaaemtn": 1128,
      "eaieee": 1129,
      "odi": 1130,
      "▁iec1": 1131,
      "▁etasa": 1132,
      "▁tn1\n": 1133,
      "easeeao": 1134,
      "▁oodeae0": 1135,
      "otoaoa": 1136,
      "▁ieteaaemtn": 1137,
      "oteaiee": 1138,
      "▁eaieeaeoero": 1139,
      "▁oettataoeeeae": 1140,
      "▁oettataoeeeaeouoo": 1141,
      "ttmn": 1142,
      "▁eatoero": 1143,
      "tclo": 1144,
      "▁eaaaieeasado": 1145,
      "afaet": 1146,
      "tae": 1147,
      "▁ietsaie": 1148,
      "▁ttaiee": 1149,
      "▁eaaoo": 1150,
      "tooeer": 1151,
      "▁ttaeatooeer": 1152,
      "aotasee": 1153,
      "▁oodotoaoa": 1154,
      "▁eaeoteeasahn": 1155,
      "pt": 1156,
      "eaietaoeeeae": 1157,
      "▁eaieaeaierthtn": 1158,
      "▁oteatoooea\n": 1159,
      "etaie": 1160,
      "etc1": 1161,
      "▁toohoetaieeeto": 1162,
      "▁erdeaeero": 1163,
      "▁etaieea": 1164,
      "eaieeatn": 1165,
      "oteeea": 1166,
      "▁em": 1167,
      "stoouoo": 1168,
      "▁oeeeaiestoouoo": 1169,
      "▁eatotn": 1170,
      "aieeetneea": 1171,
      "▁iebeaeeemtn": 1172,
      "hreown": 1173,
      "▁oesttehreown": 1174,
      "est": 1175,
      "▁eaieeeafatjhnteer": 1176,
      "▁aieeetc1": 1177,
      "lherodtn": 1178,
      "▁taeeexaieeetneea": 1179,
      "▁ieeeaeaieaee": 1180,
      "tar": 1181,
      "▁oohhre": 1182,
      "▁tooieemot": 1183,
      "meuo": 1184,
      "etn0": 1185,
      "eaduo": 1186,
      "oteo": 1187,
      "oteoef": 1188,
      "▁erdth": 1189,
      "eteetn": 1190,
      "▁teoteoieemosa": 1191,
      "roetmtn": 1192,
      "▁teeasaaroetmtn": 1193,
      "▁aies": 1194,
      "tar0": 1195,
      "▁aiestar0": 1196,
      "▁oeeeaielloooollooootetn": 1197,
      "tpa": 1198,
      "▁totn": 1199,
      "▁oeeeaieiec": 1200,
      "▁llooooasoteoef": 1201,
      "▁eaata": 1202,
      "▁oestteteetn": 1203,
      "▁eaaeaetaiee": 1204,
      "▁aehteceaieasoteaetno\n": 1205,
      "▁aotetc": 1206,
      "thaieaeoooo": 1207,
      "aiaaeeaeoteea": 1208,
      "▁aiaaeea": 1209,
      "▁teeaea\n": 1210,
      "▁aeeeaeee": 1211,
      "▁otto": 1212,
      "seetpa": 1213,
      "oho": 1214,
      "▁eaieetn": 1215,
      "▁oodteaaie": 1216,
      "▁aieaest": 1217,
      "eahn": 1218,
      "tmtn": 1219,
      "▁eadt": 1220,
      "▁oeoteaseeexeceee": 1221,
      "eaieafteoaiaae": 1222,
      "eaiaaeeerto": 1223,
      "▁taieet": 1224,
      "▁erdaehtec": 1225,
      "▁teatnhre": 1226,
      "▁llooooasto": 1227,
      "aoeeea": 1228,
      "aietsee": 1229,
      "▁eerto": 1230,
      "eet": 1231,
      "▁erdaehtecetktttn": 1232,
      "stteea": 1233,
      "eea1": 1234,
      "▁oteaaoteaiee": 1235,
      "toot": 1236,
      "▁taetasa": 1237,
      "▁aieae0": 1238,
      "etcohasa": 1239,
      "eaietaoeeea": 1240,
      "▁eaaaieaietaoeeea": 1241,
      "aiaieee": 1242,
      "▁aiaieea": 1243,
      "▁aiaieeaaiaieee": 1244,
      "▁thtseeastteea": 1245,
      "▁eahn": 1246,
      "▁eaathaieaeoooo": 1247,
      "▁tthn": 1248,
      "▁eaaeedhn": 1249,
      "▁oodts": 1250,
      "eaieethn": 1251,
      "sodsod": 1252,
      "▁thnaie": 1253,
      "▁oodhtahn": 1254,
      "▁oodeeaeasee": 1255,
      "▁teaeaieown": 1256,
      "dc": 1257,
      "▁tneaiesa": 1258,
      "ei": 1259,
      "▁eaaetcohasa": 1260,
      "▁tateea1": 1261,
      "eaieotd": 1262,
      "▁taoeeeaie": 1263,
      "▁aeadtcee": 1264,
      "▁eaathaieaeooooteatn": 1265,
      "tsts": 1266,
      "town": 1267,
      "hotc": 1268,
      "▁oodi": 1269,
      "ou": 1270,
      "mo": 1271,
      "eaieeetc": 1272,
      "▁eeaeaduo": 1273,
      "▁eatoeaiaaeeerto": 1274,
      "naie": 1275,
      "▁pathoohneerto": 1276,
      "toeatn": 1277,
      "taeiee": 1278,
      "▁oodietn0": 1279,
      "▁etaie1": 1280,
      "dtjhn": 1281,
      "aieaietaoeeeae": 1282,
      "▁erdtoo": 1283,
      "atetn": 1284,
      "ieemto": 1285,
      "▁taathnerto": 1286,
      "▁aieeeatn": 1287,
      "▁aiaaeeaiet": 1288,
      "▁aiaaeeaietmtoown": 1289,
      "▁eaieaf": 1290,
      "▁tseaeaie": 1291,
      "▁oeaieeaee": 1292,
      "▁oeaieeaeetmtn": 1293,
      "▁ero": 1294,
      "etm": 1295,
      "▁oesttetn": 1296,
      "eae1": 1297,
      "▁etn": 1298,
      "ttmntaee": 1299,
      "▁ieblo": 1300,
      "eaiaaehn": 1301,
      "eaieeetn": 1302,
      "oetmtn": 1303,
      "▁teetoaie": 1304,
      "aiear": 1305,
      "▁teevoteato": 1306,
      "▁eaeto": 1307,
      "▁oodea": 1308,
      "emtc": 1309,
      "▁eaaeedoeoteaieeuto": 1310,
      "▁teatoeeaeaieeeto": 1311,
      "tstst": 1312,
      "faas": 1313,
      "aieasaie": 1314,
      "▁eaieotd": 1315,
      "▁tootohouoothn": 1316,
      "▁eatnhre": 1317,
      "▁eaieotdetaieeeto": 1318,
      "▁ieeeaeaieae": 1319,
      "▁ieeeaeaieaedar": 1320,
      "▁iebta": 1321,
      "hoela": 1322,
      "eaatneaie": 1323,
      "oteetn": 1324,
      "▁oeeeaiets": 1325,
      "▁eeto": 1326,
      "▁oeotastoaie": 1327,
      "▁oeeeaietneaseaa": 1328,
      "▁matetn": 1329,
      "▁aieaieetno": 1330,
      "eeeaaie": 1331,
      "ststst": 1332,
      "tttmtn": 1333,
      "totetn": 1334,
      "▁ohaoeaieaieae": 1335,
      "▁gtesac": 1336,
      "▁elrt": 1337,
      "oero": 1338,
      "▁etaiee": 1339,
      "▁oodtshn": 1340,
      "etea": 1341,
      "▁erdtoteatnaieae": 1342,
      "▁eeaeasee": 1343,
      "eaetoeae": 1344,
      "▁paeaetoeae": 1345,
      "▁eeatn0": 1346,
      "▁eatoeaaaieaietaoeeeae": 1347,
      "▁eaoh": 1348,
      "▁eaieeeaeaieeadoero": 1349,
      "▁aieaieetnoaieaie": 1350,
      "etasa": 1351,
      "eaieeeaa": 1352,
      "ellollof": 1353,
      "llolloellollof": 1354,
      "▁oeotee": 1355,
      "▁eaaaiee": 1356,
      "oeoteaieetc": 1357,
      "▁llooooea": 1358,
      "▁faeteae": 1359,
      "▁taeiee": 1360,
      "▁oeloasee": 1361,
      "▁eaelo": 1362,
      "eaietato": 1363,
      "eaietatoe": 1364,
      "▁aieaeaietatoe": 1365,
      "ie": 1366,
      "▁oodthnaie": 1367,
      "etnaieasaie": 1368,
      "eaieotdeuto": 1369,
      "▁aehteceaieotdeuto": 1370,
      "etaoeeeae": 1371,
      "▁erdteaaie": 1372,
      "▁aeaeatt": 1373,
      "▁tooieet": 1374,
      "▁tooieetaiear": 1375,
      "eaieeeaaetmtn": 1376,
      "▁eaae": 1377,
      "▁teoteot": 1378,
      "aieeetoar": 1379,
      "totoeae": 1380,
      "▁eatoieemtn": 1381,
      "ettoo": 1382,
      "ettooeeeaie": 1383,
      "▁iebloaieaeo": 1384,
      "▁erder": 1385,
      "▁aieeeaetnetaieeeto": 1386,
      "▁oettotoeae": 1387,
      "▁oeeeaietseaeaie": 1388,
      "fsoeo": 1389,
      "▁ttaoeeae": 1390,
      "oest": 1391,
      "▁tooieemoo": 1392,
      "eaieeaoero": 1393,
      "▁ieemo": 1394,
      "▁pathn": 1395,
      "▁ohatost": 1396,
      "▁ieemosa": 1397,
      "▁taethoar": 1398,
      "▁erda": 1399,
      "▁oohou": 1400,
      "▁tooieemooohaieie": 1401,
      "▁oeeeai": 1402,
      "faaslotaoeeeae": 1403,
      "▁tefsoeo": 1404,
      "▁eatoeeaaeasaee": 1405,
      "▁teaetc": 1406,
      "aieee0": 1407,
      "▁eaststst": 1408,
      "tstoeoteea": 1409,
      "▁oeoteetstoeoteea": 1410,
      "▁oeoteetstoeoteea0": 1411,
      "teaieethn": 1412,
      "eaewn": 1413,
      "▁hn": 1414,
      "▁oetofaaslotaoeeeae": 1415,
      "▁taeaeto": 1416,
      "ohtoeatn": 1417,
      "▁aieeeatn2": 1418,
      "etnoeeeaie": 1419,
      "▁eaaetotoatn": 1420,
      "eteaeasee": 1421,
      "▁tnoho": 1422,
      "▁tooieemoteasa": 1423,
      "▁ooheetc": 1424,
      "▁eaaeedaieeeae": 1425,
      "eaietmtn": 1426,
      "aaee": 1427,
      "egte": 1428,
      "egteuto": 1429,
      "▁aioteaeeoooo": 1430,
      "▁erdooh": 1431,
      "afaetasaa": 1432,
      "▁toeeaotdlherodtn": 1433,
      "▁eaohllorto": 1434,
      "▁etegteuto": 1435,
      "▁oodettaieerto": 1436,
      "▁faeteaeoetmtn": 1437,
      "eaierto": 1438,
      "taieetea": 1439,
      "▁eaatn": 1440,
      "▁oohtc": 1441,
      "▁ottoottoohaieaie": 1442,
      "ear": 1443,
      "eaieaear": 1444,
      "▁eaatatc": 1445,
      "▁paaieeetstt": 1446,
      "▁eatnaieee0": 1447,
      "▁eaieaieaear": 1448,
      "▁eadeaatneaie": 1449,
      "▁easaee": 1450,
      "eaeeasoooo": 1451,
      "▁taeedtjhn": 1452,
      "▁od": 1453,
      "▁taeitaieetea": 1454,
      "dst": 1455,
      "etv": 1456,
      "otoafa": 1457,
      "▁oett": 1458,
      "▁ttai": 1459,
      "eaeae": 1460,
      "▁paeteaeasee": 1461,
      "▁oohouotoafa": 1462,
      "▁tseesahn": 1463,
      "eertoaieeetc": 1464,
      "▁oeoteertoaieeetc": 1465,
      "▁aieeea": 1466,
      "▁tootieer": 1467,
      "▁ethotc": 1468,
      "▁tn3": 1469,
      "▁oeotohasa": 1470,
      "▁lltoieemopa": 1471,
      "ert": 1472,
      "▁eadetaieeeto": 1473,
      "eeeatn": 1474,
      "▁oodeaaeaieeetn": 1475,
      "oeaieaieeeaaetmtn": 1476,
      "▁eaeaetnstaie": 1477,
      "oteatn": 1478,
      "▁oeeeaieeaataoeeeaehn": 1479,
      "▁ethn": 1480,
      "hottneaieote": 1481,
      "eerodtn": 1482,
      "▁eaieafteoaiaae": 1483,
      "▁eaaaieaietaoeeeaeaieeetc": 1484,
      "jaie": 1485,
      "▁ttaiaeaieela": 1486,
      "▁ttaiaeaieelaeer": 1487,
      "▁oodtttmtn": 1488,
      "▁eohaooooaieae": 1489,
      "▁eaieaieaiefthtn": 1490,
      "▁ieba": 1491,
      "paoeotetteeae": 1492,
      "▁eaapaoeotetteeae": 1493,
      "▁eeadot": 1494,
      "▁oohthnaie": 1495,
      "▁patneerto": 1496,
      "▁oell": 1497,
      "▁ieteaaie": 1498,
      "▁iodi": 1499,
      "▁eaaeeaieaeto": 1500,
      "eaetoeadtvo": 1501,
      "eaetoeadtvoeelo": 1502,
      "▁eaaeaetoeadtvoeelo": 1503,
      "▁tatnst": 1504,
      "oeotas": 1505,
      "▁ieba1": 1506,
      "▁eeadoteeae": 1507,
      "oteaie": 1508,
      "toouoo": 1509,
      "▁eae0": 1510,
      "▁llooooeaeaiaaeaieeeto": 1511,
      "▁etaieeethn": 1512,
      "▁eadeaieduto": 1513,
      "easto": 1514,
      "▁terduto": 1515,
      "▁toetasa": 1516,
      "▁lloooothn": 1517,
      "▁emvo": 1518,
      "▁ooheerto": 1519,
      "▁oohgt": 1520,
      "▁oohgteeatn": 1521,
      "▁oeeeaie0": 1522,
      "▁aietneaie": 1523,
      "▁oiet": 1524,
      "▁eaieatoown": 1525,
      "otaiaoteaiee": 1526,
      "eetof": 1527,
      "▁eteetof": 1528,
      "▁eohaooooet": 1529,
      "tjhoeaitfee": 1530,
      "▁eteetoftjhoeaitfee": 1531,
      "▁toeeaotdt": 1532,
      "▁eaeaieeaoero": 1533,
      "▁ooheaieee": 1534,
      "ieetaie": 1535,
      "oou": 1536,
      "eaieeaiee": 1537,
      "▁taathnttt": 1538,
      "▁asa": 1539,
      "▁paeaieeatn": 1540,
      "easatoto": 1541,
      "▁gtehre": 1542,
      "eaefa": 1543,
      "▁ieteaefa": 1544,
      "▁eetoaieeetc": 1545,
      "▁aiaaeeaaieeee": 1546,
      "etoto": 1547,
      "▁tno": 1548,
      "▁tv0": 1549,
      "▁taeieetc": 1550,
      "▁eaieeeatn": 1551,
      "▁ttsoeoo": 1552,
      "eetea": 1553,
      "ttuto": 1554,
      "eeteattuto": 1555,
      "▁erdeahn": 1556,
      "aeaieel": 1557,
      "▁paeteaeaseeown": 1558,
      "taieee": 1559,
      "▁eta": 1560,
      "▁llooootneaie": 1561,
      "st0": 1562,
      "▁erdoet": 1563,
      "▁oeeeaieeaaetaie": 1564,
      "▁ieetaie": 1565,
      "▁oeeeaieteea": 1566,
      "eeaaee": 1567,
      "▁eaaieeeeto": 1568,
      "▁aeaeeteattuto": 1569,
      "▁ieeaaseeaie": 1570,
      "▁aieee0": 1571,
      "▁tatneaseaa": 1572,
      "▁oetrto": 1573,
      "▁seetpa": 1574,
      "▁eaitfeeiec": 1575,
      "oeotasttmntaee": 1576,
      "▁efa": 1577,
      "▁lloooothnoo": 1578,
      "▁etc": 1579,
      "tteaaieeeto": 1580,
      "▁eaaeaieeast": 1581,
      "haetn": 1582,
      "▁tteatteaaieeeto": 1583,
      "▁ottn": 1584,
      "stown": 1585,
      "vooooo": 1586,
      "▁tataiee": 1587,
      "▁ttsoeooetv": 1588,
      "dtoea": 1589,
      "▁erdtjhn": 1590,
      "aaeemtc": 1591,
      "▁taieeeooh": 1592,
      "tooe": 1593,
      "tooestown": 1594,
      "▁taieeeoohtooestown": 1595,
      "▁eaeia": 1596,
      "▁eaeiaet": 1597,
      "oodtoea": 1598,
      "dthnaie": 1599,
      "▁etahre": 1600,
      "▁aieedst": 1601,
      "▁erdtaoeeeae": 1602,
      "▁iec0": 1603,
      "etaseea": 1604,
      "▁eaaoodthnaie": 1605,
      "▁taeaaetaseea": 1606,
      "▁p": 1607,
      "aiaaeeaietmtn": 1608,
      "▁fsoeo": 1609,
      "aieeaa": 1610,
      "▁hottneaieote": 1611,
      "▁oodatot": 1612,
      "▁eaaietetn": 1613,
      "esa": 1614,
      "▁thaieaeooooaiee": 1615,
      "▁tmesa": 1616,
      "▁eadst": 1617,
      "▁erdthettooeeeaie": 1618,
      "▁ottot": 1619,
      "▁oetodeasto": 1620,
      "ktttn": 1621,
      "oheet": 1622,
      "oheetktttn": 1623,
      "aieaieeeto": 1624,
      "eteeae": 1625,
      "▁eeadaiaaeeaietmtn": 1626,
      "▁eaeiaettjhn": 1627,
      "▁eaeiaettjhneaaeee": 1628,
      "eeaatn": 1629,
      "▁eadoeoteaieetc": 1630,
      "efeatn": 1631,
      "toeeaot": 1632,
      "▁eadotaiaoteaiee": 1633,
      "▁aieestaie": 1634,
      "▁ec": 1635,
      "aieemtn": 1636,
      "▁oodoeotasttmntaee": 1637,
      "etnrodto": 1638,
      "aietn": 1639,
      "utoouoo": 1640,
      "▁oeeeaieeotea": 1641,
      "▁oodeaaietsee": 1642,
      "▁eatneatoeatn": 1643,
      "▁aieeeaa": 1644,
      "eeafa": 1645,
      "▁ooheea": 1646,
      "▁erdaeeeaeee": 1647,
      "ieeaaie": 1648,
      "▁toteato": 1649,
      "▁ggg": 1650,
      "easeear": 1651,
      "▁ooheloeae": 1652,
      "▁taeeaieaie": 1653,
      "▁tseeoteetn": 1654,
      "▁totn2": 1655,
      "▁oeeeaieteaaie": 1656,
      "oetotn": 1657,
      "▁aieeeeto": 1658,
      "▁llooooeae": 1659,
      "▁eaaoheetktttn": 1660,
      "▁eatooteea": 1661,
      "▁teetn": 1662,
      "▁ietot": 1663,
      "▁aieaeo": 1664,
      "ethn": 1665,
      "eoshtn": 1666,
      "▁teoteoeadtvo": 1667,
      "aieteetn": 1668,
      "▁taeeaieaieiee": 1669,
      "▁taeeaieaieieeeto": 1670,
      "oher": 1671,
      "▁oef": 1672,
      "▁eatooteeaeoshtn": 1673,
      "▁oelloodtoea": 1674,
      "▁aieeoeaierto": 1675,
      "vtota": 1676,
      "vtotvtota": 1677,
      "▁taeaaeto": 1678,
      "▁vtotvtota": 1679,
      "▁thn": 1680,
      "dtno": 1681,
      "oteafa": 1682,
      "▁aieeae": 1683,
      "metaieeeto": 1684,
      "tohn": 1685,
      "▁ttaeaeead": 1686,
      "▁ttaeaeeadeer": 1687,
      "▁aieeoeaierto0": 1688,
      "etaoeeeaehn": 1689,
      "▁ttaieemtn": 1690,
      "tsod": 1691,
      "▁eteaie": 1692,
      "ohouoo": 1693,
      "▁taoeeeaetaoeeeaehn": 1694,
      "▁erodtno": 1695,
      "▁teoteoeadtvoeatn": 1696,
      "eeaaeto": 1697,
      "oeoteea": 1698,
      "toottn": 1699,
      "etoeaier": 1700,
      "▁eaatsaiet": 1701,
      "afa": 1702,
      "▁eaatsaietetnoeeeaie": 1703,
      "eetcero": 1704,
      "▁oheetcero": 1705,
      "▁oeoteaieeea": 1706,
      "aieeaaeee": 1707,
      "▁aiest0": 1708,
      "ooheeeaaie": 1709,
      "eutoeuto": 1710,
      "eemtn": 1711,
      "▁oeteaaeasa": 1712,
      "otot": 1713,
      "▁eaieeeaooheeeaaie": 1714,
      "aieaiee": 1715,
      "▁taieeeeae": 1716,
      "▁ooheeaaetneae": 1717,
      "thaietktttn": 1718,
      "▁paieemtn": 1719,
      "▁eatoeaaaieeetn": 1720,
      "▁oesttesac": 1721,
      "▁oeotdaeaie\n": 1722,
      "▁lloooooeoteaieeuto": 1723,
      "▁aietn3": 1724,
      "oestt": 1725,
      "▁oohtotnaie": 1726,
      "ertotjhn": 1727,
      "▁toertotjhn": 1728,
      "▁erdoe": 1729,
      "▁eatoaiee": 1730,
      "▁eaieeeaoetotn": 1731,
      "▁oeeeaieeead": 1732,
      "▁oeeeaieeeaduo": 1733,
      "▁eteaieutoouoo": 1734,
      "▁pao": 1735,
      "▁paoest": 1736,
      "▁eadtetn1": 1737,
      "▁etoeaier": 1738,
      "emuto": 1739,
      "▁aieaieeaiee": 1740,
      "▁aotohaieeae": 1741,
      "▁aieeea0": 1742,
      "▁eaieaieaief\n": 1743,
      "▁eaettc": 1744,
      "▁eaeaetnemuto": 1745,
      "thneeea": 1746,
      "▁eaieatotetn": 1747,
      "▁eloeadtetn": 1748,
      "▁eaieeeaaieeaaeee": 1749,
      "▁aietoeouoo": 1750,
      "eaaeto": 1751,
      "▁teetn0": 1752,
      "eeead": 1753,
      "eeeadetaiaaeeouoo": 1754,
      "▁tmeu": 1755,
      "teemtn": 1756,
      "▁eadtsod": 1757,
      "▁eaetoeadt": 1758,
      "▁eaetoeadtvooooo": 1759,
      "aieoteeea": 1760,
      "▁ieetaieoteeea": 1761,
      "▁ieetaieoteeea0": 1762,
      "▁aieets": 1763,
      "eaaeeteemtn": 1764,
      "▁eaieatotetneaeae": 1765,
      "eaieagte": 1766,
      "eaaeedtetn": 1767,
      "▁oohthoohneerto": 1768,
      "eaieeetot": 1769,
      "paoeoteaiee": 1770,
      "▁lltoieemopaoeoteaiee": 1771,
      "otaiee": 1772,
      "▁tktaiaaetsaieaeo": 1773,
      "▁eeaeaieeeto": 1774,
      "aieeaieagte": 1775,
      "▁aiiaeaieel": 1776,
      "▁aiiaeaieelae": 1777,
      "eeaiaae": 1778,
      "▁aieetseeaiaae": 1779,
      "▁oeeeaieseaie": 1780,
      "▁tathaietktttn": 1781,
      "▁oha": 1782,
      "▁taterduto": 1783,
      "▁thaieeeto": 1784,
      "▁eatotetnaieasaie": 1785,
      "▁aieetstt": 1786,
      "▁aieetstt1": 1787,
      "hoe": 1788,
      "▁ttateaieethn": 1789,
      "▁aieea2": 1790,
      "ohouoothn": 1791,
      "▁toto": 1792,
      "▁tnoieemto": 1793,
      "eae0": 1794,
      "ieeohasa": 1795,
      "aiehoe": 1796,
      "▁aiee0\n": 1797,
      "▁ttsoeo": 1798,
      "▁eaaaieeetn": 1799,
      "aieaieaieeea": 1800,
      "hraiehoe": 1801,
      "▁eatohraiehoe": 1802,
      "▁oeeeaiehottneaieote": 1803,
      "eattaieeeto": 1804,
      "dhohr": 1805,
      "oieetaie": 1806,
      "▁taieesoooo": 1807,
      "▁toeeaotdieemtn": 1808,
      "▁gtefsoeo": 1809,
      "▁aieeaedhohr": 1810,
      "tsoooo": 1811,
      "taeieetsoooo": 1812,
      "▁llooooeaeaie\n": 1813,
      "▁oodohtoeatn": 1814,
      "taoeeeaeea": 1815,
      "▁iebtaaieeeto": 1816,
      "▁oodtaoeeeaeea": 1817,
      "▁afathneeea": 1818,
      "▁afathneeea0": 1819,
      "▁eatoea": 1820,
      "hotho": 1821,
      "▁eatoaieeeouoo": 1822,
      "▁taseeetero": 1823,
      "toeeaotdar": 1824,
      "eeeato": 1825,
      "eaieeeaown": 1826,
      "▁taeaier": 1827,
      "aiesa": 1828,
      "▁teta": 1829,
      "▁oeaieoh": 1830,
      "aietaie": 1831,
      "▁lloooollolloellollof": 1832,
      "dcto": 1833,
      "▁faetetno": 1834,
      "eaieoher": 1835,
      "teec": 1836,
      "▁eeetnrodto": 1837,
      "tvo": 1838,
      "eaieaf": 1839,
      "▁eaetrto": 1840,
      "loteetn": 1841,
      "▁eeaetmtn\n": 1842,
      "▁ttsoeotjhn": 1843,
      "▁ttaafa": 1844,
      "▁eatoaieeaieagte": 1845,
      "ieeeea": 1846,
      "▁teadtstt\n": 1847,
      "toeae": 1848,
      "▁thaietktttn": 1849,
      "eaiaeaieela": 1850,
      "▁eaaieeeaiaeaieela": 1851,
      "▁oodoteeea": 1852,
      "eaaefeatn": 1853,
      "▁oeeeaieoeaieaieeeaaetmtn": 1854,
      "▁eaieafhn": 1855,
      "▁oteaitfee": 1856,
      "efwn": 1857,
      "▁taoeeae": 1858,
      "▁ietotaiaoteaiee": 1859,
      "▁aeaeasee": 1860,
      "aieaeaiaae": 1861,
      "dtaiee": 1862,
      "▁efametaieeeto": 1863,
      "▁eaafaet": 1864,
      "▁tmosttoeeaotdar": 1865,
      "▁oohtaeieetsoooo": 1866,
      "lotothn": 1867,
      "etaieeohouoothn": 1868,
      "▁aieaaeto": 1869,
      "oown": 1870,
      "▁eaaieeeatn": 1871,
      "▁ttaieeeea": 1872,
      "▁eohaooooetasaa": 1873,
      "▁eadloteetn": 1874,
      "▁aieeetot": 1875,
      "▁taoeaieoher": 1876,
      "▁oeteaieeea": 1877,
      "▁tseeoteetnst": 1878,
      "ieeouoo": 1879,
      "▁eaiaaeeerto": 1880,
      "▁aieeaiaaehn": 1881,
      "iaaeemtc": 1882,
      "▁aeae1": 1883,
      "aseaie": 1884,
      "▁eohaooooeelo": 1885,
      "eaet": 1886,
      "▁oetieerodtn": 1887,
      "tohhn": 1888,
      "▁tmostaieae": 1889,
      "eaieafuto": 1890,
      "▁aieaeown": 1891,
      "▁oohaietaie": 1892,
      "aioteato": 1893,
      "aioteatoetn": 1894,
      "aiaaeer": 1895,
      "eteaieafuto": 1896,
      "feteaieafuto": 1897,
      "▁ttsoeoeaieafteoaiaae": 1898,
      "▁eeadafaetasaa": 1899,
      "▁oesttetmtn": 1900,
      "eief": 1901,
      "▁oodaotasee": 1902,
      "▁oodtaioteatoetn": 1903,
      "etpa": 1904,
      "eeeatoeaaeaiee": 1905,
      "▁erdtootohhn": 1906,
      "▁teoteoeaieeea": 1907,
      "▁teoteoeaieeeasc": 1908,
      "▁erdoohtoeae": 1909,
      "▁iodio": 1910,
      "▁aieaaeeteemtn": 1911,
      "▁erdtooteatn": 1912,
      "▁oohouoo": 1913,
      "▁taeaeeae": 1914,
      "tttn": 1915,
      "ooet": 1916,
      "oeaiooet": 1917,
      "▁eaao": 1918,
      "ototetn": 1919,
      "xetn": 1920,
      "▁oteetn": 1921,
      "theaaeedtetn": 1922,
      "▁etcf": 1923,
      "ohtaoeeeae": 1924,
      "ieeaase": 1925,
      "▁oohouooaiaaeer": 1926,
      "▁teetaieee": 1927,
      "▁etaieohtaoeeeae": 1928,
      "oeaiooetiaaeemtc": 1929,
      "▁oeeeaieeaeaiaaeaieeeto": 1930,
      "eaaeaieaeto": 1931,
      "▁oodaieeetoar": 1932,
      "▁ttie": 1933,
      "▁hrdt": 1934,
      "teeto": 1935,
      "taieetclo": 1936,
      "ohoest": 1937,
      "▁afaet": 1938,
      "ieeaaseeaiee": 1939,
      "▁iebaieaieaieeea": 1940,
      "▁oetototetn": 1941,
      "ohaetn": 1942,
      "hohaetn": 1943,
      "teetohohaetn": 1944,
      "▁teatothotho": 1945,
      "eeetn": 1946,
      "aitoeaiaae": 1947,
      "ethno": 1948,
      "bta": 1949,
      "aiebta": 1950,
      "taero": 1951,
      "ieto": 1952,
      "▁oieto": 1953,
      "▁tnohouoo": 1954,
      "▁oietoest": 1955,
      "▁teoteoieeaaseeaiee": 1956,
      "aieae1": 1957,
      "etstt": 1958,
      "▁loaseetctcouoo": 1959,
      "▁eaieaaeaiee": 1960,
      "▁erdemtc": 1961,
      "▁eaaood": 1962,
      "▁erdttea": 1963,
      "▁eaeouoo": 1964,
      "▁teoteoaiee": 1965,
      "▁taiebta": 1966,
      "thaietc": 1967,
      "▁tatmeuo": 1968,
      "▁aeeatohn": 1969,
      "▁aeeatohnaieee": 1970,
      "tsiec": 1971,
      "▁taeaieetn": 1972,
      "▁tapt": 1973,
      "totoe": 1974,
      "ieemopa": 1975,
      "oheaieeea": 1976,
      "▁aieaiee": 1977,
      "▁ooheaieaieae": 1978,
      "▁oetaeaie": 1979,
      "▁etaieeaeeasoooo": 1980,
      "tneaieaietoto": 1981,
      "▁eaioeaiooetiaaeemtc": 1982,
      "▁oodaitoeaiaae": 1983,
      "eeadea": 1984,
      "eeadeaeetc": 1985,
      "▁eaaoeot": 1986,
      "eeb": 1987,
      "▁aieeetotetn": 1988,
      "▁eaeoteeatvo": 1989,
      "▁hohretaieeeto": 1990,
      "▁eeetpa": 1991,
      "eeehtn": 1992,
      "▁hreeehtn": 1993,
      "▁eeaellorto": 1994,
      "▁oteatoeeaeasee": 1995,
      "aeiee": 1996,
      "▁oshtn": 1997,
      "▁ooheeadt": 1998,
      "▁etlotaoeeeae": 1999
    },
    "merges": [
      "e a",
      "e e",
      "a i",
      "o o",
      "e t",
      "▁ t",
      "ea i",
      "o t",
      "ai ee",
      "e ea",
      "▁ ea",
      "t o",
      "▁ o",
      "t n",
      "eai e",
      "ea e",
      "et n",
      "▁ ai",
      "▁t a",
      "eai ee",
      "▁ oo",
      "oo oo",
      "l l",
      "et o",
      "a s",
      "e ot",
      "h n",
      "t a",
      "ai e",
      "e r",
      "t t",
      "t s",
      "▁ et",
      "▁ aiee",
      "a a",
      "t ot",
      "▁ea a",
      "▁t aiee",
      "ee r",
      "w n",
      "o h",
      "▁ i",
      "d t",
      "s t",
      "u to",
      "ea a",
      "ts o",
      "▁ ot",
      "▁t n",
      "l o",
      "▁ a",
      "s a",
      "▁taiee tso",
      "ll oooo",
      "▁oo d",
      "▁t ea",
      "e o",
      "▁ e",
      "▁oo h",
      "▁o ee",
      "▁t eea",
      "ll o",
      "eaiee ea",
      "h o",
      "▁ lloooo",
      "e c",
      "▁ er",
      "a o",
      "s ee",
      "h r",
      "f a",
      "p a",
      "▁ eai",
      "t c",
      "▁t ta",
      "as ee",
      "eea e",
      "t ea",
      "▁o eot",
      "er o",
      "g t",
      "aiee eto",
      "i ee",
      "o wn",
      "ee e",
      "ee ea",
      "▁ai ea",
      "▁teea ea",
      "▁er d",
      "▁ eea",
      "d uto",
      "m tn",
      "ot o",
      "u oo",
      "et c",
      "▁o e",
      "▁o h",
      "ea etn",
      "▁eaa ee",
      "s oooo",
      "t oo",
      "r to",
      "e b",
      "▁ea to",
      "▁ea d",
      "ea tn",
      "▁o et",
      "eer o",
      "ee eae",
      "eai ea",
      "a r",
      "eai eea",
      "gt e",
      "aiee e",
      "hr e",
      "ai aa",
      "▁oee eaie",
      "ai eea",
      "eaie duto",
      "sa c",
      "h tn",
      "▁ pa",
      "o eot",
      "▁t eot",
      "▁ ee",
      "a eae",
      "▁t oo",
      "ea dt",
      "ai eae",
      "▁t see",
      "▁tea to",
      "ea eero",
      "tot o",
      "as a",
      "▁eea d",
      "eai et",
      "eaieduto e",
      "▁ai eaiedutoe",
      "et ot",
      "etn 1",
      "o eeeae",
      "k tt",
      "i i",
      "ii soooo",
      "▁et aeae",
      "▁t h",
      "▁oe st",
      "▁tn 1",
      "et aiee",
      "eaie r",
      "eaiee eto",
      "▁teot eo",
      "i eb",
      "eea ot",
      "llo llo",
      "▁t o",
      "a ot",
      "o uoo",
      "▁i eea",
      "t hn",
      "i ec",
      "et ktt",
      "▁ea e",
      "e f",
      "s tt",
      "▁ eaieeea",
      "ai ea",
      "▁aiee eaetn",
      "l ot",
      "ea to",
      "eai eaie",
      "ta oeeeae",
      "t aiee",
      "▁ etn1",
      "oo h",
      "▁aiee 0",
      "▁tsee 1",
      "▁a e",
      "aot eaiee",
      "etktt tn",
      "eea a",
      "aa e",
      "t ec",
      "eaa e",
      "h tec",
      "e u",
      "▁i et",
      "ot e",
      "▁to eeaot",
      "t f",
      "s eea",
      "a t",
      "g g",
      "t h",
      "et aieeeto",
      "o e",
      "ea sa",
      "ee tn",
      "tn oo",
      "▁oest tnoo",
      "▁ta ee",
      "h ot",
      "▁toeeaot d",
      "▁ai e",
      "tt t",
      "j hn",
      "▁et asee",
      "a e",
      "oeot e",
      "oh a",
      "iee oh",
      "s o",
      "▁a ot",
      "hn aie",
      "▁t ho",
      "▁teato aie",
      "▁ieea asee",
      "▁ai eae",
      "ea see",
      "s uto",
      "▁eaaee etot",
      "▁oo dt",
      "fa et",
      "e m",
      "iee m",
      "oha oooo",
      "eot eea",
      "eer to",
      "toto ieeoh",
      "▁taee totoieeoh",
      "ea d",
      "▁e ohaoooo",
      "▁ lo",
      "ee to",
      "lo eae",
      "▁ea tn",
      "▁ hr",
      "▁taeetotoieeoh hre",
      "▁ m",
      "▁ta t",
      "s aie",
      "▁oh ao",
      "▁tea d",
      "▁ea et",
      "llo rto",
      "▁ot iisoooo",
      "et mtn",
      "ai etc",
      "▁ gte",
      "eai aoteaiee",
      "▁tta eer",
      "▁ as",
      "▁oh eaieeea",
      "aiee etc",
      "▁tn eaiaoteaiee",
      "as e",
      "ot hn",
      "▁er dt",
      "▁ead sac",
      "eaieaie f",
      "eea tn",
      "eee x",
      "▁m oto",
      "▁aot oh",
      "▁aiee eaeero",
      "eai eae",
      "▁ta eeex",
      "▁ st",
      "hot tn",
      "aiee et",
      "i et",
      "▁eai eaieaief",
      "▁ f",
      "a to",
      "▁oee eaiet",
      "▁oeot eaie",
      "ll othn",
      "▁tta llothn",
      "eo wn",
      "so eo",
      "▁ae htec",
      "▁ai i",
      "aie i",
      "▁oeoteaie pa",
      "th oo",
      "h ta",
      "▁ea tot",
      "eer tot",
      "tf e",
      "aa ot",
      "d tn",
      "eea soooo",
      "hta hn",
      "ot eea",
      "▁et suto",
      "etn o",
      "▁eai ea",
      "aieae o",
      "ai et",
      "eaie ote",
      "eaa ee",
      "▁ aaot",
      "▁i ee",
      "eaiee eae",
      "▁o eto",
      "aa fa",
      "tt iisoooo",
      "▁too ttiisoooo",
      "t eeae",
      "▁eaaee d",
      "▁ faet",
      "▁ot ea",
      "▁i em",
      "ieb at",
      "▁ot eea",
      "t j",
      "eaieeea d",
      "▁taiee e",
      "eaieea ee",
      "▁tea tot",
      "▁a fa",
      "tj ho",
      "▁ta o",
      "▁et ao",
      "eaiea eto",
      "▁eaaeeetot tea",
      "i a",
      "aiaa e",
      "▁f aafa",
      "▁tn lo",
      "▁a ee",
      "▁ta aiea",
      "▁ta e",
      "▁ eto",
      "▁ eaie",
      "ts ee",
      "▁oh ato",
      "▁taaiea aiee",
      "▁ood eae",
      "a eaie",
      "▁ta tea",
      "e 1",
      "▁tatea ee",
      "as aa",
      "▁ea eaie",
      "dt htn",
      "eee mtn",
      "▁ hottn",
      "eai etn",
      "▁o eeae",
      "oto a",
      "ao eeeae",
      "▁teoteo iebat",
      "▁tea tn",
      "▁oe stt",
      "▁taeeex aieeeto",
      "tot ot",
      "r htn",
      "ee ta",
      "t v",
      "▁oee eaieea",
      "▁teea e1",
      "▁i eb",
      "eo uoo",
      "totot oto",
      "▁ai eaieeeto",
      "er duto",
      "eot eeea",
      "▁aieaieeeto 0",
      "asa totototo",
      "e loeae",
      "ieb tjho",
      "eadt etn",
      "o ea",
      "▁eto asatotototo",
      "▁ea aiee",
      "d to",
      "ee tc",
      "▁tho aie",
      "▁o hn",
      "▁ta sac",
      "▁o dthtn",
      "eaieeead st",
      "▁ rto",
      "▁o etn",
      "▁aotoh ai",
      "▁e lo",
      "▁erd oeote",
      "gg g",
      "▁ooh etktttn",
      "too oea",
      "ef soeo",
      "ea eaie",
      "▁t t",
      "lot n",
      "lo lotn",
      "lolotn ttt",
      "▁t eaieeeadst",
      "too wn",
      "▁eaaee eto",
      "ee eaie",
      "▁ea etaiee",
      "ot ea",
      "▁ai eai",
      "▁lo lolotnttt",
      "▁ot etaiee",
      "▁ea eeasoooo",
      "▁otetaiee eown",
      "▁o easa",
      "▁hottn iebtjho",
      "eu o",
      "dt c",
      "t etn",
      "ot eato",
      "ea aie",
      "▁tn st",
      "otoa tn",
      "▁ot eaa",
      "▁eatn e",
      "▁eai tfe",
      "eai aa",
      "ot n",
      "d o",
      "ts tt",
      "ero dtn",
      "d ero",
      "▁ai eto",
      "i eer",
      "▁ea eadtetn",
      "▁t seea",
      "h oh",
      "▁ea eaetn",
      "▁ee tn",
      "aieeet stt",
      "thoo ero",
      "▁o eaie",
      "et aiaa",
      "▁iem eu",
      "▁ hre",
      "▁hre 0",
      "▁oodeae lo",
      "▁lloooo t",
      "▁i eeea",
      "▁ gt",
      "▁ea too",
      "aiee c",
      "et oo",
      "ao a",
      "▁faet thooero",
      "ee ouoo",
      "r o",
      "▁tead eaeero",
      "t ho",
      "▁i ec",
      "etaiaa eeouoo",
      "u o",
      "seea r",
      "▁ea eeemtn",
      "▁eohaoooo aieec",
      "eadt c",
      "▁ea o",
      "ead ar",
      "▁a eadtc",
      "▁a tot",
      "dt etn",
      "▁ae dtc",
      "oh eloeae",
      "hoh r",
      "▁ai aae",
      "▁eaeaie oheloeae",
      "▁elo eadar",
      "▁ea as",
      "▁t wn",
      "▁toeeaotd ea",
      "▁ood eaa",
      "▁tn eaie",
      "aie 0",
      "▁et asaa",
      "▁eaas oteea",
      "▁ea aietc",
      "eeaa etn",
      "aiei e",
      "▁ooh eeaaetn",
      "▁ta oeote",
      "▁ohato htahn",
      "▁ieea ase",
      "lo aie",
      "eto uto",
      "eertot tea",
      "l a",
      "x x",
      "xx eae",
      "▁oeot eertottea",
      "▁aieae 1",
      "▁oteea eetn",
      "ieem o",
      "ggg eae",
      "aieea asee",
      "et erduto",
      "▁eae xxeae",
      "▁ai eea",
      "▁et otoatn",
      "oo t",
      "▁oeot d",
      "oeot eaiee",
      "m tc",
      "▁aaot eoteea",
      "llollo etouto",
      "eaiea saie",
      "eea wn",
      "▁th ot",
      "▁eaa ai",
      "aieae oooo",
      "▁tho ao",
      "▁eai eeatn",
      "oe lot",
      "▁as eaie",
      "ae htec",
      "as eea",
      "▁aaoteoteea dero",
      "eaaee d",
      "▁t s",
      "▁tead tstt",
      "ho ar",
      "▁aiea eadt",
      "▁tta etaiaaeeouoo",
      "tf ee",
      "aieea ee",
      "▁ieeaasee eeta",
      "▁ee ta",
      "▁tat eae",
      "▁ta a",
      "▁oeot eaiee",
      "▁ta euo",
      "▁tae i",
      "▁o eaieasaie",
      "▁teato ar",
      "▁oteaa ote",
      "▁t k",
      "tc tc",
      "asee tctc",
      "▁ea sa",
      "▁ eaier",
      "tt hn",
      "▁thot ho",
      "taiee rto",
      "▁oodt efsoeo",
      "▁oet ta",
      "▁aiee e",
      "▁st aie0",
      "eaaeed hn",
      "as aie",
      "t to",
      "eaiee tn",
      "e gggeae",
      "tot eatn",
      "eaae eaieote",
      "▁afa 1",
      "▁otea seear",
      "v o",
      "▁eaet eb",
      "▁aiee teeae",
      "▁aieeteeae 0",
      "▁lo aseetctc",
      "▁ eee",
      "eot ea",
      "eai aae",
      "l tto",
      "▁aiee eaaeedhn",
      "▁eaie ieer",
      "eea easee",
      "▁oheaieeea own",
      "ea s",
      "▁tta aiee",
      "hr dtetn",
      "▁aieaeadt hnaie",
      "lloooo lloooo",
      "▁ttaaiee eero",
      "erodtn o",
      "▁eead erodtno",
      "▁iee eeawn",
      "▁aii oh",
      "llollo f",
      "eeea eee",
      "▁ eeae",
      "▁ eotea",
      "▁ood o",
      "et s",
      "▁oeeeaie own",
      "▁oeotd aeaie",
      "▁aiee o",
      "iet tea",
      "▁tt iettea",
      "▁t m",
      "▁oeot e",
      "▁aiee eto",
      "er to",
      "▁eea etmtn",
      "▁ooheeaaetn aieeeto",
      "▁ta oeeeae",
      "▁eato llolloetouto",
      "▁tea toooea",
      "ai aoteaiee",
      "▁ood ooh",
      "eaieeeae uto",
      "▁aieai eaieeeaeuto",
      "▁eetn 0",
      "eaae hn",
      "▁eead aieeaee",
      "▁as tn",
      "▁eato eatn",
      "o aoa",
      "▁ot oaoa",
      "▁eaa ef",
      "t jhn",
      "s eaie",
      "▁oo a",
      "iee mtn",
      "▁t tso",
      "▁ieeaase eaiee",
      "▁eaet hrdtetn",
      "tot tt",
      "▁aieto e",
      "lloooo taoeeeae",
      "ets aieaeo",
      "▁aiioh ase",
      "▁lloooo egggeae",
      "eai eaaeeaieote",
      "▁aiiohase eaieaaeeaieote",
      "▁e loeae",
      "et etn",
      "▁eead aieeetc",
      "f t",
      "aiaa etsaieaeo",
      "▁ta tc",
      "▁t ee",
      "▁eae 2",
      "eo ero",
      "▁aiaae llooootaoeeeae",
      "▁taoeeeae own",
      "e oo",
      "▁teoteo eaeero",
      "▁ ho",
      "▁ sac",
      "ea eto",
      "▁et aiaa",
      "▁etaiaa eee",
      "aieee 1",
      "ia ec",
      "▁oet eaaehn",
      "▁atot aieee",
      "asaie own",
      "▁et aie",
      "▁ hohr",
      "aiee etn",
      "▁aii asaieown",
      "▁oee eaietn",
      "▁tao eeea",
      "▁pa ot",
      "s aa",
      "▁teea saa",
      "et aieee",
      "▁oeaie rto",
      "▁eai aae",
      "▁eaiaae gte",
      "▁tn 2",
      "ee oooo",
      "a etn",
      "▁too ieem",
      "otea eeoooo",
      "taiee rhtn",
      "a eaiee",
      "▁aiea etn",
      "▁eaaeeetot see",
      "o d",
      "▁tn oh",
      "do ero",
      "eaieea doero",
      "▁a ea",
      "▁ead aieeetstt",
      "e uto",
      "oooo o",
      "▁lloooo taieerhtn",
      "▁eaa eto",
      "st aie",
      "▁tn eeae",
      "▁aaot eoteeea",
      "tt ea",
      "etoo wn",
      "▁oeeeaie oe",
      "▁aaoteoteeea tn",
      "▁paot etktttn",
      "▁ea 1",
      "aiee eae",
      "etot n",
      "▁oodooh eaieaeto",
      "▁et hoar",
      "▁t tea",
      "▁ho aseea",
      "▁aiee eertot",
      "▁hoaseea own",
      "▁aotohai eaieae",
      "et teeae",
      "i eea",
      "ts eea",
      "▁lloooo as",
      "▁ooh eaetn",
      "▁aieeeertot llorto",
      "▁pa ooh",
      "▁too to",
      "ot d",
      "oh asa",
      "t htn",
      "▁tk t",
      "aieea sa",
      "aieea tn",
      "aiet etn",
      "▁th tseea",
      "▁ta eaietn",
      "▁oo at",
      "▁et taieerto",
      "▁ooh gte",
      "▁paooh eetc",
      "▁ooh to",
      "▁ta et",
      "▁oeeeaiet jhn",
      "▁odthtn aieeeto",
      "aiee eeto",
      "▁eae 1",
      "▁ooat eeae",
      "▁t v",
      "▁aie eaiea",
      "▁lloooo aieee",
      "eaier tottt",
      "▁aieeo eaiertottt",
      "oh aieie",
      "▁aie 0",
      "ai tho",
      "p ao",
      "▁t aiei",
      "▁teatot oot",
      "▁eaaee etn",
      "▁ohao aieeetc",
      "taoeeeae hn",
      "▁eaaeeetn eae",
      "▁tta ea",
      "gt etetn",
      "▁ai aa",
      "▁aieeaiea gtetetn",
      "eas eaa",
      "llollo eatn",
      "▁e mtc",
      "▁oeeeaieoe ltto",
      "eeaa eea",
      "to ar",
      "aitho eouoo",
      "eato eatn",
      "▁th aieaeoooo",
      "so d",
      "▁aiee tsee",
      "ft eo",
      "▁eaaeed llollo",
      "ta ae",
      "m taae",
      "▁eaaeedllollo mtaae",
      "▁et aieeet",
      "▁oet eaa",
      "▁t ai",
      "▁eaa eeaaeea",
      "eeaot e",
      "▁ta aieee1",
      "eai oteato",
      "▁eead uo",
      "▁lloooot aithoeouoo",
      "▁teatot eaieeeae",
      "aehtec tv",
      "▁aiee b",
      "▁eato aieee",
      "ta ea",
      "▁aieeb aehtectv",
      "▁t eaieeaee",
      "▁ieeaasee llollof",
      "▁ieeaaseellollof taea",
      "▁st 1",
      "▁ead et",
      "▁tn eeaote",
      "▁aieea ee",
      "▁aieeaee 1",
      "asa ee",
      "iec eaa",
      "▁eadet suto",
      "▁teatotoot asaee",
      "▁ooh tot",
      "▁aieee 2",
      "▁eatoaieee 2",
      "▁ seaie",
      "▁oestt e",
      "▁ood loaie",
      "oeoteaiee uto",
      "sa hn",
      "etn iec",
      "▁a eea",
      "▁eaaai etn",
      "▁ta see",
      "▁tasee et",
      "tea tn",
      "hn eerto",
      "▁ot eato",
      "a tot",
      "▁ea aieeaasee",
      "▁lloooo eaeaie",
      "▁eaaieeaasee eaioteato",
      "▁erdoeote gte",
      "▁iec ieceaa",
      "▁oodeaa etniec",
      "oteea eterduto",
      "▁iecieceaa etoown",
      "▁iet ao",
      "eaiaa eaieeeto",
      "▁eaetaiee pa",
      "▁oeot as",
      "oo uoo",
      "▁eatot hnaie",
      "▁ta eaa",
      "as eaa",
      "▁ta aieeatn",
      "▁teea aa",
      "fteo aiaae",
      "iet aseaa",
      "ea tsee",
      "▁ot too",
      "h hn",
      "eai tfee",
      "▁teot eoo",
      "dto aiaaetsaieaeo",
      "▁iet tc",
      "a ec",
      "▁eaa et",
      "▁easa toto",
      "▁toeeaotdea aieeeeto",
      "▁ietao dtoaiaaetsaieaeo",
      "▁ rhtn",
      "ro dto",
      "▁ot eatn",
      "▁oetta ero",
      "ai eaie",
      "▁oeeeaieea a",
      "thoo hneerto",
      "oelot c",
      "▁lloooo oelotc",
      "eadt vo",
      "toto aetn",
      "▁taiee llolloeatn",
      "▁ea eae",
      "▁ea eoteea",
      "eoteeea own",
      "tn eaie",
      "▁ea eoteeeaown",
      "ta o",
      "aeaiee la",
      "▁eaiea eaier",
      "tao eeea",
      "ea tt",
      "▁taa thn",
      "t eer",
      "▁pa eaier",
      "▁ai etn1",
      "▁i aec",
      "▁tea eaie",
      "▁ai tfe",
      "eaiea s",
      "tot eato",
      "▁tai toteato",
      "▁t eeto",
      "l h",
      "▁oeeeaie eaieaie",
      "▁eaeaetn iec",
      "eai eaieae",
      "▁t eer",
      "eai eaiet",
      "▁oeeeaie oteeaeterduto",
      "tthn st",
      "ae oooo",
      "▁ai ot",
      "▁otea toooea",
      "▁ta ea",
      "▁lloooo tso",
      "eaieaiet oto",
      "▁t llorto",
      "▁eatoo etotn",
      "▁ieeea eaiee",
      "tc 0",
      "▁ee tc0",
      "iee t",
      "▁o uoo",
      "▁erd aiee",
      "▁teatn gte",
      "tt ooh",
      "e la",
      "▁taitoteato etn",
      "ee erto",
      "eai oteaeeoooo",
      "▁gt eaie",
      "▁eeta ar",
      "e x",
      "ia eaieeeto",
      "▁aieaieeeto0 \n",
      "easee ex",
      "easeeex ec",
      "▁hohr tthnst",
      "▁ eaieduto",
      "aiee ee",
      "▁too t",
      "▁ai eaae",
      "lloooolloooo ieb",
      "▁ etno",
      "▁ottoo ttooh",
      "▁ot etaieee",
      "▁lloooot wn",
      "▁eato eaa",
      "pao eot",
      "▁oet otn",
      "▁teatn aiee",
      "▁oeto etteeae",
      "▁ta tn",
      "t ee",
      "aiea sa",
      "o eeae",
      "▁ot ee",
      "▁oodo eeeaie",
      "▁iem tetn",
      "▁iemtetn 0",
      "ai to",
      "aieeasa do",
      "a c",
      "▁oodoeeeaie lloooollooooieb",
      "▁teeaaa aeoooo",
      "▁aotoh aieasa",
      "eaieeadoero e",
      "▁ai eaieeadoeroe",
      "▁ee etn",
      "▁erdaiee eaetn",
      "▁oohto eae",
      "ea etaiee",
      "o et",
      "▁ohao eae",
      "toteatn aieae",
      "▁etno 0",
      "d ar",
      "easa ee",
      "eaieeea duto",
      "▁toeeaotdea eaieeeaduto",
      "▁eaieeea own",
      "oelot ac",
      "o eai",
      "eae d",
      "▁oee eaiee",
      "▁aehtec etktt",
      "eaed oooo",
      "▁aieaetn ta",
      "▁aieaetnta 0",
      "▁aehtecetktt toar",
      "f iaeaieeeto",
      "▁taoeeea eeatn",
      "tea toteatn",
      "▁ood et",
      "eaa eee",
      "ee lo",
      "▁tta totoaetn",
      "▁aiot eaedoooo",
      "▁erdt c",
      "▁ai eaieaie",
      "▁aeea o",
      "eea d",
      "▁t aieeaasee",
      "▁aiea ead",
      "▁aieai eaieeea",
      "▁oeteaa eaieaeto",
      "▁th oo",
      "▁et teatoteatn",
      "▁ai etn",
      "eea sa",
      "▁oeto d",
      "▁aiee eaieeaee",
      "▁eaaiee eatsee",
      "▁th iaec",
      "▁oteea eterduto",
      "▁ooh fiaeaieeeto",
      "etn ooooo",
      "▁ttea own",
      "▁ta eaieea",
      "eea eoteea",
      "m toown",
      "▁aotohai eaioteaeeoooo",
      "▁tee v",
      "▁teato aieeeae",
      "s c",
      "▁teeasaa r",
      "▁ta saie",
      "▁oeoteaiee ouoo",
      "eaa taoeeeaehn",
      "▁ ll",
      "eaa eaiee",
      "to ieemo",
      "ho uoo",
      "▁ll toieemo",
      "t eea",
      "▁ttso eot",
      "houoo thn",
      "▁eai tfee",
      "t aieaeo",
      "▁ot aiaoteaiee",
      "▁ood eaier",
      "▁tkt eaataoeeeaehn",
      "▁oeot easeeexec",
      "▁lloooo taoeeeae",
      "▁iee t",
      "▁oeeeaie lloooolloooo",
      "▁eetaar eae",
      "▁eaa eaieea",
      "seea o",
      "eea eaieeeto",
      "ai eai",
      "▁erdtc aiee",
      "▁taeaieea eoero",
      "ts to",
      "▁etaieeet a",
      "▁ooh aieie",
      "o st",
      "▁lloooo o",
      "▁taiei eeasa",
      "▁otetaieeeown ero",
      "▁teoteoo ohaieie",
      "▁tooto hhn",
      "▁faetthooero etno",
      "ho etaieeeto",
      "thn tv",
      "▁aehtec thntv",
      "ot eaetn",
      "▁ts iec",
      "eaieas oteaetn",
      "eaieasoteaetn o",
      "▁eaa ts",
      "▁thoo etnooooo",
      "▁aehtec eaieasoteaetno",
      "eaieetn o",
      "lot aoeeeae",
      "eaiea ee",
      "thn aie",
      "▁oeeeaietn aietc",
      "▁etteatoteatn aeae",
      "▁ood oelotac",
      "s htn",
      "v tot",
      "▁oeaierto etc",
      "▁gte loaie",
      "tt m",
      "ta ee",
      "▁oeaiertoetc o",
      "tn 0",
      "etoo etaieeeto",
      "▁oteato etooetaieeeto",
      "l r",
      "▁aioteaedoooo aeaie",
      "ea eeemtn",
      "eeaa easaee",
      "▁eetn 1",
      "▁ai aiee",
      "▁eai eea",
      "to aie",
      "▁pa tn",
      "lo asee",
      "▁lloooo iec",
      "▁oet eatoeatn",
      "er tot",
      "▁ooa eeaeasee",
      "▁ohao aieea",
      "lr t",
      "▁oet i",
      "▁llooooo ietaseaa",
      "▁eaieeea fa",
      "▁eaieeeafa tjhn",
      "ieemo sa",
      "▁eeta ttt",
      "▁tv taieaeo",
      "et a",
      "sa fa",
      "▁taei tthn",
      "▁eaaiee ee",
      "▁taieee safa",
      "▁oohtot v",
      "▁tm ost",
      "▁aieeeto ar",
      "▁eai aa",
      "ai etktttn",
      "▁ea aie",
      "eaae mtn",
      "eaiee e",
      "od i",
      "▁iec 1",
      "▁et asa",
      "▁tn1 \n",
      "ea seeao",
      "▁oodeae 0",
      "oto aoa",
      "▁iet eaaemtn",
      "ot eaiee",
      "▁eaieea eoero",
      "▁oetta taoeeeae",
      "▁oettataoeeeae ouoo",
      "ttm n",
      "▁eato ero",
      "tc lo",
      "▁eaa aieeasado",
      "a faet",
      "ta e",
      "▁iet saie",
      "▁t taiee",
      "▁eaa oo",
      "too eer",
      "▁ttaea tooeer",
      "aot asee",
      "▁ood otoaoa",
      "▁eaeoteea sahn",
      "p t",
      "eaiet aoeeeae",
      "▁eaieaeaier thtn",
      "▁oteatoooea \n",
      "et aie",
      "etc 1",
      "▁too hoetaieeeto",
      "▁erd eaeero",
      "▁et aieea",
      "eaieea tn",
      "ot eeea",
      "▁e m",
      "st oouoo",
      "▁oeeeaie stoouoo",
      "▁eatot n",
      "aieeetn eea",
      "▁ieb eaeeemtn",
      "hr eown",
      "▁oestte hreown",
      "e st",
      "▁eaieeeafatjhn teer",
      "▁aiee etc1",
      "lh erodtn",
      "▁taeeex aieeetneea",
      "▁ieeea eaieaee",
      "ta r",
      "▁ooh hre",
      "▁tooieem ot",
      "m euo",
      "etn 0",
      "ead uo",
      "ot eo",
      "oteo ef",
      "▁erdt h",
      "et eetn",
      "▁teoteo ieemosa",
      "ro etmtn",
      "▁teeasaa roetmtn",
      "▁aie s",
      "tar 0",
      "▁aies tar0",
      "▁oeeeaielloooolloooo tetn",
      "t pa",
      "▁t otn",
      "▁oeeeaie iec",
      "▁llooooas oteoef",
      "▁eaa ta",
      "▁oestt eteetn",
      "▁eaa eaetaiee",
      "▁aehteceaieasoteaetno \n",
      "▁aot etc",
      "th aieaeoooo",
      "aiaa eeaeoteea",
      "▁aiaa eea",
      "▁teeaea \n",
      "▁a eeeaeee",
      "▁ot to",
      "see tpa",
      "oh o",
      "▁ eaieetn",
      "▁oodt eaaie",
      "▁aieae st",
      "ea hn",
      "t mtn",
      "▁ea dt",
      "▁oeoteaseeexec eee",
      "eaiea fteoaiaae",
      "eaiaa eeerto",
      "▁taiee t",
      "▁erd aehtec",
      "▁teatn hre",
      "▁llooooas to",
      "ao eeea",
      "aiet see",
      "▁ eerto",
      "ee t",
      "▁erdaehtec etktttn",
      "stt eea",
      "eea 1",
      "▁oteaa oteaiee",
      "too t",
      "▁taet asa",
      "▁aieae 0",
      "etc ohasa",
      "eaiet aoeeea",
      "▁eaaai eaietaoeeea",
      "ai aieee",
      "▁ai aieea",
      "▁aiaieea aiaieee",
      "▁thtseea stteea",
      "▁ea hn",
      "▁eaa thaieaeoooo",
      "▁t thn",
      "▁eaaeed hn",
      "▁ood ts",
      "eaiee thn",
      "sod sod",
      "▁t hnaie",
      "▁ood htahn",
      "▁ood eeaeasee",
      "▁teaeaie own",
      "d c",
      "▁tneaie sa",
      "e i",
      "▁eaa etcohasa",
      "▁tat eea1",
      "eaie otd",
      "▁tao eeeaie",
      "▁aeadtc ee",
      "▁eaathaieaeoooo teatn",
      "ts ts",
      "to wn",
      "hot c",
      "▁ood i",
      "o u",
      "m o",
      "eaiee etc",
      "▁eea eaduo",
      "▁eato eaiaaeeerto",
      "n aie",
      "▁pa thoohneerto",
      "to eatn",
      "tae iee",
      "▁oodi etn0",
      "▁etaie 1",
      "dt jhn",
      "ai eaietaoeeeae",
      "▁erdt oo",
      "at etn",
      "ieem to",
      "▁taathn erto",
      "▁aiee eatn",
      "▁aiaae eaiet",
      "▁aiaaeeaiet mtoown",
      "▁eaiea f",
      "▁ts eaeaie",
      "▁o eaieeaee",
      "▁oeaieeaee tmtn",
      "▁er o",
      "et m",
      "▁oestt etn",
      "eae 1",
      "▁ etn",
      "ttmn taee",
      "▁ieb lo",
      "eaiaae hn",
      "eaiee etn",
      "o etmtn",
      "▁teeto aie",
      "aiea r",
      "▁teev oteato",
      "▁ea eto",
      "▁ood ea",
      "em tc",
      "▁eaaeed oeoteaieeuto",
      "▁teato eeaeaieeeto",
      "tsts t",
      "fa as",
      "aiea saie",
      "▁eaie otd",
      "▁tooto houoothn",
      "▁eatn hre",
      "▁eaieotd etaieeeto",
      "▁ieeea eaieae",
      "▁ieeeaeaieae dar",
      "▁ieb ta",
      "ho ela",
      "eaa tneaie",
      "ot eetn",
      "▁oeeeaiet s",
      "▁ee to",
      "▁oeotas toaie",
      "▁oeeeaietn easeaa",
      "▁m atetn",
      "▁ai eaieetno",
      "eeea aie",
      "s tstst",
      "ttt mtn",
      "tot etn",
      "▁ohao eaieaieae",
      "▁gte sac",
      "▁e lrt",
      "o ero",
      "▁et aiee",
      "▁oodts hn",
      "et ea",
      "▁erd toteatnaieae",
      "▁eea easee",
      "eaeto eae",
      "▁pa eaetoeae",
      "▁eea tn0",
      "▁eatoeaa aieaietaoeeeae",
      "▁ea oh",
      "▁eaieeea eaieeadoero",
      "▁aieaieetno aieaie",
      "et asa",
      "eaiee eaa",
      "e llollof",
      "llollo ellollof",
      "▁oeot ee",
      "▁eaa aiee",
      "oeoteaiee tc",
      "▁lloooo ea",
      "▁faet eae",
      "▁tae iee",
      "▁oe loasee",
      "▁eae lo",
      "eaiet ato",
      "eaietato e",
      "▁aiea eaietatoe",
      "i e",
      "▁oodt hnaie",
      "etn aieasaie",
      "eaieotd euto",
      "▁aehtec eaieotdeuto",
      "et aoeeeae",
      "▁erdt eaaie",
      "▁aea eatt",
      "▁too ieet",
      "▁tooieet aiear",
      "eaieeeaa etmtn",
      "▁eaa e",
      "▁teot eot",
      "aieeeto ar",
      "toto eae",
      "▁eato ieemtn",
      "et too",
      "ettoo eeeaie",
      "▁ieblo aieaeo",
      "▁erd er",
      "▁aieeeaetn etaieeeto",
      "▁oet totoeae",
      "▁oeeeaiets eaeaie",
      "f soeo",
      "▁tta oeeae",
      "oe st",
      "▁tooieem oo",
      "eaieea oero",
      "▁iee mo",
      "▁pa thn",
      "▁ohato st",
      "▁ieemo sa",
      "▁taet hoar",
      "▁erd a",
      "▁ooh ou",
      "▁tooieemoo ohaieie",
      "▁oee eai",
      "faas lotaoeeeae",
      "▁t efsoeo",
      "▁eato eeaaeasaee",
      "▁tea etc",
      "aieee 0",
      "▁ea ststst",
      "tsto eoteea",
      "▁oeotee tstoeoteea",
      "▁oeoteetstoeoteea 0",
      "t eaieethn",
      "eae wn",
      "▁ hn",
      "▁oeto faaslotaoeeeae",
      "▁ta eaeto",
      "oh toeatn",
      "▁aieeeatn 2",
      "etno eeeaie",
      "▁eaaet otoatn",
      "etea easee",
      "▁tnoh o",
      "▁tooieemot easa",
      "▁ooh eetc",
      "▁eaaeed aieeeae",
      "eaiet mtn",
      "aa ee",
      "e gte",
      "egte uto",
      "▁ai oteaeeoooo",
      "▁erd ooh",
      "afaet asaa",
      "▁toeeaotd lherodtn",
      "▁eaoh llorto",
      "▁et egteuto",
      "▁oodet taieerto",
      "▁faeteae oetmtn",
      "eaie rto",
      "taiee tea",
      "▁eaa tn",
      "▁ooh tc",
      "▁ottoottooh aieaie",
      "ea r",
      "eaiea ear",
      "▁eaata tc",
      "▁pa aieeetstt",
      "▁eatn aieee0",
      "▁eai eaieaear",
      "▁ead eaatneaie",
      "▁easa ee",
      "ea eeasoooo",
      "▁taee dtjhn",
      "▁o d",
      "▁taei taieetea",
      "d st",
      "et v",
      "otoa fa",
      "▁oet t",
      "▁tt ai",
      "ea eae",
      "▁pa eteaeasee",
      "▁oohou otoafa",
      "▁tsee sahn",
      "eerto aieeetc",
      "▁oeot eertoaieeetc",
      "▁aiee ea",
      "▁toot ieer",
      "▁et hotc",
      "▁tn 3",
      "▁oeot ohasa",
      "▁lltoieemo pa",
      "er t",
      "▁ead etaieeeto",
      "eeea tn",
      "▁oodeaa eaieeetn",
      "oeai eaieeeaaetmtn",
      "▁eaeaetn staie",
      "ot eatn",
      "▁oeeeaieeaa taoeeeaehn",
      "▁et hn",
      "hottn eaieote",
      "eero dtn",
      "▁eaiea fteoaiaae",
      "▁eaaaieaietaoeeea eaieeetc",
      "j aie",
      "▁ttai aeaieela",
      "▁ttaiaeaieela eer",
      "▁ood tttmtn",
      "▁eohaoooo aieae",
      "▁eaieaieaief thtn",
      "▁ieb a",
      "paoeot etteeae",
      "▁eaa paoeotetteeae",
      "▁eead ot",
      "▁ooh thnaie",
      "▁patn eerto",
      "▁oe ll",
      "▁iet eaaie",
      "▁i odi",
      "▁eaae eaieaeto",
      "eaeto eadtvo",
      "eaetoeadtvo eelo",
      "▁eaa eaetoeadtvoeelo",
      "▁tatn st",
      "oeot as",
      "▁ieba 1",
      "▁eeadot eeae",
      "ot eaie",
      "too uoo",
      "▁eae 0",
      "▁llooooea eaiaaeaieeeto",
      "▁etaieeet hn",
      "▁ead eaieduto",
      "eas to",
      "▁t erduto",
      "▁to etasa",
      "▁lloooo thn",
      "▁em vo",
      "▁ooh eerto",
      "▁ooh gt",
      "▁oohgt eeatn",
      "▁oeeeaie 0",
      "▁aietn eaie",
      "▁o iet",
      "▁eaiea toown",
      "ot aiaoteaiee",
      "eeto f",
      "▁et eetof",
      "▁eohaoooo et",
      "tjho eaitfee",
      "▁eteetof tjhoeaitfee",
      "▁toeeaot dt",
      "▁ea eaieeaoero",
      "▁ooh eaieee",
      "ieet aie",
      "oo u",
      "eaie eaiee",
      "▁taathn ttt",
      "▁ asa",
      "▁pa eaieeatn",
      "easa toto",
      "▁gte hre",
      "eae fa",
      "▁iet eaefa",
      "▁eeto aieeetc",
      "▁aiaaeea aieeee",
      "et oto",
      "▁tn o",
      "▁tv 0",
      "▁taeiee tc",
      "▁eaieeea tn",
      "▁ttso eoo",
      "ee tea",
      "tt uto",
      "eetea ttuto",
      "▁erd eahn",
      "aeaiee l",
      "▁paeteaeasee own",
      "t aieee",
      "▁et a",
      "▁lloooo tneaie",
      "st 0",
      "▁erd oet",
      "▁oeeeaieeaa etaie",
      "▁ieet aie",
      "▁oeeeaiet eea",
      "eeaa ee",
      "▁eaaiee eeto",
      "▁aea eeteattuto",
      "▁ieeaase eaie",
      "▁aieee 0",
      "▁tatn easeaa",
      "▁oet rto",
      "▁ seetpa",
      "▁eaitfee iec",
      "oeotas ttmntaee",
      "▁e fa",
      "▁lloooothn oo",
      "▁et c",
      "ttea aieeeto",
      "▁eaaeaieea st",
      "h aetn",
      "▁ttea tteaaieeeto",
      "▁ot tn",
      "s town",
      "v ooooo",
      "▁ta taiee",
      "▁ttsoeoo etv",
      "dto ea",
      "▁erdt jhn",
      "aaee mtc",
      "▁taieee ooh",
      "too e",
      "tooe stown",
      "▁taieeeooh tooestown",
      "▁eae ia",
      "▁eaeia et",
      "oo dtoea",
      "dt hnaie",
      "▁eta hre",
      "▁aiee dst",
      "▁erd taoeeeae",
      "▁iec 0",
      "et aseea",
      "▁eaaoo dthnaie",
      "▁taeaa etaseea",
      "▁ p",
      "aiaae eaietmtn",
      "▁f soeo",
      "aieea a",
      "▁hottn eaieote",
      "▁ood atot",
      "▁ea aietetn",
      "e sa",
      "▁thaieaeoooo aiee",
      "▁tm esa",
      "▁ead st",
      "▁erdth ettooeeeaie",
      "▁ot tot",
      "▁oetod easto",
      "ktt tn",
      "oh eet",
      "oheet ktttn",
      "ai eaieeeto",
      "et eeae",
      "▁eead aiaaeeaietmtn",
      "▁eaeiaet tjhn",
      "▁eaeiaettjhn eaaeee",
      "eeaa tn",
      "▁ead oeoteaieetc",
      "ef eatn",
      "to eeaot",
      "▁ead otaiaoteaiee",
      "▁aiee staie",
      "▁e c",
      "aiee mtn",
      "▁ood oeotasttmntaee",
      "etn rodto",
      "ai etn",
      "u toouoo",
      "▁oeeeaiee otea",
      "▁oodea aietsee",
      "▁eatn eatoeatn",
      "▁aiee eaa",
      "eea fa",
      "▁ooh eea",
      "▁erda eeeaeee",
      "ieea aie",
      "▁t oteato",
      "▁ ggg",
      "ea seear",
      "▁ooh eloeae",
      "▁tae eaieaie",
      "▁tsee oteetn",
      "▁totn 2",
      "▁oeeeaiet eaaie",
      "o etotn",
      "▁aiee eeto",
      "▁lloooo eae",
      "▁eaa oheetktttn",
      "▁eatoo teea",
      "▁t eetn",
      "▁i etot",
      "▁aieae o",
      "et hn",
      "eo shtn",
      "▁teoteo eadtvo",
      "aiet eetn",
      "▁taeeaieaie iee",
      "▁taeeaieaieiee eto",
      "oh er",
      "▁oe f",
      "▁eatooteea eoshtn",
      "▁oell oodtoea",
      "▁aieeo eaierto",
      "vtot a",
      "vtot vtota",
      "▁taeaa eto",
      "▁ vtotvtota",
      "▁t hn",
      "dtn o",
      "otea fa",
      "▁ai eeae",
      "m etaieeeto",
      "to hn",
      "▁ttaea eead",
      "▁ttaeaeead eer",
      "▁aieeoeaierto 0",
      "etaoeeeae hn",
      "▁ttaiee mtn",
      "tso d",
      "▁et eaie",
      "oh ouoo",
      "▁taoeeea etaoeeeaehn",
      "▁ero dtno",
      "▁teoteoeadtvo eatn",
      "eeaa eto",
      "oeot eea",
      "toot tn",
      "eto eaier",
      "▁eaats aiet",
      "a fa",
      "▁eaatsaiet etnoeeeaie",
      "eetc ero",
      "▁oh eetcero",
      "▁oeot eaieeea",
      "aieeaa eee",
      "▁aie st0",
      "ooh eeeaaie",
      "euto euto",
      "ee mtn",
      "▁oeteaa easa",
      "ot ot",
      "▁eaieeea ooheeeaaie",
      "ai eaiee",
      "▁taiee eeae",
      "▁ooheeaaetn eae",
      "th aietktttn",
      "▁p aieemtn",
      "▁eatoeaa aieeetn",
      "▁oestte sac",
      "▁oeotdaeaie \n",
      "▁lloooo oeoteaieeuto",
      "▁aietn 3",
      "oe stt",
      "▁oohtot naie",
      "ertot jhn",
      "▁to ertotjhn",
      "▁erd oe",
      "▁eato aiee",
      "▁eaieeea oetotn",
      "▁oee eaieeead",
      "▁oeeeaieeead uo",
      "▁eteaie utoouoo",
      "▁ pao",
      "▁pao est",
      "▁eadt etn1",
      "▁eto eaier",
      "em uto",
      "▁ai eaieeaiee",
      "▁aotohai eeae",
      "▁aieeea 0",
      "▁eaieaieaief \n",
      "▁eaet tc",
      "▁eaeaetn emuto",
      "thn eeea",
      "▁eaiea totetn",
      "▁elo eadtetn",
      "▁eaieeea aieeaaeee",
      "▁aieto eouoo",
      "eaa eto",
      "▁teetn 0",
      "eeea d",
      "eeead etaiaaeeouoo",
      "▁tm eu",
      "tee mtn",
      "▁ead tsod",
      "▁eaeto eadt",
      "▁eaetoeadt vooooo",
      "ai eoteeea",
      "▁ieet aieoteeea",
      "▁ieetaieoteeea 0",
      "▁aiee ts",
      "eaaee teemtn",
      "▁eaieatotetn eaeae",
      "eaiea gte",
      "eaaee dtetn",
      "▁ooh thoohneerto",
      "eaiee etot",
      "paoeot eaiee",
      "▁lltoieemo paoeoteaiee",
      "ot aiee",
      "▁tkt aiaaetsaieaeo",
      "▁eea eaieeeto",
      "aie eaieagte",
      "▁aii aeaieel",
      "▁aiiaeaieel ae",
      "e eaiaae",
      "▁aieets eeaiaae",
      "▁oeeeaie seaie",
      "▁ta thaietktttn",
      "▁oh a",
      "▁tat erduto",
      "▁th aieeeto",
      "▁eatot etnaieasaie",
      "▁aiee tstt",
      "▁aieetstt 1",
      "ho e",
      "▁tta teaieethn",
      "▁aieea 2",
      "ohouoo thn",
      "▁t oto",
      "▁tno ieemto",
      "eae 0",
      "ieeoh asa",
      "aie hoe",
      "▁aiee0 \n",
      "▁ttso eo",
      "▁eaa aieeetn",
      "aieai eaieeea",
      "hr aiehoe",
      "▁eato hraiehoe",
      "▁oeeeaie hottneaieote",
      "eatt aieeeto",
      "d hohr",
      "o ieetaie",
      "▁taiee soooo",
      "▁toeeaotd ieemtn",
      "▁gte fsoeo",
      "▁aieeae dhohr",
      "ts oooo",
      "taeiee tsoooo",
      "▁llooooeaeaie \n",
      "▁ood ohtoeatn",
      "taoeeea eea",
      "▁iebta aieeeto",
      "▁ood taoeeeaeea",
      "▁afa thneeea",
      "▁afathneeea 0",
      "▁eato ea",
      "hot ho",
      "▁eatoaiee eouoo",
      "▁taseeet ero",
      "toeeaot dar",
      "eeea to",
      "eaieeea own",
      "▁ta eaier",
      "aie sa",
      "▁t eta",
      "▁oeaie oh",
      "aiet aie",
      "▁lloooo llolloellollof",
      "dc to",
      "▁faet etno",
      "eaie oher",
      "tee c",
      "▁eeetn rodto",
      "tv o",
      "eaiea f",
      "▁eaet rto",
      "lot eetn",
      "▁eeaetmtn \n",
      "▁ttsoeot jhn",
      "▁tta afa",
      "▁eato aieeaieagte",
      "iee eea",
      "▁teadtstt \n",
      "to eae",
      "▁th aietktttn",
      "eai aeaieela",
      "▁eaaiee eaiaeaieela",
      "▁ood oteeea",
      "eaa efeatn",
      "▁oeeeaie oeaieaieeeaaetmtn",
      "▁eaieaf hn",
      "▁ot eaitfee",
      "ef wn",
      "▁tao eeae",
      "▁ietot aiaoteaiee",
      "▁aea easee",
      "aiea eaiaae",
      "dt aiee",
      "▁efa metaieeeto",
      "▁eaa faet",
      "▁tmost toeeaotdar",
      "▁ooh taeieetsoooo",
      "lot othn",
      "etaiee ohouoothn",
      "▁ai eaaeto",
      "oo wn",
      "▁eaaiee eatn",
      "▁ttaiee eea",
      "▁eohaooooet asaa",
      "▁ead loteetn",
      "▁aiee etot",
      "▁tao eaieoher",
      "▁oet eaieeea",
      "▁tseeoteetn st",
      "iee ouoo",
      "▁eaiaa eeerto",
      "▁aie eaiaaehn",
      "i aaeemtc",
      "▁a eae1",
      "as eaie",
      "▁eohaoooo eelo",
      "ea et",
      "▁oeti eerodtn",
      "to hhn",
      "▁tmost aieae",
      "eaieaf uto",
      "▁aieae own",
      "▁ooh aietaie",
      "ai oteato",
      "aioteato etn",
      "aiaa eer",
      "et eaieafuto",
      "f eteaieafuto",
      "▁ttsoeo eaieafteoaiaae",
      "▁eead afaetasaa",
      "▁oestt etmtn",
      "ei ef",
      "▁ood aotasee",
      "▁oodt aioteatoetn",
      "et pa",
      "eeeato eaaeaiee",
      "▁erdtoo tohhn",
      "▁teoteo eaieeea",
      "▁teoteoeaieeea sc",
      "▁erdooh toeae",
      "▁iodi o",
      "▁ai eaaeeteemtn",
      "▁erdtoo teatn",
      "▁ooh ouoo",
      "▁taea eeae",
      "tt tn",
      "oo et",
      "oeai ooet",
      "▁eaa o",
      "otot etn",
      "x etn",
      "▁ot eetn",
      "th eaaeedtetn",
      "▁etc f",
      "oh taoeeeae",
      "ieea ase",
      "▁oohouoo aiaaeer",
      "▁tee taieee",
      "▁etaie ohtaoeeeae",
      "oeaiooet iaaeemtc",
      "▁oeeeaieea eaiaaeaieeeto",
      "eaa eaieaeto",
      "▁ood aieeetoar",
      "▁tt ie",
      "▁hr dt",
      "t eeto",
      "taiee tclo",
      "oh oest",
      "▁a faet",
      "ieeaase eaiee",
      "▁ieb aieaieaieeea",
      "▁oet ototetn",
      "oha etn",
      "h ohaetn",
      "teeto hohaetn",
      "▁teatot hotho",
      "ee etn",
      "aito eaiaae",
      "ethn o",
      "b ta",
      "aie bta",
      "ta ero",
      "i eto",
      "▁o ieto",
      "▁tnoh ouoo",
      "▁oieto est",
      "▁teoteo ieeaaseeaiee",
      "aieae 1",
      "et stt",
      "▁loaseetctc ouoo",
      "▁eai eaaeaiee",
      "▁erd emtc",
      "▁eaaoo d",
      "▁erd ttea",
      "▁ea eouoo",
      "▁teoteo aiee",
      "▁t aiebta",
      "th aietc",
      "▁tat meuo",
      "▁aeea tohn",
      "▁aeeatohn aieee",
      "ts iec",
      "▁ta eaieetn",
      "▁ta pt",
      "toto e",
      "ieemo pa",
      "oh eaieeea",
      "▁ai eaiee",
      "▁ooh eaieaieae",
      "▁oet aeaie",
      "▁etaieea eeasoooo",
      "tn eaieaietoto",
      "▁eai oeaiooetiaaeemtc",
      "▁ood aitoeaiaae",
      "eead ea",
      "eeadea eetc",
      "▁eaa oeot",
      "ee b",
      "▁aieeetot etn",
      "▁eaeoteea tvo",
      "▁hohr etaieeeto",
      "▁ee etpa",
      "eee htn",
      "▁hr eeehtn",
      "▁eeae llorto",
      "▁oteato eeaeasee",
      "ae iee",
      "▁o shtn",
      "▁ooheea dt",
      "▁et lotaoeeeae"
    ]
  }
}