{
  "version": "1.0",
  "truncation": null,
  "padding": null,
  "added_tokens": [
    {
      "id": 0,
      "content": "<unk>",
      "single_word": false,
      "lstrip": false,
      "rstrip": false,
      "normalized": false,
      "special": true
    }
  ],
  "normalizer": {
    "type": "NFKC"
  },
  "pre_tokenizer": {
    "type": "Metaspace",
    "replacement": "▁",
    "add_prefix_space": true,
    "prepend_scheme": "always"
  },
  "post_processor": null,
  "decoder": {
    "type": "Metaspace",
    "replacement": "▁",
    "add_prefix_space": true,
    "prepend_scheme": "always"
  },
  "model": {
    "type": "BPE",
    "dropout": null,
    "unk_token": "<unk>",
    "continuing_subword_prefix": null,
    "end_of_word_suffix": null,
    "fuse_unk": false,
    "byte_fallback": false,
    "vocab": {
      "<unk>": 0,
      "\n": 1,
      "0": 2,
      "1": 3,
      "2": 4,
      "3": 5,
      "a": 6,
      "b": 7,
      "c": 8,
      "d": 9,
      "e": 10,
      "f": 11,
      "g": 12,
      "h": 13,
      "i": 14,
      "j": 15,
      "k": 16,
      "l": 17,
      "m": 18,
      "n": 19,
      "o": 20,
      "p": 21,
      "q": 22,
      "r": 23,
      "s": 24,
      "t": 25,
      "u": 26,
      "v": 27,
      "w": 28,
      "x": 29,
      "y": 30,
      "▁": 31,
      "ea": 32,
      "ee": 33,
      "ai": 34,
      "oo": 35,
      "et": 36,
      "▁t": 37,
      "eai": 38,
      "ot": 39,
      "aiee": 40,
      "eea": 41,
      "▁ea": 42,
      "to": 43,
      "▁o": 44,
      "tn": 45,
      "eaie": 46,
      "eae": 47,
      "etn": 48,
      "▁ai": 49,
      "▁ta": 50,
      "eaiee": 51,
      "▁oo": 52,
      "oooo": 53,
      "ll": 54,
      "eto": 55,
      "as": 56,
      "eot": 57,
      "hn": 58,
      "ta": 59,
      "aie": 60,
      "er": 61,
      "tt": 62,
      "ts": 63,
      "▁et": 64,
      "▁aiee": 65,
      "aa": 66,
      "tot": 67,
      "▁eaa": 68,
      "▁taiee": 69,
      "eer": 70,
      "wn": 71,
      "oh": 72,
      "▁i": 73,
      "dt": 74,
      "st": 75,
      "uto": 76,
      "eaa": 77,
      "tso": 78,
      "▁ot": 79,
      "▁tn": 80,
      "lo": 81,
      "▁a": 82,
      "sa": 83,
      "▁taieetso": 84,
      "lloooo": 85,
      "▁ood": 86,
      "▁tea": 87,
      "eo": 88,
      "▁e": 89,
      "▁ooh": 90,
      "▁oee": 91,
      "▁teea": 92,
      "llo": 93,
      "eaieeea": 94,
      "ho": 95,
      "▁lloooo": 96,
      "ec": 97,
      "▁er": 98,
      "ao": 99,
      "see": 100,
      "hr": 101,
      "fa": 102,
      "pa": 103,
      "▁eai": 104,
      "tc": 105,
      "▁tta": 106,
      "asee": 107,
      "eeae": 108,
      "tea": 109,
      "▁oeot": 110,
      "ero": 111,
      "gt": 112,
      "aieeeto": 113,
      "iee": 114,
      "own": 115,
      "eee": 116,
      "eeea": 117,
      "▁aiea": 118,
      "▁teeaea": 119,
      "▁erd": 120,
      "▁eea": 121,
      "duto": 122,
      "mtn": 123,
      "oto": 124,
      "uoo": 125,
      "etc": 126,
      "▁oe": 127,
      "▁oh": 128,
      "eaetn": 129,
      "▁eaaee": 130,
      "soooo": 131,
      "too": 132,
      "rto": 133,
      "eb": 134,
      "▁eato": 135,
      "▁ead": 136,
      "eatn": 137,
      "▁oet": 138,
      "eero": 139,
      "eeeae": 140,
      "eaiea": 141,
      "ar": 142,
      "eaieea": 143,
      "gte": 144,
      "aieee": 145,
      "hre": 146,
      "aiaa": 147,
      "▁oeeeaie": 148,
      "aieea": 149,
      "eaieduto": 150,
      "sac": 151,
      "htn": 152,
      "▁pa": 153,
      "oeot": 154,
      "▁teot": 155,
      "▁ee": 156,
      "aeae": 157,
      "▁too": 158,
      "eadt": 159,
      "aieae": 160,
      "▁tsee": 161,
      "▁teato": 162,
      "eaeero": 163,
      "toto": 164,
      "asa": 165,
      "▁eead": 166,
      "eaiet": 167,
      "eaiedutoe": 168,
      "▁aieaiedutoe": 169,
      "etot": 170,
      "etn1": 171,
      "oeeeae": 172,
      "ktt": 173,
      "ii": 174,
      "iisoooo": 175,
      "▁etaeae": 176,
      "▁th": 177,
      "▁oest": 178,
      "▁tn1": 179,
      "etaiee": 180,
      "eaier": 181,
      "eaieeeto": 182,
      "▁teoteo": 183,
      "ieb": 184,
      "eeaot": 185,
      "llollo": 186,
      "▁to": 187,
      "aot": 188,
      "ouoo": 189,
      "▁ieea": 190,
      "thn": 191,
      "iec": 192,
      "etktt": 193,
      "▁eae": 194,
      "ef": 195,
      "stt": 196,
      "▁eaieeea": 197,
      "aiea": 198,
      "▁aieeeaetn": 199,
      "lot": 200,
      "eato": 201,
      "eaieaie": 202,
      "taoeeeae": 203,
      "taiee": 204,
      "▁etn1": 205,
      "ooh": 206,
      "▁aiee0": 207,
      "▁tsee1": 208,
      "▁ae": 209,
      "aoteaiee": 210,
      "etktttn": 211,
      "eeaa": 212,
      "aae": 213,
      "tec": 214,
      "eaae": 215,
      "htec": 216,
      "eu": 217,
      "▁iet": 218,
      "ote": 219,
      "▁toeeaot": 220,
      "tf": 221,
      "seea": 222,
      "at": 223,
      "gg": 224,
      "th": 225,
      "etaieeeto": 226,
      "oe": 227,
      "easa": 228,
      "eetn": 229,
      "tnoo": 230,
      "▁oesttnoo": 231,
      "▁taee": 232,
      "hot": 233,
      "▁toeeaotd": 234,
      "▁aie": 235,
      "ttt": 236,
      "jhn": 237,
      "▁etasee": 238,
      "ae": 239,
      "oeote": 240,
      "oha": 241,
      "ieeoh": 242,
      "so": 243,
      "▁aot": 244,
      "hnaie": 245,
      "▁tho": 246,
      "▁teatoaie": 247,
      "▁ieeaasee": 248,
      "▁aieae": 249,
      "easee": 250,
      "suto": 251,
      "▁eaaeeetot": 252,
      "▁oodt": 253,
      "faet": 254,
      "em": 255,
      "ieem": 256,
      "ohaoooo": 257,
      "eoteea": 258,
      "eerto": 259,
      "totoieeoh": 260,
      "▁taeetotoieeoh": 261,
      "ead": 262,
      "▁eohaoooo": 263,
      "▁lo": 264,
      "eeto": 265,
      "loeae": 266,
      "▁eatn": 267,
      "▁hr": 268,
      "▁taeetotoieeohhre": 269,
      "▁m": 270,
      "▁tat": 271,
      "saie": 272,
      "▁ohao": 273,
      "▁tead": 274,
      "▁eaet": 275,
      "llorto": 276,
      "▁otiisoooo": 277,
      "etmtn": 278,
      "aietc": 279,
      "▁gte": 280,
      "eaiaoteaiee": 281,
      "▁ttaeer": 282,
      "▁as": 283,
      "▁oheaieeea": 284,
      "aieeetc": 285,
      "▁tneaiaoteaiee": 286,
      "ase": 287,
      "othn": 288,
      "▁erdt": 289,
      "▁eadsac": 290,
      "eaieaief": 291,
      "eeatn": 292,
      "eeex": 293,
      "▁moto": 294,
      "▁aotoh": 295,
      "▁aieeeaeero": 296,
      "eaieae": 297,
      "▁taeeex": 298,
      "▁st": 299,
      "hottn": 300,
      "aieeet": 301,
      "iet": 302,
      "▁eaieaieaief": 303,
      "▁f": 304,
      "ato": 305,
      "▁oeeeaiet": 306,
      "▁oeoteaie": 307,
      "llothn": 308,
      "▁ttallothn": 309,
      "eown": 310,
      "soeo": 311,
      "▁aehtec": 312,
      "▁aii": 313,
      "aiei": 314,
      "▁oeoteaiepa": 315,
      "thoo": 316,
      "hta": 317,
      "▁eatot": 318,
      "eertot": 319,
      "tfe": 320,
      "aaot": 321,
      "dtn": 322,
      "eeasoooo": 323,
      "htahn": 324,
      "oteea": 325,
      "▁etsuto": 326,
      "etno": 327,
      "▁eaiea": 328,
      "aieaeo": 329,
      "aiet": 330,
      "eaieote": 331,
      "eaaee": 332,
      "▁aaot": 333,
      "▁iee": 334,
      "eaieeeae": 335,
      "▁oeto": 336,
      "aafa": 337,
      "ttiisoooo": 338,
      "▁toottiisoooo": 339,
      "teeae": 340,
      "▁eaaeed": 341,
      "▁faet": 342,
      "▁otea": 343,
      "▁iem": 344,
      "iebat": 345,
      "▁oteea": 346,
      "tj": 347,
      "eaieeead": 348,
      "▁taieee": 349,
      "eaieeaee": 350,
      "▁teatot": 351,
      "▁afa": 352,
      "tjho": 353,
      "▁tao": 354,
      "▁etao": 355,
      "eaieaeto": 356,
      "▁eaaeeetottea": 357,
      "ia": 358,
      "aiaae": 359,
      "▁faafa": 360,
      "▁tnlo": 361,
      "▁aee": 362,
      "▁taaiea": 363,
      "▁tae": 364,
      "▁eto": 365,
      "▁eaie": 366,
      "tsee": 367,
      "▁ohato": 368,
      "▁taaieaaiee": 369,
      "▁oodeae": 370,
      "aeaie": 371,
      "▁tatea": 372,
      "e1": 373,
      "▁tateaee": 374,
      "asaa": 375,
      "▁eaeaie": 376,
      "dthtn": 377,
      "eeemtn": 378,
      "▁hottn": 379,
      "eaietn": 380,
      "▁oeeae": 381,
      "otoa": 382,
      "aoeeeae": 383,
      "▁teoteoiebat": 384,
      "▁teatn": 385,
      "▁oestt": 386,
      "▁taeeexaieeeto": 387,
      "totot": 388,
      "rhtn": 389,
      "eeta": 390,
      "tv": 391,
      "▁oeeeaieea": 392,
      "▁teeae1": 393,
      "▁ieb": 394,
      "eouoo": 395,
      "totototo": 396,
      "▁aieaieeeto": 397,
      "erduto": 398,
      "eoteeea": 399,
      "▁aieaieeeto0": 400,
      "asatotototo": 401,
      "eloeae": 402,
      "iebtjho": 403,
      "eadtetn": 404,
      "oea": 405,
      "▁etoasatotototo": 406,
      "▁eaaiee": 407,
      "dto": 408,
      "eetc": 409,
      "▁thoaie": 410,
      "▁ohn": 411,
      "▁tasac": 412,
      "▁odthtn": 413,
      "eaieeeadst": 414,
      "▁rto": 415,
      "▁oetn": 416,
      "▁aotohai": 417,
      "▁elo": 418,
      "▁erdoeote": 419,
      "ggg": 420,
      "▁oohetktttn": 421,
      "toooea": 422,
      "efsoeo": 423,
      "eaeaie": 424,
      "▁tt": 425,
      "lotn": 426,
      "lolotn": 427,
      "lolotnttt": 428,
      "▁teaieeeadst": 429,
      "toown": 430,
      "▁eaaeeeto": 431,
      "eeeaie": 432,
      "▁eaetaiee": 433,
      "otea": 434,
      "▁aieai": 435,
      "▁lololotnttt": 436,
      "▁otetaiee": 437,
      "▁eaeeasoooo": 438,
      "▁otetaieeeown": 439,
      "▁oeasa": 440,
      "▁hottniebtjho": 441,
      "euo": 442,
      "dtc": 443,
      "tetn": 444,
      "oteato": 445,
      "eaaie": 446,
      "▁tnst": 447,
      "otoatn": 448,
      "▁oteaa": 449,
      "▁eatne": 450,
      "▁eaitfe": 451,
      "eaiaa": 452,
      "otn": 453,
      "do": 454,
      "tstt": 455,
      "erodtn": 456,
      "dero": 457,
      "▁aieto": 458,
      "ieer": 459,
      "▁eaeadtetn": 460,
      "▁tseea": 461,
      "hoh": 462,
      "▁eaeaetn": 463,
      "▁eetn": 464,
      "aieeetstt": 465,
      "thooero": 466,
      "▁oeaie": 467,
      "etaiaa": 468,
      "▁iemeu": 469,
      "▁hre": 470,
      "▁hre0": 471,
      "▁oodeaelo": 472,
      "▁lloooot": 473,
      "▁ieeea": 474,
      "▁gt": 475,
      "▁eatoo": 476,
      "aieec": 477,
      "etoo": 478,
      "aoa": 479,
      "▁faetthooero": 480,
      "eeouoo": 481,
      "ro": 482,
      "▁teadeaeero": 483,
      "tho": 484,
      "▁iec": 485,
      "etaiaaeeouoo": 486,
      "uo": 487,
      "seear": 488,
      "▁eaeeemtn": 489,
      "▁eohaooooaieec": 490,
      "eadtc": 491,
      "▁eao": 492,
      "eadar": 493,
      "▁aeadtc": 494,
      "▁atot": 495,
      "dtetn": 496,
      "▁aedtc": 497,
      "oheloeae": 498,
      "hohr": 499,
      "▁aiaae": 500,
      "▁eaeaieoheloeae": 501,
      "▁eloeadar": 502,
      "▁eaas": 503,
      "▁twn": 504,
      "▁toeeaotdea": 505,
      "▁oodeaa": 506,
      "▁tneaie": 507,
      "aie0": 508,
      "▁etasaa": 509,
      "▁eaasoteea": 510,
      "▁eaaietc": 511,
      "eeaaetn": 512,
      "aieie": 513,
      "▁ooheeaaetn": 514,
      "▁taoeote": 515,
      "▁ohatohtahn": 516,
      "▁ieeaase": 517,
      "loaie": 518,
      "etouto": 519,
      "eertottea": 520,
      "la": 521,
      "xx": 522,
      "xxeae": 523,
      "▁oeoteertottea": 524,
      "▁aieae1": 525,
      "▁oteeaeetn": 526,
      "ieemo": 527,
      "gggeae": 528,
      "aieeaasee": 529,
      "eterduto": 530,
      "▁eaexxeae": 531,
      "▁aieea": 532,
      "▁etotoatn": 533,
      "oot": 534,
      "▁oeotd": 535,
      "oeoteaiee": 536,
      "mtc": 537,
      "▁aaoteoteea": 538,
      "llolloetouto": 539,
      "eaieasaie": 540,
      "eeawn": 541,
      "▁thot": 542,
      "▁eaaai": 543,
      "aieaeoooo": 544,
      "▁thoao": 545,
      "▁eaieeatn": 546,
      "oelot": 547,
      "▁aseaie": 548,
      "aehtec": 549,
      "aseea": 550,
      "▁aaoteoteeadero": 551,
      "eaaeed": 552,
      "▁ts": 553,
      "▁teadtstt": 554,
      "hoar": 555,
      "▁aieaeadt": 556,
      "▁ttaetaiaaeeouoo": 557,
      "tfee": 558,
      "aieeaee": 559,
      "▁ieeaaseeeeta": 560,
      "▁eeta": 561,
      "▁tateae": 562,
      "▁taa": 563,
      "▁oeoteaiee": 564,
      "▁taeuo": 565,
      "▁taei": 566,
      "▁oeaieasaie": 567,
      "▁teatoar": 568,
      "▁oteaaote": 569,
      "▁tk": 570,
      "tctc": 571,
      "aseetctc": 572,
      "▁easa": 573,
      "▁eaier": 574,
      "tthn": 575,
      "▁thotho": 576,
      "taieerto": 577,
      "▁oodtefsoeo": 578,
      "▁oetta": 579,
      "▁aieee": 580,
      "▁staie0": 581,
      "eaaeedhn": 582,
      "asaie": 583,
      "tto": 584,
      "eaieetn": 585,
      "egggeae": 586,
      "toteatn": 587,
      "eaaeeaieote": 588,
      "▁afa1": 589,
      "▁oteaseear": 590,
      "vo": 591,
      "▁eaeteb": 592,
      "▁aieeteeae": 593,
      "▁aieeteeae0": 594,
      "▁loaseetctc": 595,
      "▁eee": 596,
      "eotea": 597,
      "eaiaae": 598,
      "ltto": 599,
      "▁aieeeaaeedhn": 600,
      "▁eaieieer": 601,
      "eeaeasee": 602,
      "▁oheaieeeaown": 603,
      "eas": 604,
      "▁ttaaiee": 605,
      "hrdtetn": 606,
      "▁aieaeadthnaie": 607,
      "lloooolloooo": 608,
      "▁ttaaieeeero": 609,
      "erodtno": 610,
      "▁eeaderodtno": 611,
      "▁ieeeeawn": 612,
      "▁aiioh": 613,
      "llollof": 614,
      "eeeaeee": 615,
      "▁eeae": 616,
      "▁eotea": 617,
      "▁oodo": 618,
      "ets": 619,
      "▁oeeeaieown": 620,
      "▁oeotdaeaie": 621,
      "▁aieeo": 622,
      "iettea": 623,
      "▁ttiettea": 624,
      "▁tm": 625,
      "▁oeote": 626,
      "▁aieeeto": 627,
      "erto": 628,
      "▁eeaetmtn": 629,
      "▁ooheeaaetnaieeeto": 630,
      "▁taoeeeae": 631,
      "▁eatollolloetouto": 632,
      "▁teatoooea": 633,
      "aiaoteaiee": 634,
      "▁oodooh": 635,
      "eaieeeaeuto": 636,
      "▁aieaieaieeeaeuto": 637,
      "▁eetn0": 638,
      "eaaehn": 639,
      "▁eeadaieeaee": 640,
      "▁astn": 641,
      "▁eatoeatn": 642,
      "oaoa": 643,
      "▁otoaoa": 644,
      "▁eaaef": 645,
      "tjhn": 646,
      "seaie": 647,
      "▁ooa": 648,
      "ieemtn": 649,
      "▁ttso": 650,
      "▁ieeaaseeaiee": 651,
      "▁eaethrdtetn": 652,
      "tottt": 653,
      "▁aietoe": 654,
      "llooootaoeeeae": 655,
      "etsaieaeo": 656,
      "▁aiiohase": 657,
      "▁llooooegggeae": 658,
      "eaieaaeeaieote": 659,
      "▁aiiohaseeaieaaeeaieote": 660,
      "▁eloeae": 661,
      "etetn": 662,
      "▁eeadaieeetc": 663,
      "ft": 664,
      "aiaaetsaieaeo": 665,
      "▁tatc": 666,
      "▁tee": 667,
      "▁eae2": 668,
      "eoero": 669,
      "▁aiaaellooootaoeeeae": 670,
      "▁taoeeeaeown": 671,
      "eoo": 672,
      "▁teoteoeaeero": 673,
      "▁ho": 674,
      "▁sac": 675,
      "eaeto": 676,
      "▁etaiaa": 677,
      "▁etaiaaeee": 678,
      "aieee1": 679,
      "iaec": 680,
      "▁oeteaaehn": 681,
      "▁atotaieee": 682,
      "asaieown": 683,
      "▁etaie": 684,
      "▁hohr": 685,
      "aieeetn": 686,
      "▁aiiasaieown": 687,
      "▁oeeeaietn": 688,
      "▁taoeeea": 689,
      "▁paot": 690,
      "saa": 691,
      "▁teeasaa": 692,
      "etaieee": 693,
      "▁oeaierto": 694,
      "▁eaiaae": 695,
      "▁eaiaaegte": 696,
      "▁tn2": 697,
      "eeoooo": 698,
      "aetn": 699,
      "▁tooieem": 700,
      "oteaeeoooo": 701,
      "taieerhtn": 702,
      "aeaiee": 703,
      "▁aieaetn": 704,
      "▁eaaeeetotsee": 705,
      "od": 706,
      "▁tnoh": 707,
      "doero": 708,
      "eaieeadoero": 709,
      "▁aea": 710,
      "▁eadaieeetstt": 711,
      "euto": 712,
      "ooooo": 713,
      "▁llooootaieerhtn": 714,
      "▁eaaeto": 715,
      "staie": 716,
      "▁tneeae": 717,
      "▁aaoteoteeea": 718,
      "ttea": 719,
      "etoown": 720,
      "▁oeeeaieoe": 721,
      "▁aaoteoteeeatn": 722,
      "▁paotetktttn": 723,
      "▁ea1": 724,
      "aieeeae": 725,
      "etotn": 726,
      "▁oodooheaieaeto": 727,
      "▁ethoar": 728,
      "▁ttea": 729,
      "▁hoaseea": 730,
      "▁aieeeertot": 731,
      "▁hoaseeaown": 732,
      "▁aotohaieaieae": 733,
      "etteeae": 734,
      "ieea": 735,
      "tseea": 736,
      "▁llooooas": 737,
      "▁ooheaetn": 738,
      "▁aieeeertotllorto": 739,
      "▁paooh": 740,
      "▁tooto": 741,
      "otd": 742,
      "ohasa": 743,
      "thtn": 744,
      "▁tkt": 745,
      "aieeasa": 746,
      "aieeatn": 747,
      "aietetn": 748,
      "▁thtseea": 749,
      "▁taeaietn": 750,
      "▁ooat": 751,
      "▁ettaieerto": 752,
      "▁oohgte": 753,
      "▁paooheetc": 754,
      "▁oohto": 755,
      "▁taet": 756,
      "▁oeeeaietjhn": 757,
      "▁odthtnaieeeto": 758,
      "aieeeeto": 759,
      "▁eae1": 760,
      "▁ooateeae": 761,
      "▁tv": 762,
      "▁aieeaiea": 763,
      "▁llooooaieee": 764,
      "eaiertottt": 765,
      "▁aieeoeaiertottt": 766,
      "ohaieie": 767,
      "▁aie0": 768,
      "aitho": 769,
      "pao": 770,
      "▁taiei": 771,
      "▁teatotoot": 772,
      "▁eaaeeetn": 773,
      "▁ohaoaieeetc": 774,
      "taoeeeaehn": 775,
      "▁eaaeeetneae": 776,
      "▁ttaea": 777,
      "gtetetn": 778,
      "▁aiaa": 779,
      "▁aieeaieagtetetn": 780,
      "easeaa": 781,
      "llolloeatn": 782,
      "▁emtc": 783,
      "▁oeeeaieoeltto": 784,
      "eeaaeea": 785,
      "toar": 786,
      "aithoeouoo": 787,
      "eatoeatn": 788,
      "▁thaieaeoooo": 789,
      "sod": 790,
      "▁aieetsee": 791,
      "fteo": 792,
      "▁eaaeedllollo": 793,
      "taae": 794,
      "mtaae": 795,
      "▁eaaeedllollomtaae": 796,
      "▁etaieeet": 797,
      "▁oeteaa": 798,
      "▁tai": 799,
      "▁eaaeeaaeea": 800,
      "eeaote": 801,
      "▁taaieee1": 802,
      "eaioteato": 803,
      "▁eeaduo": 804,
      "▁llooootaithoeouoo": 805,
      "▁teatoteaieeeae": 806,
      "aehtectv": 807,
      "▁aieeb": 808,
      "▁eatoaieee": 809,
      "taea": 810,
      "▁aieebaehtectv": 811,
      "▁teaieeaee": 812,
      "▁ieeaaseellollof": 813,
      "▁ieeaaseellolloftaea": 814,
      "▁st1": 815,
      "▁eadet": 816,
      "▁tneeaote": 817,
      "▁aieeaee": 818,
      "▁aieeaee1": 819,
      "asaee": 820,
      "ieceaa": 821,
      "▁eadetsuto": 822,
      "▁teatotootasaee": 823,
      "▁oohtot": 824,
      "▁aieee2": 825,
      "▁eatoaieee2": 826,
      "▁seaie": 827,
      "▁oestte": 828,
      "▁oodloaie": 829,
      "oeoteaieeuto": 830,
      "sahn": 831,
      "etniec": 832,
      "▁aeea": 833,
      "▁eaaaietn": 834,
      "▁tasee": 835,
      "▁taseeet": 836,
      "teatn": 837,
      "hneerto": 838,
      "▁oteato": 839,
      "atot": 840,
      "▁eaaieeaasee": 841,
      "▁llooooeaeaie": 842,
      "▁eaaieeaaseeeaioteato": 843,
      "▁erdoeotegte": 844,
      "▁iecieceaa": 845,
      "▁oodeaaetniec": 846,
      "oteeaeterduto": 847,
      "▁iecieceaaetoown": 848,
      "▁ietao": 849,
      "eaiaaeaieeeto": 850,
      "▁eaetaieepa": 851,
      "▁oeotas": 852,
      "oouoo": 853,
      "▁eatothnaie": 854,
      "▁taeaa": 855,
      "aseaa": 856,
      "▁taaieeatn": 857,
      "▁teeaaa": 858,
      "fteoaiaae": 859,
      "ietaseaa": 860,
      "eatsee": 861,
      "▁ottoo": 862,
      "hhn": 863,
      "eaitfee": 864,
      "▁teoteoo": 865,
      "dtoaiaaetsaieaeo": 866,
      "▁iettc": 867,
      "aec": 868,
      "▁eaaet": 869,
      "▁easatoto": 870,
      "▁toeeaotdeaaieeeeto": 871,
      "▁ietaodtoaiaaetsaieaeo": 872,
      "▁rhtn": 873,
      "rodto": 874,
      "▁oteatn": 875,
      "▁oettaero": 876,
      "aieaie": 877,
      "▁oeeeaieeaa": 878,
      "thoohneerto": 879,
      "oelotc": 880,
      "▁lloooooelotc": 881,
      "eadtvo": 882,
      "totoaetn": 883,
      "▁taieellolloeatn": 884,
      "▁eaeae": 885,
      "▁eaeoteea": 886,
      "eoteeeaown": 887,
      "tneaie": 888,
      "▁eaeoteeeaown": 889,
      "tao": 890,
      "aeaieela": 891,
      "▁eaieaeaier": 892,
      "taoeeea": 893,
      "eatt": 894,
      "▁taathn": 895,
      "teer": 896,
      "▁paeaier": 897,
      "▁aietn1": 898,
      "▁iaec": 899,
      "▁teaeaie": 900,
      "▁aitfe": 901,
      "eaieas": 902,
      "toteato": 903,
      "▁taitoteato": 904,
      "▁teeto": 905,
      "lh": 906,
      "▁oeeeaieeaieaie": 907,
      "▁eaeaetniec": 908,
      "eaieaieae": 909,
      "▁teer": 910,
      "eaieaiet": 911,
      "▁oeeeaieoteeaeterduto": 912,
      "tthnst": 913,
      "aeoooo": 914,
      "▁aiot": 915,
      "▁oteatoooea": 916,
      "▁taea": 917,
      "▁llooootso": 918,
      "eaieaietoto": 919,
      "▁tllorto": 920,
      "▁eatooetotn": 921,
      "▁ieeeaeaiee": 922,
      "tc0": 923,
      "▁eetc0": 924,
      "ieet": 925,
      "▁ouoo": 926,
      "▁erdaiee": 927,
      "▁teatngte": 928,
      "ttooh": 929,
      "ela": 930,
      "▁taitoteatoetn": 931,
      "eeerto": 932,
      "eaioteaeeoooo": 933,
      "▁gteaie": 934,
      "▁eetaar": 935,
      "ex": 936,
      "iaeaieeeto": 937,
      "▁aieaieeeto0\n": 938,
      "easeeex": 939,
      "easeeexec": 940,
      "▁hohrtthnst": 941,
      "▁eaieduto": 942,
      "aieeee": 943,
      "▁toot": 944,
      "▁aieaae": 945,
      "lloooollooooieb": 946,
      "▁etno": 947,
      "▁ottoottooh": 948,
      "▁otetaieee": 949,
      "▁llooootwn": 950,
      "▁eatoeaa": 951,
      "paoeot": 952,
      "▁oetotn": 953,
      "▁teatnaiee": 954,
      "▁oetoetteeae": 955,
      "▁tatn": 956,
      "tee": 957,
      "aieasa": 958,
      "oeeae": 959,
      "▁otee": 960,
      "▁oodoeeeaie": 961,
      "▁iemtetn": 962,
      "▁iemtetn0": 963,
      "aito": 964,
      "aieeasado": 965,
      "ac": 966,
      "▁oodoeeeaielloooollooooieb": 967,
      "▁teeaaaaeoooo": 968,
      "▁aotohaieasa": 969,
      "eaieeadoeroe": 970,
      "▁aieaieeadoeroe": 971,
      "▁eeetn": 972,
      "▁erdaieeeaetn": 973,
      "▁oohtoeae": 974,
      "eaetaiee": 975,
      "oet": 976,
      "▁ohaoeae": 977,
      "toteatnaieae": 978,
      "▁etno0": 979,
      "dar": 980,
      "easaee": 981,
      "eaieeeaduto": 982,
      "▁toeeaotdeaeaieeeaduto": 983,
      "▁eaieeeaown": 984,
      "oelotac": 985,
      "oeai": 986,
      "eaed": 987,
      "▁oeeeaiee": 988,
      "▁aehtecetktt": 989,
      "eaedoooo": 990,
      "▁aieaetnta": 991,
      "▁aieaetnta0": 992,
      "▁aehtecetktttoar": 993,
      "fiaeaieeeto": 994,
      "▁taoeeeaeeatn": 995,
      "teatoteatn": 996,
      "▁oodet": 997,
      "eaaeee": 998,
      "eelo": 999,
      "▁ttatotoaetn": 1000,
      "▁aioteaedoooo": 1001,
      "▁erdtc": 1002,
      "▁aieaieaie": 1003,
      "▁aeeao": 1004,
      "eead": 1005,
      "▁taieeaasee": 1006,
      "▁aieaead": 1007,
      "▁aieaieaieeea": 1008,
      "▁oeteaaeaieaeto": 1009,
      "▁thoo": 1010,
      "▁etteatoteatn": 1011,
      "▁aietn": 1012,
      "eeasa": 1013,
      "▁oetod": 1014,
      "▁aieeeaieeaee": 1015,
      "▁eaaieeeatsee": 1016,
      "▁thiaec": 1017,
      "▁oteeaeterduto": 1018,
      "▁oohfiaeaieeeto": 1019,
      "etnooooo": 1020,
      "▁tteaown": 1021,
      "▁taeaieea": 1022,
      "eeaeoteea": 1023,
      "mtoown": 1024,
      "▁aotohaieaioteaeeoooo": 1025,
      "▁teev": 1026,
      "▁teatoaieeeae": 1027,
      "sc": 1028,
      "▁teeasaar": 1029,
      "▁tasaie": 1030,
      "▁oeoteaieeouoo": 1031,
      "eaataoeeeaehn": 1032,
      "▁ll": 1033,
      "eaaeaiee": 1034,
      "toieemo": 1035,
      "houoo": 1036,
      "▁lltoieemo": 1037,
      "teea": 1038,
      "▁ttsoeot": 1039,
      "houoothn": 1040,
      "▁eaitfee": 1041,
      "taieaeo": 1042,
      "▁otaiaoteaiee": 1043,
      "▁oodeaier": 1044,
      "▁tkteaataoeeeaehn": 1045,
      "▁oeoteaseeexec": 1046,
      "▁llooootaoeeeae": 1047,
      "▁ieet": 1048,
      "▁oeeeaielloooolloooo": 1049,
      "▁eetaareae": 1050,
      "▁eaaeaieea": 1051,
      "seeao": 1052,
      "eeaeaieeeto": 1053,
      "aieai": 1054,
      "▁erdtcaiee": 1055,
      "▁taeaieeaeoero": 1056,
      "tsto": 1057,
      "▁etaieeeta": 1058,
      "▁oohaieie": 1059,
      "ost": 1060,
      "▁llooooo": 1061,
      "▁taieieeasa": 1062,
      "▁otetaieeeownero": 1063,
      "▁teoteooohaieie": 1064,
      "▁tootohhn": 1065,
      "▁faetthooeroetno": 1066,
      "hoetaieeeto": 1067,
      "thntv": 1068,
      "▁aehtecthntv": 1069,
      "oteaetn": 1070,
      "▁tsiec": 1071,
      "eaieasoteaetn": 1072,
      "eaieasoteaetno": 1073,
      "▁eaats": 1074,
      "▁thooetnooooo": 1075,
      "▁aehteceaieasoteaetno": 1076,
      "eaieetno": 1077,
      "lotaoeeeae": 1078,
      "eaieaee": 1079,
      "thnaie": 1080,
      "▁oeeeaietnaietc": 1081,
      "▁etteatoteatnaeae": 1082,
      "▁oodoelotac": 1083,
      "shtn": 1084,
      "vtot": 1085,
      "▁oeaiertoetc": 1086,
      "▁gteloaie": 1087,
      "ttm": 1088,
      "taee": 1089,
      "▁oeaiertoetco": 1090,
      "tn0": 1091,
      "etooetaieeeto": 1092,
      "▁oteatoetooetaieeeto": 1093,
      "lr": 1094,
      "▁aioteaedooooaeaie": 1095,
      "eaeeemtn": 1096,
      "eeaaeasaee": 1097,
      "▁eetn1": 1098,
      "▁aiaiee": 1099,
      "▁eaieea": 1100,
      "toaie": 1101,
      "▁patn": 1102,
      "loasee": 1103,
      "▁llooooiec": 1104,
      "▁oeteatoeatn": 1105,
      "ertot": 1106,
      "▁ooaeeaeasee": 1107,
      "▁ohaoaieea": 1108,
      "lrt": 1109,
      "▁oeti": 1110,
      "▁lloooooietaseaa": 1111,
      "▁eaieeeafa": 1112,
      "▁eaieeeafatjhn": 1113,
      "ieemosa": 1114,
      "▁eetattt": 1115,
      "▁tvtaieaeo": 1116,
      "eta": 1117,
      "safa": 1118,
      "▁taeitthn": 1119,
      "▁eaaieeee": 1120,
      "▁taieeesafa": 1121,
      "▁oohtotv": 1122,
      "▁tmost": 1123,
      "▁aieeetoar": 1124,
      "▁eaiaa": 1125,
      "aietktttn": 1126,
      "▁eaaie": 1127,
      "eaaemtn": 1128,
      "eaieee": 1129,
      "odi": 1130,
      "▁iec1": 1131,
      "▁etasa": 1132,
      "▁tn1\n": 1133,
      "easeeao": 1134,
      "▁oodeae0": 1135,
      "otoaoa": 1136,
      "▁ieteaaemtn": 1137,
      "oteaiee": 1138,
      "▁eaieeaeoero": 1139,
      "▁oettataoeeeae": 1140,
      "▁oettataoeeeaeouoo": 1141,
      "ttmn": 1142,
      "▁eatoero": 1143,
      "tclo": 1144,
      "▁eaaaieeasado": 1145,
      "afaet": 1146,
      "tae": 1147,
      "▁ietsaie": 1148,
      "▁ttaiee": 1149,
      "▁eaaoo": 1150,
      "tooeer": 1151,
      "▁ttaeatooeer": 1152,
      "aotasee": 1153,
      "▁oodotoaoa": 1154,
      "▁eaeoteeasahn": 1155,
      "pt": 1156,
      "eaietaoeeeae": 1157,
      "▁eaieaeaierthtn": 1158,
      "▁oteatoooea\n": 1159,
      "etaie": 1160,
      "etc1": 1161,
      "▁toohoetaieeeto": 1162,
      "▁erdeaeero": 1163,
      "▁etaieea": 1164,
      "eaieeatn": 1165,
      "oteeea": 1166,
      "▁em": 1167,
      "stoouoo": 1168,
      "▁oeeeaiestoouoo": 1169,
      "▁eatotn": 1170,
      "aieeetneea": 1171,
      "▁iebeaeeemtn": 1172,
      "hreown": 1173,
      "▁oesttehreown": 1174,
      "est": 1175,
      "▁eaieeeafatjhnteer": 1176,
      "▁aieeetc1": 1177,
      "lherodtn": 1178,
      "▁taeeexaieeetneea": 1179,
      "▁ieeeaeaieaee": 1180,
      "tar": 1181,
      "▁oohhre": 1182,
      "▁tooieemot": 1183,
      "meuo": 1184,
      "etn0": 1185,
      "eaduo": 1186,
      "oteo": 1187,
      "oteoef": 1188,
      "▁erdth": 1189,
      "eteetn": 1190,
      "▁teoteoieemosa": 1191,
      "roetmtn": 1192,
      "▁teeasaaroetmtn": 1193,
      "▁aies": 1194,
      "tar0": 1195,
      "▁aiestar0": 1196,
      "▁oeeeaielloooollooootetn": 1197,
      "tpa": 1198,
      "▁totn": 1199,
      "▁oeeeaieiec": 1200,
      "▁llooooasoteoef": 1201,
      "▁eaata": 1202,
      "▁oestteteetn": 1203,
      "▁eaaeaetaiee": 1204,
      "▁aehteceaieasoteaetno\n": 1205,
      "▁aotetc": 1206,
      "thaieaeoooo": 1207,
      "aiaaeeaeoteea": 1208,
      "▁aiaaeea": 1209,
      "▁teeaea\n": 1210,
      "▁aeeeaeee": 1211,
      "▁otto": 1212,
      "seetpa": 1213,
      "oho": 1214,
      "▁eaieetn": 1215,
      "▁oodteaaie": 1216,
      "▁aieaest": 1217,
      "eahn": 1218,
      "tmtn": 1219,
      "▁eadt": 1220,
      "▁oeoteaseeexeceee": 1221,
      "eaieafteoaiaae": 1222,
      "eaiaaeeerto": 1223,
      "▁taieet": 1224,
      "▁erdaehtec": 1225,
      "▁teatnhre": 1226,
      "▁llooooasto": 1227,
      "aoeeea": 1228,
      "aietsee": 1229,
      "▁eerto": 1230,
      "eet": 1231,
      "▁erdaehtecetktttn": 1232,
      "stteea": 1233,
      "eea1": 1234,
      "▁oteaaoteaiee": 1235,
      "toot": 1236,
      "▁taetasa": 1237,
      "▁aieae0": 1238,
      "etcohasa": 1239,
      "eaietaoeeea": 1240,
      "▁eaaaieaietaoeeea": 1241,
      "aiaieee": 1242,
      "▁aiaieea": 1243,
      "▁aiaieeaaiaieee": 1244,
      "▁thtseeastteea": 1245,
      "▁eahn": 1246,
      "▁eaathaieaeoooo": 1247,
      "▁tthn": 1248,
      "▁eaaeedhn": 1249,
      "▁oodts": 1250,
      "eaieethn": 1251,
      "sodsod": 1252,
      "▁thnaie": 1253,
      "▁oodhtahn": 1254,
      "▁oodeeaeasee": 1255,
      "▁teaeaieown": 1256,
      "dc": 1257,
      "▁tneaiesa": 1258,
      "ei": 1259,
      "▁eaaetcohasa": 1260,
      "▁tateea1": 1261,
      "eaieotd": 1262,
      "▁taoeeeaie": 1263,
      "▁aeadtcee": 1264,
      "▁eaathaieaeooooteatn": 1265,
      "tsts": 1266,
      "town": 1267,
      "hotc": 1268,
      "▁oodi": 1269,
      "ou": 1270,
      "mo": 1271,
      "eaieeetc": 1272,
      "▁eeaeaduo": 1273,
      "▁eatoeaiaaeeerto": 1274,
      "naie": 1275,
      "▁pathoohneerto": 1276,
      "toeatn": 1277,
      "taeiee": 1278,
      "▁oodietn0": 1279,
      "▁etaie1": 1280,
      "dtjhn": 1281,
      "aieaietaoeeeae": 1282,
      "▁erdtoo": 1283,
      "atetn": 1284,
      "ieemto": 1285,
      "▁taathnerto": 1286,
      "▁aieeeatn": 1287,
      "▁aiaaeeaiet": 1288,
      "▁aiaaeeaietmtoown": 1289,
      "▁eaieaf": 1290,
      "▁tseaeaie": 1291,
      "▁oeaieeaee": 1292,
      "▁oeaieeaeetmtn": 1293,
      "▁ero": 1294,
      "etm": 1295,
      "▁oesttetn": 1296,
      "eae1": 1297,
      "▁etn": 1298,
      "ttmntaee": 1299,
      "▁ieblo": 1300,
      "eaiaaehn": 1301,
      "eaieeetn": 1302,
      "oetmtn": 1303,
      "▁teetoaie": 1304,
      "aiear": 1305,
      "▁teevoteato": 1306,
      "▁eaeto": 1307,
      "▁oodea": 1308,
      "emtc": 1309,
      "▁eaaeedoeoteaieeuto": 1310,
      "▁teatoeeaeaieeeto": 1311,
      "tstst": 1312,
      "faas": 1313,
      "aieasaie": 1314,
      "▁eaieotd": 1315,
      "▁tootohouoothn": 1316,
      "▁eatnhre": 1317,
      "▁eaieotdetaieeeto": 1318,
      "▁ieeeaeaieae": 1319,
      "▁ieeeaeaieaedar": 1320,
      "▁iebta": 1321,
      "hoela": 1322,
      "eaatneaie": 1323,
      "oteetn": 1324,
      "▁oeeeaiets": 1325,
      "▁eeto": 1326,
      "▁oeotastoaie": 1327,
      "▁oeeeaietneaseaa": 1328,
      "▁matetn": 1329,
      "▁aieaieetno": 1330,
      "eeeaaie": 1331,
      "ststst": 1332,
      "tttmtn": 1333,
      "totetn": 1334,
      "▁ohaoeaieaieae": 1335,
      "▁gtesac": 1336,
      "▁elrt": 1337,
      "oero": 1338,
      "▁etaiee": 1339,
      "▁oodtshn": 1340,
      "etea": 1341,
      "▁erdtoteatnaieae": 1342,
      "▁eeaeasee": 1343,
      "eaetoeae": 1344,
      "▁paeaetoeae": 1345,
      "▁eeatn0": 1346,
      "▁eatoeaaaieaietaoeeeae": 1347,
      "▁eaoh": 1348,
      "▁eaieeeaeaieeadoero": 1349,
      "▁aieaieetnoaieaie": 1350,
      "etasa": 1351,
      "eaieeeaa": 1352,
      "ellollof": 1353,
      "llolloellollof": 1354,
      "▁oeotee": 1355,
      "▁eaaaiee": 1356,
      "oeoteaieetc": 1357,
      "▁llooooea": 1358,
      "▁faeteae": 1359,
      "▁taeiee": 1360,
      "▁oeloasee": 1361,
      "▁eaelo": 1362,
      "eaietato": 1363,
      "eaietatoe": 1364,
      "▁aieaeaietatoe": 1365,
      "ie": 1366,
      "▁oodthnaie": 1367,
      "etnaieasaie": 1368,
      "eaieotdeuto": 1369,
      "▁aehteceaieotdeuto": 1370,
      "etaoeeeae": 1371,
      "▁erdteaaie": 1372,
      "▁aeaeatt": 1373,
      "▁tooieet": 1374,
      "▁tooieetaiear": 1375,
      "eaieeeaaetmtn": 1376,
      "▁eaae": 1377,
      "▁teoteot": 1378,
      "aieeetoar": 1379,
      "totoeae": 1380,
      "▁eatoieemtn": 1381,
      "ettoo": 1382,
      "ettooeeeaie": 1383,
      "▁iebloaieaeo": 1384,
      "▁erder": 1385,
      "▁aieeeaetnetaieeeto": 1386,
      "▁oettotoeae": 1387,
      "▁oeeeaietseaeaie": 1388,
      "fsoeo": 1389,
      "▁ttaoeeae": 1390,
      "oest": 1391,
      "▁tooieemoo": 1392,
      "eaieeaoero": 1393,
      "▁ieemo": 1394,
      "▁pathn": 1395,
      "▁ohatost": 1396,
      "▁ieemosa": 1397,
      "▁taethoar": 1398,
      "▁erda": 1399,
      "▁oohou": 1400,
      "▁tooieemooohaieie": 1401,
      "▁oeeeai": 1402,
      "faaslotaoeeeae": 1403,
      "▁tefsoeo": 1404,
      "▁eatoeeaaeasaee": 1405,
      "▁teaetc": 1406,
      "aieee0": 1407,
      "▁eaststst": 1408,
      "tstoeoteea": 1409,
      "▁oeoteetstoeoteea": 1410,
      "▁oeoteetstoeoteea0": 1411,
      "teaieethn": 1412,
      "eaewn": 1413,
      "▁hn": 1414,
      "▁oetofaaslotaoeeeae": 1415,
      "▁taeaeto": 1416,
      "ohtoeatn": 1417,
      "▁aieeeatn2": 1418,
      "etnoeeeaie": 1419,
      "▁eaaetotoatn": 1420,
      "eteaeasee": 1421,
      "▁tnoho": 1422,
      "▁tooieemoteasa": 1423,
      "▁ooheetc": 1424,
      "▁eaaeedaieeeae": 1425,
      "eaietmtn": 1426,
      "aaee": 1427,
      "egte": 1428,
      "egteuto": 1429,
      "▁aioteaeeoooo": 1430,
      "▁erdooh": 1431,
      "afaetasaa": 1432,
      "▁toeeaotdlherodtn": 1433,
      "▁eaohllorto": 1434,
      "▁etegteuto": 1435,
      "▁oodettaieerto": 1436,
      "▁faeteaeoetmtn": 1437,
      "eaierto": 1438,
      "taieetea": 1439,
      "▁eaatn": 1440,
      "▁oohtc": 1441,
      "▁ottoottoohaieaie": 1442,
      "ear": 1443,
      "eaieaear": 1444,
      "▁eaatatc": 1445,
      "▁paaieeetstt": 1446,
      "▁eatnaieee0": 1447,
      "▁eaieaieaear": 1448,
      "▁eadeaatneaie": 1449,
      "▁easaee": 1450,
      "eaeeasoooo": 1451,
      "▁taeedtjhn": 1452,
      "▁od": 1453,
      "▁taeitaieetea": 1454,
      "dst": 1455,
      "etv": 1456,
      "otoafa": 1457,
      "▁oett": 1458,
      "▁ttai": 1459,
      "eaeae": 1460,
      "▁paeteaeasee": 1461,
      "▁oohouotoafa": 1462,
      "▁tseesahn": 1463,
      "eertoaieeetc": 1464,
      "▁oeoteertoaieeetc": 1465,
      "▁aieeea": 1466,
      "▁tootieer": 1467,
      "▁ethotc": 1468,
      "▁tn3": 1469,
      "▁oeotohasa": 1470,
      "▁lltoieemopa": 1471,
      "ert": 1472,
      "▁eadetaieeeto": 1473,
      "eeeatn": 1474,
      "▁oodeaaeaieeetn": 1475,
      "oeaieaieeeaaetmtn": 1476,
      "▁eaeaetnstaie": 1477,
      "oteatn": 1478,
      "▁oeeeaieeaataoeeeaehn": 1479,
      "▁ethn": 1480,
      "hottneaieote": 1481,
      "eerodtn": 1482,
      "▁eaieafteoaiaae": 1483,
      "▁eaaaieaietaoeeeaeaieeetc": 1484,
      "jaie": 1485,
      "▁ttaiaeaieela": 1486,
      "▁ttaiaeaieelaeer": 1487,
      "▁oodtttmtn": 1488,
      "▁eohaooooaieae": 1489,
      "▁eaieaieaiefthtn": 1490,
      "▁ieba": 1491,
      "paoeotetteeae": 1492,
      "▁eaapaoeotetteeae": 1493,
      "▁eeadot": 1494,
      "▁oohthnaie": 1495,
      "▁patneerto": 1496,
      "▁oell": 1497,
      "▁ieteaaie": 1498,
      "▁iodi": 1499,
      "▁eaaeeaieaeto": 1500,
      "eaetoeadtvo": 1501,
      "eaetoeadtvoeelo": 1502,
      "▁eaaeaetoeadtvoeelo": 1503,
      "▁tatnst": 1504,
      "oeotas": 1505,
      "▁ieba1": 1506,
      "▁eeadoteeae": 1507,
      "oteaie": 1508,
      "toouoo": 1509,
      "▁eae0": 1510,
      "▁llooooeaeaiaaeaieeeto": 1511,
      "▁etaieeethn": 1512,
      "▁eadeaieduto": 1513,
      "easto": 1514,
      "▁terduto": 1515,
      "▁toetasa": 1516,
      "▁lloooothn": 1517,
      "▁emvo": 1518,
      "▁ooheerto": 1519,
      "▁oohgt": 1520,
      "▁oohgteeatn": 1521,
      "▁oeeeaie0": 1522,
      "▁aietneaie": 1523,
      "▁oiet": 1524,
      "▁eaieatoown": 1525,
      "otaiaoteaiee": 1526,
      "eetof": 1527,
      "▁eteetof": 1528,
      "▁eohaooooet": 1529,
      "tjhoeaitfee": 1530,
      "▁eteetoftjhoeaitfee": 1531,
      "▁toeeaotdt": 1532,
      "▁eaeaieeaoero": 1533,
      "▁ooheaieee": 1534,
      "ieetaie": 1535,
      "oou": 1536,
      "eaieeaiee": 1537,
      "▁taathnttt": 1538,
      "▁asa": 1539,
      "▁paeaieeatn": 1540,
      "easatoto": 1541,
      "▁gtehre": 1542,
      "eaefa": 1543,
      "▁ieteaefa": 1544,
      "▁eetoaieeetc": 1545,
      "▁aiaaeeaaieeee": 1546,
      "etoto": 1547,
      "▁tno": 1548,
      "▁tv0": 1549,
      "▁taeieetc": 1550,
      "▁eaieeeatn": 1551,
      "▁ttsoeoo": 1552,
      "eetea": 1553,
      "ttuto": 1554,
      "eeteattuto": 1555,
      "▁erdeahn": 1556,
      "aeaieel": 1557,
      "▁paeteaeaseeown": 1558,
      "taieee": 1559,
      "▁eta": 1560,
      "▁llooootneaie": 1561,
      "st0": 1562,
      "▁erdoet": 1563,
      "▁oeeeaieeaaetaie": 1564,
      "▁ieetaie": 1565,
      "▁oeeeaieteea": 1566,
      "eeaaee": 1567,
      "▁eaaieeeeto": 1568,
      "▁aeaeeteattuto": 1569,
      "▁ieeaaseeaie": 1570,
      "▁aieee0": 1571,
      "▁tatneaseaa": 1572,
      "▁oetrto": 1573,
      "▁seetpa": 1574,
      "▁eaitfeeiec": 1575,
      "oeotasttmntaee": 1576,
      "▁efa": 1577,
      "▁lloooothnoo": 1578,
      "▁etc": 1579,
      "tteaaieeeto": 1580,
      "▁eaaeaieeast": 1581,
      "haetn": 1582,
      "▁tteatteaaieeeto": 1583,
      "▁ottn": 1584,
      "stown": 1585,
      "vooooo": 1586,
      "▁tataiee": 1587,
      "▁ttsoeooetv": 1588,
      "dtoea": 1589,
      "▁erdtjhn": 1590,
      "aaeemtc": 1591,
      "▁taieeeooh": 1592,
      "tooe": 1593,
      "tooestown": 1594,
      "▁taieeeoohtooestown": 1595,
      "▁eaeia": 1596,
      "▁eaeiaet": 1597,
      "oodtoea": 1598,
      "dthnaie": 1599,
      "▁etahre": 1600,
      "▁aieedst": 1601,
      "▁erdtaoeeeae": 1602,
      "▁iec0": 1603,
      "etaseea": 1604,
      "▁eaaoodthnaie": 1605,
      "▁taeaaetaseea": 1606,
      "▁p": 1607,
      "aiaaeeaietmtn": 1608,
      "▁fsoeo": 1609,
      "aieeaa": 1610,
      "▁hottneaieote": 1611,
      "▁oodatot": 1612,
      "▁eaaietetn": 1613,
      "esa": 1614,
      "▁thaieaeooooaiee": 1615,
      "▁tmesa": 1616,
      "▁eadst": 1617,
      "▁erdthettooeeeaie": 1618,
      "▁ottot": 1619,
      "▁oetodeasto": 1620,
      "ktttn": 1621,
      "oheet": 1622,
      "oheetktttn": 1623,
      "aieaieeeto": 1624,
      "eteeae": 1625,
      "▁eeadaiaaeeaietmtn": 1626,
      "▁eaeiaettjhn": 1627,
      "▁eaeiaettjhneaaeee": 1628,
      "eeaatn": 1629,
      "▁eadoeoteaieetc": 1630,
      "efeatn": 1631,
      "toeeaot": 1632,
      "▁eadotaiaoteaiee": 1633,
      "▁aieestaie": 1634,
      "▁ec": 1635,
      "aieemtn": 1636,
      "▁oodoeotasttmntaee": 1637,
      "etnrodto": 1638,
      "aietn": 1639,
      "utoouoo": 1640,
      "▁oeeeaieeotea": 1641,
      "▁oodeaaietsee": 1642,
      "▁eatneatoeatn": 1643,
      "▁aieeeaa": 1644,
      "eeafa": 1645,
      "▁ooheea": 1646,
      "▁erdaeeeaeee": 1647,
      "ieeaaie": 1648,
      "▁toteato": 1649,
      "▁ggg": 1650,
      "easeear": 1651,
      "▁ooheloeae": 1652,
      "▁taeeaieaie": 1653,
      "▁tseeoteetn": 1654,
      "▁totn2": 1655,
      "▁oeeeaieteaaie": 1656,
      "oetotn": 1657,
      "▁aieeeeto": 1658,
      "▁llooooeae": 1659,
      "▁eaaoheetktttn": 1660,
      "▁eatooteea": 1661,
      "▁teetn": 1662,
      "▁ietot": 1663,
      "▁aieaeo": 1664,
      "ethn": 1665,
      "eoshtn": 1666,
      "▁teoteoeadtvo": 1667,
      "aieteetn": 1668,
      "▁taeeaieaieiee": 1669,
      "▁taeeaieaieieeeto": 1670,
      "oher": 1671,
      "▁oef": 1672,
      "▁eatooteeaeoshtn": 1673,
      "▁oelloodtoea": 1674,
      "▁aieeoeaierto": 1675,
      "vtota": 1676,
      "vtotvtota": 1677,
      "▁taeaaeto": 1678,
      "▁vtotvtota": 1679,
      "▁thn": 1680,
      "dtno": 1681,
      "oteafa": 1682,
      "▁aieeae": 1683,
      "metaieeeto": 1684,
      "tohn": 1685,
      "▁ttaeaeead": 1686,
      "▁ttaeaeeadeer": 1687,
      "▁aieeoeaierto0": 1688,
      "etaoeeeaehn": 1689,
      "▁ttaieemtn": 1690,
      "tsod": 1691,
      "▁eteaie": 1692,
      "ohouoo": 1693,
      "▁taoeeeaetaoeeeaehn": 1694,
      "▁erodtno": 1695,
      "▁teoteoeadtvoeatn": 1696,
      "eeaaeto": 1697,
      "oeoteea": 1698,
      "toottn": 1699,
      "etoeaier": 1700,
      "▁eaatsaiet": 1701,
      "afa": 1702,
      "▁eaatsaietetnoeeeaie": 1703,
      "eetcero": 1704,
      "▁oheetcero": 1705,
      "▁oeoteaieeea": 1706,
      "aieeaaeee": 1707,
      "▁aiest0": 1708,
      "ooheeeaaie": 1709,
      "eutoeuto": 1710,
      "eemtn": 1711,
      "▁oeteaaeasa": 1712,
      "otot": 1713,
      "▁eaieeeaooheeeaaie": 1714,
      "aieaiee": 1715,
      "▁taieeeeae": 1716,
      "▁ooheeaaetneae": 1717,
      "thaietktttn": 1718,
      "▁paieemtn": 1719,
      "▁eatoeaaaieeetn": 1720,
      "▁oesttesac": 1721,
      "▁oeotdaeaie\n": 1722,
      "▁lloooooeoteaieeuto": 1723,
      "▁aietn3": 1724,
      "oestt": 1725,
      "▁oohtotnaie": 1726,
      "ertotjhn": 1727,
      "▁toertotjhn": 1728,
      "▁erdoe": 1729,
      "▁eatoaiee": 1730,
      "▁eaieeeaoetotn": 1731,
      "▁oeeeaieeead": 1732,
      "▁oeeeaieeeaduo": 1733,
      "▁eteaieutoouoo": 1734,
      "▁pao": 1735,
      "▁paoest": 1736,
      "▁eadtetn1": 1737,
      "▁etoeaier": 1738,
      "emuto": 1739,
      "▁aieaieeaiee": 1740,
      "▁aotohaieeae": 1741,
      "▁aieeea0": 1742,
      "▁eaieaieaief\n": 1743,
      "▁eaettc": 1744,
      "▁eaeaetnemuto": 1745,
      "thneeea": 1746,
      "▁eaieatotetn": 1747,
      "▁eloeadtetn": 1748,
      "▁eaieeeaaieeaaeee": 1749,
      "▁aietoeouoo": 1750,
      "eaaeto": 1751,
      "▁teetn0": 1752,
      "eeead": 1753,
      "eeeadetaiaaeeouoo": 1754,
      "▁tmeu": 1755,
      "teemtn": 1756,
      "▁eadtsod": 1757,
      "▁eaetoeadt": 1758,
      "▁eaetoeadtvooooo": 1759,
      "aieoteeea": 1760,
      "▁ieetaieoteeea": 1761,
      "▁ieetaieoteeea0": 1762,
      "▁aieets": 1763,
      "eaaeeteemtn": 1764,
      "▁eaieatotetneaeae": 1765,
      "eaieagte": 1766,
      "eaaeedtetn": 1767,
      "▁oohthoohneerto": 1768,
      "eaieeetot": 1769,
      "paoeoteaiee": 1770,
      "▁lltoieemopaoeoteaiee": 1771,
      "otaiee": 1772,
      "▁tktaiaaetsaieaeo": 1773,
      "▁eeaeaieeeto": 1774,
      "aieeaieagte": 1775,
      "▁aiiaeaieel": 1776,
      "▁aiiaeaieelae": 1777,
      "eeaiaae": 1778,
      "▁aieetseeaiaae": 1779,
      "▁oeeeaieseaie": 1780,
      "▁tathaietktttn": 1781,
      "▁oha": 1782,
      "▁taterduto": 1783,
      "▁thaieeeto": 1784,
      "▁eatotetnaieasaie": 1785,
      "▁aieetstt": 1786,
      "▁aieetstt1": 1787,
      "hoe": 1788,
      "▁ttateaieethn": 1789,
      "▁aieea2": 1790,
      "ohouoothn": 1791,
      "▁toto": 1792,
      "▁tnoieemto": 1793,
      "eae0": 1794,
      "ieeohasa": 1795,
      "aiehoe": 1796,
      "▁aiee0\n": 1797,
      "▁ttsoeo": 1798,
      "▁eaaaieeetn": 1799,
      "aieaieaieeea": 1800,
      "hraiehoe": 1801,
      "▁eatohraiehoe": 1802,
      "▁oeeeaiehottneaieote": 1803,
      "eattaieeeto": 1804,
      "dhohr": 1805,
      "oieetaie": 1806,
      "▁taieesoooo": 1807,
      "▁toeeaotdieemtn": 1808,
      "▁gtefsoeo": 1809,
      "▁aieeaedhohr": 1810,
      "tsoooo": 1811,
      "taeieetsoooo": 1812,
      "▁llooooeaeaie\n": 1813,
      "▁oodohtoeatn": 1814,
      "taoeeeaeea": 1815,
      "▁iebtaaieeeto": 1816,
      "▁oodtaoeeeaeea": 1817,
      "▁afathneeea": 1818,
      "▁afathneeea0": 1819,
      "▁eatoea": 1820,
      "hotho": 1821,
      "▁eatoaieeeouoo": 1822,
      "▁taseeetero": 1823,
      "toeeaotdar": 1824,
      "eeeato": 1825,
      "eaieeeaown": 1826,
      "▁taeaier": 1827,
      "aiesa": 1828,
      "▁teta": 1829,
      "▁oeaieoh": 1830,
      "aietaie": 1831,
      "▁lloooollolloellollof": 1832,
      "dcto": 1833,
      "▁faetetno": 1834,
      "eaieoher": 1835,
      "teec": 1836,
      "▁eeetnrodto": 1837,
      "tvo": 1838,
      "eaieaf": 1839,
      "▁eaetrto": 1840,
      "loteetn": 1841,
      "▁eeaetmtn\n": 1842,
      "▁ttsoeotjhn": 1843,
      "▁ttaafa": 1844,
      "▁eatoaieeaieagte": 1845,
      "ieeeea": 1846,
      "▁teadtstt\n": 1847,
      "toeae": 1848,
      "▁thaietktttn": 1849,
      "eaiaeaieela": 1850,
      "▁eaaieeeaiaeaieela": 1851,
      "▁oodoteeea": 1852,
      "eaaefeatn": 1853,
      "▁oeeeaieoeaieaieeeaaetmtn": 1854,
      "▁eaieafhn": 1855,
      "▁oteaitfee": 1856,
      "efwn": 1857,
      "▁taoeeae": 1858,
      "▁ietotaiaoteaiee": 1859,
      "▁aeaeasee": 1860,
      "aieaeaiaae": 1861,
      "dtaiee": 1862,
      "▁efametaieeeto": 1863,
      "▁eaafaet": 1864,
      "▁tmosttoeeaotdar": 1865,
      "▁oohtaeieetsoooo": 1866,
      "lotothn": 1867,
      "etaieeohouoothn": 1868,
      "▁aieaaeto": 1869,
      "oown": 1870,
      "▁eaaieeeatn": 1871,
      "▁ttaieeeea": 1872,
      "▁eohaooooetasaa": 1873,
      "▁eadloteetn": 1874,
      "▁aieeetot": 1875,
      "▁taoeaieoher": 1876,
      "▁oeteaieeea": 1877,
      "▁tseeoteetnst": 1878,
      "ieeouoo": 1879,
      "▁eaiaaeeerto": 1880,
      "▁aieeaiaaehn": 1881,
      "iaaeemtc": 1882,
      "▁aeae1": 1883,
      "aseaie": 1884,
      "▁eohaooooeelo": 1885,
      "eaet": 1886,
      "▁oetieerodtn": 1887,
      "tohhn": 1888,
      "▁tmostaieae": 1889,
      "eaieafuto": 1890,
      "▁aieaeown": 1891,
      "▁oohaietaie": 1892,
      "aioteato": 1893,
      "aioteatoetn": 1894,
      "aiaaeer": 1895,
      "eteaieafuto": 1896,
      "feteaieafuto": 1897,
      "▁ttsoeoeaieafteoaiaae": 1898,
      "▁eeadafaetasaa": 1899,
      "▁oesttetmtn": 1900,
      "eief": 1901,
      "▁oodaotasee": 1902,
      "▁oodtaioteatoetn": 1903,
      "etpa": 1904,
      "eeeatoeaaeaiee": 1905,
      "▁erdtootohhn": 1906,
      "▁teoteoeaieeea": 1907,
      "▁teoteoeaieeeasc": 1908,
      "▁erdoohtoeae": 1909,
      "▁iodio": 1910,
      "▁aieaaeeteemtn": 1911,
      "▁erdtooteatn": 1912,
      "▁oohouoo": 1913,
      "▁taeaeeae": 1914,
      "tttn": 1915,
      "ooet": 1916,
      "oeaiooet": 1917,
      "▁eaao": 1918,
      "ototetn": 1919,
      "xetn": 1920,
      "▁oteetn": 1921,
      "theaaeedtetn": 1922,
      "▁etcf": 1923,
      "ohtaoeeeae": 1924,
      "ieeaase": 1925,
      "▁oohouooaiaaeer": 1926,
      "▁teetaieee": 1927,
      "▁etaieohtaoeeeae": 1928,
      "oeaiooetiaaeemtc": 1929,
      "▁oeeeaieeaeaiaaeaieeeto": 1930,
      "eaaeaieaeto": 1931,
      "▁oodaieeetoar": 1932,
      "▁ttie": 1933,
      "▁hrdt": 1934,
      "teeto": 1935,
      "taieetclo": 1936,
      "ohoest": 1937,
      "▁afaet": 1938,
      "ieeaaseeaiee": 1939,
      "▁iebaieaieaieeea": 1940,
      "▁oetototetn": 1941,
      "ohaetn": 1942,
      "hohaetn": 1943,
      "teetohohaetn": 1944,
      "▁teatothotho": 1945,
      "eeetn": 1946,
      "aitoeaiaae": 1947,
      "ethno": 1948,
      "bta": 1949,
      "aiebta": 1950,
      "taero": 1951,
      "ieto": 1952,
      "▁oieto": 1953,
      "▁tnohouoo": 1954,
      "▁oietoest": 1955,
      "▁teoteoieeaaseeaiee": 1956,
      "aieae1": 1957,
      "etstt": 1958,
      "▁loaseetctcouoo": 1959,
      "▁eaieaaeaiee": 1960,
      "▁erdemtc": 1961,
      "▁eaaood": 1962,
      "▁erdttea": 1963,
      "▁eaeouoo": 1964,
      "▁teoteoaiee": 1965,
      "▁taiebta": 1966,
      "thaietc": 1967,
      "▁tatmeuo": 1968,
      "▁aeeatohn": 1969,
      "▁aeeatohnaieee": 1970,
      "tsiec": 1971,
      "▁taeaieetn": 1972,
      "▁tapt": 1973,
      "totoe": 1974,
      "ieemopa": 1975,
      "oheaieeea": 1976,
      "▁aieaiee": 1977,
      "▁ooheaieaieae": 1978,
      "▁oetaeaie": 1979,
      "▁etaieeaeeasoooo": 1980,
      "tneaieaietoto": 1981,
      "▁eaioeaiooetiaaeemtc": 1982,
      "▁oodaitoeaiaae": 1983,
      "eeadea": 1984,
      "eeadeaeetc": 1985,
      "▁eaaoeot": 1986,
      "eeb": 1987,
      "▁aieeetotetn": 1988,
      "▁eaeoteeatvo": 1989,
      "▁hohretaieeeto": 1990,
      "▁eeetpa": 1991,
      "eeehtn": 1992,
      "▁hreeehtn": 1993,
      "▁eeaellorto": 1994,
      "▁oteatoeeaeasee": 1995,
      "aeiee": 1996,
      "▁oshtn": 1997,
      "▁ooheeadt": 1998,
      "▁etlotaoeeeae": 1999,
      "▁eaeea": 2000,
      "eaioteatn": 2001,
      "▁pathnela": 2002,
      "eeafaaieeeto": 2003,
      "▁ooheeadteeafaaieeeto": 2004,
      "llooooo": 2005,
      "llollooooo": 2006,
      "eaeea": 2007,
      "eaieeetotaoeeeae": 2008,
      "▁eeaeaeea": 2009,
      "eaieeeauto": 2010,
      "▁eaeeaieeeauto": 2011,
      "▁taetaieeohouoothn": 2012,
      "▁pataero": 2013,
      "aieeaiaaehn": 2014,
      "▁oohero": 2015,
      "▁taaeaie": 2016,
      "▁oettmeuo": 2017,
      "eaieaieaie": 2018,
      "tnoho": 2019,
      "▁taeaaeaieeeae": 2020,
      "touto": 2021,
      "▁ohaoaieee": 2022,
      "▁aieaeouoo": 2023,
      "▁oohetktttn\n": 2024,
      "eaieta": 2025,
      "eaietatoown": 2026,
      "▁eaeaieote": 2027,
      "▁eaeaieotestaie": 2028,
      "▁eaaeaaefeatn": 2029,
      "eaieteer": 2030,
      "▁eaeaietatoown": 2031,
      "▁ieeaaseeeaaeee": 2032,
      "▁tneaieteer": 2033,
      "▁ttsoeotjaie": 2034,
      "▁teoteoaieeeeta": 2035,
      "etaieeesoooo": 2036,
      "eaeeeaeee": 2037,
      "▁aieestaieoooo": 2038,
      "▁taieeeouoo": 2039,
      "▁erdiaec": 2040,
      "▁toteatoaiaaeeaeoteea": 2041,
      "▁llolloetouto": 2042,
      "▁eatotefsoeo": 2043,
      "▁oodeaaeasatoto": 2044,
      "eieeaatn": 2045,
      "▁tatllorto": 2046,
      "▁ieetaiepa": 2047,
      "▁eaaetfeteaieafuto": 2048,
      "▁aietn1\n": 2049,
      "▁taeaiaaeaieeeto": 2050,
      "▁ohaoai": 2051,
      "▁ooaietn": 2052,
      "▁eatooown": 2053,
      "eaieeetstt": 2054,
      "▁oetoto": 2055,
      "hon": 2056,
      "athon": 2057,
      "etaeiee": 2058,
      "taoeeeaetaeiee": 2059,
      "▁eaataoeeeaetaeiee": 2060,
      "▁gggown": 2061,
      "▁tseaeaieown": 2062,
      "otaieerto": 2063,
      "▁aieeetc1\n": 2064,
      "▁taaieeatneae": 2065,
      "eaaedtc": 2066,
      "▁taefwn": 2067,
      "tseeeeae": 2068,
      "mtseeeeae": 2069,
      "▁oemtseeeeae": 2070,
      "ieemot": 2071,
      "▁teaaedtc": 2072,
      "▁eeaeaeeaer": 2073,
      "▁oeaiehr": 2074,
      "▁eadaieee1": 2075,
      "ieemotsee": 2076,
      "▁oieemotsee": 2077,
      "▁tsoe": 2078,
      "▁oetieeaaie": 2079,
      "aitoetn": 2080,
      "totmtn": 2081,
      "▁oeeeaieeea": 2082,
      "▁oeeeaieeeaeasee": 2083,
      "▁eeetnaiee": 2084,
      "llolloooooetaieeeto": 2085,
      "▁aieellolloooooetaieeeto": 2086,
      "▁iodiodtaiee": 2087,
      "oom": 2088,
      "oomoou": 2089,
      "▁oeteatoeatntaieetclo": 2090,
      "heae": 2091,
      "heaeeaiee": 2092,
      "▁etaieeasee": 2093,
      "▁taaieteetn": 2094,
      "▁oodaietc": 2095,
      "▁aiet": 2096,
      "aieoeoteea": 2097,
      "▁eaafaeteae": 2098,
      "▁etaieeaseeetno": 2099,
      "▁llooooaieee\n": 2100,
      "▁ieemtoown": 2101,
      "▁eaieaft": 2102,
      "▁eaieafteaieaieaie": 2103,
      "heaeeaieero": 2104,
      "▁eaaa": 2105,
      "▁oteeetaieee": 2106,
      "▁ert": 2107,
      "▁ooao": 2108,
      "aaehouoothn": 2109,
      "▁oetiaaehouoothn": 2110,
      "aieeeatsee": 2111,
      "▁erdoetv": 2112,
      "▁eaeeadero": 2113,
      "ttaoeeeae": 2114,
      "otneerto": 2115,
      "eeie": 2116,
      "▁oeteaaee": 2117,
      "▁eteae1": 2118,
      "▁taeaaietetn": 2119,
      "▁pathneteeae": 2120,
      "▁tooieemotneerto": 2121,
      "▁oteeta": 2122,
      "▁toeeaotdeaieeeaown": 2123,
      "▁oeteaaeeeeeadetaiaaeeouoo": 2124,
      "eeiehn": 2125,
      "▁taoetmtn": 2126,
      "▁oodtoot": 2127,
      "▁etaiehtahn": 2128,
      "easeetetn": 2129,
      "▁ohaoaieaaeeaieote": 2130,
      "oteeta": 2131,
      "vea": 2132,
      "▁eaeeasooootneaieaietoto": 2133,
      "▁asataiee": 2134,
      "▁eaaaieeetn1": 2135,
      "▁erdoell": 2136,
      "ltc": 2137,
      "▁oteeea": 2138,
      "hoelaeatn": 2139,
      "▁tathoelaeatn": 2140,
      "▁oteatot": 2141,
      "▁oohtoetno": 2142,
      "▁thaietc": 2143,
      "▁oetmtn": 2144,
      "▁eaat": 2145,
      "lo0": 2146,
      "▁eatotnlo0": 2147,
      "atotn": 2148,
      "eaod": 2149,
      "eaiaaeaod": 2150,
      "eaiaaeaodtotmtn": 2151,
      "etatotn": 2152,
      "▁aiaaetatotn": 2153,
      "oeltc": 2154,
      "▁eaieeeatneaseaa": 2155,
      "▁llooooia": 2156,
      "▁taieieown": 2157,
      "etototn": 2158,
      "▁oteeet": 2159,
      "▁eaeeemtn\n": 2160,
      "dpa": 2161,
      "▁eaaoeotohasa": 2162,
      "▁ottoottooheatn": 2163,
      "▁eatototn": 2164,
      "▁eatototntho": 2165,
      "llor": 2166,
      "aieaieaieea": 2167,
      "aieaieaieeatotoe": 2168,
      "otdero": 2169,
      "▁eohaooooaieaieaieeatotoe": 2170,
      "asaietetn": 2171,
      "etothn": 2172,
      "eeeaetetn": 2173,
      "▁tateaieeetstt": 2174,
      "▁eaaeaieeetotaoeeeae": 2175,
      "▁teoteoeeeatoeaaeaiee": 2176,
      "▁ttatjhn": 2177,
      "eaeaieotdero": 2178,
      "▁eatotnoieetaie": 2179,
      "▁tnta": 2180,
      "▁eeadt": 2181,
      "▁otiebat": 2182,
      "▁oodaiaaeeaeoteea": 2183,
      "▁oieemopa": 2184,
      "▁teec": 2185,
      "efa": 2186,
      "▁etaieeaseeetnoeae": 2187,
      "▁oeeeaieoeoteaieeuto": 2188,
      "iodi": 2189,
      "uoto": 2190,
      "▁eaeaieoteaie": 2191,
      "▁ttaafaeeeaetetn": 2192,
      "easatn": 2193,
      "▁etktt": 2194,
      "eaetrto": 2195,
      "▁eaeero": 2196,
      "▁llooooooh": 2197,
      "▁aieaeeaaeto": 2198,
      "aotasaietetn": 2199,
      "ieeagte": 2200,
      "▁oetaotasaietetn": 2201,
      "▁oeeeaietec": 2202,
      "▁aedtcasee": 2203,
      "▁aehtecaieaeaiaae": 2204,
      "▁llooooeaioteatn": 2205,
      "moto": 2206,
      "▁taaieeetoar": 2207,
      "▁staieeatn": 2208,
      "▁oeeae\n": 2209,
      "taieeeto": 2210,
      "▁tnohaie": 2211,
      "▁eaeeasoooooeeae": 2212,
      "asl": 2213,
      "▁tootho": 2214,
      "▁toothoasl": 2215,
      "▁tamoto": 2216,
      "oeoteaieeaee": 2217,
      "▁oodoeeae": 2218,
      "eeaaeed": 2219,
      "▁teatnpt": 2220,
      "▁eaetoeadtvo": 2221,
      "▁eaetoeadtvost": 2222,
      "▁htahn": 2223,
      "▁etaie0": 2224,
      "▁gtehn": 2225,
      "eeaaeedeaaeee": 2226,
      "tcaiee": 2227,
      "teato": 2228,
      "▁aieethaietc": 2229,
      "▁eaaaieeea": 2230,
      "▁thn0": 2231,
      "▁taeaaieeee": 2232,
      "▁ietaieoeoteea": 2233,
      "eaeeae": 2234,
      "eaieuto": 2235,
      "▁oteetar": 2236,
      "▁eatoaieeetstt": 2237,
      "eaead": 2238,
      "▁totoaiesa": 2239,
      "eaieeetoown": 2240,
      "soeot": 2241,
      "▁aieaeaieeetoown": 2242,
      "▁teetoeaieote": 2243,
      "▁emst": 2244,
      "▁teoteotn": 2245,
      "doown": 2246,
      "llolloellollofttea": 2247,
      "▁llolloellollofttea": 2248,
      "▁aieaieaie\n": 2249,
      "▁aiexetn": 2250,
      "▁oetteaewn": 2251,
      "▁elrttaoeeeae": 2252,
      "▁ouoto": 2253,
      "aet": 2254,
      "▁oeeeaieot": 2255,
      "▁llooooaieae1": 2256,
      "▁erdoeotegte\n": 2257,
      "eaeadieeohasa": 2258,
      "▁taoeeeaeaie": 2259,
      "▁taieieaeadieeohasa": 2260,
      "▁aieee2\n": 2261,
      "eaieaeot": 2262,
      "▁aieaieaeot": 2263,
      "▁aieaieaeotaoeeeae": 2264,
      "▁eaaaeeeaeee": 2265,
      "▁oeteatoeatnteer": 2266,
      "▁ietteec": 2267,
      "▁aotasaie": 2268,
      "ytetn": 2269,
      "afaetytetn": 2270,
      "eaaaieae": 2271,
      "tstof": 2272,
      "▁afaeteea": 2273,
      "▁teaaedtctn": 2274,
      "▁eaataiee": 2275,
      "▁eaetrtoeaetrto": 2276,
      "▁erdoellttaoeeeae": 2277,
      "▁eeadeaeeasoooo": 2278,
      "▁oodeaitfee": 2279,
      "▁oteetoown": 2280,
      "etnotaieerto": 2281,
      "▁lloooost": 2282,
      "▁lloooostiaec": 2283,
      "▁hrdtllorto": 2284,
      "▁eaataieellolloeatn": 2285,
      "▁erdeaaee": 2286,
      "ottn": 2287,
      "siec": 2288,
      "teeafa": 2289,
      "▁erdthaitoetn": 2290,
      "aieae0": 2291,
      "▁aiaaeeaetaiee": 2292,
      "eaaeeeto": 2293,
      "eeaaeeeto": 2294,
      "▁taoteeta": 2295,
      "▁taaetaieeeto": 2296,
      "▁oestteeaaeeeto": 2297,
      "▁oodieeeea": 2298,
      "eaieot": 2299,
      "▁aieaieetheaaeedtetn": 2300,
      "▁taeetotoieeohhre\n": 2301,
      "eeaaie": 2302,
      "▁eaieeeae": 2303,
      "▁eaieeeaegggeae": 2304,
      "▁oieemtn": 2305,
      "dtv": 2306,
      "▁eatoeaaieeee": 2307,
      "▁eaetaiee\n": 2308,
      "lotc": 2309,
      "▁etho": 2310,
      "▁teoteoeasatn": 2311,
      "▁eatooe": 2312,
      "▁aieeeaaeea": 2313,
      "▁eatoeaeaieotdero": 2314,
      "▁eaieeeatneaseear": 2315,
      "hottniebtjho": 2316,
      "▁erdeaaeeeeaaeedeaaeee": 2317,
      "▁eaieaaeaieeown": 2318,
      "▁taiaae": 2319,
      "eaaeeea": 2320,
      "aethoela": 2321,
      "▁teeaaaaethoela": 2322,
      "▁oeeeaieoeeae": 2323,
      "eaaeeeafa": 2324,
      "tm": 2325,
      "▁aeaeattetaieeeto": 2326,
      "▁erdethno": 2327,
      "▁eaallollo": 2328,
      "▁eaaetaie": 2329,
      "▁oodtaiee": 2330,
      "▁eeeaaeeeafa": 2331,
      "loaseetetn": 2332,
      "▁aieethaietc1": 2333,
      "▁llo": 2334,
      "▁oteieeaatn": 2335,
      "▁oodaieae0": 2336,
      "▁eatotneaieaietoto": 2337,
      "▁aieeeaaetnrodto": 2338,
      "emtctaiee": 2339,
      "▁totnaie": 2340,
      "eeeo": 2341,
      "aseeet": 2342,
      "▁eatooeltto": 2343,
      "▁eaaeedpa": 2344,
      "eaetothn": 2345,
      "▁tnaeae": 2346,
      "▁etai": 2347,
      "▁hrd": 2348,
      "eaiaaeeaeoteea": 2349,
      "▁oeeeaieaiaaeeaeoteea": 2350,
      "aieeeaa": 2351,
      "oeoteaie": 2352,
      "aieeeaaetnrodto": 2353,
      "▁tseetjhn": 2354,
      "taetaiee": 2355,
      "▁tc": 2356,
      "▁aieaeaieeeto": 2357,
      "▁ieteloeae": 2358,
      "▁eaatsaietetn": 2359,
      "oouoto": 2360,
      "▁ohaoouoto": 2361,
      "▁aieeetoert": 2362,
      "▁aiaaeaeeeaeee": 2363,
      "loeaiee": 2364,
      "▁eloloeaiee": 2365,
      "▁oeotdafaetasaa": 2366,
      "ifa": 2367,
      "ifaea": 2368,
      "▁eaieatn": 2369,
      "▁oodoet": 2370,
      "aieaeeiehn": 2371,
      "▁oodaieeaiaaehn": 2372,
      "▁toeeaotdaotasee": 2373,
      "emoomoou": 2374,
      "aitoemoomoou": 2375,
      "▁oeeeaieeaeero": 2376,
      "▁taieaeeiehn": 2377,
      "gggaitoemoomoou": 2378,
      "dtoo": 2379,
      "▁eatoert": 2380,
      "eeertot": 2381,
      "▁tef": 2382,
      "▁oethohr": 2383,
      "▁oteatoo": 2384,
      "▁teetoaieaiee": 2385,
      "▁aieaae\n": 2386,
      "lhe": 2387,
      "▁ottoottoohst": 2388,
      "▁teeatn": 2389,
      "▁ooheeeaaie": 2390,
      "totnaie": 2391,
      "▁ohaoaieeetc\n": 2392,
      "▁ooheatn": 2393,
      "▁eeadaieeaee\n": 2394,
      "eer0": 2395,
      "▁llooooiaee": 2396,
      "▁aieaeer0": 2397,
      "▁oteeeaoteaie": 2398,
      "ertotaoeeeae": 2399,
      "▁taoeote\n": 2400,
      "▁patneaieaietoto": 2401,
      "aieaieaieeatn": 2402,
      "▁oodai": 2403,
      "▁oetotoertotaoeeeae": 2404,
      "▁tathr": 2405,
      "euaiee": 2406,
      "▁gteeaa": 2407,
      "tn1": 2408,
      "▁eeatn1": 2409,
      "tooooo": 2410,
      "▁eeaeo": 2411,
      "▁eeaeo0": 2412,
      "▁ieeaaseeto": 2413,
      "▁staie": 2414,
      "▁eeeaaeeeafaeaieote": 2415,
      "etmeuaiee": 2416,
      "▁gtetmeuaiee": 2417,
      "▁ooheattaieeeto": 2418,
      "▁afaeaieot": 2419,
      "▁afaeaieotdtv": 2420,
      "stoo": 2421,
      "▁oodtetn": 2422,
      "▁erdoeteaaeaieaeto": 2423,
      "▁aiiohasee": 2424,
      "▁erodtoo": 2425,
      "▁paeaieeea": 2426,
      "▁ottoaieeeaaetnrodto": 2427,
      "▁erodtootetn": 2428,
      "eaelo": 2429,
      "aotoh": 2430,
      "▁oeeeaievea": 2431,
      "▁gteeaaeeeatn": 2432,
      "▁etntaoeeea": 2433,
      "▁aieeetoeeaaeasaee": 2434,
      "▁ttt": 2435,
      "▁tttetaieeeto": 2436,
      "▁ttaafaetytetn": 2437,
      "stooeatn": 2438,
      "▁paemtctaiee": 2439,
      "▁eeaefsoeo": 2440,
      "▁oohtho": 2441,
      "▁oodtjaie": 2442,
      "eaeloaiaae": 2443,
      "etopa": 2444,
      "tatotoaetn": 2445,
      "eeaeoooo": 2446,
      "▁oetathon": 2447,
      "▁ooheer": 2448,
      "▁eeea": 2449,
      "▁thoaie\n": 2450,
      "▁aieaet": 2451,
      "sttn": 2452,
      "sttnrodto": 2453,
      "▁oohtoteatnaieae": 2454,
      "▁eaaeaseetetn": 2455,
      "▁hre0\n": 2456,
      "eeertothtn": 2457,
      "▁eaeeertothtn": 2458,
      "aieetstt": 2459,
      "▁aieaethnaie": 2460,
      "▁eaatea": 2461,
      "▁oeltto": 2462,
      "oesttetn": 2463,
      "▁aieaethnaie0": 2464,
      "▁aieeoeaiertottt\n": 2465,
      "etnoieemto": 2466,
      "▁tathrto": 2467,
      "▁eaieeeatv": 2468,
      "soeotetn": 2469,
      "▁tefsoeotetn": 2470,
      "▁aieaeadeief": 2471,
      "▁tatv": 2472,
      "▁ooda": 2473,
      "▁toeeaotdtaieeasa": 2474,
      "▁teatotsttnrodto": 2475,
      "▁ooheeaaetnaieeeto\n": 2476,
      "▁etktttoown": 2477,
      "▁erdtaiee": 2478,
      "eeaeooooaiaae": 2479,
      "▁ohatoaieeaee": 2480,
      "teaetc": 2481,
      "▁tneaiaoteaiee\n": 2482,
      "▁ttaegggeae": 2483,
      "oeoteaieeouoo": 2484,
      "▁aieeaietn": 2485,
      "▁eaaeeetof": 2486,
      "▁tootktt": 2487,
      "▁ethn\n": 2488,
      "eeaeoouoo": 2489,
      "aieeemtc": 2490,
      "▁thaieaeoooooteeea": 2491,
      "▁taoeoteaieeouoo": 2492,
      "ethtn": 2493,
      "▁eaaaieaietaoeeeaethtn": 2494,
      "eaeatt": 2495,
      "▁gteea": 2496,
      "▁oteeetnoieemto": 2497,
      "aseeetero": 2498,
      "▁oeotasttmntaee": 2499,
      "▁ethoaroooo": 2500,
      "▁ohatoeaseeao": 2501,
      "▁oeeeaieeaeouoo": 2502,
      "▁eaateatoar": 2503,
      "▁oeasa\n": 2504,
      "▁erdtoot": 2505,
      "ieeahn": 2506,
      "▁eaaaiaae": 2507,
      "iecown": 2508,
      "eetoiecown": 2509,
      "▁oeeeaietaa": 2510,
      "▁eaaeaeloaiaae": 2511,
      "▁eaeeasooooetoeaier": 2512,
      "aieeesoooo": 2513,
      "▁eaiaaeetoiecown": 2514,
      "eethn": 2515,
      "▁eohaooooiee": 2516,
      "▁eatoeae0": 2517,
      "eaeieeouoo": 2518,
      "▁eretaieeeto": 2519,
      "▁aieeaiee": 2520,
      "eaee": 2521,
      "▁taeteae": 2522,
      "▁eatooeot": 2523,
      "▁oteetnsc": 2524,
      "▁oethottniebtjho": 2525,
      "eeeoetmtn": 2526,
      "▁oeoteaieeaee": 2527,
      "▁eaaieeeatneea": 2528,
      "▁aieeaiee0": 2529,
      "etottn": 2530,
      "▁erdohtoeatn": 2531,
      "etotoetoto": 2532,
      "▁oeeeaietaseeetero": 2533,
      "▁eeta1": 2534,
      "▁eaaietsee": 2535,
      "▁tatcaieeeto": 2536,
      "todcto": 2537,
      "▁iodiod": 2538,
      "▁eaataeaier": 2539,
      "▁eadoet": 2540,
      "▁oteaitfeeetopa": 2541,
      "▁teea1": 2542,
      "▁gteseetpa": 2543,
      "▁eatotthn": 2544,
      "▁erdtooteethn": 2545,
      "eteemtn": 2546,
      "▁oeaiehrdtetn": 2547,
      "tnaietc": 2548,
      "▁oteeeteae": 2549,
      "▁oeeeaieoest": 2550,
      "▁eotea\n": 2551,
      "▁erdtt": 2552,
      "etoaiaae": 2553,
      "▁odrhtn": 2554,
      "▁aieeasa": 2555,
      "tneerto": 2556,
      "▁erdoheaieeea": 2557,
      "taeeifaea": 2558,
      "etotoetotofa": 2559,
      "▁eaitfeelotothn": 2560,
      "ptown": 2561,
      "▁teatnptown": 2562,
      "aieetclo": 2563,
      "▁oodeteaieuto": 2564,
      "▁gteteeae": 2565,
      "▁llooootn": 2566,
      "ieerodtn": 2567,
      "eadthnaie": 2568,
      "aieaeadthnaie": 2569,
      "etmteaetc": 2570,
      "etmteaetcaieeeto": 2571,
      "asoteafa": 2572,
      "ieemoero": 2573,
      "aiaaeieemoero": 2574,
      "▁eaieeeaeasatoto": 2575,
      "aiatot": 2576,
      "aiatotetn": 2577,
      "▁otaiatotetn": 2578,
      "▁teoteooietaseaa": 2579,
      "▁tsee1\n": 2580,
      "▁eaeteb\n": 2581,
      "▁etaoaiaae": 2582,
      "▁aeaetotoetotofa": 2583,
      "oeltto": 2584,
      "▁eaaeaieafteoaiaae": 2585,
      "▁taiaa": 2586,
      "aitoe": 2587,
      "gggt": 2588,
      "▁tetnaieasaie": 2589,
      "gggtaitoe": 2590,
      "eaietm": 2591,
      "▁tootaiaaeieemoero": 2592,
      "▁eatoeeetn": 2593,
      "▁taoteeaeterduto": 2594,
      "eaieeeatn": 2595,
      "▁elhe": 2596,
      "eaaeasaee": 2597,
      "▁oeeeaieeeaaeasaee": 2598,
      "▁iaeaieela": 2599,
      "eaitooooo": 2600,
      "▁eeadeetc": 2601,
      "eaietc": 2602,
      "▁oeoteaietm": 2603,
      "oeoteaietc": 2604,
      "▁oeoteaietmoeoteaietc": 2605,
      "▁etsutoaiaae": 2606,
      "▁ttat": 2607,
      "eaieeeadeer": 2608,
      "▁ttateaieeeadeer": 2609,
      "▁thieeouoo": 2610,
      "▁erdoohgte": 2611,
      "erd": 2612,
      "▁eatooeotohoest": 2613,
      "▁eaaieeeatnsodsod": 2614,
      "lloetn": 2615,
      "▁eaeaieotd": 2616,
      "eaieaieaief": 2617,
      "▁ieeeaeaieaedar\n": 2618,
      "▁taieeeeawn": 2619,
      "etatttn": 2620,
      "▁taiaaetatttn": 2621,
      "ev": 2622,
      "ieemoeltc": 2623,
      "▁eeaar": 2624,
      "▁etntaoeeeaeero": 2625,
      "▁lloooollorto": 2626,
      "tsc": 2627,
      "▁ietn1": 2628,
      "▁tktsc": 2629,
      "▁aieeeieemtn": 2630,
      "▁eaeead": 2631,
      "▁oietaietetn": 2632,
      "aieeaieee": 2633,
      "hota": 2634,
      "hotatttn": 2635,
      "ieeaasee": 2636,
      "eaaetot": 2637,
      "eaaetotjhn": 2638,
      "▁teea0": 2639,
      "▁tneer": 2640,
      "▁tneertoown": 2641,
      "▁teaewn": 2642,
      "▁taeetotoieeohaieeetc": 2643,
      "ief": 2644,
      "▁toeaieaietoto": 2645,
      "▁toeeaotdoeoteaieeaee": 2646,
      "iettc": 2647,
      "▁oetodetnotaieerto": 2648,
      "▁toeaieaietotoar": 2649,
      "▁eief": 2650,
      "▁eohaooooaieaeadthnaie": 2651,
      "ec0": 2652,
      "eaaietetn": 2653,
      "▁oeotaseaaietetn": 2654,
      "aieaeeaaeto": 2655,
      "▁eatoeatneerto": 2656,
      "▁toottiisoooo\n": 2657,
      "▁etneerto": 2658,
      "▁tktt": 2659,
      "aieetaieeeto": 2660,
      "teeeea": 2661,
      "▁oodtootlloetn": 2662,
      "▁eadaeae": 2663,
      "▁taieeesoooo": 2664,
      "▁aieaiea": 2665,
      "▁eaieeeattea": 2666,
      "▁aieaeadieemtn": 2667,
      "▁teoteotneaieaietoto": 2668,
      "▁oohthoaieetaieeeto": 2669,
      "eadsa": 2670,
      "▁oodaieeemtc": 2671,
      "ter": 2672,
      "▁teater": 2673,
      "teeaeadsa": 2674,
      "▁ttateeaeadsa": 2675,
      "▁ttaeaeaetn": 2676,
      "▁eadhtahn": 2677,
      "▁oeoteaseeexeceeeoetmtn": 2678,
      "▁teeteeeea": 2679,
      "▁seaie\n": 2680,
      "eaieeouoo": 2681,
      "▁erdtec0": 2682,
      "▁eatoieemoeltc": 2683,
      "▁aiaieaieeeto": 2684,
      "▁aiaieaieeetoe": 2685,
      "▁teatoottn": 2686,
      "fteoaiaa": 2687,
      "etttt": 2688,
      "▁eaatsee": 2689,
      "▁aotetm": 2690,
      "aieero": 2691,
      "▁sodsod": 2692,
      "▁taieerhtn": 2693,
      "▁otaiatotetnasa": 2694,
      "▁toeeaotdoeoteaieetc": 2695,
      "▁eaieeeathtn": 2696,
      "aar": 2697,
      "ohtho": 2698,
      "etsc": 2699,
      "easeeexeceee": 2700,
      "▁ohatot": 2701,
      "oteetnrodto": 2702,
      "▁eaeee": 2703,
      "▁gteeea": 2704,
      "▁toeeaotdeaaieeeeto\n": 2705,
      "ieeaatn": 2706,
      "▁eaatseeoteetnrodto": 2707,
      "oteieeaatn": 2708,
      "▁llooooeeaeaieeeto": 2709,
      "etc0": 2710,
      "▁eaeeader": 2711,
      "otaieeasa": 2712,
      "▁eaeeaderotaieeasa": 2713,
      "▁aieeasadoown": 2714,
      "▁oodstooeatn": 2715,
      "▁otetoaiaae": 2716,
      "▁teatolo": 2717,
      "▁erdaieaieaieeatn": 2718,
      "▁asoteafa": 2719,
      "▁eaieeaeoouoo": 2720,
      "▁taeatn": 2721,
      "astoaie": 2722,
      "eatoaieee": 2723,
      "▁easatoar": 2724,
      "▁eadaieeetstt\n": 2725,
      "toth": 2726,
      "▁ieteaaetotjhn": 2727,
      "▁llooootaieerhtn\n": 2728,
      "tothaieeeto": 2729,
      "▁eohaooootaoeeeae": 2730,
      "▁eatoeeetneea": 2731,
      "▁eaeaetnaotasee": 2732,
      "▁eaaaieeetnasa": 2733,
      "hotsaie": 2734,
      "▁thothotsaie": 2735,
      "fteoaiaaeaieeetc": 2736,
      "eaaieown": 2737,
      "▁oeotaseaaieown": 2738,
      "daieero": 2739,
      "▁ieeeadaieero": 2740,
      "▁eaaaiaaeohtho": 2741,
      "▁tseea\n": 2742,
      "▁oodoh": 2743,
      "▁eaaodthtn": 2744,
      "▁eaaeedhotatttn": 2745,
      "▁euto": 2746,
      "▁oteatothoela": 2747,
      "▁eatoeerto": 2748,
      "▁eatoeertoieerodtn": 2749,
      "▁oteatothoelapa": 2750,
      "▁oetoetttt": 2751,
      "aieeatottt": 2752,
      "▁teatotaieeatottt": 2753,
      "▁erdoeloaseetetn": 2754,
      "▁oelttoar": 2755,
      "▁etaieoet": 2756,
      "▁ieeaaseetoaietc": 2757,
      "taieeesoooo": 2758,
      "▁teoteota": 2759,
      "▁lloooothnaie": 2760,
      "▁aie0\n": 2761,
      "▁oetodt": 2762,
      "▁oeeeaieero": 2763,
      "▁tateaee\n": 2764,
      "▁eieeagte": 2765,
      "▁ooheaa": 2766,
      "▁erdeaaaieae": 2767,
      "▁paoeot": 2768,
      "▁tktot": 2769,
      "▁oetea": 2770,
      "▁oeteaaieeeatsee": 2771,
      "▁tkto": 2772,
      "▁toteatoaieae": 2773,
      "▁otetaieeeown\n": 2774,
      "▁oesttehaetn": 2775,
      "eaieeeattea": 2776,
      "▁teoteotaero": 2777,
      "▁aietwn": 2778,
      "▁tthoo": 2779,
      "▁tthoown": 2780,
      "▁oodtv": 2781,
      "▁eaaeeeatn": 2782,
      "hohoho": 2783,
      "ood": 2784,
      "roo": 2785,
      "rooo": 2786,
      "▁oodtveatn": 2787,
      "▁tatveasa": 2788,
      "▁aieebaehtectv\n": 2789,
      "eeeaieetno": 2790,
      "oeto": 2791,
      "▁taafa": 2792,
      "▁tseegggtaitoe": 2793,
      "▁gteeeatn0": 2794,
      "▁toothoasloho": 2795,
      "▁toothoaslohoc": 2796,
      "▁eetoeetn": 2797,
      "odtaoeeeae": 2798,
      "ooe": 2799,
      "▁hrdoeltto": 2800,
      "▁ottotsiec": 2801,
      "▁eae1\n": 2802,
      "▁easaoooo": 2803,
      "elrt": 2804,
      "▁ooheaaaieeetc": 2805,
      "iodiodtaoeeeae": 2806,
      "▁etnea": 2807,
      "▁aietc0": 2808,
      "▁erdeaseeao": 2809,
      "▁oodeaaeto": 2810,
      "eetaieeeto": 2811,
      "▁oodaeaeatt": 2812,
      "▁eetoeetnaiee": 2813,
      "aieaf": 2814,
      "eaieaeeeaeee": 2815,
      "▁eaeeelot": 2816,
      "▁lloooolherodtn": 2817,
      "▁emtctaiee": 2818,
      "▁oodooheattaieeeto": 2819,
      "taoeeeaeetaieeeto": 2820,
      "▁oiettaoeeeaeetaieeeto": 2821,
      "▁eatotaiee": 2822,
      "▁teeae1\n": 2823,
      "totn": 2824,
      "odto": 2825,
      "▁oeeeaieaieeeatn": 2826,
      "stetn": 2827,
      "▁eaaeee": 2828,
      "▁erdeuto": 2829,
      "▁eaexxeaeouoo": 2830,
      "aieaieae": 2831,
      "▁aieaouoo": 2832,
      "▁oeeeaieottoottn": 2833,
      "▁ooheaaaieeetco": 2834,
      "▁toteatoaieaesodsod": 2835,
      "▁aehtecetktttoar\n": 2836,
      "▁oelotc": 2837,
      "▁teaeaae": 2838,
      "▁teaeaaedpa": 2839,
      "teao": 2840,
      "▁eeaeeea": 2841,
      "▁oohtoelrt": 2842,
      "▁ooaoeaiaaeaodtotmtn": 2843,
      "eote": 2844,
      "▁ohatoteaieethn": 2845,
      "▁oodeaieeeattea": 2846,
      "▁todc": 2847,
      "▁todctoown": 2848,
      "▁lloooostaie": 2849,
      "▁eado": 2850,
      "▁teaeaieaeeeaeee": 2851,
      "▁odeaeeasoooo": 2852,
      "eaiaaeouoo": 2853,
      "▁ooheeaeaiaaeouoo": 2854,
      "▁oeeeaieeaaeeeatn": 2855,
      "▁oeeeaietteao": 2856,
      "aieeast": 2857,
      "eaieaeeaa": 2858,
      "eaieaeeaaetouto": 2859,
      "▁eaeaieaeeaaetouto": 2860,
      "▁ttaeer\n": 2861,
      "▁aietot": 2862,
      "▁aietoter": 2863,
      "▁ttsoeotjhnaiaae": 2864,
      "▁ttaeaeero": 2865,
      "▁oeeeaieeaetaiee": 2866,
      "▁taeeexaiee": 2867,
      "▁oodtee": 2868,
      "aotohaieaieae": 2869,
      "▁taeeexaieeetnoeeeaie": 2870,
      "▁toeeaotdaseaie": 2871,
      "▁eatoeaae": 2872,
      "▁eatoeaaeeaieaeto": 2873,
      "▁oodaii": 2874,
      "▁erdaiaaeeaeoteea": 2875,
      "etaieetclo": 2876,
      "▁etaoaie": 2877,
      "eottouto": 2878,
      "gtetaieetclo": 2879,
      "▁oodeteottouto": 2880,
      "▁ttatneerto": 2881,
      "▁oodteev": 2882,
      "▁aietaoeeeae": 2883,
      "▁aieaiedutoe\n": 2884,
      "▁teeaf": 2885,
      "▁tseetoto": 2886,
      "▁tseetotoaiesa": 2887,
      "▁teeafaietn": 2888,
      "▁oodtaieeoesttetn": 2889,
      "thoela": 2890,
      "▁aehtectv": 2891,
      "▁staie1": 2892,
      "▁oetodeaeae": 2893,
      "▁aieea3": 2894,
      "▁ettaieertoetaieeeto": 2895,
      "▁toeeaotdeutoeuto": 2896,
      "▁faetthooeroetno\n": 2897,
      "▁eaatnst": 2898,
      "▁erdtteaown": 2899,
      "▁eeetneeto": 2900,
      "oestte": 2901,
      "etnoh": 2902,
      "▁teatogtetaieetclo": 2903,
      "▁eeaeeeaetnoh": 2904,
      "odtofa": 2905,
      "erdttea": 2906,
      "▁ooderdttea": 2907,
      "ieeaetn": 2908,
      "▁thnoo": 2909,
      "▁oiettetn": 2910,
      "▁eaeo": 2911,
      "etmtouto": 2912,
      "▁eaeoetmtouto": 2913,
      "faar": 2914,
      "▁asotea": 2915,
      "▁asoteafaar": 2916,
      "▁taieetso\n": 2917,
      "▁pt": 2918,
      "▁llooooooheerto": 2919,
      "▁teatoteaieeeae\n": 2920,
      "▁aioteaedooooetno": 2921,
      "▁ottoteaee": 2922,
      "▁aieaaiee": 2923,
      "▁eadoeoteaie": 2924,
      "dtnttt": 2925,
      "▁erde": 2926,
      "▁eeetneea": 2927,
      "▁eaaeeeeeadetaiaaeeouoo": 2928,
      "▁tot": 2929,
      "▁ethot": 2930,
      "▁toter": 2931,
      "tev": 2932,
      "▁oodsac": 2933,
      "etktttoown": 2934,
      "▁eohaooooeteemtn": 2935,
      "▁tteaie": 2936,
      "▁oteatoown": 2937,
      "▁tvo": 2938,
      "▁oetmtnastoaie": 2939,
      "▁aieeetoo": 2940,
      "▁oeteatoeatnllo": 2941,
      "▁oeotasttmn": 2942,
      "eadtjhn": 2943,
      "▁oeaieohetktttn": 2944,
      "taeea": 2945,
      "▁oeotasttmntaeea": 2946,
      "▁erdtn": 2947,
      "eatev": 2948,
      "▁eaateaieeaee": 2949,
      "▁erdtteaaie": 2950,
      "▁tseetsiec": 2951,
      "ohhn": 2952,
      "▁taieeohhn": 2953,
      "▁oheaieeea\n": 2954,
      "▁oeeeaieer": 2955,
      "▁oeoteea": 2956,
      "sotea": 2957,
      "▁oodoestte": 2958,
      "▁eaieasotea": 2959,
      "oheelo": 2960,
      "▁eaieafhneae": 2961,
      "▁erdeieeaetn": 2962,
      "▁tcteetohohaetn": 2963,
      "▁etco": 2964,
      "▁etaieeeto": 2965,
      "eaieasotea": 2966,
      "▁ttsoeoteaewn": 2967,
      "▁tseetnaietc": 2968,
      "▁taieetclo": 2969,
      "▁eaieasoteaaieaeo": 2970,
      "lhetktttn": 2971,
      "aown": 2972,
      "▁teer\n": 2973,
      "eaaeaieea": 2974,
      "▁oeeeaielloooollooooouoo": 2975,
      "▁eaaieeeatev": 2976,
      "▁teoteoeaeero\n": 2977,
      "▁toeeaotdasoteafa": 2978,
      "odtnttt": 2979,
      "▁erdaieaieeeto": 2980,
      "▁oohaieee": 2981,
      "▁toteatoaiaaeeaeoteea\n": 2982,
      "▁erdtmeuo": 2983,
      "eertohn": 2984,
      "hohohoeatn": 2985,
      "fatt": 2986,
      "tateaieethn": 2987,
      "▁oodoesttehre": 2988,
      "▁thetsc": 2989,
      "▁eaetaoeeeae": 2990,
      "▁eaetaoeeeaeuto": 2991,
      "▁eaieieer\n": 2992,
      "▁iodiodaieaeeaaeto": 2993,
      "▁ooaeai": 2994,
      "▁oetodtjhn": 2995,
      "▁eaieeeaeaseeao": 2996,
      "▁teoteoeaieafteoaiaae": 2997,
      "▁otefa": 2998,
      "▁eeadteeatn": 2999,
      "▁paeaieasotea": 3000,
      "▁aieaeadthnaie\n": 3001,
      "▁eaieeeatteaaiee": 3002,
      "▁tost": 3003,
      "▁hohohoeatn": 3004,
      "teatottt": 3005,
      "▁tooteatottt": 3006,
      "ma": 3007,
      "▁toteatn": 3008,
      "faafa": 3009,
      "▁taieeown": 3010,
      "▁eaeoh": 3011,
      "▁hrdc": 3012,
      "toe": 3013,
      "oeaiaieeaieee": 3014,
      "▁eadoeaiaaeaodtotmtn": 3015,
      "▁tostetaieeeto": 3016,
      "▁oodeteaeeae": 3017,
      "dtnoho": 3018,
      "▁eadtv": 3019,
      "▁paooheetc\n": 3020,
      "▁eadtvoouoo": 3021,
      "▁eadoeaieaieeeaaetmtn": 3022,
      "▁tvetaieeesoooo": 3023,
      "▁taeaie": 3024,
      "▁oodoeteaaehn": 3025,
      "▁paeaetothn": 3026,
      "▁taaieeeeto": 3027,
      "eaieee1": 3028,
      "staie1": 3029,
      "▁oeaieohteec": 3030,
      "▁tseetsee": 3031,
      "▁aioteaeeooooeae": 3032,
      "▁taaieeeeto0": 3033,
      "▁oodeaaieeeatsee": 3034,
      "▁etaiet": 3035,
      "▁gtehnst": 3036,
      "▁paotetktttn\n": 3037,
      "▁v": 3038,
      "▁aehteceaieotdeuto\n": 3039,
      "▁oodeaseeao": 3040,
      "▁teaioteaeeoooo": 3041,
      "▁aiaaeaieeeto": 3042,
      "ohasee": 3043,
      "▁teaioteaeeoooost": 3044,
      "hneae": 3045,
      "tsa": 3046,
      "▁taero": 3047,
      "▁eeaeeeae": 3048,
      "▁eaaaieeetneae": 3049,
      "▁aieeoeoteaiee": 3050,
      "▁oeeeaieaieeetn": 3051,
      "meu": 3052,
      "eaieaeeaieaee": 3053,
      "tootieer": 3054,
      "eaiaiee": 3055,
      "aieaeoaieaeo": 3056,
      "▁aieeeertotllorto\n": 3057,
      "eoteeetn": 3058,
      "▁taeieeeadtjhn": 3059,
      "▁taeieeeadtjhn0": 3060,
      "▁oodaiiohasee": 3061,
      "▁eaaoodatot": 3062,
      "▁oodettaieerto\n": 3063,
      "▁eaeaieeeto": 3064,
      "ouoto": 3065,
      "▁erdstaie1": 3066,
      "▁oeaieohtv": 3067,
      "▁odtnoho": 3068,
      "▁eeaeaseetootieer": 3069,
      "▁oetiaaeemtc": 3070,
      "▁taaieeasado": 3071,
      "▁tneeaaie": 3072,
      "▁e\n": 3073,
      "▁aieaeadttatotoaetn": 3074,
      "▁aieaeoo": 3075,
      "aaoteoteeetn": 3076,
      "▁aiiohaseeaieaaeeaieote\n": 3077,
      "▁oetoteieeaatn": 3078,
      "▁ooaeaiooe": 3079,
      "▁tseegggaitoemoomoou": 3080,
      "▁oodtohn": 3081,
      "▁taei\n": 3082,
      "▁erdaieeetstt": 3083,
      "▁eaeheaeeaieero": 3084,
      "▁aseaa": 3085,
      "▁eatottea": 3086,
      "▁lloooooohtaetaiee": 3087,
      "aieaetn": 3088,
      "eftm": 3089,
      "eftmef": 3090,
      "▁toeeaotdaieetstt": 3091,
      "▁oodeftmef": 3092,
      "▁eeadtn": 3093,
      "▁oodeftmeftcaiee": 3094,
      "etneeb": 3095,
      "▁taieteetn": 3096,
      "▁gteo": 3097,
      "mon": 3098,
      "efac": 3099,
      "▁ietaieoeoteeaown": 3100,
      "▁aotohaieaieeeto": 3101,
      "eatoetaieeeto": 3102,
      "▁eatoto": 3103,
      "▁eaieafhnllorto": 3104,
      "eetnsc": 3105,
      "toto1": 3106,
      "▁astoto1": 3107,
      "▁taaieea": 3108,
      "▁patnoheelo": 3109,
      "▁ieeaaseeert": 3110,
      "▁etteatoteatnaiee": 3111,
      "▁llos": 3112,
      "▁eeaeeeaeouoto": 3113,
      "▁eaeeasooooai": 3114,
      "▁oodooheaieaeto\n": 3115,
      "▁tmsa": 3116,
      "▁aieeeatoetaieeeto": 3117,
      "eeelo": 3118,
      "▁oiettetnaie": 3119,
      "▁aioteetnsc": 3120,
      "▁aioteetnsce": 3121,
      "▁etaiea": 3122,
      "▁paaieee": 3123,
      "eaaeaieeatsee": 3124,
      "▁etneaeeelo": 3125,
      "▁tmsaown": 3126,
      "▁eadtaieetclo": 3127,
      "▁eaieatothaieeeto": 3128,
      "▁etaieeatoeatn": 3129,
      "▁etaieeatoeatnhaetn": 3130,
      "eaeheaeeaieero": 3131,
      "▁afaetoeaier": 3132,
      "▁gteaieee1": 3133,
      "▁taiaeaieela": 3134,
      "▁tseetttmtn": 3135,
      "▁tooieemooohaieie\n": 3136,
      "▁taoeeeaeeatn\n": 3137,
      "teethn": 3138,
      "▁eatoaotohaieaieae": 3139,
      "▁eaeeasooooaietn1": 3140,
      "▁erdtteao": 3141,
      "eaaieeee": 3142,
      "▁oodaieeetstt": 3143,
      "▁aieaeoaieaeoaieaeo": 3144,
      "▁llooootneaiaoteaiee": 3145,
      "▁eatotodcto": 3146,
      "ooheerto": 3147,
      "▁hoaieeast": 3148,
      "▁gteieeohasa": 3149,
      "▁eaeaiaaeaieeeto": 3150,
      "▁etaieoeteaaeaieaeto": 3151,
      "▁tmostaieeeto": 3152,
      "ellor": 3153,
      "▁oodoieemtn": 3154,
      "▁ttaafaellor": 3155,
      "▁ttaafaellortotetn": 3156,
      "loeadar": 3157,
      "▁taeloeadar": 3158,
      "aieaeouoo": 3159,
      "▁llost": 3160,
      "tooteatn": 3161,
      "▁haetn": 3162,
      "▁oelo": 3163,
      "eaaeeatn": 3164,
      "▁oeloeaaeeatn": 3165,
      "▁eaieeea\n": 3166,
      "taoeeeaetaieeesoooo": 3167,
      "etotoea": 3168,
      "▁eadoetv": 3169,
      "aieaieetheaaeedtetn": 3170,
      "thtaeiee": 3171,
      "▁aieaeadetneeb": 3172,
      "▁oeaiehrdpa": 3173,
      "▁ethoeaaieeee": 3174,
      "▁ieeaaseethnaie": 3175,
      "▁teaieeeadst\n": 3176,
      "▁taeuto": 3177,
      "▁oeote\n": 3178,
      "▁lloooolhetktttn": 3179,
      "▁ieeeaeaieaee\n": 3180,
      "▁taoeeeaehn": 3181,
      "▁ooahneae": 3182,
      "▁aiea\n": 3183,
      "▁oodaseaie": 3184,
      "eaaaieeeto": 3185,
      "▁taieeaeooooaiaae": 3186,
      "▁paoeoteaieeea": 3187,
      "msa": 3188,
      "▁tateea1\n": 3189,
      "ello": 3190,
      "▁ethoeutoeuto": 3191,
      "hoaseea": 3192,
      "▁llooooasoteafa": 3193,
      "ettateaieethn": 3194,
      "▁eaiaaettateaieethn": 3195,
      "iebod": 3196,
      "▁afaooheerto": 3197,
      "▁taieieeasa\n": 3198,
      "▁aiaieeown": 3199,
      "▁oeaiehre": 3200,
      "▁aieeeatn0": 3201,
      "▁tktoteaitfee": 3202,
      "▁gggottn": 3203,
      "▁teoteoieeeea": 3204,
      "taeieeahn": 3205,
      "ohoo": 3206,
      "aafaee": 3207,
      "teatoe": 3208,
      "▁toothoaslohoo": 3209,
      "▁toothoaslohooeoteea": 3210,
      "▁eaatooteatn": 3211,
      "▁eaaaiteatoe": 3212,
      "▁teevoteeea": 3213,
      "▁aietaie": 3214,
      "▁lloooooelotc\n": 3215,
      "▁eadsac\n": 3216,
      "sto": 3217,
      "▁afaaieaieetheaaeedtetn": 3218,
      "▁afaaieaieetheaaeedtetn0": 3219,
      "▁aieetm": 3220,
      "▁oteaitfeeero": 3221,
      "aieeeatn": 3222,
      "▁eohaooootnoho": 3223,
      "▁oodoshtn": 3224,
      "▁taoietaseaa": 3225,
      "▁eeetnteato": 3226,
      "▁eaeeasooooeaieaieaief": 3227,
      "▁eaathoohneerto": 3228,
      "tsteeafa": 3229,
      "▁ooaetottn": 3230,
      "teaeaitooooo": 3231,
      "▁eaieafteaeaitooooo": 3232,
      "▁eaieafteaeaitoooooeaiaae": 3233,
      "▁toeeaotdeaaeaiee": 3234,
      "▁eaatseaseeao": 3235,
      "▁eaeeelottt": 3236,
      "▁erdeteemtn": 3237,
      "▁aehtecaafaee": 3238,
      "hneeea": 3239,
      "▁eatoe": 3240,
      "▁etsc": 3241,
      "▁oohtaetaiee": 3242,
      "▁aieeeae0": 3243,
      "aieeeae1": 3244,
      "▁otoaoa\n": 3245,
      "▁faafa\n": 3246,
      "▁aieaieaouoo": 3247,
      "▁oteatotn": 3248,
      "▁oteatotnst": 3249,
      "▁haetnaieaeo": 3250,
      "totoeaiaiee": 3251,
      "▁oetodteetn": 3252,
      "eatotoeaiaiee": 3253,
      "▁aeeea": 3254,
      "▁eatotm": 3255,
      "▁llooootmeu": 3256,
      "▁eaaoef": 3257,
      "▁eatoeieeagte": 3258,
      "▁eatoeaier": 3259,
      "▁eaieafteoaiaaeaieeetc": 3260,
      "▁eatotetn1": 3261,
      "▁patsteeafa": 3262,
      "▁aieaieaieae": 3263,
      "▁eaieeeaaieeaaeee\n": 3264,
      "▁etnotaiee": 3265,
      "▁aieaieaieaeeaieetno": 3266,
      "▁aioteaedooooaeaie\n": 3267,
      "▁ttahtahn": 3268,
      "etaieetea": 3269,
      "rtoown": 3270,
      "▁etnotaieertoown": 3271,
      "▁eaaoest": 3272,
      "▁aiema": 3273,
      "▁oietaseaa": 3274,
      "▁thoohneerto": 3275,
      "▁aieetmsa": 3276,
      "eaaieeeeto": 3277,
      "▁llooooeaetaiee": 3278,
      "▁oodot": 3279,
      "▁thtseeaaiaaetsaieaeo": 3280,
      "▁oeoteaiepa\n": 3281,
      "▁eaeaieoheloeae\n": 3282,
      "▁aieeeea": 3283,
      "tooteethn": 3284,
      "▁hrdtllor": 3285,
      "▁hrdtllortoown": 3286,
      "▁aotetmoheaieeea": 3287,
      "▁taoteea": 3288,
      "etoe": 3289,
      "▁eetn0\n": 3290,
      "▁eaaeaieeeaown": 3291,
      "▁oodaieeeae1": 3292,
      "▁aieaeaiea": 3293,
      "etaiaaeee": 3294,
      "ooteeafa": 3295,
      "▁etottn": 3296,
      "▁erdtcteetohohaetn": 3297,
      "eaetmteaetcaieeeto": 3298,
      "▁oeotasttmntaeear": 3299,
      "▁erdc": 3300,
      "eetauto": 3301,
      "ieeaaseeeaioteato": 3302,
      "▁ottoth": 3303,
      "▁eatoeetauto": 3304,
      "▁teatotn": 3305,
      "▁eaieafhnaieeeto": 3306,
      "eadeaieaeeaieaee": 3307,
      "▁iebeadeaieaeeaieaee": 3308,
      "▁llooooefac": 3309,
      "eaeeadeaeetc": 3310,
      "▁hrodtofa": 3311,
      "▁eatoeato": 3312,
      "▁eaeaieotdeahn": 3313,
      "▁gteiettc": 3314,
      "tooteaeieeouoo": 3315,
      "oohgte": 3316,
      "▁st0": 3317,
      "oieemto": 3318,
      "▁tahre": 3319,
      "▁eeadoeto": 3320,
      "▁tnoieetaie": 3321,
      "▁etaieeaieetn": 3322,
      "▁taeaaie": 3323,
      "moeltc": 3324,
      "▁ooaoeot": 3325,
      "▁oeeeaietnttt": 3326,
      "▁tktoeeeaieetno": 3327,
      "thosc": 3328,
      "▁erdtaeieeahn": 3329,
      "▁aaoteoteeeatn\n": 3330,
      "▁erdeaatneaie": 3331,
      "▁tefsoeotetnllorto": 3332,
      "▁iaeaieel": 3333,
      "▁teatoaieee": 3334,
      "aieteer": 3335,
      "▁aotohaieteer": 3336,
      "▁taieeoestt": 3337,
      "▁taieeoesttetoown": 3338,
      "▁llooooeutoeuto": 3339,
      "▁teadtetn": 3340,
      "▁erdeief": 3341,
      "▁eatoeatohaetn": 3342,
      "taoeeeaef": 3343,
      "▁gteaiexetn": 3344,
      "▁eood": 3345,
      "▁eoodtaoeeeaef": 3346,
      "▁ietaodtoaiaaetsaieaeo\n": 3347,
      "▁tatotnaie": 3348,
      "▁eatoeaaeeeto": 3349,
      "▁ottohottneaieote": 3350,
      "▁staieaieeeto": 3351,
      "▁aet": 3352,
      "▁aethoh": 3353,
      "▁eadeaseeao": 3354,
      "▁oeeeaieeaeaiaaeaieeeto\n": 3355,
      "▁oeotohoest": 3356,
      "▁ohaoeae\n": 3357,
      "▁ethoteeatn": 3358,
      "▁teatotooteaeieeouoo": 3359,
      "iodiodtnttt": 3360,
      "▁eaaef\n": 3361,
      "▁aeaetotoetotofatnoho": 3362,
      "▁oodoetathon": 3363,
      "▁taeae0": 3364,
      "▁teatotnaietc": 3365,
      "se": 3366,
      "aietse": 3367,
      "▁oefaietse": 3368,
      "eaieeetotvo": 3369,
      "▁oefaietseeaieeetotvo": 3370,
      "▁totoeae": 3371,
      "eaiaaeaieeea": 3372,
      "etaieeethn": 3373,
      "▁oodohtv": 3374,
      "▁ottoot": 3375,
      "ieown": 3376,
      "eaieieown": 3377,
      "▁taeitthn\n": 3378,
      "otnoieemto": 3379,
      "▁aethohotnoieemto": 3380,
      "▁taeaeero": 3381,
      "▁eeeaee": 3382,
      "▁aieaeadtodcto": 3383,
      "▁pathtaeiee": 3384,
      "▁ooaoeoteaieeouoo": 3385,
      "hotceta": 3386,
      "▁toeeaotdthneeea": 3387,
      "htne": 3388,
      "▁eatne\n": 3389,
      "toohoetaieeeto": 3390,
      "▁afatoohoetaieeeto": 3391,
      "▁eatooeeae": 3392,
      "▁oodaiea": 3393,
      "▁eatooetotn\n": 3394,
      "▁teatoooea\n": 3395,
      "▁aeadtcllorto": 3396,
      "▁faeteatotoeaiaiee": 3397,
      "▁ethoaroetmtn": 3398,
      "▁hohrtthnst\n": 3399,
      "▁patooteaeieeouoo": 3400,
      "▁eatoeeaaeasaee\n": 3401,
      "▁oohtec": 3402,
      "▁ieemoeltc": 3403,
      "▁eaethre": 3404,
      "▁eaaieaf": 3405,
      "▁aieaeadtsiec": 3406,
      "aieeaeeasoooo": 3407,
      "▁staieeaeeasoooo": 3408,
      "▁oetetaieeethn": 3409,
      "▁eeadtnttt": 3410,
      "▁eaaeeetottea\n": 3411,
      "▁oetoettttetaieeeto": 3412,
      "▁talotothn": 3413,
      "▁eteemtn": 3414,
      "▁aieaeot": 3415,
      "▁aieatoe": 3416,
      "ooteeea": 3417,
      "ieeeeawn": 3418,
      "▁ohaooteeea": 3419,
      "▁eaatsteeafa": 3420,
      "eaieela": 3421,
      "▁oodloaie\n": 3422,
      "▁loaseetctcoooo": 3423,
      "odiebod": 3424,
      "▁otello": 3425,
      "▁otelloll": 3426,
      "▁iebodiebod": 3427,
      "▁ottoottn0": 3428,
      "▁aieeetoot": 3429,
      "▁hoaseeaown\n": 3430,
      "▁ieteerto": 3431,
      "▁tseeeaa": 3432,
      "aieeetogte": 3433,
      "eaeeeaeeeduto": 3434,
      "eoteaseeexeceee": 3435,
      "▁h": 3436,
      "▁iaeaieelaown": 3437,
      "▁ieeaeooooaiaae": 3438,
      "eaaaieeasado": 3439,
      "▁eaaeeeatoeaaeaiee": 3440,
      "▁taaieaetn": 3441,
      "taa": 3442,
      "▁eaaaieeasa": 3443,
      "▁eaaaieeasadoown": 3444,
      "▁erdtodcto": 3445,
      "aeieeahn": 3446,
      "▁hreaiaae": 3447,
      "▁otellolloouoo": 3448,
      "eaieotdpa": 3449,
      "ohtc": 3450,
      "▁lotc": 3451,
      "▁eeadeatoeatn": 3452,
      "▁oteatooet": 3453,
      "▁eaaethotceta": 3454,
      "▁llooooeaeeadeaeetc": 3455,
      "▁eaaeeetotsee\n": 3456,
      "▁oodeaelo\n": 3457,
      "▁hot": 3458,
      "▁hotto": 3459,
      "▁tatc\n": 3460,
      "▁hottoeaieotdpa": 3461,
      "▁eaaoodthnaie\n": 3462,
      "▁eaatnerto": 3463,
      "▁aieeaieeaiee": 3464,
      "▁oeaiehrdt": 3465,
      "▁aieeaieeaiee0": 3466,
      "▁oodeea": 3467,
      "teaseear": 3468,
      "▁teoteooteaseear": 3469,
      "▁ottoeaeeadeaeetc": 3470,
      "aieeataeeifaea": 3471,
      "▁oello": 3472,
      "▁toteatnaieae": 3473,
      "▁toeeaotdieeeeawn": 3474,
      "▁tootktteaaaieae": 3475,
      "▁thiaec\n": 3476,
      "▁lloooottatotoaetn": 3477,
      "▁paetototn": 3478,
      "▁erdeaa": 3479,
      "▁paetototn1": 3480,
      "ooetnooooo": 3481,
      "etlo": 3482,
      "efe": 3483,
      "▁ottothooetnooooo": 3484,
      "▁tateae\n": 3485,
      "▁ouoo\n": 3486,
      "▁oteatooetieeaaie": 3487,
      "eaieaedtc": 3488,
      "▁eteaaaieeasado": 3489,
      "eaieaedtcoooo": 3490,
      "▁eaiaaeaieeeto": 3491,
      "▁ttsoeotaeieeahn": 3492,
      "▁oodottoottn": 3493,
      "▁teaetmteaetcaieeeto": 3494,
      "iecoooo": 3495,
      "▁eaaaieetstof": 3496,
      "▁eaeeelotttethno": 3497,
      "▁eaaieafiecoooo": 3498,
      "tsaie": 3499,
      "▁eadoeaiaieeaieee": 3500,
      "aaaeoooo": 3501,
      "▁eaaieafiecoooo1": 3502,
      "▁teoteotneaie": 3503,
      "aieaeeto": 3504,
      "thaieaeeto": 3505,
      "thaieaeetoeer": 3506,
      "tsuto": 3507,
      "eaaoteaiee": 3508,
      "▁oeeeaieetsuto": 3509,
      "▁ietaieoeoteeaeae": 3510,
      "▁eaafaetthooero": 3511,
      "▁etaietaieetea": 3512,
      "▁erdtea": 3513,
      "▁odtaoeeeae": 3514,
      "▁ttathaieaeetoeer": 3515,
      "oello": 3516,
      "aehtecaieaeaiaae": 3517,
      "▁teoteoeaeheaeeaieero": 3518,
      "▁eatotmtsa": 3519,
      "▁eeaduo\n": 3520,
      "▁oeeeaieaiea": 3521,
      "▁eaaieeataeeifaea": 3522,
      "▁asaeaieaieae": 3523,
      "▁eaaeaieaedtcoooo": 3524,
      "▁tsea": 3525,
      "▁aieeaee1\n": 3526,
      "aieieeasa": 3527,
      "eeeaieea": 3528,
      "eeeaieeaetaiee": 3529,
      "oeaierto": 3530,
      "eaettcaiee": 3531,
      "▁erdiet": 3532,
      "▁tktgggaitoemoomoou": 3533,
      "tac": 3534,
      "▁taoeeeaieeaetaiee": 3535,
      "▁thaieaeooooeaettcaiee": 3536,
      "▁oeotdeeaeasee": 3537,
      "▁eaaaieae1": 3538,
      "▁eatottt": 3539,
      "ttsee": 3540,
      "▁otefattsee": 3541,
      "iasaie": 3542,
      "▁eaaeaieeeadst": 3543,
      "▁aieeemtc": 3544,
      "eaiear": 3545,
      "▁erdtcaiee\n": 3546,
      "▁eaieeeaaieae": 3547,
      "▁tvo1": 3548,
      "▁erdteataeiee": 3549,
      "etotaoeeeae": 3550,
      "▁erdteataeiee0": 3551,
      "▁oteetnteer": 3552,
      "▁afaetototn": 3553,
      "▁patthn": 3554,
      "▁aieeeeastetn": 3555,
      "tofa": 3556,
      "▁oodtoteatnaieae": 3557,
      "▁eaeaieotdttt": 3558,
      "▁oteeaeterduto\n": 3559,
      "▁eggg": 3560,
      "▁tsaie": 3561,
      "loaseetctc": 3562,
      "ieemoomoou": 3563,
      "▁egggead": 3564,
      "▁aead": 3565,
      "ttthn": 3566,
      "▁oteettthn": 3567,
      "▁etaieehre": 3568,
      "▁erdoeoteaieeaee": 3569,
      "▁tnst\n": 3570,
      "▁oeeeaieoteaaoteaiee": 3571,
      "▁ietoteeta": 3572,
      "▁aeadtceatn": 3573,
      "▁gtet": 3574,
      "deer": 3575,
      "▁ttatoeeaot": 3576,
      "▁ttatoeeaotdeer": 3577,
      "▁tstofa": 3578,
      "eertotetn": 3579,
      "▁aieiaec": 3580,
      "▁aehtecaieaeouoo": 3581,
      "▁aieeeaeero\n": 3582,
      "otoea": 3583,
      "emvo": 3584,
      "▁eadoetieeaaie": 3585,
      "aead": 3586,
      "▁erdeaaeaiee": 3587,
      "▁eeeaeeeaieeouoo": 3588,
      "▁toeertotetn": 3589,
      "▁oeeeaieoteeea": 3590,
      "▁oohaieae": 3591,
      "▁etsuto\n": 3592,
      "▁eaitf": 3593,
      "▁oeeeaieiec\n": 3594,
      "▁taoeoteaie": 3595,
      "▁eatoeaeeae": 3596,
      "▁ato": 3597,
      "▁aieeeeae": 3598,
      "▁aieeetootaiaoteaiee": 3599,
      "▁eaaohn": 3600,
      "hrdc": 3601,
      "faaslo": 3602,
      "▁tooieemothtn": 3603,
      "▁oeeeaieeaieaie\n": 3604,
      "▁gteooh": 3605,
      "thaietco": 3606,
      "aefwn": 3607,
      "aotaieeeto": 3608,
      "▁eaeadtetn\n": 3609,
      "▁atoetn": 3610,
      "▁oodeeaaeasaee": 3611,
      "▁oodteaeaie": 3612,
      "▁aieaeaietatoe\n": 3613,
      "▁aeaitooooo": 3614,
      "▁oohetlo": 3615,
      "▁teatoaieeeae\n": 3616,
      "▁taetno": 3617,
      "▁ttmon": 3618,
      "▁taeieemoomoou": 3619,
      "▁aieaellorto": 3620,
      "▁tooieemo": 3621,
      "▁eaatsaietetneaeeasoooo": 3622,
      "▁tseaeaietaoeeeae": 3623,
      "▁eaaaieeetnrooo": 3624,
      "aieetstof": 3625,
      "▁taaeaieeeto": 3626,
      "▁teoteotetn": 3627,
      "▁erdeaaeaseetetn": 3628,
      "▁oestteteetn\n": 3629,
      "▁oeeeaieas": 3630,
      "▁oeeeaieasto": 3631,
      "oteatnthoela": 3632,
      "eeeaown": 3633,
      "▁aieeeaeeadeaeetc": 3634,
      "aieaellorto": 3635,
      "oeloaseetetn": 3636,
      "▁aieaeaieieown": 3637,
      "▁toeeaotdlherodtn\n": 3638,
      "▁thettooeeeaie": 3639,
      "ethotc": 3640,
      "▁eaeaetneaaeed": 3641,
      "▁eaeaetneaaeedho": 3642,
      "▁ooaaieeaiaaehn": 3643,
      "ostaieae": 3644,
      "▁tatmsa": 3645,
      "▁fiaeaieeeto": 3646,
      "▁oietaseaaown": 3647,
      "▁lloooooetn": 3648,
      "▁aieeeteemtn": 3649,
      "▁eohaooooeaaeaieeatsee": 3650,
      "▁oeaiehrdtvooooo": 3651,
      "▁aieaeadoet": 3652,
      "eaieee0": 3653,
      "▁eatollolloetouto\n": 3654,
      "eotellollo": 3655,
      "▁etaieotellollo": 3656,
      "▁eaeaetnao": 3657,
      "▁erdafa": 3658,
      "▁aieeaieagtetetn\n": 3659,
      "on": 3660,
      "ttmon": 3661,
      "▁afat": 3662,
      "fatts": 3663,
      "fattsfa": 3664,
      "▁odeaetothn": 3665,
      "hrdst": 3666,
      "▁aieooh": 3667,
      "▁toothrdc": 3668,
      "▁vea": 3669,
      "▁taeaaeaiee": 3670,
      "aieasee": 3671,
      "▁efac": 3672,
      "▁teatoatot": 3673,
      "▁eatoot": 3674,
      "eaiehre": 3675,
      "▁toeeaotdaotaieeeto": 3676,
      "etnaieec": 3677,
      "▁eaaetuto": 3678,
      "▁erdetaie": 3679,
      "▁aeaieeea": 3680,
      "▁eaaeaaie": 3681,
      "▁paotetktttoown": 3682,
      "staie0": 3683,
      "htnaiaae": 3684,
      "▁oodthtnaiaae": 3685,
      "▁eadtaa": 3686,
      "eeexaieeeto": 3687,
      "taeeexaieeeto": 3688,
      "tieemosa": 3689,
      "▁tmtieemosa": 3690,
      "▁erdteaaie\n": 3691,
      "▁taeuo\n": 3692,
      "eaaeoooo": 3693,
      "▁taitoteatoeeb": 3694,
      "▁oeeeaietaefwn": 3695,
      "▁aieaeoaieaellorto": 3696,
      "▁llooootooteethn": 3697,
      "▁erdaeaieeea": 3698,
      "eohaoooo": 3699,
      "▁eadoest": 3700,
      "▁afataeeexaieeeto": 3701,
      "▁aieeeetn": 3702,
      "▁taieetea": 3703,
      "▁eatooetv": 3704,
      "▁oeteaaehn\n": 3705,
      "▁ieeaaseeaiee\n": 3706,
      "eeaaaaeoooo": 3707,
      "eaetc": 3708,
      "▁ieeataeeifaea": 3709,
      "▁etaieetaieeeto": 3710,
      "eaito": 3711,
      "▁aieaeooohtc": 3712,
      "oeotohoest": 3713,
      "▁eaieeeaeaieaieae": 3714,
      "▁aieaeadoetrto": 3715,
      "▁eao\n": 3716,
      "▁tkttaieieeasa": 3717,
      "eeaeaduo": 3718,
      "▁taeitaieetea\n": 3719,
      "iebtn": 3720,
      "▁erdteeaaaaeoooo": 3721,
      "▁aieaeadttatotoaetn\n": 3722,
      "st1": 3723,
      "tototnaie": 3724,
      "▁ohatototnaie": 3725,
      "etasaa": 3726,
      "▁aotetmiodiodtaoeeeae": 3727,
      "▁erdea": 3728,
      "▁otiisoooo\n": 3729,
      "▁gteeaeeasoooo": 3730,
      "▁oodtoothre": 3731,
      "▁llooooetaiaaeee": 3732,
      "▁aieaieeadoeroe\n": 3733,
      "eeadao": 3734,
      "eaeeiehn": 3735,
      "etao": 3736,
      "▁aieet": 3737,
      "eaiaaeeae": 3738,
      "sttetn": 3739,
      "▁ooateeae\n": 3740,
      "toeea": 3741,
      "▁ohtoeea": 3742,
      "▁oteatoetooetaieeeto\n": 3743,
      "▁eaaoodtoteatnaieae": 3744,
      "▁llooooth": 3745,
      "▁afaetaie": 3746,
      "▁veaown": 3747,
      "▁aieeaieee0": 3748,
      "ieaeeiehn": 3749,
      "▁aieaeoeaaefeatn": 3750,
      "etoasatotototo": 3751,
      "▁erdeaeeadao": 3752,
      "▁oetodhoaseea": 3753,
      "eoee": 3754,
      "▁eeeastetn": 3755,
      "▁toeeaotdeaieafteoaiaae": 3756,
      "▁oeeeaieoteeaeterduto\n": 3757,
      "▁eatoero\n": 3758,
      "▁tooieemotthn": 3759,
      "▁aiaaeoee": 3760,
      "▁eaaoet": 3761,
      "▁aiaaeoeeeaiear": 3762,
      "eaaeeetof": 3763,
      "▁ietsaie\n": 3764,
      "▁eatototot": 3765,
      "▁tseeiodiodtnttt": 3766,
      "▁oodohtc": 3767,
      "▁aieetsee\n": 3768,
      "▁ttaoeloaseetetn": 3769,
      "▁ohaolherodtn": 3770,
      "fatc": 3771,
      "▁st1\n": 3772,
      "▁gtetetn": 3773,
      "▁stoouoo": 3774,
      "▁gteiec": 3775,
      "aieeeea": 3776,
      "▁etkttto": 3777,
      "▁eelot": 3778,
      "▁eelotaieetclo": 3779,
      "▁ottoeaiaaeeae": 3780,
      "▁ieteertoero": 3781,
      "eaieeeaeaieeea": 3782,
      "▁eaieeeaeaieeeaeaieeea": 3783,
      "▁eatootiebat": 3784,
      "▁aieaeadeeaeaieeeto": 3785,
      "▁tootllo": 3786,
      "▁oeoteaieeeattt": 3787,
      "▁otetktttoown": 3788,
      "▁oettataoeeeaetaieeesoooo": 3789,
      "▁etktttoeaetaiee": 3790,
      "▁eaieeeafatjhnllorto": 3791,
      "▁eaaooh": 3792,
      "oeoteaseeexeceee": 3793,
      "▁eetc0\n": 3794,
      "haieaeoooo": 3795,
      "aieemtc": 3796,
      "aieemtcthaietco": 3797,
      "▁aeaieeeto": 3798,
      "▁hohrteatn": 3799,
      "▁odeaeeasooooouoo": 3800,
      "▁eadthtn": 3801,
      "▁afataoeeeae": 3802,
      "▁toeeaaie": 3803,
      "▁eeadth": 3804,
      "▁tnta\n": 3805,
      "aeadoelotac": 3806,
      "▁eaieote": 3807,
      "▁oeeeaieo": 3808,
      "▁aotohaieaioteaeeoooo\n": 3809,
      "▁otefattseeeae": 3810,
      "▁tkteeae": 3811,
      "dtot": 3812,
      "dtoteea": 3813,
      "▁eteaaaieeasadost": 3814,
      "▁aieeteeae0\n": 3815,
      "▁aieee1": 3816,
      "▁eeae\n": 3817,
      "▁aieefa": 3818,
      "▁aieefametaieeeto": 3819,
      "▁ohatoaieae": 3820,
      "▁eaieaie": 3821,
      "▁ooheeea": 3822,
      "eaieaeo": 3823,
      "emetaieeeto": 3824,
      "aietmtn": 3825,
      "▁oodteaetc": 3826,
      "▁ttaeaeae": 3827,
      "▁ohaoaietc": 3828,
      "▁taemetaieeeto": 3829,
      "▁oteatooeote": 3830,
      "▁eadtthn": 3831,
      "▁gteeaaieaf": 3832,
      "▁oeeeaieaieaeasee": 3833,
      "otefatt": 3834,
      "▁eetauto": 3835,
      "▁oodiettc": 3836,
      "▁tootlloetotaoeeeae": 3837,
      "▁eadetaieeeto\n": 3838,
      "▁toeeaaiehohr": 3839,
      "▁lloooothaieemtcthaietco": 3840,
      "faetottn": 3841,
      "▁aieaeaieaeaiea": 3842,
      "▁aieaieetnoaieaie\n": 3843,
      "▁oeaieoher": 3844,
      "▁eaatsaietetnteer": 3845,
      "▁eatoc": 3846,
      "▁taetototn": 3847,
      "▁etaietsiec": 3848,
      "▁ietaodtoteea": 3849,
      "▁aieaeaieaeaieaeeae": 3850,
      "aieeetoaieeetogte": 3851,
      "▁ttiettea\n": 3852,
      "lololotnttt": 3853,
      "▁aeertohn": 3854,
      "▁eaohhrdst": 3855,
      "▁toeeaotdteaieeeae": 3856,
      "▁oteatn\n": 3857,
      "▁llooooiaeaieela": 3858,
      "▁aieaeadiodiodtaoeeeae": 3859,
      "▁eadeb": 3860,
      "▁faeteatn": 3861,
      "tstoft": 3862,
      "totjhn": 3863,
      "tstofthtn": 3864,
      "▁tsaieae": 3865,
      "▁tteathtn": 3866,
      "▁oteetnst0": 3867,
      "▁toeeaotdtnoho": 3868,
      "▁eaaieaiee": 3869,
      "▁eaaieaieemtn": 3870,
      "▁aieaeoea": 3871,
      "▁oodeutoeuto": 3872,
      "ieceaaeto": 3873,
      "eadtaieeesoooo": 3874,
      "▁oeeeaietsaiee": 3875,
      "totoetasa": 3876,
      "▁eaeaietmtn": 3877,
      "stllorto": 3878,
      "▁eatotototho": 3879,
      "▁aieoohthnaie": 3880,
      "▁oodoeto": 3881,
      "▁aieeeatot": 3882,
      "hrhtne": 3883,
      "▁tneaseear": 3884,
      "eaieafteoaiaaeaieeetc": 3885,
      "▁oeeeaieteaetmteaetcaieeeto": 3886,
      "▁ststst": 3887,
      "▁oodtn": 3888,
      "iecieceaaeto": 3889,
      "▁eatoooh": 3890,
      "▁erdtnst": 3891,
      "▁oodeeea": 3892,
      "▁oodeadtaieeesoooo": 3893,
      "▁oodeeeastllorto": 3894,
      "▁oohetoeaier": 3895,
      "▁oeoteaiee\n": 3896,
      "tteaaieee": 3897,
      "▁ttatteaaieee": 3898,
      "▁lloooooeoteaieeuto\n": 3899,
      "▁tvo0": 3900,
      "▁oeteaaeoooo": 3901,
      "▁teatoo": 3902,
      "▁etaietc": 3903,
      "▁etaietcteetohohaetn": 3904,
      "▁oohaieie\n": 3905,
      "▁iebetoasatotototo": 3906,
      "▁oeteaaeasa\n": 3907,
      "▁teoteoeatoaieee": 3908,
      "▁erdiecieceaaeto": 3909,
      "▁aieeeetnotaieerto": 3910,
      "▁totoaiet": 3911,
      "▁totoaiethtn": 3912,
      "▁erdetaieeohouoothn": 3913,
      "▁oodaietc\n": 3914,
      "▁etaieeaa": 3915,
      "kto": 3916,
      "▁afatkto": 3917,
      "▁afatktoeeeaieetno": 3918,
      "▁eaaoeftac": 3919,
      "▁oodoiet": 3920,
      "▁stststasee": 3921,
      "▁stststasee0": 3922,
      "▁oodoetoaietmtn": 3923,
      "▁etteatoteatnaeae\n": 3924,
      "▁erdthooteeafa": 3925,
      "▁etaieafaetottn": 3926,
      "vtaieaeo": 3927,
      "▁tvtaieaeoloaie": 3928,
      "▁tseeteaieethn": 3929,
      "doetotoea": 3930,
      "▁etaieot": 3931,
      "▁taoeeeaeoooo": 3932,
      "ecefe": 3933,
      "▁oetn\n": 3934,
      "bat": 3935,
      "▁eeadhtahn": 3936,
      "▁eetaareae\n": 3937,
      "▁ietethotc": 3938,
      "▁iodiodoetotoea": 3939,
      "▁gteteeae\n": 3940,
      "aaeem": 3941,
      "▁eatoaieeetoaieeetogte": 3942,
      "▁tohn": 3943,
      "▁etn0": 3944,
      "▁gtetbat": 3945,
      "htectv": 3946,
      "ytjhn": 3947,
      "eaieeteeae": 3948,
      "ooteea": 3949,
      "▁tnlosodsod": 3950,
      "mpa": 3951,
      "▁aieeeertotllor": 3952,
      "▁aieeeertotllortoouoo": 3953,
      "▁ooaetasa": 3954,
      "▁eatoeahn": 3955,
      "▁oeeeaietnaietc\n": 3956,
      "▁efampa": 3957,
      "▁etoasatotototo\n": 3958,
      "▁oodthaieaeoooo": 3959,
      "▁eaeohet": 3960,
      "▁tseeoteetneaeeasoooo": 3961,
      "▁taeaietn\n": 3962,
      "▁eeadtaiee": 3963,
      "▁aieeeaetnetaieeeto\n": 3964,
      "▁llooootnst": 3965,
      "▁eatoeaieaieaief": 3966,
      "▁oodaieaaeeteemtn": 3967,
      "▁tteaaieee": 3968,
      "▁ttateeaeadsaeerto": 3969,
      "▁erdaieasee": 3970,
      "▁tseeiaec": 3971,
      "▁tllorto\n": 3972,
      "▁ooheeeaaiear": 3973,
      "ohaooooetasaa": 3974,
      "▁gte\n": 3975,
      "otoeaeeeaeeeduto": 3976,
      "▁aieeaeaaaieeeto": 3977,
      "hohrt": 3978,
      "▁eaeohetytjhn": 3979,
      "▁ottoooh": 3980,
      "▁aieeetoaieetstt": 3981,
      "▁aietaieeesoooo": 3982,
      "▁ttaood": 3983,
      "▁etaiellolloetouto": 3984,
      "▁erdtootohhn\n": 3985,
      "eatne": 3986,
      "▁teatooeaieasaie": 3987,
      "eaieafa": 3988,
      "aaeemem": 3989,
      "▁oetiaaeemem": 3990,
      "eec": 3991,
      "▁taieieasa": 3992,
      "▁taeaieeaoero": 3993,
      "▁ttaoodeer": 3994,
      "▁hrdttmon": 3995,
      "taieetc": 3996,
      "▁tseeloaie": 3997,
      "▁aieeetoaeaie": 3998,
      "▁eadeaaieeeeto": 3999,
      "▁paeetc": 4000,
      "tooh": 4001,
      "aiiasaie": 4002,
      "▁oohgteeatn\n": 4003,
      "▁oeeeaieteaaie\n": 4004,
      "▁oodeteaeeae\n": 4005,
      "▁aieaieaieeeaeuto\n": 4006,
      "tstse": 4007,
      "▁oodeeb": 4008,
      "▁oodieeaasee": 4009,
      "eaeaaaieeeto": 4010,
      "▁afatn": 4011,
      "▁gteot": 4012,
      "▁oettaero\n": 4013,
      "▁aieaeoteea": 4014,
      "ohaooooaieae": 4015,
      "▁teaaedtctoar": 4016,
      "▁eeadoetoeeae": 4017,
      "▁llooooeeaeaieeeto\n": 4018,
      "▁eatoetao": 4019,
      "soeotjhn": 4020,
      "▁gtehnouoo": 4021,
      "▁eeadtstse": 4022,
      "▁oodeeb1": 4023,
      "▁erdaieae": 4024,
      "▁eaaeedt": 4025,
      "▁aieeeatn2\n": 4026,
      "▁thaieaeooootsiec": 4027,
      "▁erdttsoeotjhn": 4028,
      "▁oodieeaaseeeeae": 4029,
      "eaieetmtn": 4030,
      "▁tktoieemtn": 4031,
      "▁ttae": 4032,
      "▁ttatjhn\n": 4033,
      "▁oetotopa": 4034,
      "▁tatllorto\n": 4035,
      "▁tkttsaie": 4036,
      "▁hr\n": 4037,
      "▁afaasoteafa": 4038,
      "aieaieaieafa": 4039,
      "▁oetodaieaieaieafa": 4040,
      "▁aieetstofthtn": 4041,
      "iaee": 4042,
      "▁tootktttaieetc": 4043,
      "etkttotn": 4044,
      "▁gteoieemtn": 4045,
      "▁ttaehtectv": 4046,
      "▁lltoieemopaoeoteaiee\n": 4047,
      "▁eatothnaie\n": 4048,
      "▁ieeeaeaiee\n": 4049,
      "▁ttan": 4050,
      "▁ttaehtectvown": 4051,
      "aithoe": 4052,
      "▁oohtotaithoe": 4053,
      "▁thneeeaown": 4054,
      "oohteea": 4055,
      "▁easto": 4056,
      "hoaie": 4057,
      "▁oelloohteea": 4058,
      "▁erdseetpa": 4059,
      "▁ottoeaa": 4060,
      "▁toeeaotdthtn": 4061,
      "▁oodiet": 4062,
      "▁oeaieetmtn": 4063,
      "▁oieemopa\n": 4064,
      "▁otefatown": 4065,
      "▁oetoieemopa": 4066,
      "▁haeadoelotac": 4067,
      "▁aehtecthntv\n": 4068,
      "▁eadaiee": 4069,
      "▁oodeaaeaieeetotaoeeeae": 4070,
      "▁eiebtn": 4071,
      "▁oeeeaietneaseaa\n": 4072,
      "▁atotaieee\n": 4073,
      "▁oteatooetotoea": 4074,
      "▁eeaderodtno\n": 4075,
      "▁toeeaotdthoaie": 4076,
      "▁erdtnoieetaie": 4077,
      "▁eaaaietoe": 4078,
      "▁taoest": 4079,
      "eetuto": 4080,
      "gtea": 4081,
      "▁gtea": 4082,
      "▁erdaieetstof": 4083,
      "▁ia": 4084,
      "dtcteetohohaetn": 4085,
      "▁gteoteieeaatn": 4086,
      "▁aee\n": 4087,
      "mostaieae": 4088,
      "▁eadeaaeeetof": 4089,
      "▁eaathosc": 4090,
      "▁eaitfeeaieeteeae": 4091,
      "▁ietaodtoteeaown": 4092,
      "▁aeadeahn": 4093,
      "▁oodeatoaieee": 4094,
      "▁etaieeeto\n": 4095,
      "▁tktottn": 4096,
      "▁llooooasoteoef\n": 4097,
      "aieaeeb": 4098,
      "▁oodeaiea": 4099,
      "▁oodoohtotnaie": 4100,
      "▁tnstaieeeto": 4101,
      "▁tseetcaiee": 4102,
      "▁oeoteeto": 4103,
      "eeeaieoeoteea": 4104,
      "▁oeoteetoeeeaieoeoteea": 4105,
      "▁atotaoeeeae": 4106,
      "▁eeatotetn": 4107,
      "▁eeatotetnet": 4108,
      "▁ohaot": 4109,
      "eeteaieuto": 4110,
      "▁aeaitoooooeeteaieuto": 4111,
      "▁taotaiaoteaiee": 4112,
      "hottneeto": 4113,
      "aieaieeecefe": 4114,
      "▁etno1": 4115,
      "▁hno": 4116,
      "▁teevegggeae": 4117,
      "▁oteeetsodsod": 4118,
      "eaieaieas": 4119,
      "eaieaieaseaa": 4120,
      "▁ohtaoeeeaetaieeesoooo": 4121,
      "▁ooheloeae\n": 4122,
      "▁eaaeedaieaeeb": 4123,
      "▁eaaeohaooooaieae": 4124,
      "▁aieaieeeb": 4125,
      "▁tcaiee": 4126,
      "▁oodtaoeeeae": 4127,
      "▁etaiaaeee\n": 4128,
      "▁teadsac": 4129,
      "eertoooea": 4130,
      "▁toeertoooea": 4131,
      "▁ao": 4132,
      "▁oodhtahngte": 4133,
      "▁tseeeasa": 4134,
      "▁egggeadst": 4135,
      "▁oodtsteeafa": 4136,
      "▁aieeeatothotho": 4137,
      "aietcaiee": 4138,
      "▁paoohtc": 4139,
      "▁taeedtjhn\n": 4140,
      "eciee": 4141,
      "ecieeiee": 4142,
      "▁erdtoteatnaieae\n": 4143,
      "▁tatneaseear": 4144,
      "▁tatv0": 4145,
      "▁oodoelotac\n": 4146,
      "▁oetaeaie\n": 4147,
      "▁eadeotea": 4148,
      "▁taeohaooooetasaa": 4149,
      "▁ottoeaaeeeatn": 4150,
      "▁etaieoetotoea": 4151,
      "▁taieaito": 4152,
      "▁taieaitoecieeiee": 4153,
      "▁gteeaeeae": 4154,
      "▁eeatotetnetaieeaee": 4155,
      "▁aotasee": 4156,
      "eaaeedpa": 4157,
      "aieeeaieeaee": 4158,
      "▁oteatoaieeeaieeaee": 4159,
      "ototn": 4160,
      "▁eeadaieeetc\n": 4161,
      "▁ooheeaaetnerto": 4162,
      "▁aiaaeeaaieeee\n": 4163,
      "▁eeadoetofaaslo": 4164,
      "▁eaeaetnaieeeea": 4165,
      "▁oodeaiaaeaieeea": 4166,
      "▁tvtaieaeoaieeeeto": 4167,
      "hreaiaae": 4168,
      "▁taoiet": 4169,
      "▁taoiettaoeeeae": 4170,
      "▁tmeu\n": 4171,
      "▁aieas": 4172,
      "▁oeeeaieea\n": 4173,
      "▁teoteoeadtvoeatn\n": 4174,
      "▁eaexxeae\n": 4175,
      "▁erdaieea": 4176,
      "▁oetoeoteaseeexeceee": 4177,
      "▁oeoteaieeea\n": 4178,
      "eaieaiee": 4179,
      "ieeaseea": 4180,
      "▁tse": 4181,
      "▁aotohaieeae\n": 4182,
      "▁tseeeaaaieeetn": 4183,
      "▁ieeaaseeaieaeo": 4184,
      "▁oteatoaieee": 4185,
      "aieeetaie": 4186,
      "▁eeadtaieeetaie": 4187,
      "etfeteaieafuto": 4188,
      "▁odthtn\n": 4189,
      "▁oodoeaierto": 4190,
      "aieeaiee": 4191,
      "▁ooheaetn\n": 4192,
      "▁oodeeae": 4193,
      "▁toeeaotdeaseeao": 4194,
      "▁todcto": 4195,
      "▁ieteaetaiee": 4196,
      "▁aieeoeaierto0\n": 4197,
      "▁oodtootieer": 4198,
      "▁erdieteloeae": 4199,
      "▁oteeae": 4200,
      "▁teaeaaee": 4201,
      "▁erdoeaiaieeaieee": 4202,
      "tstofa": 4203,
      "▁gteai": 4204,
      "▁eeadoelotac": 4205,
      "eaaietsee": 4206,
      "▁eatoieeaaseeeaioteato": 4207,
      "asaar": 4208,
      "▁aiaaellooootaoeeeaeown": 4209,
      "▁ooafiaeaieeeto": 4210,
      "▁aeeeaee": 4211,
      "▁aieeae1": 4212,
      "▁aeaeeteattuto\n": 4213,
      "▁oodteaaie\n": 4214,
      "▁ooheeaaetnoo": 4215,
      "▁oeeeaieeaiaaeaieeea": 4216,
      "▁gtept": 4217,
      "aieieo": 4218,
      "eohaooooeaaeaieeatsee": 4219,
      "aieieoeoteea": 4220,
      "▁toteatnouoo": 4221,
      "▁tseeth": 4222,
      "▁tatoot": 4223,
      "▁oeloasee\n": 4224,
      "▁eaataieieoeoteea": 4225,
      "▁teeasaar\n": 4226,
      "▁eatoood": 4227,
      "▁aieeeeaa": 4228,
      "▁gteatot": 4229,
      "▁eatoteeatn": 4230,
      "▁ietasaar": 4231,
      "▁afa1\n": 4232,
      "▁aieiaec0": 4233,
      "▁ieteaaemtn\n": 4234,
      "toteec": 4235,
      "▁eeeatoteec": 4236,
      "eaieaieeeto": 4237,
      "▁oeoteaieeaieaieeeto": 4238,
      "▁taeae": 4239,
      "▁erdeetn": 4240,
      "▁eaietn": 4241,
      "▁tseeooh": 4242,
      "▁ethoar\n": 4243,
      "▁tatoothre": 4244,
      "▁erdaieea1": 4245,
      "boooo": 4246,
      "aaeeboooo": 4247,
      "▁eatooodstooeatn": 4248,
      "▁aieo": 4249,
      "▁eaeoteeasahn\n": 4250,
      "totnlo": 4251,
      "▁aotohaietcaiee": 4252,
      "eerodt": 4253,
      "▁etotoatn\n": 4254,
      "aieeethn": 4255,
      "▁tatnst\n": 4256,
      "aitoaieeethn": 4257,
      "iaaeeboooo": 4258,
      "▁eaaoetiaaeeboooo": 4259,
      "▁eadeohaooooeaaeaieeatsee": 4260,
      "▁aehtecaiea": 4261,
      "▁eeadthaitoaieeethn": 4262,
      "▁etneaeeae": 4263,
      "eeeaef": 4264,
      "eeaeo": 4265,
      "▁aieeaa": 4266,
      "▁tseetstofa": 4267,
      "▁eaaietc\n": 4268,
      "▁eaaoodeaieeaoero": 4269,
      "▁allollo": 4270,
      "▁allollofa": 4271,
      "eaieaieeeaaetmtn": 4272,
      "▁aieeetoeeaeaduo": 4273,
      "eaaseaie": 4274,
      "▁aieaseaaseaie": 4275,
      "eaieaeeta": 4276,
      "▁aieaeoeae": 4277,
      "▁oeeeaie0\n": 4278,
      "▁gteoohetktttn": 4279,
      "▁aiaaeloaseetctc": 4280,
      "eroown": 4281,
      "▁oteaitfeeeroown": 4282,
      "eastoaie": 4283,
      "taoeeeaeastoaie": 4284,
      "▁teatoareatn": 4285,
      "▁aiethtn": 4286,
      "▁tseeeaaetfeteaieafuto": 4287,
      "etodcto": 4288,
      "▁gtetodcto": 4289,
      "▁eatoaaoteoteeetn": 4290,
      "▁oodeetn": 4291,
      "▁oodeetnrooo": 4292,
      "▁taieeeaieaeeta": 4293,
      "▁tooieemoteasa\n": 4294,
      "▁teatnhre\n": 4295,
      "▁ohaoiec": 4296,
      "▁teatotootasaee\n": 4297,
      "▁eeadtnoho": 4298,
      "▁eaiaaegte\n": 4299,
      "▁eaeeelotttea": 4300,
      "▁gteaietoe": 4301,
      "aieiaec": 4302,
      "etasee": 4303,
      "▁erdtsiec": 4304,
      "hrodtofa": 4305,
      "thtseea": 4306,
      "oteetnsc": 4307,
      "ieeohhn": 4308,
      "▁af": 4309,
      "▁oodetno": 4310,
      "eerodtoown": 4311,
      "▁oodetno0": 4312,
      "▁eaaetn": 4313,
      "▁ieerodtoown": 4314,
      "▁eatotoe": 4315,
      "▁tatetnaieasaie": 4316,
      "▁teatotoottaeiee": 4317,
      "▁erdieeohasa": 4318,
      "▁tkthreaiaae": 4319,
      "▁eaeeae": 4320,
      "▁tseetneaieaietoto": 4321,
      "▁oodeaaaieaietaoeeeae": 4322,
      "▁oeteatoeatnetaie": 4323,
      "▁oodhrodtofa": 4324,
      "▁oetotoea": 4325,
      "▁ieemoeltcaieee": 4326,
      "▁paaieaieeeto": 4327,
      "▁taieellolloeatn\n": 4328,
      "▁aeeeaeeeouoo": 4329,
      "▁erdafataoeeeaeastoaie": 4330,
      "▁oetiaaeememoteatnthoela": 4331,
      "ohaieee": 4332,
      "▁oesttesac\n": 4333,
      "▁eaatta": 4334,
      "▁ieerodtoown0": 4335,
      "ottoo": 4336,
      "▁asatvo": 4337,
      "tseetsee": 4338,
      "▁ooataiee": 4339,
      "▁eaatsoteato": 4340,
      "▁teadeaeero\n": 4341,
      "▁eaai": 4342,
      "▁eohaoooohohr": 4343,
      "▁ooaeeaeasee\n": 4344,
      "▁eohaoooohohrtthnst": 4345,
      "asto": 4346,
      "▁aieaeaieaeaieae": 4347,
      "▁oteaseearst": 4348,
      "▁oohouoto": 4349,
      "▁eaelost1": 4350,
      "ietaieoeoteea": 4351,
      "▁aaoteoteeaeaaeedhn": 4352,
      "eemtc": 4353,
      "▁etaieoelotac": 4354,
      "faown": 4355,
      "▁thooteea": 4356,
      "▁thooteeafaown": 4357,
      "ohai": 4358,
      "eaeaieotd": 4359,
      "▁aieaeadtc": 4360,
      "▁ohaoaieaieaieeea": 4361,
      "▁aieaeadtcthtseea": 4362,
      "eaeaieotdttt": 4363,
      "▁eadoh": 4364,
      "▁eadohetkttotn": 4365,
      "▁oeteatoaieee": 4366,
      "▁oelloodtoea\n": 4367,
      "▁taaotoh": 4368,
      "▁aieaeaieaeaieaeohaieee": 4369,
      "▁eadtaoeeeae": 4370,
      "▁oeeeaieoeeae\n": 4371,
      "▁tsaiee": 4372,
      "▁teoteooeoteaseeexeceee": 4373,
      "haitoetn": 4374,
      "▁oohtotnaie\n": 4375,
      "▁elrtpa": 4376,
      "▁oodtneerto": 4377,
      "▁ieeaasee\n": 4378,
      "▁oodtsiec": 4379,
      "eadpa": 4380,
      "▁aieaeothn": 4381,
      "▁aieaeothneeea": 4382,
      "▁eaattaafaetytetn": 4383,
      "oodt": 4384,
      "▁taaotohaieaieeeto": 4385,
      "▁aieeteta": 4386,
      "▁etaieatot": 4387,
      "totnasee": 4388,
      "uooetmtn": 4389,
      "▁taeuooetmtn": 4390,
      "▁oohetnotaieerto": 4391,
      "▁teoteoeeeatoeaaeaiee\n": 4392,
      "▁tst": 4393,
      "etaeai": 4394,
      "xetaeai": 4395,
      "▁erdaie": 4396,
      "eaieaaeaiee": 4397,
      "teaeaie": 4398,
      "▁eeadeaaeeeto": 4399,
      "▁eaitfeet": 4400,
      "▁oohouotoaieaeo": 4401,
      "▁taeeaeaieeeto": 4402,
      "▁oodoeeeaielloooollooooieb\n": 4403,
      "oeotaseaaie": 4404,
      "▁eatoeaaaieaietaoeeeae\n": 4405,
      "eteaeaaee": 4406,
      "▁eatoeaieeatn": 4407,
      "▁aieeetotthn": 4408,
      "▁ooder": 4409,
      "etktttotjhn": 4410,
      "▁oeotetktttotjhn": 4411,
      "▁oodaeertohn": 4412,
      "▁oteeaegte": 4413,
      "▁tasac\n": 4414,
      "▁erdoteeta": 4415,
      "▁ttsoeotn": 4416,
      "▁eeeato": 4417,
      "▁eaitfeetefsoeo": 4418,
      "▁ooaoef": 4419,
      "astoto": 4420,
      "▁eaaeatne": 4421,
      "▁aieaieeebpa": 4422,
      "▁iodiodoeote": 4423,
      "▁taieeesafa\n": 4424,
      "▁taatetn": 4425,
      "oeaiehre": 4426,
      "▁eaaetnrooo": 4427,
      "▁oodaiee": 4428,
      "ieero": 4429,
      "▁teevieero": 4430,
      "▁teevieerodto": 4431,
      "ohaieeeatn": 4432,
      "▁ttsoeotnoieetaie": 4433,
      "▁lhe": 4434,
      "▁lheohaieeeatn": 4435,
      "▁oettaeroastoto": 4436,
      "▁ieeaaseeoodt": 4437,
      "▁ieeaaseeoodteaaie": 4438,
      "▁heaaeedtetn": 4439,
      "▁oodtneertoeae": 4440,
      "▁ooatneaie": 4441,
      "▁aieaeadtoot": 4442,
      "iebta": 4443,
      "▁oef\n": 4444,
      "ieetn": 4445,
      "▁ooataoeeeae": 4446,
      "odiodtnttt": 4447,
      "aoeeeaeoooo": 4448,
      "▁eaeeasoooototn": 4449,
      "▁aiestaie": 4450,
      "otsa": 4451,
      "▁tmotsa": 4452,
      "▁eaahrhtne": 4453,
      "▁eaahrhtneoooo": 4454,
      "▁eaitfeeteaeaie": 4455,
      "▁aieeeaieeaee\n": 4456,
      "▁odtcteetohohaetn": 4457,
      "▁totneaaeedpa": 4458,
      "▁tstto": 4459,
      "eatnthoela": 4460,
      "▁etneaeta": 4461,
      "▁teatoar\n": 4462,
      "tv0": 4463,
      "emeu": 4464,
      "▁eatoth": 4465,
      "▁gtee": 4466,
      "▁tseetv0": 4467,
      "▁ohaoseaie": 4468,
      "▁afatneaseaa": 4469,
      "eeeoetn": 4470,
      "▁aeeeaeeeoetn": 4471,
      "oeoteaieeea": 4472,
      "teeaeoooo": 4473,
      "▁afatneaseaa1": 4474,
      "▁ietn1\n": 4475,
      "▁eaitfeeoeaiehre": 4476,
      "▁aieaeadtoottaeiee": 4477,
      "▁ttaeatooeer\n": 4478,
      "▁eaahottneeto": 4479,
      "▁erdtmsa": 4480,
      "taieeeeae": 4481,
      "fattsfat": 4482,
      "▁oeotasttmntaeeato": 4483,
      "tan": 4484,
      "▁aeaie": 4485,
      "▁erdttan": 4486,
      "iemeu": 4487,
      "▁oohthosc": 4488,
      "▁etaieeaaefeatn": 4489,
      "eatnpt": 4490,
      "▁eaaaieaietaoeeeae": 4491,
      "▁odtotnasee": 4492,
      "▁eaaaieaietaoeeeaest": 4493,
      "▁llooooaieaieeecefe": 4494,
      "▁oodgte": 4495,
      "aiaaeloaseetctc": 4496,
      "hno": 4497,
      "▁teetoeief": 4498,
      "▁toeeaotdteaetmteaetcaieeeto": 4499,
      "▁eaaeaieea\n": 4500,
      "▁aieaieaieeea\n": 4501,
      "▁hta": 4502,
      "▁aieeexetaeai": 4503,
      "▁eaaeedtaithoeouoo": 4504,
      "▁teatoaotasee": 4505,
      "▁aieeetoeetuto": 4506,
      "▁erdoteetnsc": 4507,
      "▁oodeaieatothaieeeto": 4508,
      "▁oefouoo": 4509,
      "▁eatoaseaie": 4510,
      "▁aieeeteaeaaee": 4511,
      "▁eaethrdtetn\n": 4512,
      "▁thaieaeooooaieeaee": 4513,
      "▁taeeexaieeetnoeeeaie\n": 4514,
      "▁lh": 4515,
      "▁eadetsuto\n": 4516,
      "▁aieot": 4517,
      "▁taethoar\n": 4518,
      "▁hohrt": 4519,
      "▁aiaieeaaiaieee\n": 4520,
      "esac": 4521,
      "▁faetthooero\n": 4522,
      "aieeaaee": 4523,
      "eaeattetaieeeto": 4524,
      "▁erdaiaaeloaseetctc": 4525,
      "▁eaaaeaeattetaieeeto": 4526,
      "▁teetn1": 4527,
      "▁oodeaaetniec\n": 4528,
      "▁taaaoteoteeetn": 4529,
      "▁oetiodiodtnttt": 4530,
      "▁teaaieeaaee": 4531,
      "totaieeesoooo": 4532,
      "eatoetn": 4533,
      "▁afatseetsee": 4534,
      "▁taeadpa": 4535,
      "htecaieaeaiaae": 4536,
      "totoeaeeeaeeeduto": 4537,
      "▁taieetc": 4538,
      "eaeifaea": 4539,
      "▁oodteaeifaea": 4540,
      "▁oeaiea": 4541,
      "▁oeeeaieoteieeaatn": 4542,
      "▁tastaie0": 4543,
      "▁oheaieeeaown\n": 4544,
      "▁erdtsaie": 4545,
      "eteato": 4546,
      "ebuto": 4547,
      "eteatoebuto": 4548,
      "▁ieeaaseeaieea": 4549,
      "eaieeaeoouoo": 4550,
      "tsfattsfat": 4551,
      "▁ottoooheetc": 4552,
      "oeotohasa": 4553,
      "▁staieown": 4554,
      "▁taseeet\n": 4555,
      "dthtnaie": 4556,
      "▁oeeeaieodthtnaie": 4557,
      "▁erdietfaafa": 4558,
      "▁easeeao": 4559,
      "▁thaietcoown": 4560,
      "▁aieaeoteeatn": 4561,
      "▁eaieaeaierthtn\n": 4562,
      "▁ooea": 4563,
      "▁oeeeaiestaie": 4564,
      "▁loaie": 4565,
      "▁ooaloaie": 4566,
      "▁erdtesac": 4567,
      "▁ietfaafa": 4568,
      "▁oodoohtoteatnaieae": 4569,
      "▁eetn1\n": 4570,
      "▁eaieeeaeea": 4571,
      "▁oettataoeeeaeouoo\n": 4572,
      "▁staieown1": 4573,
      "▁eaieaieae": 4574,
      "dsa": 4575,
      "▁eaieaieaeown": 4576,
      "loo": 4577,
      "▁teatoaie\n": 4578,
      "▁eatototo": 4579,
      "▁taeaiaaeaieeeto\n": 4580,
      "▁eaeaetntsfattsfat": 4581,
      "ietfaafa": 4582,
      "▁taieetcloo": 4583,
      "taar": 4584,
      "▁eaaeetaar": 4585,
      "▁eaaeetaar1": 4586,
      "▁eatototoeatoetn": 4587,
      "▁oohaieeasado": 4588,
      "▁hrhtne": 4589,
      "▁htahoetaieeeto": 4590,
      "ieeataeeifaea": 4591,
      "▁oetteaewn\n": 4592,
      "▁taieetcloooea": 4593,
      "▁tsfattsfa": 4594,
      "aoeot": 4595,
      "▁teeafa": 4596,
      "▁llooootwn\n": 4597,
      "▁oohoeoteea": 4598,
      "▁aieaeeeaeee": 4599,
      "▁loaseetctc\n": 4600,
      "ietn1": 4601,
      "▁aieiaec1": 4602,
      "▁oeeeaieth": 4603,
      "hoaieeast": 4604,
      "▁eatototothoetaiaaeee": 4605,
      "▁tsttouoo": 4606,
      "▁gteeaaie": 4607,
      "▁thaieaeooooteatn": 4608,
      "▁eaaaieeetnst": 4609,
      "aeaieeeto": 4610,
      "▁erdoelloodtoea": 4611,
      "▁paoeoteaie": 4612,
      "▁oodhottneaieote": 4613,
      "▁oeeeaieteatnpt": 4614,
      "▁aieeeeaeasee": 4615,
      "▁taetasa\n": 4616,
      "▁asaoeot": 4617,
      "▁eetnaie": 4618,
      "▁ottoaehtecaieaeaiaae": 4619,
      "▁aieaetnta0\n": 4620,
      "▁llooooeaioteatn\n": 4621,
      "aieaest": 4622,
      "tooooofatc": 4623,
      "toohtooooofatc": 4624,
      "toohtooooofatcttt": 4625,
      "eeetpa": 4626,
      "▁oetoetteeae\n": 4627,
      "▁oodhoaieeast": 4628,
      "▁oeteaieeea\n": 4629,
      "oeaieasaie": 4630,
      "eatoohtooooofatcttt": 4631,
      "▁eatoteeafa": 4632,
      "▁eatoteeafaeatoohtooooofatcttt": 4633,
      "▁aieetooteethn": 4634,
      "▁oeaieaieeeaaetmtn": 4635,
      "▁oeeeaielloooollooooieb": 4636,
      "▁ieeaaseellolloftaea\n": 4637,
      "▁afathneeea0\n": 4638,
      "▁oodstaie0": 4639,
      "▁aieeeaetn\n": 4640,
      "▁asaeaeeemtn": 4641,
      "▁tseethettooeeeaie": 4642,
      "▁ttaetaiaaeeouoo\n": 4643,
      "▁taatetnouoo": 4644,
      "▁eadeaieduto\n": 4645,
      "▁aiethaitoetn": 4646,
      "▁hohrthaietktttn": 4647,
      "▁teeaeadsa": 4648,
      "▁eaaae": 4649,
      "▁eatoeaieafteoaiaaeaieeetc": 4650,
      "▁oeeeaieooh": 4651,
      "▁aieeataieeesoooo": 4652,
      "oietaseaa": 4653,
      "▁gggaieeeatn": 4654,
      "▁llooootso\n": 4655,
      "▁eaahohrt": 4656,
      "▁taeae1": 4657,
      "▁teoteototoeaeeeaeeeduto": 4658,
      "ebaiaae": 4659,
      "▁oeeeaietnebaiaae": 4660,
      "▁lltoieemopa\n": 4661,
      "▁oeoteaseeexecee": 4662,
      "▁eatooown\n": 4663,
      "▁eadaieeaee": 4664,
      "▁tseeoohgte": 4665,
      "▁etaieeohouoothn": 4666,
      "▁eohaooooieaeeiehn": 4667,
      "▁oetieetn": 4668,
      "▁toeeaotdeaeheaeeaieero": 4669,
      "▁iecieceaaetoown\n": 4670,
      "aeertohn": 4671,
      "▁thtseea\n": 4672,
      "▁ooaaiee": 4673,
      "▁teetoaie\n": 4674,
      "▁oest\n": 4675,
      "▁aiee1": 4676,
      "▁eaeeadeaeetc": 4677,
      "▁etntaoeeeaeaieae": 4678,
      "▁eatotaoeeeae": 4679,
      "▁llooooeeetpa": 4680,
      "▁ohaoetaie": 4681,
      "▁ohaoetaie1": 4682,
      "▁eaeeasoooooietaseaa": 4683,
      "asatotetn": 4684,
      "eaieeaeoero": 4685,
      "▁staiepa": 4686,
      "▁eaaeedoeoteaieeuto\n": 4687,
      "▁astn\n": 4688,
      "▁etaieeaieeaeoero": 4689,
      "▁eaeeelottteatotnlo": 4690,
      "eaieeetaoeeeae": 4691,
      "totoeoteea": 4692,
      "▁oeoteetotoeoteea": 4693,
      "▁ooalololotnttt": 4694,
      "▁aieaeer0\n": 4695,
      "hnoaieaeo": 4696,
      "▁asaaieeaieee": 4697,
      "▁oeeeaieoohaieee": 4698,
      "▁teaaie": 4699,
      "▁ooaeaaieeeeto": 4700,
      "otefattsee": 4701,
      "▁eaaetniec": 4702,
      "▁erdhottniebtjho": 4703,
      "▁etototn": 4704,
      "▁aieeaet": 4705,
      "▁eatoaieeeea": 4706,
      "▁etasaaero": 4707,
      "▁lloooototoeaeeeaeeeduto": 4708,
      "▁tmotsao": 4709,
      "▁oeeeaietaoeeeae": 4710,
      "▁eaaeetn": 4711,
      "asoteea": 4712,
      "▁tnstaiaae": 4713,
      "▁oodoietaieiaec": 4714,
      "▁oteetaemvo": 4715,
      "▁oode": 4716,
      "iaeaieela": 4717,
      "▁oellttaoeeeae": 4718,
      "▁taeaieeaeoero\n": 4719,
      "▁taafataoeeeae": 4720,
      "▁erdhtahn": 4721,
      "▁eaaaehtecaieaeaiaae": 4722,
      "▁tseeaieeetstt": 4723,
      "▁eaaoodeaseeao": 4724,
      "▁tofatc": 4725,
      "▁odthtngte": 4726,
      "▁ieeaaseetsee": 4727,
      "▁eaathneeea": 4728,
      "aseeetieb": 4729,
      "▁eaathneeeaown": 4730,
      "▁oohtotaseeetieb": 4731,
      "▁pthre": 4732,
      "▁eaeeatouto": 4733,
      "eaeaiaaeaieeeto": 4734,
      "heaaeedtetn": 4735,
      "▁teaeaieown\n": 4736,
      "▁eatoaieeemtc": 4737,
      "▁egggeadetaieeeto": 4738,
      "▁erdafataoeeeae": 4739,
      "▁erdaaoteoteeetn": 4740,
      "otasee": 4741,
      "▁patneerto\n": 4742,
      "ieemtoown": 4743,
      "▁teevoohgte": 4744,
      "eatoar": 4745,
      "▁tseeoohtoeae": 4746,
      "▁teoteoieemosa\n": 4747,
      "▁eatoaieeaieagte\n": 4748,
      "hthoela": 4749,
      "▁taaieeaiee": 4750,
      "▁ieetaiepa\n": 4751,
      "▁tseeoteetnrodto": 4752,
      "ttaieeesoooo": 4753,
      "etaieeoesttetn": 4754,
      "▁eaiaaetaieeoesttetn": 4755,
      "▁eeaesttetn": 4756,
      "▁eeaeeta": 4757,
      "▁taoet": 4758,
      "▁erdoohto": 4759,
      "▁eahnsodsod": 4760,
      "▁erdoohtov": 4761,
      "jeatn": 4762,
      "▁eaaetcohasa\n": 4763,
      "▁teaeaie\n": 4764,
      "▁eatotaieeasa": 4765,
      "▁ietaieoeoteeaasee": 4766,
      "oeaieaieaieaseaa": 4767,
      "▁teoteotoeaieaieaieaseaa": 4768,
      "▁teoteotoeaieaieaieaseaaetaieeeto": 4769,
      "▁tev": 4770,
      "tothtn": 4771,
      "ohaieaieeeaaetmtn": 4772,
      "▁oohoeoteaseeexeceee": 4773,
      "utotaieeesoooo": 4774,
      "▁terd": 4775,
      "▁terdutotaieeesoooo": 4776,
      "▁tktetototn": 4777,
      "▁eaeeasoooohnoaieaeo": 4778,
      "▁eeeatoeeta": 4779,
      "▁eatooeotohoest\n": 4780,
      "llolloeae": 4781,
      "▁oodellolloeae": 4782,
      "▁oodieeohhn": 4783,
      "▁oohhre\n": 4784,
      "aiee0": 4785,
      "▁aieer": 4786,
      "▁terdutotaieeesoooo0": 4787,
      "▁eer": 4788,
      "emtaoeeeae": 4789,
      "▁aeademtaoeeeae": 4790,
      "eiefeatn": 4791,
      "▁tootieer\n": 4792,
      "▁tseetseetaieeesoooo": 4793,
      "▁aeaieeeatn": 4794,
      "▁etaietaoeeeaeoooo": 4795,
      "▁tolo": 4796,
      "eaeaieoteaie": 4797,
      "▁eaieaohaieaieeeaaetmtn": 4798,
      "▁eadaieeeaetn": 4799,
      "▁tseetaieerhtn": 4800,
      "▁tvaiee0": 4801,
      "▁oodotefattsee": 4802,
      "▁taeieetc\n": 4803,
      "tmon": 4804,
      "▁aietstt": 4805,
      "▁oodeaeheaeeaieero": 4806,
      "▁aehtecaieaeasee": 4807,
      "▁ottotoetasa": 4808,
      "▁paotetktttneae": 4809,
      "▁aieietn1": 4810,
      "▁oodeaaaieeetn": 4811,
      "▁eadtaiee": 4812,
      "▁oohtn": 4813,
      "▁iemeu\n": 4814,
      "▁tootktttso": 4815,
      "▁ttaafaeeeaetetn\n": 4816,
      "aseear": 4817,
      "▁aotaseear": 4818,
      "▁aieaeoeaieaieae": 4819,
      "▁eaaaiaaellooootaoeeeae": 4820,
      "▁teatotoetasa": 4821,
      "▁eaaiaec": 4822,
      "taie": 4823,
      "▁aitoe": 4824,
      "▁aedtcaieaeeaaeto": 4825,
      "▁oeeeaieseaie\n": 4826,
      "oteeaeteatoebuto": 4827,
      "▁oohaiee": 4828,
      "▁tseeieemtoown": 4829,
      "▁aieaeemtc": 4830,
      "▁etasee\n": 4831,
      "▁erdeaeero\n": 4832,
      "▁totniaec": 4833,
      "▁aieeetoaieeetogte": 4834,
      "eaieeetof": 4835,
      "eoteaie": 4836,
      "▁ottoottoohaieaie\n": 4837,
      "▁eadoeaieaieeeaaetmtn\n": 4838,
      "▁tooieemoea": 4839,
      "▁eaaieeeetoetaieeeto": 4840,
      "easaoooo": 4841,
      "eiee": 4842,
      "htaeiee": 4843,
      "▁ottotaiee": 4844,
      "etaief": 4845,
      "▁toeeaotdtnaietc": 4846,
      "▁oodieteasaoooo": 4847,
      "eaaote": 4848,
      "▁taoeeeaeaie\n": 4849,
      "▁tvtaieeeeae": 4850,
      "▁taeeexaieeetneea\n": 4851,
      "▁aieeetoeaetaiee": 4852,
      "▁teadt": 4853,
      "▁aieaiet": 4854,
      "▁aieaietv": 4855,
      "rhtnaiee": 4856,
      "▁aieaeadrhtnaiee": 4857,
      "eeatn0": 4858,
      "▁eaaoeoteertottea": 4859,
      "▁erdeaaeto": 4860,
      "▁oettotoeae\n": 4861,
      "▁tneaie\n": 4862,
      "teatoetaieeeto": 4863,
      "▁tcteatoetaieeeto": 4864,
      "tootgte": 4865,
      "toeasatn": 4866,
      "▁easatoeasatn": 4867,
      "▁aiiasaieown\n": 4868,
      "▁oodaieaeaieeeto": 4869,
      "▁etaieoteaaote": 4870,
      "▁loaseetctcouoo\n": 4871,
      "▁oodeiefeatn": 4872,
      "▁aieseetpa": 4873,
      "▁eadaeae\n": 4874,
      "▁erdtteaoeeeaie": 4875,
      "thoaiaae": 4876,
      "▁ooaeaeaaaieeeto": 4877,
      "oetn": 4878,
      "▁oeteaeaieotdero": 4879,
      "▁eae2\n": 4880,
      "▁erdaotohaieaieae": 4881,
      "▁aseaie\n": 4882,
      "▁teatoeaieeaeoouoo": 4883,
      "▁eatotnoieetaie\n": 4884,
      "▁toeeaotdtn": 4885,
      "▁eatoeeeaef": 4886,
      "etneaieaietoto": 4887,
      "▁eatoooheerto": 4888,
      "▁aeeeaeeeeaieeea": 4889,
      "▁tooieemoeaeeadeaeetc": 4890,
      "eaaar": 4891,
      "▁aseaaar": 4892,
      "▁llooootootgte": 4893,
      "▁oohaieegte": 4894,
      "▁aieeeiemeu": 4895,
      "▁ttallothn\n": 4896,
      "▁etn1\n": 4897,
      "eetno": 4898,
      "▁tooieemoot": 4899,
      "teatoteatnaeae": 4900,
      "▁hottniebtjho\n": 4901,
      "▁asaa": 4902,
      "▁taeaet": 4903,
      "▁thaietco": 4904,
      "eaeaieeea": 4905,
      "▁aiaaeaeaieeea": 4906,
      "▁thaieaeoooooeaierto": 4907,
      "▁eaaoodaieaieaieeatn": 4908,
      "▁afaeahn": 4909,
      "▁eaatnoieetaie": 4910,
      "dtvtaieaeo": 4911,
      "▁ooaieemtn": 4912,
      "▁eaaieeaaseeeaioteato\n": 4913,
      "▁emetaieeeto": 4914,
      "▁tseeeahn": 4915,
      "▁oodotoaoa\n": 4916,
      "▁taeaaetaseea\n": 4917,
      "▁erdetnaieec": 4918,
      "▁tnoh\n": 4919,
      "▁tteao": 4920,
      "oteatoown": 4921,
      "▁ooaeaieaie": 4922,
      "▁tooieemooteeta": 4923,
      "otaieeesoooo": 4924,
      "▁oodoeaiehre": 4925,
      "▁taaietaie": 4926,
      "ottootto": 4927,
      "▁thaietktttn\n": 4928,
      "▁aiaaetsaieaeo": 4929,
      "▁tjeatn": 4930,
      "▁eerto\n": 4931,
      "taieeoesttetn": 4932,
      "fs": 4933,
      "▁ooaeaa": 4934,
      "▁aieaieeaiee\n": 4935,
      "▁oeoteaieetc": 4936,
      "▁oohtoo": 4937,
      "▁oteeaeetn\n": 4938,
      "▁oeeeaieoshtn": 4939,
      "▁teadteeae": 4940,
      "▁eatoetoeaier": 4941,
      "▁erdoeaierto": 4942,
      "▁teoteoaseaie": 4943,
      "▁llooootaieeoesttetn": 4944,
      "▁ohaoaeaieeeto": 4945,
      "▁aieeaaieeetstt": 4946,
      "▁erdoeaieasaie": 4947,
      "▁oodeaeaieotdttt": 4948,
      "doo": 4949,
      "▁aieethaietc0": 4950,
      "rodoo": 4951,
      "▁oeeeaietnlo": 4952,
      "▁ooatnaietc": 4953,
      "▁ooaaieeeaieeetaoeeeae": 4954,
      "▁teatoteetn": 4955,
      "▁oetodtmostaieae": 4956,
      "▁toloetaieeeto": 4957,
      "▁thtseeastteeaaieaeo": 4958,
      "▁oodoetn": 4959,
      "▁eatoheaaeedtetn": 4960,
      "▁taetaie0": 4961,
      "▁aeaitoooooetneaieaietoto": 4962,
      "▁eaieaftn": 4963,
      "▁gteeae": 4964,
      "▁gteeaexxeae": 4965,
      "▁ieboello": 4966,
      "otellollo": 4967,
      "ohetotn": 4968,
      "▁eet": 4969,
      "aeho": 4970,
      "▁ieteertoer": 4971,
      "▁tteatteaaieeeto\n": 4972,
      "▁erdoeote\n": 4973,
      "▁ethotc\n": 4974,
      "▁thaieaeoooooteatnthoela": 4975,
      "▁eatoeaieee": 4976,
      "▁tseet": 4977,
      "▁erder\n": 4978,
      "▁llooootaieeasa": 4979,
      "▁eatoeatn\n": 4980,
      "▁oodotellollo": 4981,
      "▁ooaeaaeaiee": 4982,
      "▁elr": 4983,
      "▁elrttaieeesoooo": 4984,
      "▁oeaietmtn": 4985,
      "▁tktttmon": 4986,
      "eaieeuto": 4987,
      "toteatngte": 4988,
      "▁teetoteatngte": 4989,
      "▁aieeaieatoar": 4990,
      "tetnaieasaie": 4991,
      "▁tseeeea": 4992,
      "▁afaeteaeeae": 4993,
      "▁afaeteaeeae1": 4994,
      "ooteatn": 4995,
      "▁tnohaieeeto": 4996,
      "▁taeaeoteea": 4997,
      "▁oietasee": 4998,
      "▁oeaieeaeetmtn\n": 4999,
      "▁eeadtneaseear": 5000,
      "▁ietrhtn": 5001,
      "▁taieeeoohtooestown\n": 5002,
      "▁eatoeaiea": 5003,
      "▁eatoeaieaeaieeetof": 5004,
      "▁eatoeatntvo": 5005,
      "eaiaaegte": 5006,
      "▁tmeuaiee": 5007,
      "▁toeeaotdaiaaeeaeoteea": 5008,
      "▁ohaottea": 5009,
      "▁eaeeasoooolotothn": 5010,
      "▁tseeeaiaaegte": 5011,
      "▁pthoaiaae": 5012,
      "▁etaieoteatnthoela": 5013,
      "▁eaieeeafatjhnteer\n": 5014,
      "▁eaitfeeoet": 5015,
      "▁ieteertoeroouoo": 5016,
      "▁ieetaieoteeea0\n": 5017,
      "▁taeuoaieeeto": 5018,
      "▁oetiaaeemtceae": 5019,
      "▁afaetottn": 5020,
      "▁tseeteaieeeae": 5021,
      "▁erdatot": 5022,
      "▁oetoeeaeaduo": 5023,
      "▁erdiaee": 5024,
      "▁eaaeaiee": 5025,
      "▁ieeaaseeietaieoeoteea": 5026,
      "▁oodoietetno": 5027,
      "▁eaaouoo": 5028,
      "▁eaatneeae": 5029,
      "▁taieieea": 5030,
      "▁erdtv": 5031,
      "▁erdtvst1": 5032,
      "▁ohaoaiiasaie": 5033,
      "▁ohaoaieea\n": 5034,
      "ohetotnaieee": 5035,
      "aea": 5036,
      "▁tseeaeeeaeee": 5037,
      "▁llooooma": 5038,
      "▁iett": 5039,
      "▁oeeeaieeaeouoo\n": 5040,
      "tseaeaie": 5041,
      "▁tntotototo": 5042,
      "▁tntotototoea": 5043,
      "▁eaaoeoteaie": 5044,
      "▁oeeeaiethooteeafa": 5045,
      "eaiaaeeatn": 5046,
      "▁aieerd": 5047,
      "▁aieerdoeote": 5048,
      "▁otei": 5049,
      "▁oteieeaa": 5050,
      "▁thtseeastteea\n": 5051,
      "▁eteaaeaiee": 5052,
      "▁oesttetn\n": 5053,
      "▁lloooooello": 5054,
      "▁eaaeeetothtn": 5055,
      "▁iecouoo": 5056,
      "▁oteieeaatothtn": 5057,
      "tjhot": 5058,
      "▁ottoeasto": 5059,
      "▁oteetnsc\n": 5060,
      "▁teoteoaieeeetn": 5061,
      "▁oeoteaseeexeceee\n": 5062,
      "▁oiettetnieeeea": 5063,
      "▁taot": 5064,
      "▁ttaafaeeeaetetnouoo": 5065,
      "▁oetodtvtaieaeo": 5066,
      "▁thaieaeoooo\n": 5067,
      "▁teeviebta": 5068,
      "aeeeaeee": 5069,
      "▁eadoeoteaieetc\n": 5070,
      "eafs": 5071,
      "▁eatototothoeafs": 5072,
      "▁aieaeadeutoeuto": 5073,
      "▁odeaieeatn": 5074,
      "aioteaeeoooo": 5075,
      "▁tkteeaeasee": 5076,
      "▁etuto": 5077,
      "▁eaioteatn": 5078,
      "▁eaied": 5079,
      "▁oteaseear\n": 5080,
      "▁eadeaeaaaieeeto": 5081,
      "▁thosc": 5082,
      "▁atotst": 5083,
      "▁ottoeaioteatn": 5084,
      "▁taotiisoooo": 5085,
      "▁otetaieeeownero\n": 5086,
      "▁aieeetooeoteaie": 5087,
      "▁aieaeemtc0": 5088,
      "▁llooooiec\n": 5089,
      "▁tootkttieemtn": 5090,
      "▁eadaieea": 5091,
      "▁eer1": 5092,
      "▁taeuoaioteaeeoooo": 5093,
      "▁oodieb": 5094,
      "▁toertotjhn\n": 5095,
      "hohohohn": 5096,
      "▁aieetseeaiaae\n": 5097,
      "▁ohatoaieetstof": 5098,
      "▁ttaeaeeadeer\n": 5099,
      "▁tathaietktttn\n": 5100,
      "▁iaetaieee": 5101,
      "▁oeteaaeooooown": 5102,
      "▁oetemtc": 5103,
      "▁lloooooietaseaa\n": 5104,
      "▁tooieemoaieaeo": 5105,
      "▁tkttaieteetn": 5106,
      "▁tn2\n": 5107,
      "▁eatotetnaieasaie\n": 5108,
      "▁ietttateaieethn": 5109,
      "hettooeeeaie": 5110,
      "▁oietsodsod": 5111,
      "mtctaiee": 5112,
      "tvtaieaeo": 5113,
      "▁aieasa": 5114,
      "▁iaee": 5115,
      "▁aieaeadteetn": 5116,
      "▁ooheetcaeho": 5117,
      "▁oeaieaethn": 5118,
      "▁oeeeaieemtctaiee": 5119,
      "▁eaitfeea": 5120,
      "▁oodaeaeattetaieeeto": 5121,
      "▁eaitfeeaseaie": 5122,
      "eftac": 5123,
      "▁aieeaietn\n": 5124,
      "▁aeae1\n": 5125,
      "▁eatoeasto": 5126,
      "▁oeeeaieeaaefeatn": 5127,
      "▁llooooatot": 5128,
      "▁erdaehtecetktttn\n": 5129,
      "eaeuto": 5130,
      "▁eatoeaieaaeaiee": 5131,
      "▁eatoeaiaaeeerto\n": 5132,
      "▁odthtnemvo": 5133,
      "eaitfe": 5134,
      "▁eaeoteeeaown\n": 5135,
      "▁erdaieaetn": 5136,
      "▁eatnaie": 5137,
      "▁etotefatt": 5138,
      "▁eaagt": 5139,
      "▁etotefatthtn": 5140,
      "▁oeotdlotothn": 5141,
      "oteaitfee": 5142,
      "▁oeoteet": 5143,
      "▁tatoo": 5144,
      "eaieaiaae": 5145,
      "▁oodaiiasaie": 5146,
      "▁oodtefsoeo\n": 5147,
      "▁ohatoaieeeatn": 5148,
      "▁ohaoeaeaieoteaie": 5149,
      "stjhn": 5150,
      "ieestjhn": 5151,
      "▁eadeaieee": 5152,
      "▁ottothtaeiee": 5153,
      "▁teaeeouoo": 5154,
      "▁lloooooeotohasa": 5155,
      "▁eatotmostaieae": 5156,
      "▁tatoottiisoooo": 5157,
      "▁eatotvtaieaeo": 5158,
      "▁oohtotv\n": 5159,
      "▁ttieestjhn": 5160,
      "▁eaaeeetofst": 5161,
      "▁oodeaiaaeeerto": 5162,
      "▁ttaniaec": 5163,
      "▁eaaieeeatsee\n": 5164,
      "▁oetodtn": 5165,
      "oelloaieae": 5166,
      "▁eaaoelloaieae": 5167,
      "▁ttsoeoeaieafteoaiaae\n": 5168,
      "▁eatocllorto": 5169,
      "▁oteaitfeeetn": 5170,
      "▁eaaeaetothn": 5171,
      "▁aieaieetstof": 5172,
      "▁eeadeaa": 5173,
      "odtaiee": 5174,
      "▁eaaeaieeaeaeeae": 5175,
      "▁toeeaotdaiiasaie": 5176,
      "▁aieeoheaieeea": 5177,
      "tottea": 5178,
      "▁aieeeeea": 5179,
      "▁erdteaewn": 5180,
      "▁tneaseearown": 5181,
      "▁eaaeedhngte": 5182,
      "▁ohatoo": 5183,
      "▁eaeaetniec\n": 5184,
      "▁aieeaaaieetstof": 5185,
      "aieeoeto": 5186,
      "▁tnohouoo\n": 5187,
      "▁aieeeeeaeasee": 5188,
      "▁aieeaeeasoooo": 5189,
      "▁aeeeaeeeoetmtn": 5190,
      "▁asaaeaie": 5191,
      "▁gteeaiea": 5192,
      "▁eaaoesttnoo": 5193,
      "▁lloooothneeeaown": 5194,
      "hto": 5195,
      "▁eaitfeeoetotoea": 5196,
      "▁gteeaieatotetn": 5197,
      "▁eeaellorto\n": 5198,
      "▁aehtecefe": 5199,
      "▁oodaehtec": 5200,
      "▁eatoeaasoteea": 5201,
      "▁tneeaote\n": 5202,
      "▁eaaeaieeata": 5203,
      "▁oohtoaiiasaie": 5204,
      "▁eaeero\n": 5205,
      "▁aieaeadaieetstt": 5206,
      "▁oohtoeae\n": 5207,
      "▁eaeeasooootsaie": 5208,
      "eeaetaiee": 5209,
      "▁ottoieeaaseeeaioteato": 5210,
      "▁eaiedutoouoo": 5211,
      "▁eteemtnasee": 5212,
      "erodto": 5213,
      "▁tateaieeetstt\n": 5214,
      "▁lherodto": 5215,
      "▁lherodtoar": 5216,
      "▁aehtecaieaest": 5217,
      "▁oeeeaielloooollooootetn\n": 5218,
      "▁aeeatohnaieee\n": 5219,
      "▁eaieotdetaieeeto\n": 5220,
      "▁tseeoteetnst\n": 5221,
      "eetcaiee": 5222,
      "▁eaitfeetcaiee": 5223,
      "hohrtastoaie": 5224,
      "lotac": 5225,
      "▁lloooooest": 5226,
      "oetiaaeemtc": 5227,
      "▁tneaseearouoo": 5228,
      "▁eohaooooeatoeatn": 5229,
      "▁ottotaieeeeae": 5230,
      "etnst": 5231,
      "▁eaaaieetsee": 5232,
      "▁thtn": 5233,
      "▁eaieafteoaiaae\n": 5234,
      "eaieatn": 5235,
      "eeaetmtn": 5236,
      "▁oodaehtecaieaeouoo": 5237,
      "▁lloooostaie\n": 5238,
      "▁etaeae\n": 5239,
      "▁oohtoteaee": 5240,
      "▁teadoteeaeteatoebuto": 5241,
      "saiee": 5242,
      "▁eeadoteeae\n": 5243,
      "eaioeaiooetiaaeemtc": 5244,
      "▁ee\n": 5245,
      "taie1": 5246,
      "▁oteatooteeaeoooo": 5247,
      "▁eaiaaeeatn": 5248,
      "▁eaastaie1": 5249,
      "aiaaeeto": 5250,
      "aiaaeetouto": 5251,
      "▁taetnotaieerto": 5252,
      "▁eadtaieesoooo": 5253,
      "▁oeaieasaie\n": 5254,
      "▁aeeeaeeesodsod": 5255,
      "▁tnlo\n": 5256,
      "▁ettea": 5257,
      "▁etteaf": 5258,
      "▁teae": 5259,
      "▁eatothaietktttn": 5260,
      "▁erdoohthoohneerto": 5261,
      "▁toeeaotdoeaieaieeeaaetmtn": 5262,
      "▁eatooeoteea": 5263,
      "eaaeethtn": 5264,
      "▁afaeaaeethtn": 5265,
      "▁tneaieaiaae": 5266,
      "▁aieaeoeaeeae": 5267,
      "▁eloeadar\n": 5268,
      "▁oeaieas": 5269,
      "▁erdhrhtne": 5270,
      "▁eaitfeetaieetclo": 5271,
      "eaieeeaieeeto": 5272,
      "▁taeeeaieeeaieeeto": 5273,
      "▁teevottootto": 5274,
      "▁eadaieesodsod": 5275,
      "▁eatnaieee0\n": 5276,
      "▁thoscouoo": 5277,
      "▁eaatoteatnaieae": 5278,
      "▁eetattt\n": 5279,
      "▁oefaieee": 5280,
      "▁oodaieellollooooo": 5281,
      "aieaehn": 5282,
      "▁oeaieasaieaehn": 5283,
      "▁fsoeo\n": 5284,
      "▁thotho\n": 5285,
      "▁taieeeouoo\n": 5286,
      "▁oetodieemtn": 5287,
      "▁aieaeoieaeeiehn": 5288,
      "aieaieeaieaiee": 5289,
      "▁toeeaotdtso": 5290,
      "▁toeeaotdtsod": 5291,
      "▁eatoeatottt": 5292,
      "▁oohaietaie\n": 5293,
      "▁eaasoteea\n": 5294,
      "▁ieeaaseeaieaieaie": 5295,
      "▁eaeeasoooo\n": 5296,
      "▁aieaeoeatottea": 5297,
      "▁oetieeaseea": 5298,
      "▁faetthooerorhtn": 5299,
      "▁oeeeaieteaee": 5300,
      "▁ethototoeaeeeaeeeduto": 5301,
      "▁toeeaotdoeotohoest": 5302,
      "eaeaieeeto": 5303,
      "▁aeeao\n": 5304,
      "▁oeeeaieaieaeaieieown": 5305,
      "▁ieeaaseeeaeeasoooo": 5306,
      "▁eeadtetn": 5307,
      "▁tnoieemto\n": 5308,
      "▁oetrtoetn": 5309,
      "tnttt": 5310,
      "▁eatototoeatoetnteer": 5311,
      "▁oeoteertoaieeetc\n": 5312,
      "tthtn": 5313,
      "efatthtn": 5314,
      "etotefatthtn": 5315,
      "seetsee": 5316,
      "▁eatotseetsee": 5317,
      "▁eaeaetntnttt": 5318,
      "▁eatohohrtastoaie": 5319,
      "▁oeeeaieoteatoown": 5320,
      "▁toothre": 5321,
      "▁oeeeaietvtaieaeo": 5322,
      "eteatotjhn": 5323,
      "▁aieaeotn": 5324,
      "▁eaeoheteatotjhn": 5325,
      "▁aieaeasee": 5326,
      "▁ooaa": 5327,
      "▁teoteooietaseaa\n": 5328,
      "▁oodtm": 5329,
      "aeaieeea": 5330,
      "iodiodtaiee": 5331,
      "▁eeaelo": 5332,
      "▁eeadtaieetclo": 5333,
      "▁ottoottoohaieaeo": 5334,
      "▁aieeetoar\n": 5335,
      "▁eaieafhnasee": 5336,
      "▁oeoteaieeeathn": 5337,
      "eertouto": 5338,
      "▁eatoeatoottn": 5339,
      "▁eteemtnero": 5340,
      "▁toeeaotdeeaetmtn": 5341,
      "osttoeeaotdar": 5342,
      "▁ttaeaeaetn\n": 5343,
      "▁oodtmosttoeeaotdar": 5344,
      "eeeaeeef": 5345,
      "▁aotetc\n": 5346,
      "▁ooaaeaieeea": 5347,
      "▁teatotaoeeeae": 5348,
      "▁oodoeeae\n": 5349,
      "▁oeeeaiehottneaieote\n": 5350,
      "▁aieeeeaaaieae": 5351,
      "▁tmtsa": 5352,
      "▁eeadeaaietsee": 5353,
      "▁totoaiethtnouoo": 5354,
      "aieieea": 5355,
      "▁oodeaieafteoaiaae": 5356,
      "▁oodtotnaie": 5357,
      "▁eteuto": 5358,
      "▁eaaeeeeaaeedeaaeee": 5359,
      "▁eadtaieieea": 5360,
      "▁oelloaieae": 5361,
      "▁oeoteeteaieatn": 5362,
      "▁tktooh": 5363,
      "▁tktoohero": 5364,
      "▁tnoho\n": 5365,
      "▁eadoeoteaie\n": 5366,
      "▁eadietfaafa": 5367,
      "▁ohn\n": 5368,
      "▁ieeaaseeeeta\n": 5369,
      "▁rhtn\n": 5370,
      "▁toeeaotdeaioteatn": 5371,
      "▁taoetieeaseea": 5372,
      "▁aieaeoeaaefeatn\n": 5373,
      "▁thaieaeooooaehtecaieaeaiaae": 5374,
      "▁eaitfeeoeaieaieeeaaetmtn": 5375,
      "tjeatn": 5376,
      "▁taseeettjeatn": 5377,
      "eaieetaieeeto": 5378,
      "▁iebaieaieaieeea\n": 5379,
      "▁eaaelrt": 5380,
      "▁erdoeotaseaaie": 5381,
      "▁aieeetoto": 5382,
      "▁aieeetotohn": 5383,
      "▁ottoetaieeeto": 5384,
      "▁aieeetoetasee": 5385,
      "▁oodoeotasttmntaee\n": 5386,
      "▁eaieaf\n": 5387,
      "▁eaeeeaeeef": 5388,
      "▁eeadthooteeafa": 5389,
      "eaeteb": 5390,
      "eeaesttetn": 5391,
      "▁teoteoeaeeasoooo": 5392,
      "▁oodtttmtn\n": 5393,
      "▁oeoteaieeeathneaeaieeeto": 5394,
      "eieeatn": 5395,
      "▁asaoeoteaieeuto": 5396,
      "▁aieedst\n": 5397,
      "▁teieeatn": 5398,
      "taeieetc": 5399,
      "▁ohaieeoeto": 5400,
      "▁eaaeaieeaoohgte": 5401,
      "▁taaieeatneae\n": 5402,
      "▁ooaeaiaaeeatn": 5403,
      "▁aieaaeto\n": 5404,
      "▁oeteaaeeeeeadetaiaaeeouoo\n": 5405,
      "▁aietneaseear": 5406,
      "▁oetodtneaseear": 5407,
      "▁aieeeea1": 5408,
      "▁eaaietetn\n": 5409,
      "loteea": 5410,
      "▁oohtotot": 5411,
      "▁aieaeooietaseaa": 5412,
      "eatoa": 5413,
      "aslo": 5414,
      "eaitoaslo": 5415,
      "▁oohtototeatoa": 5416,
      "▁oohtototeatoaeaitoaslo": 5417,
      "▁eadoeaie": 5418,
      "▁oetodtneaseearouoo": 5419,
      "▁aieaeadethno": 5420,
      "oott": 5421,
      "aieelrt": 5422,
      "▁eaeeaieeeauto\n": 5423,
      "aotohaieelrt": 5424,
      "▁erdaotohaieelrt": 5425,
      "▁eeaar\n": 5426,
      "▁oodeatotn": 5427,
      "▁oodeatotnrodto": 5428,
      "otetc": 5429,
      "oohthosc": 5430,
      "▁aieoteetn": 5431,
      "▁toeeaotdaieaie": 5432,
      "aieeaotetc": 5433,
      "▁oodeatn": 5434,
      "▁tmeuo": 5435,
      "▁tootgte": 5436,
      "oohtc": 5437,
      "▁etaoaiaae\n": 5438,
      "▁oeeeaielloooollooooaieaeo": 5439,
      "▁aietaieteetn": 5440,
      "▁oietoest\n": 5441,
      "▁ieeaaseeeaaeee\n": 5442,
      "ohetktttn": 5443,
      "▁ooaot": 5444,
      "qe": 5445,
      "▁aeaqe": 5446,
      "▁tootkttieemtneae": 5447,
      "▁teoteoaieae": 5448,
      "▁taeeaesttetn": 5449,
      "▁oodafa": 5450,
      "▁erdoeotasttmntaee": 5451,
      "▁eatohottneaieote": 5452,
      "▁taeaeto\n": 5453,
      "▁aieeetotetn\n": 5454,
      "▁oodoeoteaieeea": 5455,
      "▁eaaegggeae": 5456,
      "▁oodeaier\n": 5457,
      "▁ieeeeawn\n": 5458,
      "eaieaieaieaseaa": 5459,
      "▁iebloaieaeo\n": 5460,
      "▁etaeertouto": 5461,
      "▁toeeaotdtjaie": 5462,
      "▁aieeaseeao": 5463,
      "▁oeeeaieeaaeaieeeae": 5464,
      "▁aietoe\n": 5465,
      "▁eatolotothn": 5466,
      "▁ohaoaieaaeeaieote\n": 5467,
      "▁ietaieeaieagte": 5468,
      "▁oetodeasto\n": 5469,
      "▁tooieemoseaie": 5470,
      "▁sto": 5471,
      "▁aehtecaieeetn": 5472,
      "▁oodatotthaieaeoooo": 5473,
      "etoteieeaatn": 5474,
      "▁eatoeea": 5475,
      "▁llooooaieea": 5476,
      "tnoheelo": 5477,
      "patnoheelo": 5478,
      "eaaieaieeaieaiee": 5479,
      "▁thaieaeooooeaaieaieeaieaiee": 5480,
      "▁aeohetotnaieee": 5481,
      "▁eaatatc\n": 5482,
      "▁gtegte": 5483,
      "▁gtegtegte": 5484,
      "▁tneaiesa\n": 5485,
      "▁tslo": 5486,
      "▁aieeaetrto": 5487,
      "eroeasa": 5488,
      "▁asaaieeaotetc": 5489,
      "▁eeaeaeeaeroeasa": 5490,
      "▁hottneeto": 5491,
      "▁aieeaetrtoeaetrto": 5492,
      "▁oteatoeaaietsee": 5493,
      "▁afaaieeemtc": 5494,
      "▁taieetcloeeatn": 5495,
      "▁eaieeeatneaseaa\n": 5496,
      "aieasado": 5497,
      "▁ieeaaseethtaeiee": 5498,
      "▁aiiaeaieelae\n": 5499,
      "▁eaafaeteae\n": 5500,
      "▁ieeaaseeaie\n": 5501,
      "▁taeaeo": 5502,
      "taeuto": 5503,
      "▁ieeaaseetaeuto": 5504,
      "▁etlotaoeeeae\n": 5505,
      "▁oodtaoeeeaeea\n": 5506,
      "▁aieaeemtn": 5507,
      "ooa": 5508,
      "▁eaaetotefatthtn": 5509,
      "▁oodiebeaeeemtn": 5510,
      "▁aieeeeto\n": 5511,
      "tnohouoo": 5512,
      "▁teeafaeae": 5513,
      "▁eaiaaeeerto\n": 5514,
      "▁toeeaotdasto": 5515,
      "▁toeeaotdtaoeeeae": 5516,
      "detaieeeto": 5517,
      "▁eeadoeoteaieeea": 5518,
      "▁faetgte": 5519,
      "▁paa": 5520,
      "▁staie0\n": 5521,
      "▁eadetoeaier": 5522,
      "▁eaieeaf": 5523,
      "▁eaieeeaeasatoto\n": 5524,
      "▁tootaiaaeieemoero\n": 5525,
      "▁eadeaatneaie\n": 5526,
      "▁aiaaeooa": 5527,
      "▁aiaaeooataoeeeae": 5528,
      "ieteaaie": 5529,
      "▁eatoaeertohn": 5530,
      "▁thaieaeooootnohouoo": 5531,
      "▁llooooeaetothn": 5532,
      "▁lloooohohohohn": 5533,
      "▁etaieaotasee": 5534,
      "▁afaaieeemtc1": 5535,
      "▁gteoeaieoher": 5536,
      "mtsa": 5537,
      "▁llollo": 5538,
      "eaieaeuto": 5539,
      "▁llolloeaieaeuto": 5540,
      "▁eaieatn\n": 5541,
      "▁tvtaieaeo\n": 5542,
      "▁toeeaotdoeoteaieetc\n": 5543,
      "otasatotetn": 5544,
      "▁tktaieee0": 5545,
      "▁taeaaieeee\n": 5546,
      "▁loteea": 5547,
      "ooea": 5548,
      "▁faetthooeroeaitfee": 5549,
      "▁oethohr\n": 5550,
      "▁tseeeaeeemtn": 5551,
      "▁eadtvo": 5552,
      "▁eaeiaettjhneaaeee\n": 5553,
      "▁toohoetaieeeto\n": 5554,
      "▁eaaoodeotea": 5555,
      "tohthoela": 5556,
      "▁aiestar0\n": 5557,
      "▁eaaeeaaeea\n": 5558,
      "▁eadoeote": 5559,
      "▁afatvtaieaeo": 5560,
      "aiaaellooootaoeeeae": 5561,
      "▁oetaehtecaieaeaiaae": 5562,
      "▁ooheaieaeto": 5563,
      "eaieegte": 5564,
      "▁eaapatnoheelo": 5565,
      "▁eaaooheetc": 5566,
      "▁llooooeaieafteoaiaaeaieeetc": 5567,
      "▁aieaieee1": 5568,
      "eaieegtef": 5569,
      "▁aieeetootohthoela": 5570,
      "▁eadtvoeaaeaieea": 5571,
      "▁taa\n": 5572,
      "▁eaaiet": 5573,
      "▁ottooohtotnaie": 5574,
      "▁oetetnaieec": 5575,
      "▁tasaie\n": 5576,
      "▁tmeuopa": 5577,
      "▁eaieeeaooheeeaaie\n": 5578,
      "▁tsfattsfatpa": 5579,
      "▁aieaeadoetotn": 5580,
      "▁erdieeaaseeeaioteato": 5581,
      "▁teoteoaieeeetnllorto": 5582,
      "oteaitfeeetopa": 5583,
      "▁eadtwn": 5584,
      "▁tktea": 5585,
      "aieaaiee": 5586,
      "eaieeasa": 5587,
      "▁aotohaieeatn": 5588,
      "▁aietaieetea": 5589,
      "eotas": 5590,
      "aeaieeasa": 5591,
      "▁ttaiaeaieeasa": 5592,
      "▁ttaiaeaieeasaeer": 5593,
      "▁ttaiaeaieelaeer\n": 5594,
      "▁ttaaea": 5595,
      "▁ttaaeaeaetn": 5596,
      "▁eeeaeeeaiee": 5597,
      "▁erdoteaitfeeetopa": 5598,
      "▁eaaeaitfe": 5599,
      "eaiaieeteatn": 5600,
      "▁eteaieuto": 5601,
      "oteeeaoteaie": 5602,
      "▁teetaieee\n": 5603,
      "▁eaaeaetaiee\n": 5604,
      "eotaseaaie": 5605,
      "▁oeeeaieotaietc": 5606,
      "▁eatohoaseea": 5607,
      "▁oeoteaieeouoo\n": 5608,
      "ooesttetn": 5609,
      "▁toeeaotdtneaieaieaieaseaa": 5610,
      "▁gteoohthosc": 5611,
      "▁eaaoohtotnaie": 5612,
      "▁eaieeaooesttetn": 5613,
      "▁teoteotsee": 5614,
      "hohooteatn": 5615,
      "aethohooteatn": 5616,
      "▁eadeaetaiee": 5617,
      "▁oeeeaietneaseear": 5618,
      "▁etta": 5619,
      "▁teatoetc": 5620,
      "▁tooieemotsiec": 5621,
      "▁toea": 5622,
      "▁eaeeasoooosac": 5623,
      "eaaaiaaeetouto": 5624,
      "▁toeeaotdtaiee": 5625,
      "▁eaeaieuto": 5626,
      "eaietaieeesoooo": 5627,
      "▁eatoeaeaie": 5628,
      "▁aieaeasee1": 5629,
      "eaaaieaietaoeeeae": 5630,
      "▁etaieeaeeasoooo\n": 5631,
      "eoteo": 5632,
      "▁teatoto": 5633,
      "▁gteoeotaseaaie": 5634,
      "taoeeeaeoooo": 5635,
      "▁eaitfe\n": 5636,
      "tnst": 5637,
      "▁sac\n": 5638,
      "teaieeaee": 5639,
      "eetoaie": 5640,
      "▁ootaiee": 5641,
      "▁oeoteetstoeoteea0\n": 5642,
      "▁oodeasa": 5643,
      "▁paeteaeaseeeae": 5644,
      "▁ooaeaateaieeaee": 5645,
      "▁oodeasa0": 5646,
      "hnoo": 5647,
      "▁ottothaitoetn": 5648,
      "▁eatoeatnoetiaaeemtc": 5649,
      "▁eutoar": 5650,
      "▁oohtooteeaeoooo": 5651,
      "eteatoeatn": 5652,
      "▁llooooaeaieeea": 5653,
      "▁taiee\n": 5654,
      "▁eaitfeeteaetc": 5655,
      "▁ohaoeaeheaeeaieero": 5656,
      "▁toeeaotdtsaie": 5657,
      "▁oeeeaieetn": 5658,
      "▁oeeeaieetneeb": 5659,
      "▁oodoeotaseaaie": 5660,
      "rodooaeaie": 5661,
      "▁teatotorodooaeaie": 5662,
      "▁etaie1\n": 5663,
      "▁eeaa": 5664,
      "▁eatoooheattaieeeto": 5665,
      "▁eeadgggtaitoe": 5666,
      "▁ooheeeaaie\n": 5667,
      "▁taieasado": 5668,
      "▁eaeoheaieot": 5669,
      "dthtnouoo": 5670,
      "dodthtnouoo": 5671,
      "▁eaeoheaieotdodthtnouoo": 5672,
      "▁oodtnoieetaie": 5673,
      "▁aieeteaieuto": 5674,
      "▁teoteooeote": 5675,
      "eeaote0": 5676,
      "ut": 5677,
      "▁oohteea": 5678,
      "▁toeatoo": 5679,
      "▁odloaie": 5680,
      "▁oodtaeieetsoooo": 5681,
      "▁oeotastoaie\n": 5682,
      "▁eaaeaieeetotaoeeeae\n": 5683,
      "▁aieaeoteetoaie": 5684,
      "▁totneeaote0": 5685,
      "▁tkteaeaietmtn": 5686,
      "▁oohetaiee": 5687,
      "▁oohetaieeetnst": 5688,
      "uotaieeesoooo": 5689,
      "▁teoteotseest": 5690,
      "▁oetaotasaietetn\n": 5691,
      "▁ieeaaseeoeto": 5692,
      "▁oodeatoeatn": 5693,
      "eaieaieeatn": 5694,
      "▁taeloeae": 5695,
      "eeetneeto": 5696,
      "▁oeoteaieestaie": 5697,
      "aieeaeeto": 5698,
      "▁eaiaaeeertot": 5699,
      "aieeaeetoeae": 5700,
      "▁eaaeedtmtsa": 5701,
      "▁ajaie": 5702,
      "▁taetaieeohouoothn\n": 5703,
      "▁tseetotoaiesa\n": 5704,
      "▁ethotsaiee": 5705,
      "▁llooooiodiodtnttt": 5706,
      "▁oodeaaetcohasa": 5707,
      "▁teevtnst": 5708,
      "▁eatoeaeaieotdero\n": 5709,
      "aii": 5710,
      "eertoero": 5711,
      "▁oodeaaeeetof": 5712,
      "ooteeaeterduto": 5713,
      "iaetaieee": 5714,
      "▁oohgte\n": 5715,
      "eeaeheaeeaieero": 5716,
      "▁lloooooet": 5717,
      "tnoh": 5718,
      "▁aieaeeaeheaeeaieero": 5719,
      "▁tseeea": 5720,
      "▁oeteaaieeeatsee\n": 5721,
      "▁aieaest\n": 5722,
      "▁llooooaieeaaeee": 5723,
      "▁eaeouoo\n": 5724,
      "▁eaetr": 5725,
      "▁ooheattaieeeto\n": 5726,
      "▁etaieoeotohoest": 5727,
      "▁eaetrtotetn": 5728,
      "▁thoao\n": 5729,
      "▁ettataoeeeae": 5730,
      "ttoohst": 5731,
      "▁eaitfeeotoaoa": 5732,
      "aeieeeadtjhn": 5733,
      "▁ttatoeeaotdeer\n": 5734,
      "▁eeaaetaief": 5735,
      "▁eaaieteertoero": 5736,
      "▁lloooooetaieeaeetoeae": 5737,
      "▁etotot": 5738,
      "▁etoeaier\n": 5739,
      "▁etototototn": 5740,
      "▁iebttmon": 5741,
      "▁aieeaedhohreae": 5742,
      "aexxeae": 5743,
      "▁eaeohaexxeae": 5744,
      "hohrteatn": 5745,
      "▁oodaieeeaaetnrodto": 5746,
      "▁oodoheaieeea": 5747,
      "▁paoeoteaseeexeceee": 5748,
      "▁aieaeooteeaeterduto": 5749,
      "▁gtetmeuaiee\n": 5750,
      "▁aieeet": 5751,
      "▁afao": 5752,
      "▁toeeaotdoeoteaieeaee\n": 5753,
      "▁eaitfeeea": 5754,
      "eaiaieeaieee": 5755,
      "▁erdtneaie": 5756,
      "▁aieaieaieaieeatn": 5757,
      "▁ohatoeaaaiaaeetouto": 5758,
      "▁tevown": 5759,
      "▁etaiethtn": 5760,
      "▁thaietcst": 5761,
      "▁aieeetoeaeeemtn": 5762,
      "▁oohtoietfaafa": 5763,
      "caiee": 5764,
      "▁eetuto": 5765,
      "▁aieeaeeae": 5766,
      "▁aieaeogggaitoemoomoou": 5767,
      "▁eatneatoeatn\n": 5768,
      "▁oodta": 5769,
      "otcaiee": 5770,
      "▁oohaotasee": 5771,
      "▁eee\n": 5772,
      "▁teatoetcotcaiee": 5773,
      "▁toeeaotdeaeaieeeaduto\n": 5774,
      "▁teoteoood": 5775,
      "▁aieaeadeeaeaieeeto\n": 5776,
      "▁tootohouoothn\n": 5777,
      "▁ietotaiaoteaiee\n": 5778,
      "▁efametaieeeto\n": 5779,
      "▁aiaaeeaeeasoooo": 5780,
      "▁afatnoh": 5781,
      "▁afatnoh0": 5782,
      "▁otiebat\n": 5783,
      "▁ttaieeeea\n": 5784,
      "doouoo": 5785,
      "eaieaieeea": 5786,
      "▁ieemtn": 5787,
      "▁aiiohaseeoeltto": 5788,
      "▁eaeiaettjhot": 5789,
      "tttmon": 5790,
      "▁oeoteetttmon": 5791,
      "▁oeoteetttmonoeoteea": 5792,
      "▁oohtoeaeaiaaeaieeeto": 5793,
      "▁aieaeoterduto": 5794,
      "▁eaaeeetneae\n": 5795,
      "▁eaaststst": 5796,
      "▁oodaiaaetsaieaeo": 5797,
      "▁oodtoott": 5798,
      "▁oodtootteae": 5799,
      "▁ootaieeeaeuto": 5800,
      "rhto": 5801,
      "▁teatngte\n": 5802,
      "teeaaaaeoooo": 5803,
      "▁eaeoheaieote": 5804,
      "▁rto\n": 5805,
      "▁eatoaieee2\n": 5806,
      "oohetktttn": 5807,
      "▁tneaieaietoto": 5808,
      "▁oohthnaie\n": 5809,
      "▁eeadetoeaier": 5810,
      "▁oohaeertohn": 5811,
      "▁eaaoodaieeetstt": 5812,
      "ietao": 5813,
      "eeuto": 5814,
      "▁gggaiee": 5815,
      "▁eaelo\n": 5816,
      "▁eaeeelo": 5817,
      "▁aieaieeaee": 5818,
      "▁oodeaaef": 5819,
      "▁tseeaot": 5820,
      "▁eaiaaeead": 5821,
      "▁eaeeeloieeeea": 5822,
      "▁ottoottooheeaeo": 5823,
      "▁oodietn0\n": 5824,
      "▁llooooe": 5825,
      "▁eaaeedottn": 5826,
      "▁oodouoto": 5827,
      "▁eaieafteoaiaaeaieeetc\n": 5828,
      "▁eaaststst1": 5829,
      "▁eaaeaieeataeaieetn": 5830,
      "loeadtetn": 5831,
      "▁ottoottoohtaieeesoooo": 5832,
      "▁llooooeloeadtetn": 5833,
      "▁otasatotetn": 5834,
      "▁ooatefsoeo": 5835,
      "▁tooieemoaiea": 5836,
      "thnerto": 5837,
      "▁oodeeetneeto": 5838,
      "eaaeedhotatttn": 5839,
      "▁ottoaethohooteatn": 5840,
      "▁totn2\n": 5841,
      "▁oodieeaaseeeaioteato": 5842,
      "▁eaeeasooooeaaeedhotatttn": 5843,
      "▁oeoteaiear": 5844,
      "▁toeeaotdaiaaellooootaoeeeae": 5845,
      "oetofaaslo": 5846,
      "▁twn\n": 5847,
      "▁gggaieeeatoar": 5848,
      "▁oesttnoo\n": 5849,
      "atn": 5850,
      "eetnst": 5851,
      "eteaie": 5852,
      "eteaieutoouoo": 5853,
      "▁oeotdaieetstof": 5854,
      "▁eaieeatn\n": 5855,
      "▁oetaieeetoar": 5856,
      "▁teoteooodeaieeaoero": 5857,
      "stoaead": 5858,
      "stoaeadaeae": 5859,
      "▁eatotneaseear": 5860,
      "stostoaeadaeae": 5861,
      "▁oodstostoaeadaeae": 5862,
      "llortoeta": 5863,
      "▁oeotasttmntaeear\n": 5864,
      "▁eaaeaseetetn\n": 5865,
      "▁teoteotaa": 5866,
      "▁oeeeaievea\n": 5867,
      "▁oodetnaieec": 5868,
      "▁aotohaieaieeeto\n": 5869,
      "▁eohaoooooetn": 5870,
      "▁aieeeaetaiee": 5871,
      "▁tseeoeotohoest": 5872,
      "▁gteterduto": 5873,
      "▁aieeeaetaiee1": 5874,
      "▁tataeieetc": 5875,
      "aotasaie": 5876,
      "eoteato": 5877,
      "▁lheoteato": 5878,
      "▁lheoteatollortoeta": 5879,
      "▁gtetoo": 5880,
      "▁oodtneaseaa": 5881,
      "▁ottotaeieeeadtjhn": 5882,
      "▁oelttost": 5883,
      "▁eaetaieeoooo": 5884,
      "▁ttsoeotaiee": 5885,
      "▁etaieai": 5886,
      "▁toeeaotdeief": 5887,
      "▁ttaaieeeero\n": 5888,
      "▁eeeaef": 5889,
      "eaieeeaaetnrodto": 5890,
      "▁oeeeaietjhn\n": 5891,
      "▁aieeaieeeaaetnrodto": 5892,
      "▁aieeeo": 5893,
      "▁eatooh": 5894,
      "▁aieoteatn": 5895,
      "eoteatn": 5896,
      "aieerto": 5897,
      "▁afalotothn": 5898,
      "etofaaslo": 5899,
      "▁oodlololotnttt": 5900,
      "▁tktaieeaee": 5901,
      "▁eaieafhneaieote": 5902,
      "▁aieeasadoouoo": 5903,
      "▁toeeaotdeae": 5904,
      "▁eadoeaiehrdtetn": 5905,
      "▁ieteaaetotjhnasee": 5906,
      "▁eaaeaieeeto": 5907,
      "▁eaaotasatotetn": 5908,
      "▁teadeae": 5909,
      "▁asaoeoteaieeaee": 5910,
      "▁eaaeaieeetoieemtn": 5911,
      "tneaseear": 5912,
      "▁aieeoheaieeea1": 5913,
      "▁oodtaiee\n": 5914,
      "▁tooteatn": 5915,
      "▁taaieteetn\n": 5916,
      "▁oeoteaseeexeceeeeaaeto": 5917,
      "▁eaiaaeeademvo": 5918,
      "▁oteatoaeaie": 5919,
      "▁tktaiee": 5920,
      "▁oodaieeetsttaiaae": 5921,
      "▁hrdtetn": 5922,
      "▁llooooaiaaeeaeoteea": 5923,
      "▁erdiodiodtaiee": 5924,
      "▁oetodeaeae\n": 5925,
      "paeaier": 5926,
      "▁erdaii": 5927,
      "▁tktaieeteeae": 5928,
      "▁erdaiiasaieown": 5929,
      "▁toeeaotdieteaaie": 5930,
      "▁gteooheattaieeeto": 5931,
      "▁tseeeaeaieotdttt": 5932,
      "▁aieoetotn": 5933,
      "▁oeta": 5934,
      "toaieerto": 5935,
      "▁paatoaieerto": 5936,
      "▁aieeetoaieeeto": 5937,
      "ieba": 5938,
      "▁aehtecaieaeaiaa": 5939,
      "▁oeotohasa\n": 5940,
      "▁eatoetn1": 5941,
      "▁aehtectvttt": 5942,
      "▁toeaieetaieeeto": 5943,
      "aieeatotmtn": 5944,
      "▁oetaaieeatotmtn": 5945,
      "▁teoteoeaaeaieaeto": 5946,
      "aaote": 5947,
      "▁gteaie\n": 5948,
      "aehtecaaote": 5949,
      "etnoeta": 5950,
      "▁eadaehtecaaote": 5951,
      "▁ottoeaeteb": 5952,
      "▁paeaetoeae\n": 5953,
      "gtetaieeesoooo": 5954,
      "▁eaagteaie": 5955,
      "eteaieeea": 5956,
      "▁ohatooeteaieeea": 5957,
      "▁aieeeeaaetaief": 5958,
      "paeteaeasee": 5959,
      "▁iebtaaieeeto\n": 5960,
      "aoeftac": 5961,
      "▁oeeeaieeaaoeftac": 5962,
      "▁eatopaeteaeasee": 5963,
      "▁aieoeteatoeatn": 5964,
      "▁llooooiaeaieela\n": 5965,
      "▁aseaa\n": 5966,
      "taieeesoooo0": 5967,
      "▁aiaaeeaetaiee\n": 5968,
      "▁teeafaeaaaieaietaoeeeae": 5969,
      "▁etaieaieaaeto": 5970,
      "▁aieeetoaieeetogtetaieeesoooo": 5971,
      "▁eadst\n": 5972,
      "▁toeeaotdeaeb": 5973,
      "▁gteeahn": 5974,
      "▁gtetooteethn": 5975,
      "taeedtjhn": 5976,
      "▁oodhottniebtjho": 5977,
      "▁aieeaot": 5978,
      "eaiehr": 5979,
      "▁tootohthoela": 5980,
      "▁eaaaieaietaoeeeaeaieeetc\n": 5981,
      "▁oeeeaieeaataoeeeaehn\n": 5982,
      "▁etaieeaeeae": 5983,
      "▁taetn": 5984,
      "eohaooooetasaa": 5985,
      "▁erdtneeaaie": 5986,
      "▁taieeeetno": 5987,
      "▁taoeeeaie\n": 5988,
      "▁eaaeelo": 5989,
      "hiaec": 5990,
      "▁ottoaieaieaieeatn": 5991,
      "▁eaalloooo": 5992,
      "▁oeaierto\n": 5993,
      "▁llooooeetuto": 5994,
      "eaieaieaieeea": 5995,
      "▁aieaotasee": 5996,
      "▁staieeatn\n": 5997,
      "▁ttsoeotjhnaiaae\n": 5998,
      "▁ieeaaseeaieaieaieeea": 5999,
      "▁aieae0\n": 6000,
      "▁aieeaotetc0": 6001,
      "▁aietec": 6002,
      "▁eohaooooeatoaieee": 6003,
      "▁taaieaaiee\n": 6004,
      "▁otaiatotetnasa\n": 6005,
      "▁eaiaaeeertotvtaieaeo": 6006,
      "▁ooatneaseear": 6007,
      "▁eaieatoar": 6008,
      "▁teeasaaroetmtn\n": 6009,
      "eaeeb": 6010,
      "eaeeboooo": 6011,
      "▁erodtno\n": 6012,
      "▁oeeeaieeotea\n": 6013,
      "▁gtetetnaieasaie": 6014,
      "▁eaaaieeetnasa\n": 6015,
      "aiaaeeaetaiee": 6016,
      "▁aieero": 6017,
      "▁eeado": 6018,
      "▁teatoarteea": 6019,
      "ooheetc": 6020,
      "etof": 6021,
      "▁oetototetn\n": 6022,
      "▁teoteoaieaaiee": 6023,
      "▁eatoeaaeeaaeea": 6024,
      "▁toeeaotda": 6025,
      "▁gtehre\n": 6026,
      "▁afaoeaieasaie": 6027,
      "▁afaoeaieasaie0": 6028,
      "▁etottnaiaae": 6029,
      "ietaodtoaiaaetsaieaeo": 6030,
      "▁eaetoeadtvost\n": 6031,
      "eaieaest": 6032,
      "▁tmtieemosa\n": 6033,
      "▁taoohetktttn": 6034,
      "▁oeaiehrdtvo": 6035,
      "▁oodoeoteaseeexeceee": 6036,
      "▁eatooeaiaieeaieee": 6037,
      "▁llooooieeataeeifaea": 6038,
      "▁eaaeeaeasee": 6039,
      "aietaieeesoooo": 6040,
      "▁aielhetktttn": 6041,
      "soe": 6042,
      "▁eaateeaaaaeoooo": 6043,
      "eaieoteaie": 6044,
      "▁oetotn\n": 6045,
      "▁teoteoeasatn\n": 6046,
      "▁toeeaotder": 6047,
      "▁faetetno\n": 6048,
      "aieeaieaeo": 6049,
      "▁aieeaieagte": 6050,
      "aieeaieaeoaieaeo": 6051,
      "▁aieiettc": 6052,
      "ottoottoohst": 6053,
      "▁ooheaieaf": 6054,
      "▁eaeeasooootneaieaietoto\n": 6055,
      "▁oteeetc": 6056,
      "▁tefsoe": 6057,
      "ooelotac": 6058,
      "▁tefsoeooelotac": 6059,
      "▁oodeaaieeeeto": 6060,
      "▁aioteetnsce\n": 6061,
      "▁oodieteaaetotjhn": 6062,
      "▁tnoetofaaslo": 6063,
      "▁tooieemoterduto": 6064,
      "▁oteetnaieee": 6065,
      "▁ohaotmeu": 6066,
      "▁aieeetooteieeaatn": 6067,
      "▁oetodthnoo": 6068,
      "eeaieaest": 6069,
      "▁taeieeaieaest": 6070,
      "etaieeeouoo": 6071,
      "▁tso": 6072,
      "▁oeotegte": 6073,
      "▁oodouoo": 6074,
      "▁teatnaiee\n": 6075,
      "▁llooooasoteafa\n": 6076,
      "▁otasatotetneta": 6077,
      "ethre": 6078,
      "▁ieemosa\n": 6079,
      "▁eaiaaeoteatn": 6080,
      "eatnaiee": 6081,
      "▁eaeiaettjhoteatnaiee": 6082,
      "▁oeeeaieoeaierto": 6083,
      "▁iebeaeeemtn\n": 6084,
      "▁toeeaotdaoot": 6085,
      "▁emtc\n": 6086,
      "▁oohfaet": 6087,
      "▁aieeiodiodtaoeeeae": 6088,
      "▁aieeetoeaeaiaaeaieeeto": 6089,
      "▁toeeaotdthneeea\n": 6090,
      "▁eaitfeeeaethre": 6091,
      "▁gteloaie\n": 6092,
      "▁aieeeaieaie": 6093,
      "▁eaetrtopa": 6094,
      "▁erdeaaeaieeetotaoeeeae": 6095,
      "▁aieeee": 6096,
      "▁tseeetktttn": 6097,
      "▁faetthooeroeatn": 6098,
      "▁eaaaiaaeeaetaiee": 6099,
      "▁asatoteatnaieae": 6100,
      "▁taseaie": 6101,
      "▁oeeeaietneeae": 6102,
      "▁eaeoteeatvoeae": 6103,
      "▁aieaeoeaaietsee": 6104,
      "▁faeteaeoetmtn\n": 6105,
      "▁teoteooohaieie\n": 6106,
      "eafa": 6107,
      "eeaaieea": 6108,
      "▁toeeaaieea": 6109,
      "▁taeaeafa": 6110,
      "▁toeeaaieeaseeao": 6111,
      "▁aehtecaieaeaiaadetaieeeto": 6112,
      "▁oeaieatmtn": 6113,
      "▁eaaaieeaiaaehn": 6114,
      "erhtn": 6115,
      "teetn": 6116,
      "eaieeer": 6117,
      "aseaieeer": 6118,
      "▁ttaaseaieeer": 6119,
      "etaieeieb": 6120,
      "▁iebetaieeieb": 6121,
      "▁ottoatot": 6122,
      "▁teoteotaieieeasa": 6123,
      "▁ttaeaaietsee": 6124,
      "▁ttaeaaietseeeer": 6125,
      "▁iettc\n": 6126,
      "▁erdeeatn0": 6127,
      "▁oodtho": 6128,
      "▁eatooeoteaieeea": 6129,
      "▁aieaeoaieaieaieeea": 6130,
      "▁eaeaetn\n": 6131,
      "▁tneertoown\n": 6132,
      "▁oodtnst": 6133,
      "haeadoelotac": 6134,
      "▁eaahaeadoelotac": 6135,
      "▁otaiatotetnethotc": 6136,
      "eeetof": 6137,
      "▁eatoeaeaieoheloeae": 6138,
      "▁teetn0\n": 6139,
      "▁oodtneaseear": 6140,
      "▁eatoeaieaie": 6141,
      "▁aieieeataeeifaea": 6142,
      "▁toeeaotdiaee": 6143,
      "▁tsfattsfattaoeeeae": 6144,
      "▁eaataieetclo": 6145,
      "▁aieestaieoooo\n": 6146,
      "▁oetodtcteetohohaetn": 6147,
      "eatotoe": 6148,
      "teaewn": 6149,
      "▁oohtoetno\n": 6150,
      "▁taieeooheetc": 6151,
      "▁eohaooooteaewn": 6152,
      "▁oeaiehroooo": 6153,
      "▁eaataoeeeaeoooo": 6154,
      "▁ohaopa": 6155,
      "▁oeeeaieeaioteatn": 6156,
      "▁erdiodiodtaoeeeae": 6157,
      "eaaieeeetoetaieeeto": 6158,
      "eaiehrdpa": 6159,
      "seaeaie": 6160,
      "▁eaieeaeoouoo\n": 6161,
      "aieea0": 6162,
      "▁aieaeotneaie": 6163,
      "▁oeoteaseeexeceeeeae": 6164,
      "▁thaieaeooootseaeaie": 6165,
      "▁hrdtsiec": 6166,
      "▁tteaie\n": 6167,
      "▁eaeeasooooaiaaeeaeoteea": 6168,
      "▁eaeeasoooothnaie": 6169,
      "▁oodto": 6170,
      "▁tteaown\n": 6171,
      "▁eaallooooaitoeaiaae": 6172,
      "▁taathnttt\n": 6173,
      "▁ooheer\n": 6174,
      "▁eaieeeateetn": 6175,
      "▁aietnohouoo": 6176,
      "▁llooooasto\n": 6177,
      "▁eaateeatn": 6178,
      "▁afataeeexaieeeto\n": 6179,
      "▁aehtectao": 6180,
      "eeeaeeeb": 6181,
      "▁aehtectaoeeeaeeeb": 6182,
      "aietfaafa": 6183,
      "▁eatooteeaeoshtn\n": 6184,
      "▁eatoaieeeouoo\n": 6185,
      "▁ohatoieetaie": 6186,
      "▁eeaeaeeaer\n": 6187,
      "▁aieetaiee": 6188,
      "▁aioteaedooootnoh": 6189,
      "▁etaieoohthosc": 6190,
      "▁toeeaotdtea": 6191,
      "▁oteeetiaee": 6192,
      "etottea": 6193,
      "▁aiepaeaier": 6194,
      "▁eaateaioteaeeoooo": 6195,
      "eoteaieeaee": 6196,
      "tttetaieeeto": 6197,
      "▁eaeeelottttttetaieeeto": 6198,
      "▁oohfiaeaieeeto\n": 6199,
      "▁aietc1": 6200,
      "▁toeeaotdaieea0": 6201,
      "▁aieaeadaeae": 6202,
      "▁oeeeaieteeatn": 6203,
      "▁eeaead": 6204,
      "▁eeaeaduotaieeesoooo": 6205,
      "▁toeeaotdoet": 6206,
      "▁teatnpt\n": 6207,
      "▁eaieeeatetnaieasaie": 6208,
      "▁taieeteaeaie": 6209,
      "▁eetapa": 6210,
      "▁oetiaaeememeaaeeeto": 6211,
      "▁oodaieaeasee": 6212,
      "▁oeeeaiehoaseea": 6213,
      "▁aietoeouoo\n": 6214,
      "▁eaeeertothtn\n": 6215,
      "▁toeatooar": 6216,
      "▁aieeeoeoteaieeaee": 6217,
      "▁ttsoeotjhnetaie": 6218,
      "▁tseeoohthosc": 6219,
      "▁ieteaefa\n": 6220,
      "▁gteaiea": 6221,
      "▁eatoeaieetn": 6222,
      "▁gteaieasee": 6223,
      "▁aieetaieeeeuto": 6224,
      "▁ooheerto\n": 6225,
      "▁eaaeaieeead": 6226,
      "eoteoeatotoe": 6227,
      "▁tneerto": 6228,
      "etoeae": 6229,
      "▁aieeeeaetoeae": 6230,
      "▁aieeeatottea": 6231,
      "▁tseeoteea": 6232,
      "▁aieteoteoeatotoe": 6233,
      "▁ooaeaieatn": 6234,
      "toooo": 6235,
      "eaitoooo": 6236,
      "▁patneaieaietoto\n": 6237,
      "▁otetaieee\n": 6238,
      "aaotasee": 6239,
      "▁eetmetaieeeto": 6240,
      "▁oodotetoaiaae": 6241,
      "▁ttie\n": 6242,
      "▁aieasee": 6243,
      "▁aieeeaetntc": 6244,
      "▁teaieeaee\n": 6245,
      "▁aieaseetaieeesoooo": 6246,
      "▁oteetar\n": 6247,
      "eaitoooooe": 6248,
      "▁llooooetoeaier": 6249,
      "▁tseethetsc": 6250,
      "▁tneaseaa": 6251,
      "▁etno0\n": 6252,
      "▁teetoown": 6253,
      "▁tnaietc": 6254,
      "▁eaieaieaieftjhn": 6255,
      "toetaieeeto": 6256,
      "▁oohfaetieeohhn": 6257,
      "▁tseeoest": 6258,
      "eftc": 6259,
      "mst": 6260,
      "eaieatothaieeeto": 6261,
      "ohhre": 6262,
      "▁oeoteertottea\n": 6263,
      "▁etaieemst": 6264,
      "▁oodttea": 6265,
      "▁eaiaaeetoiecown\n": 6266,
      "▁oeaiehrdtvoeae": 6267,
      "▁ttaeaieaiee": 6268,
      "▁ttaeaieaieeer": 6269,
      "▁taeuoafa": 6270,
      "gtet": 6271,
      "aietseegtet": 6272,
      "aietseegtetvo": 6273,
      "▁eaaeedouoo": 6274,
      "▁eaaetaieouoo": 6275,
      "▁oteeetegggeae": 6276,
      "▁eeaeaieeeto\n": 6277,
      "▁erdeaaaieeetn": 6278,
      "▁gteeeta": 6279,
      "▁afataieeesoooo0": 6280,
      "▁oeaieeea": 6281,
      "▁oeaieeeatotmtn": 6282,
      "▁aiiohaseethnaie": 6283,
      "▁eohaooooeelo\n": 6284,
      "▁eeadeaaaietn": 6285,
      "▁gteeeta1": 6286,
      "▁ieteaaie\n": 6287,
      "▁tseeeae0": 6288,
      "▁oetodhtahn": 6289,
      "eaieotdeaeloaiaae": 6290,
      "▁tathrtoouoo": 6291,
      "▁oesttehreown\n": 6292,
      "tneeae": 6293,
      "▁oefgte": 6294,
      "oteeaeetn": 6295,
      "▁teevoteato\n": 6296,
      "oteaedoooo": 6297,
      "eaioteaedoooo": 6298,
      "▁ohthaietco": 6299,
      "▁ttaafaeaioteaedoooo": 6300,
      "▁ttaafaeaioteaedooootetn": 6301,
      "▁aedtc\n": 6302,
      "▁eeeaaeeeafaeaieotdeaeloaiaae": 6303,
      "▁ettaieerto\n": 6304,
      "▁eohaooooietaieoeoteea": 6305,
      "▁eaitfeeeaa": 6306,
      "▁ohaoeaaeeeto": 6307,
      "▁aiaaellooootaoeeeae\n": 6308,
      "▁eaitfeeeaatneeae": 6309,
      "▁eaaeedllollomtaae\n": 6310,
      "▁afaietfaafa": 6311,
      "▁afaietfaafa0": 6312,
      "▁eaaietcar": 6313,
      "▁eohaooooetteatoteatnaeae": 6314,
      "eteaeaseeown": 6315,
      "▁aiiohaseeeteaeaseeown": 6316,
      "▁erdieeaasee": 6317,
      "▁ohatotsiec": 6318,
      "▁erdtnoetofaaslo": 6319,
      "▁ooaoteatnthoela": 6320,
      "▁oodtaieeeetno": 6321,
      "▁afaaieea": 6322,
      "haetnasee": 6323,
      "▁toeeaotdoteieeaatn": 6324,
      "▁oodeaoh": 6325,
      "▁oodeaohhrdst": 6326,
      "▁teoteoiebat\n": 6327,
      "▁llooooegggeae\n": 6328,
      "▁eeadiaeaieela": 6329,
      "▁oetofaaslotaoeeeae\n": 6330,
      "▁taoeeeaeown\n": 6331,
      "▁ooagggtaitoe": 6332,
      "▁oodaieetstof": 6333,
      "gggaieae": 6334,
      "▁oetoeaiehrdpa": 6335,
      "▁oeeeaieoeoteaieeuto\n": 6336,
      "▁aietnoh": 6337,
      "▁eaeaeeboooo": 6338,
      "▁afaeaeero": 6339,
      "▁tllo": 6340,
      "aseec": 6341,
      "totnrodoo": 6342,
      "▁tseeeatotnrodoo": 6343,
      "▁tlloaseec": 6344,
      "▁tsee0": 6345,
      "▁oodeeatn0": 6346,
      "▁oeeeaieaieee1": 6347,
      "▁eatoeaetothn": 6348,
      "▁eatoemtctaiee": 6349,
      "tngte": 6350,
      "▁tateatngte": 6351,
      "▁iec2": 6352,
      "▁aieaeoaieaieeecefe": 6353,
      "▁taoeotohoest": 6354,
      "▁eaaaiteatoe\n": 6355,
      "oteeeaown": 6356,
      "▁eteaieutoouoo\n": 6357,
      "dthiaec": 6358,
      "eaieotdthiaec": 6359,
      "▁aieaeoe": 6360,
      "▁aieaeoeaa": 6361,
      "▁oetodetnotaieerto\n": 6362,
      "▁aieeaaieeeatsee": 6363,
      "▁gteeeatn0\n": 6364,
      "▁taathnerto\n": 6365,
      "aieeaiaae": 6366,
      "▁eaeeasoooooohtc": 6367,
      "▁tneeae\n": 6368,
      "▁eaeae\n": 6369,
      "▁aiaiee\n": 6370,
      "▁iodiodtaiee\n": 6371,
      "odeaeeae": 6372,
      "▁oohtooodeaeeae": 6373,
      "▁erdtotoeae": 6374,
      "▁oesttehaetn\n": 6375,
      "eaeoteeeaown": 6376,
      "▁tstt": 6377,
      "▁eaaetfeteaieafuto\n": 6378,
      "▁etahre\n": 6379,
      "▁eatooohtotnaie": 6380,
      "▁eaaeatotoeaiaiee": 6381,
      "▁eaie\n": 6382,
      "▁erdloaie": 6383,
      "eaieohetktttn": 6384,
      "▁ttsoeotjaie\n": 6385,
      "▁eo": 6386,
      "ietsodsod": 6387,
      "▁oodtmostaieae": 6388,
      "ietaseaaf": 6389,
      "▁eoietaseaaf": 6390,
      "▁erdtthn": 6391,
      "▁taoeeeaeea": 6392,
      "▁eaattea": 6393,
      "▁aieaeadoeotohasa": 6394,
      "▁ieeaaseeot": 6395,
      "▁ottoaieae": 6396,
      "▁oodtoetasee": 6397,
      "▁ottooeot": 6398,
      "▁erdieeaaseethnaie": 6399,
      "aieetc": 6400,
      "oteown": 6401,
      "▁eaieoteown": 6402,
      "▁taieteetn\n": 6403,
      "▁teoteotaathnerto": 6404,
      "▁taieeaasee\n": 6405,
      "▁oestteeaaeeeto\n": 6406,
      "▁gteseetpa\n": 6407,
      "aedtc": 6408,
      "▁teoteoaieeeeta\n": 6409,
      "▁eatooohaieie": 6410,
      "▁etaieeaaeeetof": 6411,
      "▁aieeaaeaieeetn": 6412,
      "▁gtehaetnasee": 6413,
      "▁etaieeaaeeetofst": 6414,
      "▁eatothettooeeeaie": 6415,
      "▁oohtaeieetsoooo\n": 6416,
      "▁taieeesoooo\n": 6417,
      "▁oodaitfe": 6418,
      "▁oodeaieeaoero": 6419,
      "▁loteetn": 6420,
      "▁eaeeelottteaaietsee": 6421,
      "▁toeeaotdaieae0": 6422,
      "▁eaieaeaier\n": 6423,
      "eeaduo": 6424,
      "▁eaaaieeetneae\n": 6425,
      "▁eatoaseaa": 6426,
      "▁thaieaeooooaieeaiaaehn": 6427,
      "▁iaec\n": 6428,
      "▁oodegggeae": 6429,
      "ytaieeesoooo": 6430,
      "▁taoettaero": 6431,
      "▁eaetaieepa\n": 6432,
      "▁eadeaieegtef": 6433,
      "▁eaataithoeouoo": 6434,
      "▁eaeeadao": 6435,
      "▁ottoegggeae": 6436,
      "▁oodeatnaieee": 6437,
      "neeaote": 6438,
      "▁ottooietsodsod": 6439,
      "▁oodeaaietsee\n": 6440,
      "▁erdthaietc": 6441,
      "▁teatoeaataoeeeaehn": 6442,
      "▁oohero\n": 6443,
      "▁ttsoeoteaewn\n": 6444,
      "▁eaeeasooootetnaieasaie": 6445,
      "▁oeaieohaieasee": 6446,
      "▁eaaoohaieie": 6447,
      "▁eaalololotnttt": 6448,
      "▁oodeaieatoetaieeeto": 6449,
      "▁eaexx": 6450,
      "▁eaaetnoeta": 6451,
      "▁ieteaaetotjhn\n": 6452,
      "▁aieemtc": 6453,
      "▁ottotsiec\n": 6454,
      "▁eaexxeaeeae": 6455,
      "▁erdottoottoohst": 6456,
      "▁eaaeepa": 6457,
      "▁etasa\n": 6458,
      "▁llooootoo": 6459,
      "▁llooootootohhn": 6460,
      "▁ooaeaao": 6461,
      "▁aaoteoteeataeiee": 6462,
      "tjhotneeaote": 6463,
      "▁aaoteoteeataeieetjhotneeaote": 6464,
      "▁oteeettnoho": 6465,
      "tothn": 6466,
      "▁eaaeaaee": 6467,
      "ohaieeae": 6468,
      "▁taeasatoto": 6469,
      "▁eeeaaeeeafaeaieotdthiaec": 6470,
      "sta": 6471,
      "▁ooaeaaoeftac": 6472,
      "▁oodhtahn\n": 6473,
      "▁etneerto\n": 6474,
      "▁oteatoeaieaaeaiee": 6475,
      "▁eaaieoeoteea": 6476,
      "▁eaatefsoeo": 6477,
      "▁eatoao": 6478,
      "etaoe": 6479,
      "▁eeadoieemtn": 6480,
      "eeatn1": 6481,
      "dtneeaote": 6482,
      "▁tktsc\n": 6483,
      "▁aiaaeaeeeaeee\n": 6484,
      "taoeeeaeown": 6485,
      "▁oeeeaieeeaduo\n": 6486,
      "▁eatoeaaie": 6487,
      "▁tnsta": 6488,
      "▁tnstafa": 6489,
      "▁atot\n": 6490,
      "eaieeetouo": 6491,
      "rhtn0": 6492,
      "▁ietaieoeoteeaeeaeo": 6493,
      "▁eaaaieeetnaiee": 6494,
      "▁oodeae0\n": 6495,
      "▁toeeaotdteaeaaee": 6496,
      "▁oodhoaseea": 6497,
      "▁ieeaaseeoeoteaiee": 6498,
      "▁etaierhtn0": 6499,
      "▁eaiato": 6500,
      "▁gtefsoeo\n": 6501,
      "▁etaieeaaeaieaeto": 6502,
      "▁eaiatoeai": 6503,
      "▁oetodtaeieeahn": 6504,
      "▁taottn": 6505,
      "▁eaaaieeasado\n": 6506,
      "▁oeeeaieiodiodtnttt": 6507,
      "otho": 6508,
      "thotho": 6509,
      "▁taeeexaieeeto\n": 6510,
      "▁tseeetaoe": 6511,
      "▁eaaeaieeast\n": 6512,
      "▁tytaieeesoooo": 6513,
      "▁tseeaotohaieeae": 6514,
      "▁eaohllorto\n": 6515,
      "afaeaieote": 6516,
      "▁oeeeaieeaaaieeetn": 6517,
      "▁eatnaieee1": 6518,
      "▁oeeeaieaiaaeeaeoteea\n": 6519,
      "▁erdeahn\n": 6520,
      "▁otieba": 6521,
      "▁eaataieellolloeatn\n": 6522,
      "▁oodtneaie": 6523,
      "▁eahn\n": 6524,
      "▁teoteoeaaeeeto": 6525,
      "▁totnttea": 6526,
      "▁afaterduto": 6527,
      "▁aieeeeaetaiee": 6528,
      "▁aieaeadoetrto\n": 6529,
      "▁eaaaietn\n": 6530,
      "▁aieeoohgte": 6531,
      "▁eaagteeaaie": 6532,
      "▁tooieemotv": 6533,
      "▁eatoohtc": 6534,
      "▁eatottea\n": 6535,
      "▁aieeaettcaiee": 6536,
      "▁toeeaotdtaeedtjhn": 6537,
      "▁oohthoohneerto\n": 6538,
      "eeaaeaieea": 6539,
      "▁paaieeetstt\n": 6540,
      "▁ttaegggeae\n": 6541,
      "otoh": 6542,
      "▁aieeaexxeae": 6543,
      "▁eaiatoeaiatn": 6544,
      "▁eaettcaiee": 6545,
      "▁oodlotothn": 6546,
      "tsaiee": 6547,
      "aieaaeeteemtn": 6548,
      "▁aieetaoeeeaeown": 6549,
      "▁oeeeaieoeot": 6550,
      "▁llooooeaieeaoero": 6551,
      "▁eatohohrteatn": 6552,
      "▁teoteoeatne": 6553,
      "▁eaaasto": 6554,
      "▁eaatooteatn\n": 6555,
      "▁eaaoodsc": 6556,
      "▁oodeaaeeeto": 6557,
      "▁oodeaitfee\n": 6558,
      "▁taseeeteaieaieaief": 6559,
      "▁oodaieeut": 6560,
      "▁ieetaie\n": 6561,
      "iebodiebod": 6562,
      "▁hottneetc": 6563,
      "▁oeeeaietseaeaie\n": 6564,
      "ettt": 6565,
      "▁erdeaaeeeeaaeedeaaeee\n": 6566,
      "▁ieeaaseeeeae": 6567,
      "▁erdeaieafteoaiaaeaieeetc": 6568,
      "▁taaieaaeeteemtn": 6569,
      "▁erdaieeeea": 6570,
      "▁ieteloeae\n": 6571,
      "▁etaietaieetea\n": 6572,
      "▁eaaloaie": 6573,
      "ouooouoo": 6574,
      "▁eaaooheaieee": 6575,
      "▁eadetteatoteatnaeae": 6576,
      "▁eaaouooouooouoo": 6577,
      "▁afaterduto0": 6578,
      "▁tsoettt": 6579,
      "▁tathrto\n": 6580,
      "▁oodoteeea\n": 6581,
      "▁aieaeoaieaeoaieaeo\n": 6582,
      "▁tooieemoaieaeaieeeto": 6583,
      "▁eaieduto\n": 6584,
      "doeaiaieeteatn": 6585,
      "▁odoeaiaieeteatn": 6586,
      "eaieaietototetn": 6587,
      "etneeaot": 6588,
      "▁tneeaot": 6589,
      "etneeaotdtneeaote": 6590,
      "▁tneeaotetneeaotdtneeaote": 6591,
      "▁oemtseeeeae\n": 6592,
      "▁eloeae\n": 6593,
      "▁taeeaeasee": 6594,
      "▁tateaeaieeeto": 6595,
      "▁eeadeaaeaieeeae": 6596,
      "odtoeatn": 6597,
      "▁eaieetnteeae": 6598,
      "▁paaieeasado": 6599,
      "▁tseest": 6600,
      "▁tseetttmtn\n": 6601,
      "▁ooaeteaieutoouoo": 6602,
      "▁aieaeouoo\n": 6603,
      "▁oeeeaieoteeea\n": 6604,
      "▁oodieteloeae": 6605,
      "▁etaieeaseeetnoeae\n": 6606,
      "▁toeeaotdo": 6607,
      "▁ttateaieethn\n": 6608,
      "▁eohaooooaotasee": 6609,
      "▁llooootseaeaie": 6610,
      "▁pathnela\n": 6611,
      "ieetetn": 6612,
      "ieetetnoooo": 6613,
      "▁eeadohtoeatn": 6614,
      "▁thieetetnoooo": 6615,
      "▁oeaiertoetcotaieeesoooo": 6616,
      "▁eaathaieaeoooooteeea": 6617,
      "▁aieeaiaa": 6618,
      "▁aieeaiaaeeaetaiee": 6619,
      "▁eteatoeatn": 6620,
      "▁eatotneeae": 6621,
      "▁oeotdafaetasaa\n": 6622,
      "▁eaaeeatn1": 6623,
      "▁etneaetaiee": 6624,
      "▁eatoeaeaieeeto": 6625,
      "▁aieeasado": 6626,
      "▁tateeatn": 6627,
      "▁eatooelotac": 6628,
      "▁aieaeoeeea": 6629,
      "▁etoasatotototoeeaeo": 6630,
      "▁eaitfeetnst": 6631,
      "▁tatneaieaietoto": 6632,
      "▁teatoatot\n": 6633,
      "▁oodiebodiebod": 6634,
      "▁eaaaieeea\n": 6635,
      "▁toeeaotdafaeaieote": 6636,
      "▁aieeatn": 6637,
      "▁aiethotho": 6638,
      "▁aehtecoetn": 6639,
      "totaoeeeae": 6640,
      "▁taetoeaier": 6641,
      "▁taemtctaiee": 6642,
      "▁etc0": 6643,
      "eiebtn": 6644,
      "▁eeadaiaaeeaietmtn\n": 6645,
      "▁erdeaieeaoero": 6646,
      "▁oodaieeetoar\n": 6647,
      "▁aitfe\n": 6648,
      "▁aeaeatt\n": 6649,
      "▁eaaeaie": 6650,
      "▁lloooooteeeaoteaie": 6651,
      "eaiaec": 6652,
      "▁eaaeaieeaiaec": 6653,
      "▁aieaeeaaeto\n": 6654,
      "▁aieetstt1\n": 6655,
      "eetoaieeetc": 6656,
      "▁etaoe": 6657,
      "▁ttsoeooello": 6658,
      "▁aieeeeaaeasatoto": 6659,
      "jas": 6660,
      "eajas": 6661,
      "▁oodieemoeltc": 6662,
      "ietc": 6663,
      "▁thaieaeooooaieaeouoo": 6664,
      "▁toeaietaieeesoooo": 6665,
      "▁ieeaaseetoaietc\n": 6666,
      "▁eatohohrteatnouoo": 6667,
      "mietc": 6668,
      "▁taieetmietc": 6669,
      "▁aieae1\n": 6670,
      "▁eatoeutoeuto": 6671,
      "▁toeeaotdaieeaee": 6672,
      "▁teatoeaetothn": 6673,
      "▁toeaieaietototetn": 6674,
      "faetthooero": 6675,
      "▁gteoest": 6676,
      "▁erdtteaown\n": 6677,
      "▁aieeoheaieeea0": 6678,
      "▁oodoef": 6679,
      "▁iaeaieelasto": 6680,
      "▁aieaethnaie0\n": 6681,
      "▁oodoefaietseegtetvo": 6682,
      "aieeeaetn": 6683,
      "▁ohatooeot": 6684,
      "tet": 6685,
      "etnea": 6686,
      "eertoaieetc": 6687,
      "▁eaieaieaieftaieeesoooo": 6688,
      "▁ohatooeoteertoaieetc": 6689,
      "▁eaeaieoteaieoooo": 6690,
      "▁aieaeadloaie": 6691,
      "▁aieaeothettooeeeaie": 6692,
      "eeaaeaieeaeaeeasoooo": 6693,
      "▁otetoaiaae\n": 6694,
      "▁taeatn\n": 6695,
      "▁gteiec\n": 6696,
      "▁ottoooheetc\n": 6697,
      "▁aiaaeeaaeaieeaeaeeasoooo": 6698,
      "▁eaieeeaown\n": 6699,
      "eaieafhneae": 6700,
      "▁aieaieaieeeapa": 6701,
      "▁ohatoaieae\n": 6702,
      "▁ieeeaeaieee": 6703,
      "▁eaitfeelotothn\n": 6704,
      "▁teeveeaeasee": 6705,
      "▁oeeeaieiaeaieela": 6706,
      "▁eetaar\n": 6707,
      "▁eaier\n": 6708,
      "hnaietaieeesoooo": 6709,
      "▁aieaeadthnaietaieeesoooo": 6710,
      "▁oetoetttt\n": 6711,
      "thnoo": 6712,
      "▁eaaiaeaieela": 6713,
      "▁eadoest\n": 6714,
      "▁taseeetero\n": 6715,
      "▁oeeeaieaieeeatn\n": 6716,
      "▁eadtetn1\n": 6717,
      "▁toothoaslohoc\n": 6718,
      "▁ieemtoown\n": 6719,
      "▁eaaoetotoea": 6720,
      "▁eeaeeeaetnoh\n": 6721,
      "▁eaaieeeaeuto": 6722,
      "▁aaoteoteeadero\n": 6723,
      "▁oodietn1": 6724,
      "▁ohatottt": 6725,
      "▁llooooeaeaiaaeaieeeto\n": 6726,
      "▁eada": 6727,
      "▁ooheeadteeafaaieeeto\n": 6728,
      "▁oodaotasee\n": 6729,
      "▁eaaethotceta\n": 6730,
      "▁aieaeoaiiasaie": 6731,
      "▁teatntc": 6732,
      "▁gteeiebtn": 6733,
      "▁tseeeiebtn": 6734,
      "▁oohtoieb": 6735,
      "▁eadtaieetea": 6736,
      "▁aieaeoaiee": 6737,
      "▁oetoaietc": 6738,
      "aoaie": 6739,
      "▁eatoaieeeatn": 6740,
      "▁oeotetteeae": 6741,
      "▁oieemotsee\n": 6742,
      "▁ieeaaseeert\n": 6743,
      "▁oesttetmtn\n": 6744,
      "▁aieeethettooeeeaie": 6745,
      "▁taieerhtn\n": 6746,
      "▁eadaeaeatt": 6747,
      "▁tetn0": 6748,
      "▁eohaooooaieec\n": 6749,
      "▁aeaeet": 6750,
      "ertouto": 6751,
      "▁aeaeetertouto": 6752,
      "▁toeeaotdeaiaaeeerto": 6753,
      "tneeaote": 6754,
      "▁afaeteea\n": 6755,
      "eeet": 6756,
      "▁gteieeaasee": 6757,
      "▁oodoeote": 6758,
      "▁erdeaaeeetottea": 6759,
      "▁eadoetv\n": 6760,
      "aiaiee": 6761,
      "ooheaetn": 6762,
      "▁eteatoeatnaeae": 6763,
      "▁ottoott": 6764,
      "▁patet": 6765,
      "▁patetaeae": 6766,
      "▁aieaeoaieetstofthtn": 6767,
      "▁aieatot": 6768,
      "▁tooieemollolloetouto": 6769,
      "▁oodeaioeaiooetiaaeemtc": 6770,
      "▁oeeeaieeaier": 6771,
      "▁eatoeeetntaeiee": 6772,
      "▁paeeta": 6773,
      "sodso": 6774,
      "aafaeaieote": 6775,
      "hneeeaown": 6776,
      "▁oodtaeaeto": 6777,
      "▁eaeoetmtouto\n": 6778,
      "teatoottn": 6779,
      "▁toeeaotdoeoteea": 6780,
      "▁ooaafaeaieote": 6781,
      "▁oelttoar\n": 6782,
      "▁gteaieee1\n": 6783,
      "▁oteetniec": 6784,
      "▁eaieatoown\n": 6785,
      "▁llooooaeeeaeee": 6786,
      "▁eatn\n": 6787,
      "▁eaodtoo": 6788,
      "▁eaodtoooetmtn": 6789,
      "ftm": 6790,
      "▁erdthaitoetn\n": 6791,
      "aieaieeeb": 6792,
      "▁eaeaieeaoero\n": 6793,
      "▁ooaeaieee": 6794,
      "▁toeeaotdefac": 6795,
      "▁oeto\n": 6796,
      "▁llooootneaseaa": 6797,
      "▁eatotthn\n": 6798,
      "▁teoteoee": 6799,
      "▁ooaaieeeea": 6800,
      "▁erdtooteethn\n": 6801,
      "▁eatooohouoo": 6802,
      "aoeeeaef": 6803,
      "▁oodetaoeeeaef": 6804,
      "▁oeeeaieeatotoe": 6805,
      "▁ottooello": 6806,
      "▁eatooohouooaiaaeer": 6807,
      "▁teoteothneeeaown": 6808,
      "▁ottn\n": 6809,
      "▁tataieetea": 6810,
      "tasaie": 6811,
      "▁etaieeatoeatnhaetn\n": 6812,
      "▁lltoieemopatasaie": 6813,
      "▁toeeaotdoteeaeetn": 6814,
      "▁toeeaotdar": 6815,
      "▁eeetneeto\n": 6816,
      "▁eftm": 6817,
      "▁erdeaseeao\n": 6818,
      "▁eaaieafetaieeeto": 6819,
      "llost": 6820,
      "▁eaitfeethnaie": 6821,
      "▁lloooooetotn": 6822,
      "▁eftmeftc": 6823,
      "▁taiet": 6824,
      "▁aietaiee": 6825,
      "eaieaeaieae": 6826,
      "▁tataieetclo": 6827,
      "▁eftmeftcaieeaieaeoaieaeo": 6828,
      "▁taoteeaeterduto\n": 6829,
      "▁aieetn": 6830,
      "▁ottoottooheatn\n": 6831,
      "▁erdtteathtn": 6832,
      "▁ethoeaieaeeaieaee": 6833,
      "▁eaeaie\n": 6834,
      "▁eiet": 6835,
      "▁tatneaseaa\n": 6836,
      "▁aieeaeeoooo": 6837,
      "▁oetmtn\n": 6838,
      "▁tseeoteeeaoteaie": 6839,
      "▁toeeaotdtaieeeeatn": 6840,
      "▁eaaeaseeao": 6841,
      "▁taeaettc": 6842,
      "▁eaatsaiee": 6843,
      "▁oeai": 6844,
      "eaieaieeecefe": 6845,
      "▁ottoaieeeea": 6846,
      "▁etouto": 6847,
      "▁aieeoteeaeteatoebuto": 6848,
      "▁oodsac\n": 6849,
      "▁taieeetnea": 6850,
      "▁iodiodtaoeeeae": 6851,
      "hrto": 6852,
      "▁tseesahn\n": 6853,
      "▁eatnoooo": 6854,
      "▁taaieaeaieaeaieae": 6855,
      "▁ottoeief": 6856,
      "▁eaataero": 6857,
      "▁afaeaaieeeetoetaieeeto": 6858,
      "▁oohthoaieetaieeeto\n": 6859,
      "▁eaerhtn": 6860,
      "▁erdhohr": 6861,
      "eouoouo": 6862,
      "▁totnaie\n": 6863,
      "▁eeadeaier": 6864,
      "▁tamoto\n": 6865,
      "▁erdaieeeaaeedhn": 6866,
      "oothre": 6867,
      "▁hrdoeltto\n": 6868,
      "▁ttsoeooohtc": 6869,
      "▁aieaieeebetaieeeto": 6870,
      "▁aieietaodtoaiaaetsaieaeo": 6871,
      "▁aieaeoetototn": 6872,
      "▁oteatnaieaeeaaeto": 6873,
      "▁etaietsee": 6874,
      "▁etaietseetsee": 6875,
      "▁eeetpa\n": 6876,
      "▁aieeaiaaehn\n": 6877,
      "▁ooathnaie": 6878,
      "▁aietnaiaae": 6879,
      "▁etegteuto\n": 6880,
      "▁eatoeeetnaiee": 6881,
      "tv1": 6882,
      "▁oeteatoeatnteec": 6883,
      "oeeeaie": 6884,
      "teaee": 6885,
      "taieetaie": 6886,
      "▁etaieetaieetaie": 6887,
      "▁eieeagte\n": 6888,
      "▁oodeatotnlo": 6889,
      "▁aotasaietetn": 6890,
      "▁aeadtc\n": 6891,
      "▁eaaieeeeto\n": 6892,
      "▁oohtoea": 6893,
      "▁eohaooooiee\n": 6894,
      "▁eaaaiaaeohtho\n": 6895,
      "loouoo": 6896,
      "▁oohtoeaeaieaieeecefe": 6897,
      "▁tathoelaeatn\n": 6898,
      "etotnaie": 6899,
      "▁ohaosac": 6900,
      "▁iettv1": 6901,
      "▁eeetnaiee\n": 6902,
      "▁eeaeeeaeemtc": 6903,
      "topa": 6904,
      "aieieown": 6905,
      "aietotnaie": 6906,
      "etaoeeea": 6907,
      "▁ooheeeaaietotnaie": 6908,
      "▁taaieeetoar\n": 6909,
      "eaaaieeetn": 6910,
      "▁aieeaeaieoteaie": 6911,
      "▁eaaeaieeatatc": 6912,
      "▁tootaiee": 6913,
      "▁tootaieeetc": 6914,
      "▁oodeeaeasee\n": 6915,
      "▁etneeb": 6916,
      "▁oohaiaaeeaietmtn": 6917,
      "▁ohaoeaieaieae\n": 6918,
      "▁teoteoaieeeetnlo": 6919,
      "▁taoeeae\n": 6920,
      "▁ietaotasee": 6921,
      "▁ottoaiaaetsaieaeo": 6922,
      "▁llooootmeu\n": 6923,
      "▁teatotseaeaie": 6924,
      "▁taeieeeadtjhn0\n": 6925,
      "▁eaieeeatjhn": 6926,
      "▁vrhto": 6927,
      "▁iodiodtottt": 6928,
      "oeao": 6929,
      "▁pataieeeeae": 6930,
      "▁eohaooooeteemtn\n": 6931,
      "▁lloooostiaec\n": 6932,
      "▁aieooheaetn": 6933,
      "▁tatnoho": 6934,
      "▁oetieerodtn\n": 6935,
      "▁erdaeeeaeee\n": 6936,
      "▁oteetoown\n": 6937,
      "▁eaaeaieeaeoouoo": 6938,
      "▁tatmeuo\n": 6939,
      "▁oeaiaieeaiee": 6940,
      "▁taieeodtoeatn": 6941,
      "▁eatoieemtn\n": 6942,
      "▁oetodpa": 6943,
      "▁iodiodtottteuto": 6944,
      "▁oetodpatooteaeieeouoo": 6945,
      "▁ohaoteaee": 6946,
      "eeetneea": 6947,
      "▁oeeeaieoteaaoteaiee\n": 6948,
      "aiaaeo": 6949,
      "▁eatooodstooeatn\n": 6950,
      "oesttnoo": 6951,
      "eadthtn": 6952,
      "▁oodoohtaeieetsoooo": 6953,
      "▁ieteertoero\n": 6954,
      "▁eouoouo": 6955,
      "▁taietsaie": 6956,
      "▁ttsoe": 6957,
      "▁eaeeasooootaa": 6958,
      "▁taeaie\n": 6959,
      "eeer": 6960,
      "eaeouoo": 6961,
      "▁toetasa\n": 6962,
      "▁hrdtllorto\n": 6963,
      "▁lloooollorto\n": 6964,
      "▁taeelo": 6965,
      "▁tktoeeeaieetno\n": 6966,
      "▁afaeadthtn": 6967,
      "▁llolloellollofttea\n": 6968,
      "▁aieeetoeeaaeasaee\n": 6969,
      "▁oetodaieeaiaae": 6970,
      "▁oodoeoteaieeaee": 6971,
      "▁gteoeaieaieeeaaetmtn": 6972,
      "ietn0": 6973,
      "▁eohaooooaieaieaieeatotoe\n": 6974,
      "▁oieemtn\n": 6975,
      "eeetnteato": 6976,
      "▁tatefsoeo": 6977,
      "eaieeetaoeeea": 6978,
      "▁aeaitoooooe": 6979,
      "▁toeeaotdoetoteieeaatn": 6980,
      "▁oeeeaieeaaetaie\n": 6981,
      "▁aieaeooetn": 6982,
      "▁taieeasa": 6983,
      "▁eaatnta": 6984,
      "▁etoo": 6985,
      "▁gteaieouoo": 6986,
      "▁oetathon\n": 6987,
      "▁erdeotea": 6988,
      "▁ttaaieeeaieeetaoeeea": 6989,
      "▁ttaaieeeaieeetaoeeeaeeer": 6990,
      "▁oodiebta": 6991,
      "▁teaee": 6992,
      "▁oodaehtecaieaeaiaae": 6993,
      "▁eeadtmostaieae": 6994,
      "▁erdeeetneea": 6995,
      "▁thaieaeooooteatoottn": 6996,
      "▁toeeaotdaotasee\n": 6997,
      "▁ohaoaieee\n": 6998,
      "▁toeeaotdieeataeeifaea": 6999,
      "▁teaaedtctn\n": 7000,
      "▁oetetaieeethn\n": 7001,
      "▁gteoiet": 7002,
      "emtceae": 7003,
      "▁odthtnaieeeto\n": 7004,
      "etco": 7005,
      "▁eaaeaieeaaotasee": 7006,
      "▁toeeaotdeeaeo": 7007,
      "eadaieero": 7008,
      "▁etaietho": 7009,
      "▁oeotdsodsod": 7010,
      "▁eaioeaiooetiaaeemtc\n": 7011,
      "▁eaieeeatjhnteer": 7012,
      "▁teeaaaaethoela\n": 7013,
      "▁eatoeetauto\n": 7014,
      "▁etaieeasa": 7015,
      "▁etaieeasaf": 7016,
      "▁paemtceae": 7017,
      "▁taeeetnrodto": 7018,
      "▁taeeetn": 7019,
      "▁taeeetneea": 7020,
      "▁tootohhn\n": 7021,
      "▁gteiaetaieee": 7022,
      "▁eaeeadeaeetcsodsod": 7023,
      "▁eaaaeae": 7024,
      "▁taeaieaeeaieaee": 7025,
      "▁eatoieerodtn": 7026,
      "▁aieaiea\n": 7027,
      "▁tneeaaie\n": 7028,
      "aieeef": 7029,
      "▁eaaoeteaaeoooo": 7030,
      "▁paieemtn\n": 7031,
      "▁eeaeeeaeiaec": 7032,
      "▁tataito": 7033,
      "▁tataitoetothn": 7034,
      "▁ieeaaseeoteeto": 7035,
      "▁eaieafteoaiaa": 7036,
      "▁oodetteatoteatnaeae": 7037,
      "▁oodaseaie\n": 7038,
      "▁eatoieerodtn0": 7039,
      "eaeaetn": 7040,
      "▁eatoieeaase": 7041,
      "▁eatoieeaaseeaieaie": 7042,
      "▁eatoeaaoheetktttn": 7043,
      "▁aieeaedhohr\n": 7044,
      "▁tooieemotasaie": 7045,
      "▁eatoaieae": 7046,
      "▁tseetjhn\n": 7047,
      "▁eaaeaieeaeaeoteeeaown": 7048,
      "▁eaiee": 7049,
      "etneeaote": 7050,
      "▁eaieafteoaiaaetneeaote": 7051,
      "▁taee\n": 7052,
      "etaieellolloeatn": 7053,
      "▁etaietaieellolloeatn": 7054,
      "▁eatoaeaieeeto": 7055,
      "▁gtethrto": 7056,
      "tootto": 7057,
      "▁eaaeaaietsee": 7058,
      "▁eatoeaaee": 7059,
      "ietteec": 7060,
      "aeohetotnaieee": 7061,
      "▁eaitfeeeaaeaiee": 7062,
      "▁ieeaaseethnaie\n": 7063,
      "▁oetodeaaeaiee": 7064,
      "▁oetodeaaeaieeetotaoeeeae": 7065,
      "▁eae0\n": 7066,
      "▁toeaieaietotoar\n": 7067,
      "▁erdeaeeadeaeetc": 7068,
      "▁taeeaieaieieeoh": 7069,
      "▁erdetototn": 7070,
      "▁eeaefsoeo\n": 7071,
      "▁ieeaaseeotefatt": 7072,
      "▁oeeeaieteaeaie": 7073,
      "▁aotetmoheaieeea\n": 7074,
      "▁ieeaaseeotefatthto": 7075,
      "▁aieaeotaiee": 7076,
      "▁gteoeto": 7077,
      "▁gteieeaaseeeato": 7078,
      "aieemoeltc": 7079,
      "▁ooaieemoeltc": 7080,
      "▁tooieemoteae": 7081,
      "▁paeaeaetn": 7082,
      "▁ooaeaieatothaieeeto": 7083,
      "▁tmotsaot": 7084,
      "▁oodeaaieeeatn": 7085,
      "▁tmotsaotoothre": 7086,
      "tteeafa": 7087,
      "▁oodstooeatn\n": 7088,
      "▁gteaiellorto": 7089,
      "▁aieeeaioeaiooetiaaeemtc": 7090,
      "▁paetaiee": 7091,
      "aieaeemtn": 7092,
      "▁etfeteaieafuto": 7093,
      "▁taeteae\n": 7094,
      "▁eatoeaaeedpa": 7095,
      "▁erdpt": 7096,
      "▁eaeoteeatv": 7097,
      "hoo": 7098,
      "▁oetodtnttt": 7099,
      "▁oethottniebtjho\n": 7100,
      "▁ottooeoteaieeuto": 7101,
      "eteaaeaieaeto": 7102,
      "aietaieeeouoo": 7103,
      "▁oodeaetaiee": 7104,
      "▁teaaietaieeeouoo": 7105,
      "▁toeeaotdoello": 7106,
      "▁eaaeaieeeadpa": 7107,
      "▁eatoeaieafteoaiaae": 7108,
      "▁gteeaieaf": 7109,
      "▁oodoeaieohetktttn": 7110,
      "▁toeeaotdtaa": 7111,
      "▁llooooaieeeaetn": 7112,
      "▁eaitfeeoteatoown": 7113,
      "▁aieefametaieeeto\n": 7114,
      "▁eaaerd": 7115,
      "▁oodeteottouto\n": 7116,
      "dtaieeesoooo": 7117,
      "oteer": 7118,
      "▁oodgggaieae": 7119,
      "▁ottoi": 7120,
      "▁eaeeadero\n": 7121,
      "▁aieaeadtooteatn": 7122,
      "▁teta\n": 7123,
      "▁eaeeasooooaietn1\n": 7124,
      "▁thaieaeoooofaetthooero": 7125,
      "▁tseaeaietaieeesoooo": 7126,
      "▁oodeaaieeeatnsodsod": 7127,
      "▁ottoasaie": 7128,
      "▁teatoottnouoo": 7129,
      "▁oeaieohetktttn\n": 7130,
      "▁aieeoeote": 7131,
      "eeeastetn": 7132,
      "▁thaieaeooooeaeeae": 7133,
      "eaeown": 7134,
      "▁tseeaieeteeae": 7135,
      "▁paeaieeea\n": 7136,
      "▁eaathaieaeooooar": 7137,
      "▁eadaieeeae": 7138,
      "suto0": 7139,
      "▁aieeetsuto0": 7140,
      "▁eatoaotohaieaieae\n": 7141,
      "▁eaaeaieeeae": 7142,
      "▁eaaeaieeaaieee1": 7143,
      "▁tseeetno": 7144,
      "▁tseeetno1": 7145,
      "▁eaallollo\n": 7146,
      "totetnaieasaie": 7147,
      "▁taaieeatn\n": 7148,
      "▁aieeeaaetnrodto\n": 7149,
      "▁eaeeasoooooeltto": 7150,
      "▁aieaotoh": 7151,
      "▁elrt\n": 7152,
      "▁ottoottn0\n": 7153,
      "▁oeeeaieelrt": 7154,
      "aiaaeoest": 7155,
      "▁aioteaedoooofaafa": 7156,
      "▁eaeoteeatvoteer": 7157,
      "▁thaieaeooooaieae": 7158,
      "▁aieea2\n": 7159,
      "tottn": 7160,
      "▁teetotetnaieasaie": 7161,
      "▁ottoiaeaieela": 7162,
      "▁oheetcero\n": 7163,
      "▁patea": 7164,
      "▁oeeeaietteao\n": 7165,
      "▁eadtso": 7166,
      "eaieteaaemtn": 7167,
      "▁oeeeaiethetsc": 7168,
      "▁eaieeeaieteaaemtn": 7169,
      "aieatoe": 7170,
      "▁terduto\n": 7171,
      "▁eadoeaiaaeaodtotmtn\n": 7172,
      "▁eaaaieaie": 7173,
      "▁oeeeaieottootto": 7174,
      "▁oeeeaieottoottohn": 7175,
      "aiaaeouoo": 7176,
      "▁oodeaaeasatoto\n": 7177,
      "▁toeeaotdtneeae": 7178,
      "▁eeadaieaeadthnaie": 7179,
      "▁aieeetothnaie": 7180,
      "▁aotohaieaieae\n": 7181,
      "▁eadoeaiaieeaieee\n": 7182,
      "▁ttaeaaiaaeouoo": 7183,
      "▁teoteoeaieeeasc\n": 7184,
      "▁oodeaaie": 7185,
      "▁teoteoeea": 7186,
      "▁eaaeaetoeadtvoeelo\n": 7187,
      "▁aieettea": 7188,
      "▁ooheeetn": 7189,
      "▁erdteeaaaaeoooo\n": 7190,
      "▁eatotaieetclo": 7191,
      "▁tneaieoeoteaseeexeceee": 7192,
      "▁pathneteeae\n": 7193,
      "eadtsod": 7194,
      "▁eatoeb": 7195,
      "▁oodaieee0": 7196,
      "▁oeeeaieeaeae": 7197,
      "eteaieuto": 7198,
      "eaeaieown": 7199,
      "▁oeeeaieaieeetn\n": 7200,
      "▁teoteoeadtsod": 7201,
      "▁oteatoteaeaieown": 7202,
      "▁oteeaeteatoebuto": 7203,
      "▁eloead": 7204,
      "etooetoo": 7205,
      "▁teatoeeaeaieeeto\n": 7206,
      "▁toeaie": 7207,
      "▁aieaietoe": 7208,
      "▁ottotso": 7209,
      "▁toeeaotdieerodtn": 7210,
      "▁afatneaie": 7211,
      "toottaeiee": 7212,
      "▁eaaeaaefeatn\n": 7213,
      "▁teecottootto": 7214,
      "▁eloeadeeetnteato": 7215,
      "▁afatneaie1": 7216,
      "eao": 7217,
      "▁paotetoaiaae": 7218,
      "▁eaieafteaeaitoooooeaiaae\n": 7219,
      "▁oohouotoafa\n": 7220,
      "eaohhre": 7221,
      "▁eohaooooaieae\n": 7222,
      "▁thnaoaie": 7223,
      "▁oettae": 7224,
      "▁oeeeaielloooollooootneeaote": 7225,
      "▁oeeeaieeeta": 7226,
      "▁oeeeaieeetauto": 7227,
      "▁aietoto": 7228,
      "▁toeeaotdetno": 7229,
      "▁aietotoeae": 7230,
      "▁eaaeedtnoho": 7231,
      "▁etooetooetoo": 7232,
      "▁etooetooetootvtaieaeo": 7233,
      "ohr": 7234,
      "▁ohaoseaie\n": 7235,
      "▁aieaeoet": 7236,
      "▁eaaoeaieasaie": 7237,
      "▁llooooeae\n": 7238,
      "▁erdtootieer": 7239,
      "▁oohtc\n": 7240,
      "aedtcasee": 7241,
      "▁iaeaieelatoottaeiee": 7242,
      "▁toeeaotdoeteaaehn": 7243,
      "▁eaeaietatoown\n": 7244,
      "▁emvo\n": 7245,
      "▁taeaeaieoteaie": 7246,
      "▁eatoaiaaeoest": 7247,
      "▁eaaieeeatnooea": 7248,
      "▁eloeadtetn\n": 7249,
      "eaaeaseetetn": 7250,
      "▁st0\n": 7251,
      "▁aieetstof": 7252,
      "▁aieaeadaieaieaieeatn": 7253,
      "▁eeaeaduo\n": 7254,
      "▁taeeaieaieieeeto\n": 7255,
      "▁erdaeae": 7256,
      "▁oteaseearoooo": 7257,
      "soteato": 7258,
      "▁oeeeaieeaeero\n": 7259,
      "▁eaatnoho": 7260,
      "oodthtn": 7261,
      "▁oteeaeoodthtn": 7262,
      "▁eaateatoar\n": 7263,
      "▁oeaieohtv\n": 7264,
      "▁eaateatn": 7265,
      "▁tsoe\n": 7266,
      "▁eaieaeouoo": 7267,
      "▁vtotvtota\n": 7268,
      "▁oohouooaiaaeer\n": 7269,
      "▁asaee": 7270,
      "▁oteeeteae\n": 7271,
      "▁oettaeieetn": 7272,
      "▁oodeaaeaieeetn\n": 7273,
      "ohthosc": 7274,
      "▁tcrhto": 7275,
      "▁tcrhtoetaieeeto": 7276,
      "dteetn": 7277,
      "▁lloooooteea": 7278,
      "▁eaeta": 7279,
      "▁oeeeaiestoouoo\n": 7280,
      "▁oodtwn": 7281,
      "▁aieaeotaefwn": 7282,
      "oheattaieeeto": 7283,
      "▁erdaedtcasee": 7284,
      "▁teoteooetoteieeaatn": 7285,
      "▁ohaoaeae": 7286,
      "▁taieet\n": 7287,
      "▁eatotneaiaoteaiee": 7288,
      "▁tateetn": 7289,
      "▁eatototothot": 7290,
      "▁gtetaieeeouoo": 7291,
      "▁eatototothotsoteato": 7292,
      "▁erdeaeteb": 7293,
      "haieaeooooaiee": 7294,
      "▁oeeeaieoeotohoest": 7295,
      "▁eaeeasooooeaeeadeaeetc": 7296,
      "▁erdaehtecaieaest": 7297,
      "▁tataiee\n": 7298,
      "▁aieeteaee": 7299,
      "▁tootlloetn": 7300,
      "▁eaieeeatneaseear\n": 7301,
      "▁eaaerdoeote": 7302,
      "▁ethoo": 7303,
      "▁eadetneeb": 7304,
      "▁tseeststst": 7305,
      "▁taaiet": 7306,
      "▁taaietac": 7307,
      "eohaooooiee": 7308,
      "eeeteae": 7309,
      "▁ethoooheattaieeeto": 7310,
      "▁oettmeuo\n": 7311,
      "▁thaieaeooooeohaooooiee": 7312,
      "▁hreeehtn\n": 7313,
      "▁thn0\n": 7314,
      "▁taeetotoieeohaieeetc\n": 7315,
      "▁oetotoea\n": 7316,
      "▁eaetrtoeaetrto\n": 7317,
      "▁afaaotasee": 7318,
      "▁oodaeaie": 7319,
      "▁tatmsa\n": 7320,
      "ste": 7321,
      "ohaooooeelo": 7322,
      "▁aieaeooohthosc": 7323,
      "▁lloooothnaie\n": 7324,
      "▁eatooteaitfee": 7325,
      "▁eaaoohetnotaieerto": 7326,
      "▁oeaiertoetco\n": 7327,
      "▁eaaterduto": 7328,
      "▁aaoteoteeeatopa": 7329,
      "aeaeeteattuto": 7330,
      "▁llooootnloouoo": 7331,
      "▁gteaieee0": 7332,
      "▁taoeoteaie\n": 7333,
      "▁teea1\n": 7334,
      "▁erdoeoteaseeexeceee": 7335,
      "▁ooaeaohhre": 7336,
      "▁afatotnaie": 7337,
      "▁oetiaaehouoothn\n": 7338,
      "eetn1": 7339,
      "▁toeeaotdteetn1": 7340,
      "▁aieeetoeutoeuto": 7341,
      "▁oeeeaieottoottn\n": 7342,
      "eaieeeb": 7343,
      "▁eaaaieaieeeb": 7344,
      "▁taeahn": 7345,
      "▁oteeeaoteaie\n": 7346,
      "▁eaatsaie": 7347,
      "▁aieaieaieaeeaieetno\n": 7348,
      "▁hnoaieaeo": 7349,
      "▁toeeaotdot": 7350,
      "▁aieaeadth": 7351,
      "▁oetodthaitoetn": 7352,
      "oteaitfeeero": 7353,
      "▁efampa\n": 7354,
      "▁erdaiest": 7355,
      "▁oeeeaielloooollooootaieeesoooo": 7356,
      "▁aieeetnst": 7357,
      "▁aieeetoooher": 7358,
      "▁ohatoeaetaiee": 7359,
      "▁eaatsiec": 7360,
      "▁taieetaieetclo": 7361,
      "▁aieeeeatn0": 7362,
      "▁aieaeown\n": 7363,
      "▁eaieafhnaieeeto\n": 7364,
      "▁oodtaaaoteoteeetn": 7365,
      "▁taoteeta\n": 7366,
      "▁eaapaoeotetteeae\n": 7367,
      "▁oodetno0\n": 7368,
      "▁eaatsaietetnteer\n": 7369,
      "ootieer": 7370,
      "▁eaaeaieeeae0": 7371,
      "▁odt": 7372,
      "▁teoteoteeae": 7373,
      "▁toeeaotdeaaaieae": 7374,
      "▁eatott": 7375,
      "▁aieaeadthetsc": 7376,
      "▁teevto": 7377,
      "oesttehaetn": 7378,
      "tahn": 7379,
      "▁oodeer": 7380,
      "daieaest": 7381,
      "▁teeadaieaest": 7382,
      "▁hottneaieote\n": 7383,
      "▁eretaieeeto\n": 7384,
      "▁ieeaaseeouoo": 7385,
      "▁erdoohtoeae\n": 7386,
      "▁tseegggtaitoe\n": 7387,
      "▁oohetlo\n": 7388,
      "▁taieieaeadieeohasa\n": 7389,
      "▁oeeeaielloooollooooouoo\n": 7390,
      "ttaoeeea": 7391,
      "▁oellttaoeeea": 7392,
      "▁eohaooooeaaeaseetetn": 7393,
      "▁oodiaetaieee": 7394,
      "▁oodtveatn\n": 7395,
      "▁oodllooootaoeeeae": 7396,
      "▁toeeaotdthnaie": 7397,
      "▁fste": 7398,
      "▁eadtsoe": 7399,
      "▁aehtectv\n": 7400,
      "▁eadaieee1\n": 7401,
      "▁lloooothiaec": 7402,
      "▁erdtneaieaietoto": 7403,
      "▁eaateatngte": 7404,
      "▁eadhtahn\n": 7405,
      "▁llorto": 7406,
      "eaieaeouoo": 7407,
      "▁aieaeoaieetstt": 7408,
      "▁oodteeatn": 7409,
      "▁oeeeaieoest\n": 7410,
      "aieeeown": 7411,
      "▁tteaaieeeown": 7412,
      "▁oodooheaieee": 7413,
      "▁lloooothnela": 7414,
      "▁paeasto": 7415,
      "▁oetrtoeta": 7416,
      "▁aieeeatn0\n": 7417,
      "▁gteoetodteetn": 7418,
      "▁eaieatotetneaeae\n": 7419,
      "▁paeastof": 7420,
      "▁eaaeer": 7421,
      "▁oodeaieaaeaiee": 7422,
      "▁teoteolhetktttn": 7423,
      "▁eeadaehtectv": 7424,
      "eaitf": 7425,
      "▁etasaagte": 7426,
      "▁oeteaaeaieaetopa": 7427,
      "▁taeeaieaieieeoheaitf": 7428,
      "▁taeeaieaieieeoheaitfeetnst": 7429,
      "▁oohtec\n": 7430,
      "▁eaieeeaoetotn\n": 7431,
      "▁ooaaotasee": 7432,
      "▁eeadafaetasaa\n": 7433,
      "eeeaiet": 7434,
      "▁oodeetc": 7435,
      "▁eaathosc\n": 7436,
      "eeaaeee": 7437,
      "▁oeoteaseeexeceeeeaaeee": 7438,
      "▁oodoteea": 7439,
      "▁erdhottneeto": 7440,
      "▁eatooeasa": 7441,
      "▁eaieeeaeaieeadoero\n": 7442,
      "▁aieaieeetost": 7443,
      "▁etaoeaeae": 7444,
      "thtahn": 7445,
      "▁eatooest": 7446,
      "▁eeaeasee\n": 7447,
      "▁eaaeerto": 7448,
      "▁eaaeertoeerto": 7449,
      "▁oodoeeeaiet": 7450,
      "▁aiaieaieeetoe\n": 7451,
      "▁tooieemoaieaeemtn": 7452,
      "▁oodoeeeaieteea": 7453,
      "▁ooheeaaetneae\n": 7454,
      "▁haetnasee": 7455,
      "▁gggottn\n": 7456,
      "▁aieeoeteaaeaieaeto": 7457,
      "▁eaeeasooootaero": 7458,
      "▁asaaeaieeeto": 7459,
      "▁oeeeaietaa\n": 7460,
      "▁ieba1\n": 7461,
      "▁hrdeohaooooetasaa": 7462,
      "▁taieetthn": 7463,
      "▁aieeeohaooooeelo": 7464,
      "eaaeeaaeea": 7465,
      "▁matetn\n": 7466,
      "ethotceta": 7467,
      "eaaethotceta": 7468,
      "▁aiiohaseeeaaethotceta": 7469,
      "▁iec0\n": 7470,
      "▁erdaiaaeeaeoteea\n": 7471,
      "▁oeteatoeatnaeeeaeee": 7472,
      "▁toeeaotdoeaieasaie": 7473,
      "▁teoteotaero\n": 7474,
      "▁eatoiec": 7475,
      "taeer": 7476,
      "▁eaieeeaea": 7477,
      "▁aieiaec0\n": 7478,
      "▁eaieeeaeaeaietmtn": 7479,
      "▁aieeetoloaie": 7480,
      "▁eaaeaier": 7481,
      "eetoeaier": 7482,
      "▁asoteafaar\n": 7483,
      "▁oodefac": 7484,
      "ototo": 7485,
      "▁etototo": 7486,
      "▁oheaaaieeetn": 7487,
      "▁aeohetotnaieeehn": 7488,
      "▁oheaaaieeetnasa": 7489,
      "▁taaseaie": 7490,
      "▁aieeetoeteemtn": 7491,
      "▁erdoheaieeea\n": 7492,
      "▁aiaaetatotn\n": 7493,
      "ooheaieee": 7494,
[...]
