{
  "version": "1.0",
  "truncation": null,
  "padding": null,
  "added_tokens": [
    {
      "id": 0,
      "content": "<unk>",
      "single_word": false,
      "lstrip": false,
      "rstrip": false,
      "normalized": false,
      "special": true
    }
  ],
  "normalizer": {
    "type": "NFKC"
  },
  "pre_tokenizer": {
    "type": "Metaspace",
    "replacement": "▁",
    "add_prefix_space": true,
    "prepend_scheme": "always"
  },
  "post_processor": null,
  "decoder": {
    "type": "Metaspace",
    "replacement": "▁",
    "add_prefix_space": true,
    "prepend_scheme": "always"
  },
  "model": {
    "type": "BPE",
    "dropout": null,
    "unk_token": "<unk>",
    "continuing_subword_prefix": null,
    "end_of_word_suffix": null,
    "fuse_unk": false,
    "byte_fallback": false,
    "vocab": {
      "<unk>": 0,
      "\n": 1,
      "0": 2,
      "1": 3,
      "2": 4,
      "3": 5,
      "a": 6,
      "b": 7,
      "c": 8,
      "d": 9,
      "e": 10,
      "f": 11,
      "g": 12,
      "h": 13,
      "i": 14,
      "j": 15,
      "k": 16,
      "l": 17,
      "m": 18,
      "n": 19,
      "o": 20,
      "p": 21,
      "q": 22,
      "r": 23,
      "s": 24,
      "t": 25,
      "u": 26,
      "v": 27,
      "w": 28,
      "x": 29,
      "y": 30,
      "▁": 31,
      "ea": 32,
      "ee": 33,
      "ai": 34,
      "oo": 35,
      "et": 36,
      "▁t": 37,
      "eai": 38,
      "ot": 39,
      "aiee": 40,
      "eea": 41,
      "▁ea": 42,
      "to": 43,
      "▁o": 44,
      "tn": 45,
      "eaie": 46,
      "eae": 47,
      "etn": 48,
      "▁ai": 49,
      "▁ta": 50,
      "eaiee": 51,
      "▁oo": 52,
      "oooo": 53,
      "ll": 54,
      "eto": 55,
      "as": 56,
      "eot": 57,
      "hn": 58,
      "ta": 59,
      "aie": 60,
      "er": 61,
      "tt": 62,
      "ts": 63,
      "▁et": 64,
      "▁aiee": 65,
      "aa": 66,
      "tot": 67,
      "▁eaa": 68,
      "▁taiee": 69,
      "eer": 70,
      "wn": 71,
      "oh": 72,
      "▁i": 73,
      "dt": 74,
      "st": 75,
      "uto": 76,
      "eaa": 77,
      "tso": 78,
      "▁ot": 79,
      "▁tn": 80,
      "lo": 81,
      "▁a": 82,
      "sa": 83,
      "▁taieetso": 84,
      "lloooo": 85,
      "▁ood": 86,
      "▁tea": 87,
      "eo": 88,
      "▁e": 89,
      "▁ooh": 90,
      "▁oee": 91,
      "▁teea": 92,
      "llo": 93,
      "eaieeea": 94,
      "ho": 95,
      "▁lloooo": 96,
      "ec": 97,
      "▁er": 98,
      "ao": 99,
      "see": 100,
      "hr": 101,
      "fa": 102,
      "pa": 103,
      "▁eai": 104,
      "tc": 105,
      "▁tta": 106,
      "asee": 107,
      "eeae": 108,
      "tea": 109,
      "▁oeot": 110,
      "ero": 111,
      "gt": 112,
      "aieeeto": 113,
      "iee": 114,
      "own": 115,
      "eee": 116,
      "eeea": 117,
      "▁aiea": 118,
      "▁teeaea": 119,
      "▁erd": 120,
      "▁eea": 121,
      "duto": 122,
      "mtn": 123,
      "oto": 124,
      "uoo": 125,
      "etc": 126,
      "▁oe": 127,
      "▁oh": 128,
      "eaetn": 129,
      "▁eaaee": 130,
      "soooo": 131,
      "too": 132,
      "rto": 133,
      "eb": 134,
      "▁eato": 135,
      "▁ead": 136,
      "eatn": 137,
      "▁oet": 138,
      "eero": 139,
      "eeeae": 140,
      "eaiea": 141,
      "ar": 142,
      "eaieea": 143,
      "gte": 144,
      "aieee": 145,
      "hre": 146,
      "aiaa": 147,
      "▁oeeeaie": 148,
      "aieea": 149,
      "eaieduto": 150,
      "sac": 151,
      "htn": 152,
      "▁pa": 153,
      "oeot": 154,
      "▁teot": 155,
      "▁ee": 156,
      "aeae": 157,
      "▁too": 158,
      "eadt": 159,
      "aieae": 160,
      "▁tsee": 161,
      "▁teato": 162,
      "eaeero": 163,
      "toto": 164,
      "asa": 165,
      "▁eead": 166,
      "eaiet": 167,
      "eaiedutoe": 168,
      "▁aieaiedutoe": 169,
      "etot": 170,
      "etn1": 171,
      "oeeeae": 172,
      "ktt": 173,
      "ii": 174,
      "iisoooo": 175,
      "▁etaeae": 176,
      "▁th": 177,
      "▁oest": 178,
      "▁tn1": 179,
      "etaiee": 180,
      "eaier": 181,
      "eaieeeto": 182,
      "▁teoteo": 183,
      "ieb": 184,
      "eeaot": 185,
      "llollo": 186,
      "▁to": 187,
      "aot": 188,
      "ouoo": 189,
      "▁ieea": 190,
      "thn": 191,
      "iec": 192,
      "etktt": 193,
      "▁eae": 194,
      "ef": 195,
      "stt": 196,
      "▁eaieeea": 197,
      "aiea": 198,
      "▁aieeeaetn": 199,
      "lot": 200,
      "eato": 201,
      "eaieaie": 202,
      "taoeeeae": 203,
      "taiee": 204,
      "▁etn1": 205,
      "ooh": 206,
      "▁aiee0": 207,
      "▁tsee1": 208,
      "▁ae": 209,
      "aoteaiee": 210,
      "etktttn": 211,
      "eeaa": 212,
      "aae": 213,
      "tec": 214,
      "eaae": 215,
      "htec": 216,
      "eu": 217,
      "▁iet": 218,
      "ote": 219,
      "▁toeeaot": 220,
      "tf": 221,
      "seea": 222,
      "at": 223,
      "gg": 224,
      "th": 225,
      "etaieeeto": 226,
      "oe": 227,
      "easa": 228,
      "eetn": 229,
      "tnoo": 230,
      "▁oesttnoo": 231,
      "▁taee": 232,
      "hot": 233,
      "▁toeeaotd": 234,
      "▁aie": 235,
      "ttt": 236,
      "jhn": 237,
      "▁etasee": 238,
      "ae": 239,
      "oeote": 240,
      "oha": 241,
      "ieeoh": 242,
      "so": 243,
      "▁aot": 244,
      "hnaie": 245,
      "▁tho": 246,
      "▁teatoaie": 247,
      "▁ieeaasee": 248,
      "▁aieae": 249,
      "easee": 250,
      "suto": 251,
      "▁eaaeeetot": 252,
      "▁oodt": 253,
      "faet": 254,
      "em": 255,
      "ieem": 256,
      "ohaoooo": 257,
      "eoteea": 258,
      "eerto": 259,
      "totoieeoh": 260,
      "▁taeetotoieeoh": 261,
      "ead": 262,
      "▁eohaoooo": 263,
      "▁lo": 264,
      "eeto": 265,
      "loeae": 266,
      "▁eatn": 267,
      "▁hr": 268,
      "▁taeetotoieeohhre": 269,
      "▁m": 270,
      "▁tat": 271,
      "saie": 272,
      "▁ohao": 273,
      "▁tead": 274,
      "▁eaet": 275,
      "llorto": 276,
      "▁otiisoooo": 277,
      "etmtn": 278,
      "aietc": 279,
      "▁gte": 280,
      "eaiaoteaiee": 281,
      "▁ttaeer": 282,
      "▁as": 283,
      "▁oheaieeea": 284,
      "aieeetc": 285,
      "▁tneaiaoteaiee": 286,
      "ase": 287,
      "othn": 288,
      "▁erdt": 289,
      "▁eadsac": 290,
      "eaieaief": 291,
      "eeatn": 292,
      "eeex": 293,
      "▁moto": 294,
      "▁aotoh": 295,
      "▁aieeeaeero": 296,
      "eaieae": 297,
      "▁taeeex": 298,
      "▁st": 299,
      "hottn": 300,
      "aieeet": 301,
      "iet": 302,
      "▁eaieaieaief": 303,
      "▁f": 304,
      "ato": 305,
      "▁oeeeaiet": 306,
      "▁oeoteaie": 307,
      "llothn": 308,
      "▁ttallothn": 309,
      "eown": 310,
      "soeo": 311,
      "▁aehtec": 312,
      "▁aii": 313,
      "aiei": 314,
      "▁oeoteaiepa": 315,
      "thoo": 316,
      "hta": 317,
      "▁eatot": 318,
      "eertot": 319,
      "tfe": 320,
      "aaot": 321,
      "dtn": 322,
      "eeasoooo": 323,
      "htahn": 324,
      "oteea": 325,
      "▁etsuto": 326,
      "etno": 327,
      "▁eaiea": 328,
      "aieaeo": 329,
      "aiet": 330,
      "eaieote": 331,
      "eaaee": 332,
      "▁aaot": 333,
      "▁iee": 334,
      "eaieeeae": 335,
      "▁oeto": 336,
      "aafa": 337,
      "ttiisoooo": 338,
      "▁toottiisoooo": 339,
      "teeae": 340,
      "▁eaaeed": 341,
      "▁faet": 342,
      "▁otea": 343,
      "▁iem": 344,
      "iebat": 345,
      "▁oteea": 346,
      "tj": 347,
      "eaieeead": 348,
      "▁taieee": 349,
      "eaieeaee": 350,
      "▁teatot": 351,
      "▁afa": 352,
      "tjho": 353,
      "▁tao": 354,
      "▁etao": 355,
      "eaieaeto": 356,
      "▁eaaeeetottea": 357,
      "ia": 358,
      "aiaae": 359,
      "▁faafa": 360,
      "▁tnlo": 361,
      "▁aee": 362,
      "▁taaiea": 363,
      "▁tae": 364,
      "▁eto": 365,
      "▁eaie": 366,
      "tsee": 367,
      "▁ohato": 368,
      "▁taaieaaiee": 369,
      "▁oodeae": 370,
      "aeaie": 371,
      "▁tatea": 372,
      "e1": 373,
      "▁tateaee": 374,
      "asaa": 375,
      "▁eaeaie": 376,
      "dthtn": 377,
      "eeemtn": 378,
      "▁hottn": 379,
      "eaietn": 380,
      "▁oeeae": 381,
      "otoa": 382,
      "aoeeeae": 383,
      "▁teoteoiebat": 384,
      "▁teatn": 385,
      "▁oestt": 386,
      "▁taeeexaieeeto": 387,
      "totot": 388,
      "rhtn": 389,
      "eeta": 390,
      "tv": 391,
      "▁oeeeaieea": 392,
      "▁teeae1": 393,
      "▁ieb": 394,
      "eouoo": 395,
      "totototo": 396,
      "▁aieaieeeto": 397,
      "erduto": 398,
      "eoteeea": 399,
      "▁aieaieeeto0": 400,
      "asatotototo": 401,
      "eloeae": 402,
      "iebtjho": 403,
      "eadtetn": 404,
      "oea": 405,
      "▁etoasatotototo": 406,
      "▁eaaiee": 407,
      "dto": 408,
      "eetc": 409,
      "▁thoaie": 410,
      "▁ohn": 411,
      "▁tasac": 412,
      "▁odthtn": 413,
      "eaieeeadst": 414,
      "▁rto": 415,
      "▁oetn": 416,
      "▁aotohai": 417,
      "▁elo": 418,
      "▁erdoeote": 419,
      "ggg": 420,
      "▁oohetktttn": 421,
      "toooea": 422,
      "efsoeo": 423,
      "eaeaie": 424,
      "▁tt": 425,
      "lotn": 426,
      "lolotn": 427,
      "lolotnttt": 428,
      "▁teaieeeadst": 429,
      "toown": 430,
      "▁eaaeeeto": 431,
      "eeeaie": 432,
      "▁eaetaiee": 433,
      "otea": 434,
      "▁aieai": 435,
      "▁lololotnttt": 436,
      "▁otetaiee": 437,
      "▁eaeeasoooo": 438,
      "▁otetaieeeown": 439,
      "▁oeasa": 440,
      "▁hottniebtjho": 441,
      "euo": 442,
      "dtc": 443,
      "tetn": 444,
      "oteato": 445,
      "eaaie": 446,
      "▁tnst": 447,
      "otoatn": 448,
      "▁oteaa": 449,
      "▁eatne": 450,
      "▁eaitfe": 451,
      "eaiaa": 452,
      "otn": 453,
      "do": 454,
      "tstt": 455,
      "erodtn": 456,
      "dero": 457,
      "▁aieto": 458,
      "ieer": 459,
      "▁eaeadtetn": 460,
      "▁tseea": 461,
      "hoh": 462,
      "▁eaeaetn": 463,
      "▁eetn": 464,
      "aieeetstt": 465,
      "thooero": 466,
      "▁oeaie": 467,
      "etaiaa": 468,
      "▁iemeu": 469,
      "▁hre": 470,
      "▁hre0": 471,
      "▁oodeaelo": 472,
      "▁lloooot": 473,
      "▁ieeea": 474,
      "▁gt": 475,
      "▁eatoo": 476,
      "aieec": 477,
      "etoo": 478,
      "aoa": 479,
      "▁faetthooero": 480,
      "eeouoo": 481,
      "ro": 482,
      "▁teadeaeero": 483,
      "tho": 484,
      "▁iec": 485,
      "etaiaaeeouoo": 486,
      "uo": 487,
      "seear": 488,
      "▁eaeeemtn": 489,
      "▁eohaooooaieec": 490,
      "eadtc": 491,
      "▁eao": 492,
      "eadar": 493,
      "▁aeadtc": 494,
      "▁atot": 495,
      "dtetn": 496,
      "▁aedtc": 497,
      "oheloeae": 498,
      "hohr": 499,
      "▁aiaae": 500,
      "▁eaeaieoheloeae": 501,
      "▁eloeadar": 502,
      "▁eaas": 503,
      "▁twn": 504,
      "▁toeeaotdea": 505,
      "▁oodeaa": 506,
      "▁tneaie": 507,
      "aie0": 508,
      "▁etasaa": 509,
      "▁eaasoteea": 510,
      "▁eaaietc": 511,
      "eeaaetn": 512,
      "aieie": 513,
      "▁ooheeaaetn": 514,
      "▁taoeote": 515,
      "▁ohatohtahn": 516,
      "▁ieeaase": 517,
      "loaie": 518,
      "etouto": 519,
      "eertottea": 520,
      "la": 521,
      "xx": 522,
      "xxeae": 523,
      "▁oeoteertottea": 524,
      "▁aieae1": 525,
      "▁oteeaeetn": 526,
      "ieemo": 527,
      "gggeae": 528,
      "aieeaasee": 529,
      "eterduto": 530,
      "▁eaexxeae": 531,
      "▁aieea": 532,
      "▁etotoatn": 533,
      "oot": 534,
      "▁oeotd": 535,
      "oeoteaiee": 536,
      "mtc": 537,
      "▁aaoteoteea": 538,
      "llolloetouto": 539,
      "eaieasaie": 540,
      "eeawn": 541,
      "▁thot": 542,
      "▁eaaai": 543,
      "aieaeoooo": 544,
      "▁thoao": 545,
      "▁eaieeatn": 546,
      "oelot": 547,
      "▁aseaie": 548,
      "aehtec": 549,
      "aseea": 550,
      "▁aaoteoteeadero": 551,
      "eaaeed": 552,
      "▁ts": 553,
      "▁teadtstt": 554,
      "hoar": 555,
      "▁aieaeadt": 556,
      "▁ttaetaiaaeeouoo": 557,
      "tfee": 558,
      "aieeaee": 559,
      "▁ieeaaseeeeta": 560,
      "▁eeta": 561,
      "▁tateae": 562,
      "▁taa": 563,
      "▁oeoteaiee": 564,
      "▁taeuo": 565,
      "▁taei": 566,
      "▁oeaieasaie": 567,
      "▁teatoar": 568,
      "▁oteaaote": 569,
      "▁tk": 570,
      "tctc": 571,
      "aseetctc": 572,
      "▁easa": 573,
      "▁eaier": 574,
      "tthn": 575,
      "▁thotho": 576,
      "taieerto": 577,
      "▁oodtefsoeo": 578,
      "▁oetta": 579,
      "▁aieee": 580,
      "▁staie0": 581,
      "eaaeedhn": 582,
      "asaie": 583,
      "tto": 584,
      "eaieetn": 585,
      "egggeae": 586,
      "toteatn": 587,
      "eaaeeaieote": 588,
      "▁afa1": 589,
      "▁oteaseear": 590,
      "vo": 591,
      "▁eaeteb": 592,
      "▁aieeteeae": 593,
      "▁aieeteeae0": 594,
      "▁loaseetctc": 595,
      "▁eee": 596,
      "eotea": 597,
      "eaiaae": 598,
      "ltto": 599,
      "▁aieeeaaeedhn": 600,
      "▁eaieieer": 601,
      "eeaeasee": 602,
      "▁oheaieeeaown": 603,
      "eas": 604,
      "▁ttaaiee": 605,
      "hrdtetn": 606,
      "▁aieaeadthnaie": 607,
      "lloooolloooo": 608,
      "▁ttaaieeeero": 609,
      "erodtno": 610,
      "▁eeaderodtno": 611,
      "▁ieeeeawn": 612,
      "▁aiioh": 613,
      "llollof": 614,
      "eeeaeee": 615,
      "▁eeae": 616,
      "▁eotea": 617,
      "▁oodo": 618,
      "ets": 619,
      "▁oeeeaieown": 620,
      "▁oeotdaeaie": 621,
      "▁aieeo": 622,
      "iettea": 623,
      "▁ttiettea": 624,
      "▁tm": 625,
      "▁oeote": 626,
      "▁aieeeto": 627,
      "erto": 628,
      "▁eeaetmtn": 629,
      "▁ooheeaaetnaieeeto": 630,
      "▁taoeeeae": 631,
      "▁eatollolloetouto": 632,
      "▁teatoooea": 633,
      "aiaoteaiee": 634,
      "▁oodooh": 635,
      "eaieeeaeuto": 636,
      "▁aieaieaieeeaeuto": 637,
      "▁eetn0": 638,
      "eaaehn": 639,
      "▁eeadaieeaee": 640,
      "▁astn": 641,
      "▁eatoeatn": 642,
      "oaoa": 643,
      "▁otoaoa": 644,
      "▁eaaef": 645,
      "tjhn": 646,
      "seaie": 647,
      "▁ooa": 648,
      "ieemtn": 649,
      "▁ttso": 650,
      "▁ieeaaseeaiee": 651,
      "▁eaethrdtetn": 652,
      "tottt": 653,
      "▁aietoe": 654,
      "llooootaoeeeae": 655,
      "etsaieaeo": 656,
      "▁aiiohase": 657,
      "▁llooooegggeae": 658,
      "eaieaaeeaieote": 659,
      "▁aiiohaseeaieaaeeaieote": 660,
      "▁eloeae": 661,
      "etetn": 662,
      "▁eeadaieeetc": 663,
      "ft": 664,
      "aiaaetsaieaeo": 665,
      "▁tatc": 666,
      "▁tee": 667,
      "▁eae2": 668,
      "eoero": 669,
      "▁aiaaellooootaoeeeae": 670,
      "▁taoeeeaeown": 671,
      "eoo": 672,
      "▁teoteoeaeero": 673,
      "▁ho": 674,
      "▁sac": 675,
      "eaeto": 676,
      "▁etaiaa": 677,
      "▁etaiaaeee": 678,
      "aieee1": 679,
      "iaec": 680,
      "▁oeteaaehn": 681,
      "▁atotaieee": 682,
      "asaieown": 683,
      "▁etaie": 684,
      "▁hohr": 685,
      "aieeetn": 686,
      "▁aiiasaieown": 687,
      "▁oeeeaietn": 688,
      "▁taoeeea": 689,
      "▁paot": 690,
      "saa": 691,
      "▁teeasaa": 692,
      "etaieee": 693,
      "▁oeaierto": 694,
      "▁eaiaae": 695,
      "▁eaiaaegte": 696,
      "▁tn2": 697,
      "eeoooo": 698,
      "aetn": 699,
      "▁tooieem": 700,
      "oteaeeoooo": 701,
      "taieerhtn": 702,
      "aeaiee": 703,
      "▁aieaetn": 704,
      "▁eaaeeetotsee": 705,
      "od": 706,
      "▁tnoh": 707,
      "doero": 708,
      "eaieeadoero": 709,
      "▁aea": 710,
      "▁eadaieeetstt": 711,
      "euto": 712,
      "ooooo": 713,
      "▁llooootaieerhtn": 714,
      "▁eaaeto": 715,
      "staie": 716,
      "▁tneeae": 717,
      "▁aaoteoteeea": 718,
      "ttea": 719,
      "etoown": 720,
      "▁oeeeaieoe": 721,
      "▁aaoteoteeeatn": 722,
      "▁paotetktttn": 723,
      "▁ea1": 724,
      "aieeeae": 725,
      "etotn": 726,
      "▁oodooheaieaeto": 727,
      "▁ethoar": 728,
      "▁ttea": 729,
      "▁hoaseea": 730,
      "▁aieeeertot": 731,
      "▁hoaseeaown": 732,
      "▁aotohaieaieae": 733,
      "etteeae": 734,
      "ieea": 735,
      "tseea": 736,
      "▁llooooas": 737,
      "▁ooheaetn": 738,
      "▁aieeeertotllorto": 739,
      "▁paooh": 740,
      "▁tooto": 741,
      "otd": 742,
      "ohasa": 743,
      "thtn": 744,
      "▁tkt": 745,
      "aieeasa": 746,
      "aieeatn": 747,
      "aietetn": 748,
      "▁thtseea": 749,
      "▁taeaietn": 750,
      "▁ooat": 751,
      "▁ettaieerto": 752,
      "▁oohgte": 753,
      "▁paooheetc": 754,
      "▁oohto": 755,
      "▁taet": 756,
      "▁oeeeaietjhn": 757,
      "▁odthtnaieeeto": 758,
      "aieeeeto": 759,
      "▁eae1": 760,
      "▁ooateeae": 761,
      "▁tv": 762,
      "▁aieeaiea": 763,
      "▁llooooaieee": 764,
      "eaiertottt": 765,
      "▁aieeoeaiertottt": 766,
      "ohaieie": 767,
      "▁aie0": 768,
      "aitho": 769,
      "pao": 770,
      "▁taiei": 771,
      "▁teatotoot": 772,
      "▁eaaeeetn": 773,
      "▁ohaoaieeetc": 774,
      "taoeeeaehn": 775,
      "▁eaaeeetneae": 776,
      "▁ttaea": 777,
      "gtetetn": 778,
      "▁aiaa": 779,
      "▁aieeaieagtetetn": 780,
      "easeaa": 781,
      "llolloeatn": 782,
      "▁emtc": 783,
      "▁oeeeaieoeltto": 784,
      "eeaaeea": 785,
      "toar": 786,
      "aithoeouoo": 787,
      "eatoeatn": 788,
      "▁thaieaeoooo": 789,
      "sod": 790,
      "▁aieetsee": 791,
      "fteo": 792,
      "▁eaaeedllollo": 793,
      "taae": 794,
      "mtaae": 795,
      "▁eaaeedllollomtaae": 796,
      "▁etaieeet": 797,
      "▁oeteaa": 798,
      "▁tai": 799,
      "▁eaaeeaaeea": 800,
      "eeaote": 801,
      "▁taaieee1": 802,
      "eaioteato": 803,
      "▁eeaduo": 804,
      "▁llooootaithoeouoo": 805,
      "▁teatoteaieeeae": 806,
      "aehtectv": 807,
      "▁aieeb": 808,
      "▁eatoaieee": 809,
      "taea": 810,
      "▁aieebaehtectv": 811,
      "▁teaieeaee": 812,
      "▁ieeaaseellollof": 813,
      "▁ieeaaseellolloftaea": 814,
      "▁st1": 815,
      "▁eadet": 816,
      "▁tneeaote": 817,
      "▁aieeaee": 818,
      "▁aieeaee1": 819,
      "asaee": 820,
      "ieceaa": 821,
      "▁eadetsuto": 822,
      "▁teatotootasaee": 823,
      "▁oohtot": 824,
      "▁aieee2": 825,
      "▁eatoaieee2": 826,
      "▁seaie": 827,
      "▁oestte": 828,
      "▁oodloaie": 829,
      "oeoteaieeuto": 830,
      "sahn": 831,
      "etniec": 832,
      "▁aeea": 833,
      "▁eaaaietn": 834,
      "▁tasee": 835,
      "▁taseeet": 836,
      "teatn": 837,
      "hneerto": 838,
      "▁oteato": 839,
      "atot": 840,
      "▁eaaieeaasee": 841,
      "▁llooooeaeaie": 842,
      "▁eaaieeaaseeeaioteato": 843,
      "▁erdoeotegte": 844,
      "▁iecieceaa": 845,
      "▁oodeaaetniec": 846,
      "oteeaeterduto": 847,
      "▁iecieceaaetoown": 848,
      "▁ietao": 849,
      "eaiaaeaieeeto": 850,
      "▁eaetaieepa": 851,
      "▁oeotas": 852,
      "oouoo": 853,
      "▁eatothnaie": 854,
      "▁taeaa": 855,
      "aseaa": 856,
      "▁taaieeatn": 857,
      "▁teeaaa": 858,
      "fteoaiaae": 859,
      "ietaseaa": 860,
      "eatsee": 861,
      "▁ottoo": 862,
      "hhn": 863,
      "eaitfee": 864,
      "▁teoteoo": 865,
      "dtoaiaaetsaieaeo": 866,
      "▁iettc": 867,
      "aec": 868,
      "▁eaaet": 869,
      "▁easatoto": 870,
      "▁toeeaotdeaaieeeeto": 871,
      "▁ietaodtoaiaaetsaieaeo": 872,
      "▁rhtn": 873,
      "rodto": 874,
      "▁oteatn": 875,
      "▁oettaero": 876,
      "aieaie": 877,
      "▁oeeeaieeaa": 878,
      "thoohneerto": 879,
      "oelotc": 880,
      "▁lloooooelotc": 881,
      "eadtvo": 882,
      "totoaetn": 883,
      "▁taieellolloeatn": 884,
      "▁eaeae": 885,
      "▁eaeoteea": 886,
      "eoteeeaown": 887,
      "tneaie": 888,
      "▁eaeoteeeaown": 889,
      "tao": 890,
      "aeaieela": 891,
      "▁eaieaeaier": 892,
      "taoeeea": 893,
      "eatt": 894,
      "▁taathn": 895,
      "teer": 896,
      "▁paeaier": 897,
      "▁aietn1": 898,
      "▁iaec": 899,
      "▁teaeaie": 900,
      "▁aitfe": 901,
      "eaieas": 902,
      "toteato": 903,
      "▁taitoteato": 904,
      "▁teeto": 905,
      "lh": 906,
      "▁oeeeaieeaieaie": 907,
      "▁eaeaetniec": 908,
      "eaieaieae": 909,
      "▁teer": 910,
      "eaieaiet": 911,
      "▁oeeeaieoteeaeterduto": 912,
      "tthnst": 913,
      "aeoooo": 914,
      "▁aiot": 915,
      "▁oteatoooea": 916,
      "▁taea": 917,
      "▁llooootso": 918,
      "eaieaietoto": 919,
      "▁tllorto": 920,
      "▁eatooetotn": 921,
      "▁ieeeaeaiee": 922,
      "tc0": 923,
      "▁eetc0": 924,
      "ieet": 925,
      "▁ouoo": 926,
      "▁erdaiee": 927,
      "▁teatngte": 928,
      "ttooh": 929,
      "ela": 930,
      "▁taitoteatoetn": 931,
      "eeerto": 932,
      "eaioteaeeoooo": 933,
      "▁gteaie": 934,
      "▁eetaar": 935,
      "ex": 936,
      "iaeaieeeto": 937,
      "▁aieaieeeto0\n": 938,
      "easeeex": 939,
      "easeeexec": 940,
      "▁hohrtthnst": 941,
      "▁eaieduto": 942,
      "aieeee": 943,
      "▁toot": 944,
      "▁aieaae": 945,
      "lloooollooooieb": 946,
      "▁etno": 947,
      "▁ottoottooh": 948,
      "▁otetaieee": 949,
      "▁llooootwn": 950,
      "▁eatoeaa": 951,
      "paoeot": 952,
      "▁oetotn": 953,
      "▁teatnaiee": 954,
      "▁oetoetteeae": 955,
      "▁tatn": 956,
      "tee": 957,
      "aieasa": 958,
      "oeeae": 959,
      "▁otee": 960,
      "▁oodoeeeaie": 961,
      "▁iemtetn": 962,
      "▁iemtetn0": 963,
      "aito": 964,
      "aieeasado": 965,
      "ac": 966,
      "▁oodoeeeaielloooollooooieb": 967,
      "▁teeaaaaeoooo": 968,
      "▁aotohaieasa": 969,
      "eaieeadoeroe": 970,
      "▁aieaieeadoeroe": 971,
      "▁eeetn": 972,
      "▁erdaieeeaetn": 973,
      "▁oohtoeae": 974,
      "eaetaiee": 975,
      "oet": 976,
      "▁ohaoeae": 977,
      "toteatnaieae": 978,
      "▁etno0": 979,
      "dar": 980,
      "easaee": 981,
      "eaieeeaduto": 982,
      "▁toeeaotdeaeaieeeaduto": 983,
      "▁eaieeeaown": 984,
      "oelotac": 985,
      "oeai": 986,
      "eaed": 987,
      "▁oeeeaiee": 988,
      "▁aehtecetktt": 989,
      "eaedoooo": 990,
      "▁aieaetnta": 991,
      "▁aieaetnta0": 992,
      "▁aehtecetktttoar": 993,
      "fiaeaieeeto": 994,
      "▁taoeeeaeeatn": 995,
      "teatoteatn": 996,
      "▁oodet": 997,
      "eaaeee": 998,
      "eelo": 999,
      "▁ttatotoaetn": 1000,
      "▁aioteaedoooo": 1001,
      "▁erdtc": 1002,
      "▁aieaieaie": 1003,
      "▁aeeao": 1004,
      "eead": 1005,
      "▁taieeaasee": 1006,
      "▁aieaead": 1007,
      "▁aieaieaieeea": 1008,
      "▁oeteaaeaieaeto": 1009,
      "▁thoo": 1010,
      "▁etteatoteatn": 1011,
      "▁aietn": 1012,
      "eeasa": 1013,
      "▁oetod": 1014,
      "▁aieeeaieeaee": 1015,
      "▁eaaieeeatsee": 1016,
      "▁thiaec": 1017,
      "▁oteeaeterduto": 1018,
      "▁oohfiaeaieeeto": 1019,
      "etnooooo": 1020,
      "▁tteaown": 1021,
      "▁taeaieea": 1022,
      "eeaeoteea": 1023,
      "mtoown": 1024,
      "▁aotohaieaioteaeeoooo": 1025,
      "▁teev": 1026,
      "▁teatoaieeeae": 1027,
      "sc": 1028,
      "▁teeasaar": 1029,
      "▁tasaie": 1030,
      "▁oeoteaieeouoo": 1031,
      "eaataoeeeaehn": 1032,
      "▁ll": 1033,
      "eaaeaiee": 1034,
      "toieemo": 1035,
      "houoo": 1036,
      "▁lltoieemo": 1037,
      "teea": 1038,
      "▁ttsoeot": 1039,
      "houoothn": 1040,
      "▁eaitfee": 1041,
      "taieaeo": 1042,
      "▁otaiaoteaiee": 1043,
      "▁oodeaier": 1044,
      "▁tkteaataoeeeaehn": 1045,
      "▁oeoteaseeexec": 1046,
      "▁llooootaoeeeae": 1047,
      "▁ieet": 1048,
      "▁oeeeaielloooolloooo": 1049,
      "▁eetaareae": 1050,
      "▁eaaeaieea": 1051,
      "seeao": 1052,
      "eeaeaieeeto": 1053,
      "aieai": 1054,
      "▁erdtcaiee": 1055,
      "▁taeaieeaeoero": 1056,
      "tsto": 1057,
      "▁etaieeeta": 1058,
      "▁oohaieie": 1059,
      "ost": 1060,
      "▁llooooo": 1061,
      "▁taieieeasa": 1062,
      "▁otetaieeeownero": 1063,
      "▁teoteooohaieie": 1064,
      "▁tootohhn": 1065,
      "▁faetthooeroetno": 1066,
      "hoetaieeeto": 1067,
      "thntv": 1068,
      "▁aehtecthntv": 1069,
      "oteaetn": 1070,
      "▁tsiec": 1071,
      "eaieasoteaetn": 1072,
      "eaieasoteaetno": 1073,
      "▁eaats": 1074,
      "▁thooetnooooo": 1075,
      "▁aehteceaieasoteaetno": 1076,
      "eaieetno": 1077,
      "lotaoeeeae": 1078,
      "eaieaee": 1079,
      "thnaie": 1080,
      "▁oeeeaietnaietc": 1081,
      "▁etteatoteatnaeae": 1082,
      "▁oodoelotac": 1083,
      "shtn": 1084,
      "vtot": 1085,
      "▁oeaiertoetc": 1086,
      "▁gteloaie": 1087,
      "ttm": 1088,
      "taee": 1089,
      "▁oeaiertoetco": 1090,
      "tn0": 1091,
      "etooetaieeeto": 1092,
      "▁oteatoetooetaieeeto": 1093,
      "lr": 1094,
      "▁aioteaedooooaeaie": 1095,
      "eaeeemtn": 1096,
      "eeaaeasaee": 1097,
      "▁eetn1": 1098,
      "▁aiaiee": 1099,
      "▁eaieea": 1100,
      "toaie": 1101,
      "▁patn": 1102,
      "loasee": 1103,
      "▁llooooiec": 1104,
      "▁oeteatoeatn": 1105,
      "ertot": 1106,
      "▁ooaeeaeasee": 1107,
      "▁ohaoaieea": 1108,
      "lrt": 1109,
      "▁oeti": 1110,
      "▁lloooooietaseaa": 1111,
      "▁eaieeeafa": 1112,
      "▁eaieeeafatjhn": 1113,
      "ieemosa": 1114,
      "▁eetattt": 1115,
      "▁tvtaieaeo": 1116,
      "eta": 1117,
      "safa": 1118,
      "▁taeitthn": 1119,
      "▁eaaieeee": 1120,
      "▁taieeesafa": 1121,
      "▁oohtotv": 1122,
      "▁tmost": 1123,
      "▁aieeetoar": 1124,
      "▁eaiaa": 1125,
      "aietktttn": 1126,
      "▁eaaie": 1127,
      "eaaemtn": 1128,
      "eaieee": 1129,
      "odi": 1130,
      "▁iec1": 1131,
      "▁etasa": 1132,
      "▁tn1\n": 1133,
      "easeeao": 1134,
      "▁oodeae0": 1135,
      "otoaoa": 1136,
      "▁ieteaaemtn": 1137,
      "oteaiee": 1138,
      "▁eaieeaeoero": 1139,
      "▁oettataoeeeae": 1140,
      "▁oettataoeeeaeouoo": 1141,
      "ttmn": 1142,
      "▁eatoero": 1143,
      "tclo": 1144,
      "▁eaaaieeasado": 1145,
      "afaet": 1146,
      "tae": 1147,
      "▁ietsaie": 1148,
      "▁ttaiee": 1149,
      "▁eaaoo": 1150,
      "tooeer": 1151,
      "▁ttaeatooeer": 1152,
      "aotasee": 1153,
      "▁oodotoaoa": 1154,
      "▁eaeoteeasahn": 1155,
      "pt": 1156,
      "eaietaoeeeae": 1157,
      "▁eaieaeaierthtn": 1158,
      "▁oteatoooea\n": 1159,
      "etaie": 1160,
      "etc1": 1161,
      "▁toohoetaieeeto": 1162,
      "▁erdeaeero": 1163,
      "▁etaieea": 1164,
      "eaieeatn": 1165,
      "oteeea": 1166,
      "▁em": 1167,
      "stoouoo": 1168,
      "▁oeeeaiestoouoo": 1169,
      "▁eatotn": 1170,
      "aieeetneea": 1171,
      "▁iebeaeeemtn": 1172,
      "hreown": 1173,
      "▁oesttehreown": 1174,
      "est": 1175,
      "▁eaieeeafatjhnteer": 1176,
      "▁aieeetc1": 1177,
      "lherodtn": 1178,
      "▁taeeexaieeetneea": 1179,
      "▁ieeeaeaieaee": 1180,
      "tar": 1181,
      "▁oohhre": 1182,
      "▁tooieemot": 1183,
      "meuo": 1184,
      "etn0": 1185,
      "eaduo": 1186,
      "oteo": 1187,
      "oteoef": 1188,
      "▁erdth": 1189,
      "eteetn": 1190,
      "▁teoteoieemosa": 1191,
      "roetmtn": 1192,
      "▁teeasaaroetmtn": 1193,
      "▁aies": 1194,
      "tar0": 1195,
      "▁aiestar0": 1196,
      "▁oeeeaielloooollooootetn": 1197,
      "tpa": 1198,
      "▁totn": 1199,
      "▁oeeeaieiec": 1200,
      "▁llooooasoteoef": 1201,
      "▁eaata": 1202,
      "▁oestteteetn": 1203,
      "▁eaaeaetaiee": 1204,
      "▁aehteceaieasoteaetno\n": 1205,
      "▁aotetc": 1206,
      "thaieaeoooo": 1207,
      "aiaaeeaeoteea": 1208,
      "▁aiaaeea": 1209,
      "▁teeaea\n": 1210,
      "▁aeeeaeee": 1211,
      "▁otto": 1212,
      "seetpa": 1213,
      "oho": 1214,
      "▁eaieetn": 1215,
      "▁oodteaaie": 1216,
      "▁aieaest": 1217,
      "eahn": 1218,
      "tmtn": 1219,
      "▁eadt": 1220,
      "▁oeoteaseeexeceee": 1221,
      "eaieafteoaiaae": 1222,
      "eaiaaeeerto": 1223,
      "▁taieet": 1224,
      "▁erdaehtec": 1225,
      "▁teatnhre": 1226,
      "▁llooooasto": 1227,
      "aoeeea": 1228,
      "aietsee": 1229,
      "▁eerto": 1230,
      "eet": 1231,
      "▁erdaehtecetktttn": 1232,
      "stteea": 1233,
      "eea1": 1234,
      "▁oteaaoteaiee": 1235,
      "toot": 1236,
      "▁taetasa": 1237,
      "▁aieae0": 1238,
      "etcohasa": 1239,
      "eaietaoeeea": 1240,
      "▁eaaaieaietaoeeea": 1241,
      "aiaieee": 1242,
      "▁aiaieea": 1243,
      "▁aiaieeaaiaieee": 1244,
      "▁thtseeastteea": 1245,
      "▁eahn": 1246,
      "▁eaathaieaeoooo": 1247,
      "▁tthn": 1248,
      "▁eaaeedhn": 1249,
      "▁oodts": 1250,
      "eaieethn": 1251,
      "sodsod": 1252,
      "▁thnaie": 1253,
      "▁oodhtahn": 1254,
      "▁oodeeaeasee": 1255,
      "▁teaeaieown": 1256,
      "dc": 1257,
      "▁tneaiesa": 1258,
      "ei": 1259,
      "▁eaaetcohasa": 1260,
      "▁tateea1": 1261,
      "eaieotd": 1262,
      "▁taoeeeaie": 1263,
      "▁aeadtcee": 1264,
      "▁eaathaieaeooooteatn": 1265,
      "tsts": 1266,
      "town": 1267,
      "hotc": 1268,
      "▁oodi": 1269,
      "ou": 1270,
      "mo": 1271,
      "eaieeetc": 1272,
      "▁eeaeaduo": 1273,
      "▁eatoeaiaaeeerto": 1274,
      "naie": 1275,
      "▁pathoohneerto": 1276,
      "toeatn": 1277,
      "taeiee": 1278,
      "▁oodietn0": 1279,
      "▁etaie1": 1280,
      "dtjhn": 1281,
      "aieaietaoeeeae": 1282,
      "▁erdtoo": 1283,
      "atetn": 1284,
      "ieemto": 1285,
      "▁taathnerto": 1286,
      "▁aieeeatn": 1287,
      "▁aiaaeeaiet": 1288,
      "▁aiaaeeaietmtoown": 1289,
      "▁eaieaf": 1290,
      "▁tseaeaie": 1291,
      "▁oeaieeaee": 1292,
      "▁oeaieeaeetmtn": 1293,
      "▁ero": 1294,
      "etm": 1295,
      "▁oesttetn": 1296,
      "eae1": 1297,
      "▁etn": 1298,
      "ttmntaee": 1299,
      "▁ieblo": 1300,
      "eaiaaehn": 1301,
      "eaieeetn": 1302,
      "oetmtn": 1303,
      "▁teetoaie": 1304,
      "aiear": 1305,
      "▁teevoteato": 1306,
      "▁eaeto": 1307,
      "▁oodea": 1308,
      "emtc": 1309,
      "▁eaaeedoeoteaieeuto": 1310,
      "▁teatoeeaeaieeeto": 1311,
      "tstst": 1312,
      "faas": 1313,
      "aieasaie": 1314,
      "▁eaieotd": 1315,
      "▁tootohouoothn": 1316,
      "▁eatnhre": 1317,
      "▁eaieotdetaieeeto": 1318,
      "▁ieeeaeaieae": 1319,
      "▁ieeeaeaieaedar": 1320,
      "▁iebta": 1321,
      "hoela": 1322,
      "eaatneaie": 1323,
      "oteetn": 1324,
      "▁oeeeaiets": 1325,
      "▁eeto": 1326,
      "▁oeotastoaie": 1327,
      "▁oeeeaietneaseaa": 1328,
      "▁matetn": 1329,
      "▁aieaieetno": 1330,
      "eeeaaie": 1331,
      "ststst": 1332,
      "tttmtn": 1333,
      "totetn": 1334,
      "▁ohaoeaieaieae": 1335,
      "▁gtesac": 1336,
      "▁elrt": 1337,
      "oero": 1338,
      "▁etaiee": 1339,
      "▁oodtshn": 1340,
      "etea": 1341,
      "▁erdtoteatnaieae": 1342,
      "▁eeaeasee": 1343,
      "eaetoeae": 1344,
      "▁paeaetoeae": 1345,
      "▁eeatn0": 1346,
      "▁eatoeaaaieaietaoeeeae": 1347,
      "▁eaoh": 1348,
      "▁eaieeeaeaieeadoero": 1349,
      "▁aieaieetnoaieaie": 1350,
      "etasa": 1351,
      "eaieeeaa": 1352,
      "ellollof": 1353,
      "llolloellollof": 1354,
      "▁oeotee": 1355,
      "▁eaaaiee": 1356,
      "oeoteaieetc": 1357,
      "▁llooooea": 1358,
      "▁faeteae": 1359,
      "▁taeiee": 1360,
      "▁oeloasee": 1361,
      "▁eaelo": 1362,
      "eaietato": 1363,
      "eaietatoe": 1364,
      "▁aieaeaietatoe": 1365,
      "ie": 1366,
      "▁oodthnaie": 1367,
      "etnaieasaie": 1368,
      "eaieotdeuto": 1369,
      "▁aehteceaieotdeuto": 1370,
      "etaoeeeae": 1371,
      "▁erdteaaie": 1372,
      "▁aeaeatt": 1373,
      "▁tooieet": 1374,
      "▁tooieetaiear": 1375,
      "eaieeeaaetmtn": 1376,
      "▁eaae": 1377,
      "▁teoteot": 1378,
      "aieeetoar": 1379,
      "totoeae": 1380,
      "▁eatoieemtn": 1381,
      "ettoo": 1382,
      "ettooeeeaie": 1383,
      "▁iebloaieaeo": 1384,
      "▁erder": 1385,
      "▁aieeeaetnetaieeeto": 1386,
      "▁oettotoeae": 1387,
      "▁oeeeaietseaeaie": 1388,
      "fsoeo": 1389,
      "▁ttaoeeae": 1390,
      "oest": 1391,
      "▁tooieemoo": 1392,
      "eaieeaoero": 1393,
      "▁ieemo": 1394,
      "▁pathn": 1395,
      "▁ohatost": 1396,
      "▁ieemosa": 1397,
      "▁taethoar": 1398,
      "▁erda": 1399,
      "▁oohou": 1400,
      "▁tooieemooohaieie": 1401,
      "▁oeeeai": 1402,
      "faaslotaoeeeae": 1403,
      "▁tefsoeo": 1404,
      "▁eatoeeaaeasaee": 1405,
      "▁teaetc": 1406,
      "aieee0": 1407,
      "▁eaststst": 1408,
      "tstoeoteea": 1409,
      "▁oeoteetstoeoteea": 1410,
      "▁oeoteetstoeoteea0": 1411,
      "teaieethn": 1412,
      "eaewn": 1413,
      "▁hn": 1414,
      "▁oetofaaslotaoeeeae": 1415,
      "▁taeaeto": 1416,
      "ohtoeatn": 1417,
      "▁aieeeatn2": 1418,
      "etnoeeeaie": 1419,
      "▁eaaetotoatn": 1420,
      "eteaeasee": 1421,
      "▁tnoho": 1422,
      "▁tooieemoteasa": 1423,
      "▁ooheetc": 1424,
      "▁eaaeedaieeeae": 1425,
      "eaietmtn": 1426,
      "aaee": 1427,
      "egte": 1428,
      "egteuto": 1429,
      "▁aioteaeeoooo": 1430,
      "▁erdooh": 1431,
      "afaetasaa": 1432,
      "▁toeeaotdlherodtn": 1433,
      "▁eaohllorto": 1434,
      "▁etegteuto": 1435,
      "▁oodettaieerto": 1436,
      "▁faeteaeoetmtn": 1437,
      "eaierto": 1438,
      "taieetea": 1439,
      "▁eaatn": 1440,
      "▁oohtc": 1441,
      "▁ottoottoohaieaie": 1442,
      "ear": 1443,
      "eaieaear": 1444,
      "▁eaatatc": 1445,
      "▁paaieeetstt": 1446,
      "▁eatnaieee0": 1447,
      "▁eaieaieaear": 1448,
      "▁eadeaatneaie": 1449,
      "▁easaee": 1450,
      "eaeeasoooo": 1451,
      "▁taeedtjhn": 1452,
      "▁od": 1453,
      "▁taeitaieetea": 1454,
      "dst": 1455,
      "etv": 1456,
      "otoafa": 1457,
      "▁oett": 1458,
      "▁ttai": 1459,
      "eaeae": 1460,
      "▁paeteaeasee": 1461,
      "▁oohouotoafa": 1462,
      "▁tseesahn": 1463,
      "eertoaieeetc": 1464,
      "▁oeoteertoaieeetc": 1465,
      "▁aieeea": 1466,
      "▁tootieer": 1467,
      "▁ethotc": 1468,
      "▁tn3": 1469,
      "▁oeotohasa": 1470,
      "▁lltoieemopa": 1471,
      "ert": 1472,
      "▁eadetaieeeto": 1473,
      "eeeatn": 1474,
      "▁oodeaaeaieeetn": 1475,
      "oeaieaieeeaaetmtn": 1476,
      "▁eaeaetnstaie": 1477,
      "oteatn": 1478,
      "▁oeeeaieeaataoeeeaehn": 1479,
      "▁ethn": 1480,
      "hottneaieote": 1481,
      "eerodtn": 1482,
      "▁eaieafteoaiaae": 1483,
      "▁eaaaieaietaoeeeaeaieeetc": 1484,
      "jaie": 1485,
      "▁ttaiaeaieela": 1486,
      "▁ttaiaeaieelaeer": 1487,
      "▁oodtttmtn": 1488,
      "▁eohaooooaieae": 1489,
      "▁eaieaieaiefthtn": 1490,
      "▁ieba": 1491,
      "paoeotetteeae": 1492,
      "▁eaapaoeotetteeae": 1493,
      "▁eeadot": 1494,
      "▁oohthnaie": 1495,
      "▁patneerto": 1496,
      "▁oell": 1497,
      "▁ieteaaie": 1498,
      "▁iodi": 1499,
      "▁eaaeeaieaeto": 1500,
      "eaetoeadtvo": 1501,
      "eaetoeadtvoeelo": 1502,
      "▁eaaeaetoeadtvoeelo": 1503,
      "▁tatnst": 1504,
      "oeotas": 1505,
      "▁ieba1": 1506,
      "▁eeadoteeae": 1507,
      "oteaie": 1508,
      "toouoo": 1509,
      "▁eae0": 1510,
      "▁llooooeaeaiaaeaieeeto": 1511,
      "▁etaieeethn": 1512,
      "▁eadeaieduto": 1513,
      "easto": 1514,
      "▁terduto": 1515,
      "▁toetasa": 1516,
      "▁lloooothn": 1517,
      "▁emvo": 1518,
      "▁ooheerto": 1519,
      "▁oohgt": 1520,
      "▁oohgteeatn": 1521,
      "▁oeeeaie0": 1522,
      "▁aietneaie": 1523,
      "▁oiet": 1524,
      "▁eaieatoown": 1525,
      "otaiaoteaiee": 1526,
      "eetof": 1527,
      "▁eteetof": 1528,
      "▁eohaooooet": 1529,
      "tjhoeaitfee": 1530,
      "▁eteetoftjhoeaitfee": 1531,
      "▁toeeaotdt": 1532,
      "▁eaeaieeaoero": 1533,
      "▁ooheaieee": 1534,
      "ieetaie": 1535,
      "oou": 1536,
      "eaieeaiee": 1537,
      "▁taathnttt": 1538,
      "▁asa": 1539,
      "▁paeaieeatn": 1540,
      "easatoto": 1541,
      "▁gtehre": 1542,
      "eaefa": 1543,
      "▁ieteaefa": 1544,
      "▁eetoaieeetc": 1545,
      "▁aiaaeeaaieeee": 1546,
      "etoto": 1547,
      "▁tno": 1548,
      "▁tv0": 1549,
      "▁taeieetc": 1550,
      "▁eaieeeatn": 1551,
      "▁ttsoeoo": 1552,
      "eetea": 1553,
      "ttuto": 1554,
      "eeteattuto": 1555,
      "▁erdeahn": 1556,
      "aeaieel": 1557,
      "▁paeteaeaseeown": 1558,
      "taieee": 1559,
      "▁eta": 1560,
      "▁llooootneaie": 1561,
      "st0": 1562,
      "▁erdoet": 1563,
      "▁oeeeaieeaaetaie": 1564,
      "▁ieetaie": 1565,
      "▁oeeeaieteea": 1566,
      "eeaaee": 1567,
      "▁eaaieeeeto": 1568,
      "▁aeaeeteattuto": 1569,
      "▁ieeaaseeaie": 1570,
      "▁aieee0": 1571,
      "▁tatneaseaa": 1572,
      "▁oetrto": 1573,
      "▁seetpa": 1574,
      "▁eaitfeeiec": 1575,
      "oeotasttmntaee": 1576,
      "▁efa": 1577,
      "▁lloooothnoo": 1578,
      "▁etc": 1579,
      "tteaaieeeto": 1580,
      "▁eaaeaieeast": 1581,
      "haetn": 1582,
      "▁tteatteaaieeeto": 1583,
      "▁ottn": 1584,
      "stown": 1585,
      "vooooo": 1586,
      "▁tataiee": 1587,
      "▁ttsoeooetv": 1588,
      "dtoea": 1589,
      "▁erdtjhn": 1590,
      "aaeemtc": 1591,
      "▁taieeeooh": 1592,
      "tooe": 1593,
      "tooestown": 1594,
      "▁taieeeoohtooestown": 1595,
      "▁eaeia": 1596,
      "▁eaeiaet": 1597,
      "oodtoea": 1598,
      "dthnaie": 1599,
      "▁etahre": 1600,
      "▁aieedst": 1601,
      "▁erdtaoeeeae": 1602,
      "▁iec0": 1603,
      "etaseea": 1604,
      "▁eaaoodthnaie": 1605,
      "▁taeaaetaseea": 1606,
      "▁p": 1607,
      "aiaaeeaietmtn": 1608,
      "▁fsoeo": 1609,
      "aieeaa": 1610,
      "▁hottneaieote": 1611,
      "▁oodatot": 1612,
      "▁eaaietetn": 1613,
      "esa": 1614,
      "▁thaieaeooooaiee": 1615,
      "▁tmesa": 1616,
      "▁eadst": 1617,
      "▁erdthettooeeeaie": 1618,
      "▁ottot": 1619,
      "▁oetodeasto": 1620,
      "ktttn": 1621,
      "oheet": 1622,
      "oheetktttn": 1623,
      "aieaieeeto": 1624,
      "eteeae": 1625,
      "▁eeadaiaaeeaietmtn": 1626,
      "▁eaeiaettjhn": 1627,
      "▁eaeiaettjhneaaeee": 1628,
      "eeaatn": 1629,
      "▁eadoeoteaieetc": 1630,
      "efeatn": 1631,
      "toeeaot": 1632,
      "▁eadotaiaoteaiee": 1633,
      "▁aieestaie": 1634,
      "▁ec": 1635,
      "aieemtn": 1636,
      "▁oodoeotasttmntaee": 1637,
      "etnrodto": 1638,
      "aietn": 1639,
      "utoouoo": 1640,
      "▁oeeeaieeotea": 1641,
      "▁oodeaaietsee": 1642,
      "▁eatneatoeatn": 1643,
      "▁aieeeaa": 1644,
      "eeafa": 1645,
      "▁ooheea": 1646,
      "▁erdaeeeaeee": 1647,
      "ieeaaie": 1648,
      "▁toteato": 1649,
      "▁ggg": 1650,
      "easeear": 1651,
      "▁ooheloeae": 1652,
      "▁taeeaieaie": 1653,
      "▁tseeoteetn": 1654,
      "▁totn2": 1655,
      "▁oeeeaieteaaie": 1656,
      "oetotn": 1657,
      "▁aieeeeto": 1658,
      "▁llooooeae": 1659,
      "▁eaaoheetktttn": 1660,
      "▁eatooteea": 1661,
      "▁teetn": 1662,
      "▁ietot": 1663,
      "▁aieaeo": 1664,
      "ethn": 1665,
      "eoshtn": 1666,
      "▁teoteoeadtvo": 1667,
      "aieteetn": 1668,
      "▁taeeaieaieiee": 1669,
      "▁taeeaieaieieeeto": 1670,
      "oher": 1671,
      "▁oef": 1672,
      "▁eatooteeaeoshtn": 1673,
      "▁oelloodtoea": 1674,
      "▁aieeoeaierto": 1675,
      "vtota": 1676,
      "vtotvtota": 1677,
      "▁taeaaeto": 1678,
      "▁vtotvtota": 1679,
      "▁thn": 1680,
      "dtno": 1681,
      "oteafa": 1682,
      "▁aieeae": 1683,
      "metaieeeto": 1684,
      "tohn": 1685,
      "▁ttaeaeead": 1686,
      "▁ttaeaeeadeer": 1687,
      "▁aieeoeaierto0": 1688,
      "etaoeeeaehn": 1689,
      "▁ttaieemtn": 1690,
      "tsod": 1691,
      "▁eteaie": 1692,
      "ohouoo": 1693,
      "▁taoeeeaetaoeeeaehn": 1694,
      "▁erodtno": 1695,
      "▁teoteoeadtvoeatn": 1696,
      "eeaaeto": 1697,
      "oeoteea": 1698,
      "toottn": 1699,
      "etoeaier": 1700,
      "▁eaatsaiet": 1701,
      "afa": 1702,
      "▁eaatsaietetnoeeeaie": 1703,
      "eetcero": 1704,
      "▁oheetcero": 1705,
      "▁oeoteaieeea": 1706,
      "aieeaaeee": 1707,
      "▁aiest0": 1708,
      "ooheeeaaie": 1709,
      "eutoeuto": 1710,
      "eemtn": 1711,
      "▁oeteaaeasa": 1712,
      "otot": 1713,
      "▁eaieeeaooheeeaaie": 1714,
      "aieaiee": 1715,
      "▁taieeeeae": 1716,
      "▁ooheeaaetneae": 1717,
      "thaietktttn": 1718,
      "▁paieemtn": 1719,
      "▁eatoeaaaieeetn": 1720,
      "▁oesttesac": 1721,
      "▁oeotdaeaie\n": 1722,
      "▁lloooooeoteaieeuto": 1723,
      "▁aietn3": 1724,
      "oestt": 1725,
      "▁oohtotnaie": 1726,
      "ertotjhn": 1727,
      "▁toertotjhn": 1728,
      "▁erdoe": 1729,
      "▁eatoaiee": 1730,
      "▁eaieeeaoetotn": 1731,
      "▁oeeeaieeead": 1732,
      "▁oeeeaieeeaduo": 1733,
      "▁eteaieutoouoo": 1734,
      "▁pao": 1735,
      "▁paoest": 1736,
      "▁eadtetn1": 1737,
      "▁etoeaier": 1738,
      "emuto": 1739,
      "▁aieaieeaiee": 1740,
      "▁aotohaieeae": 1741,
      "▁aieeea0": 1742,
      "▁eaieaieaief\n": 1743,
      "▁eaettc": 1744,
      "▁eaeaetnemuto": 1745,
      "thneeea": 1746,
      "▁eaieatotetn": 1747,
      "▁eloeadtetn": 1748,
      "▁eaieeeaaieeaaeee": 1749,
      "▁aietoeouoo": 1750,
      "eaaeto": 1751,
      "▁teetn0": 1752,
      "eeead": 1753,
      "eeeadetaiaaeeouoo": 1754,
      "▁tmeu": 1755,
      "teemtn": 1756,
      "▁eadtsod": 1757,
      "▁eaetoeadt": 1758,
      "▁eaetoeadtvooooo": 1759,
      "aieoteeea": 1760,
      "▁ieetaieoteeea": 1761,
      "▁ieetaieoteeea0": 1762,
      "▁aieets": 1763,
      "eaaeeteemtn": 1764,
      "▁eaieatotetneaeae": 1765,
      "eaieagte": 1766,
      "eaaeedtetn": 1767,
      "▁oohthoohneerto": 1768,
      "eaieeetot": 1769,
      "paoeoteaiee": 1770,
      "▁lltoieemopaoeoteaiee": 1771,
      "otaiee": 1772,
      "▁tktaiaaetsaieaeo": 1773,
      "▁eeaeaieeeto": 1774,
      "aieeaieagte": 1775,
      "▁aiiaeaieel": 1776,
      "▁aiiaeaieelae": 1777,
      "eeaiaae": 1778,
      "▁aieetseeaiaae": 1779,
      "▁oeeeaieseaie": 1780,
      "▁tathaietktttn": 1781,
      "▁oha": 1782,
      "▁taterduto": 1783,
      "▁thaieeeto": 1784,
      "▁eatotetnaieasaie": 1785,
      "▁aieetstt": 1786,
      "▁aieetstt1": 1787,
      "hoe": 1788,
      "▁ttateaieethn": 1789,
      "▁aieea2": 1790,
      "ohouoothn": 1791,
      "▁toto": 1792,
      "▁tnoieemto": 1793,
      "eae0": 1794,
      "ieeohasa": 1795,
      "aiehoe": 1796,
      "▁aiee0\n": 1797,
      "▁ttsoeo": 1798,
      "▁eaaaieeetn": 1799,
      "aieaieaieeea": 1800,
      "hraiehoe": 1801,
      "▁eatohraiehoe": 1802,
      "▁oeeeaiehottneaieote": 1803,
      "eattaieeeto": 1804,
      "dhohr": 1805,
      "oieetaie": 1806,
      "▁taieesoooo": 1807,
      "▁toeeaotdieemtn": 1808,
      "▁gtefsoeo": 1809,
      "▁aieeaedhohr": 1810,
      "tsoooo": 1811,
      "taeieetsoooo": 1812,
      "▁llooooeaeaie\n": 1813,
      "▁oodohtoeatn": 1814,
      "taoeeeaeea": 1815,
      "▁iebtaaieeeto": 1816,
      "▁oodtaoeeeaeea": 1817,
      "▁afathneeea": 1818,
      "▁afathneeea0": 1819,
      "▁eatoea": 1820,
      "hotho": 1821,
      "▁eatoaieeeouoo": 1822,
      "▁taseeetero": 1823,
      "toeeaotdar": 1824,
      "eeeato": 1825,
      "eaieeeaown": 1826,
      "▁taeaier": 1827,
      "aiesa": 1828,
      "▁teta": 1829,
      "▁oeaieoh": 1830,
      "aietaie": 1831,
      "▁lloooollolloellollof": 1832,
      "dcto": 1833,
      "▁faetetno": 1834,
      "eaieoher": 1835,
      "teec": 1836,
      "▁eeetnrodto": 1837,
      "tvo": 1838,
      "eaieaf": 1839,
      "▁eaetrto": 1840,
      "loteetn": 1841,
      "▁eeaetmtn\n": 1842,
      "▁ttsoeotjhn": 1843,
      "▁ttaafa": 1844,
      "▁eatoaieeaieagte": 1845,
      "ieeeea": 1846,
      "▁teadtstt\n": 1847,
      "toeae": 1848,
      "▁thaietktttn": 1849,
      "eaiaeaieela": 1850,
      "▁eaaieeeaiaeaieela": 1851,
      "▁oodoteeea": 1852,
      "eaaefeatn": 1853,
      "▁oeeeaieoeaieaieeeaaetmtn": 1854,
      "▁eaieafhn": 1855,
      "▁oteaitfee": 1856,
      "efwn": 1857,
      "▁taoeeae": 1858,
      "▁ietotaiaoteaiee": 1859,
      "▁aeaeasee": 1860,
      "aieaeaiaae": 1861,
      "dtaiee": 1862,
      "▁efametaieeeto": 1863,
      "▁eaafaet": 1864,
      "▁tmosttoeeaotdar": 1865,
      "▁oohtaeieetsoooo": 1866,
      "lotothn": 1867,
      "etaieeohouoothn": 1868,
      "▁aieaaeto": 1869,
      "oown": 1870,
      "▁eaaieeeatn": 1871,
      "▁ttaieeeea": 1872,
      "▁eohaooooetasaa": 1873,
      "▁eadloteetn": 1874,
      "▁aieeetot": 1875,
      "▁taoeaieoher": 1876,
      "▁oeteaieeea": 1877,
      "▁tseeoteetnst": 1878,
      "ieeouoo": 1879,
      "▁eaiaaeeerto": 1880,
      "▁aieeaiaaehn": 1881,
      "iaaeemtc": 1882,
      "▁aeae1": 1883,
      "aseaie": 1884,
      "▁eohaooooeelo": 1885,
      "eaet": 1886,
      "▁oetieerodtn": 1887,
      "tohhn": 1888,
      "▁tmostaieae": 1889,
      "eaieafuto": 1890,
      "▁aieaeown": 1891,
      "▁oohaietaie": 1892,
      "aioteato": 1893,
      "aioteatoetn": 1894,
      "aiaaeer": 1895,
      "eteaieafuto": 1896,
      "feteaieafuto": 1897,
      "▁ttsoeoeaieafteoaiaae": 1898,
      "▁eeadafaetasaa": 1899,
      "▁oesttetmtn": 1900,
      "eief": 1901,
      "▁oodaotasee": 1902,
      "▁oodtaioteatoetn": 1903,
      "etpa": 1904,
      "eeeatoeaaeaiee": 1905,
      "▁erdtootohhn": 1906,
      "▁teoteoeaieeea": 1907,
      "▁teoteoeaieeeasc": 1908,
      "▁erdoohtoeae": 1909,
      "▁iodio": 1910,
      "▁aieaaeeteemtn": 1911,
      "▁erdtooteatn": 1912,
      "▁oohouoo": 1913,
      "▁taeaeeae": 1914,
      "tttn": 1915,
      "ooet": 1916,
      "oeaiooet": 1917,
      "▁eaao": 1918,
      "ototetn": 1919,
      "xetn": 1920,
      "▁oteetn": 1921,
      "theaaeedtetn": 1922,
      "▁etcf": 1923,
      "ohtaoeeeae": 1924,
      "ieeaase": 1925,
      "▁oohouooaiaaeer": 1926,
      "▁teetaieee": 1927,
      "▁etaieohtaoeeeae": 1928,
      "oeaiooetiaaeemtc": 1929,
      "▁oeeeaieeaeaiaaeaieeeto": 1930,
      "eaaeaieaeto": 1931,
      "▁oodaieeetoar": 1932,
      "▁ttie": 1933,
      "▁hrdt": 1934,
      "teeto": 1935,
      "taieetclo": 1936,
      "ohoest": 1937,
      "▁afaet": 1938,
      "ieeaaseeaiee": 1939,
      "▁iebaieaieaieeea": 1940,
      "▁oetototetn": 1941,
      "ohaetn": 1942,
      "hohaetn": 1943,
      "teetohohaetn": 1944,
      "▁teatothotho": 1945,
      "eeetn": 1946,
      "aitoeaiaae": 1947,
      "ethno": 1948,
      "bta": 1949,
      "aiebta": 1950,
      "taero": 1951,
      "ieto": 1952,
      "▁oieto": 1953,
      "▁tnohouoo": 1954,
      "▁oietoest": 1955,
      "▁teoteoieeaaseeaiee": 1956,
      "aieae1": 1957,
      "etstt": 1958,
      "▁loaseetctcouoo": 1959,
      "▁eaieaaeaiee": 1960,
      "▁erdemtc": 1961,
      "▁eaaood": 1962,
      "▁erdttea": 1963,
      "▁eaeouoo": 1964,
      "▁teoteoaiee": 1965,
      "▁taiebta": 1966,
      "thaietc": 1967,
      "▁tatmeuo": 1968,
      "▁aeeatohn": 1969,
      "▁aeeatohnaieee": 1970,
      "tsiec": 1971,
      "▁taeaieetn": 1972,
      "▁tapt": 1973,
      "totoe": 1974,
      "ieemopa": 1975,
      "oheaieeea": 1976,
      "▁aieaiee": 1977,
      "▁ooheaieaieae": 1978,
      "▁oetaeaie": 1979,
      "▁etaieeaeeasoooo": 1980,
      "tneaieaietoto": 1981,
      "▁eaioeaiooetiaaeemtc": 1982,
      "▁oodaitoeaiaae": 1983,
      "eeadea": 1984,
      "eeadeaeetc": 1985,
      "▁eaaoeot": 1986,
      "eeb": 1987,
      "▁aieeetotetn": 1988,
      "▁eaeoteeatvo": 1989,
      "▁hohretaieeeto": 1990,
      "▁eeetpa": 1991,
      "eeehtn": 1992,
      "▁hreeehtn": 1993,
      "▁eeaellorto": 1994,
      "▁oteatoeeaeasee": 1995,
      "aeiee": 1996,
      "▁oshtn": 1997,
      "▁ooheeadt": 1998,
      "▁etlotaoeeeae": 1999,
      "▁eaeea": 2000,
      "eaioteatn": 2001,
      "▁pathnela": 2002,
      "eeafaaieeeto": 2003,
      "▁ooheeadteeafaaieeeto": 2004,
      "llooooo": 2005,
      "llollooooo": 2006,
      "eaeea": 2007,
      "eaieeetotaoeeeae": 2008,
      "▁eeaeaeea": 2009,
      "eaieeeauto": 2010,
      "▁eaeeaieeeauto": 2011,
      "▁taetaieeohouoothn": 2012,
      "▁pataero": 2013,
      "aieeaiaaehn": 2014,
      "▁oohero": 2015,
      "▁taaeaie": 2016,
      "▁oettmeuo": 2017,
      "eaieaieaie": 2018,
      "tnoho": 2019,
      "▁taeaaeaieeeae": 2020,
      "touto": 2021,
      "▁ohaoaieee": 2022,
      "▁aieaeouoo": 2023,
      "▁oohetktttn\n": 2024,
      "eaieta": 2025,
      "eaietatoown": 2026,
      "▁eaeaieote": 2027,
      "▁eaeaieotestaie": 2028,
      "▁eaaeaaefeatn": 2029,
      "eaieteer": 2030,
      "▁eaeaietatoown": 2031,
      "▁ieeaaseeeaaeee": 2032,
      "▁tneaieteer": 2033,
      "▁ttsoeotjaie": 2034,
      "▁teoteoaieeeeta": 2035,
      "etaieeesoooo": 2036,
      "eaeeeaeee": 2037,
      "▁aieestaieoooo": 2038,
      "▁taieeeouoo": 2039,
      "▁erdiaec": 2040,
      "▁toteatoaiaaeeaeoteea": 2041,
      "▁llolloetouto": 2042,
      "▁eatotefsoeo": 2043,
      "▁oodeaaeasatoto": 2044,
      "eieeaatn": 2045,
      "▁tatllorto": 2046,
      "▁ieetaiepa": 2047,
      "▁eaaetfeteaieafuto": 2048,
      "▁aietn1\n": 2049,
      "▁taeaiaaeaieeeto": 2050,
      "▁ohaoai": 2051,
      "▁ooaietn": 2052,
      "▁eatooown": 2053,
      "eaieeetstt": 2054,
      "▁oetoto": 2055,
      "hon": 2056,
      "athon": 2057,
      "etaeiee": 2058,
      "taoeeeaetaeiee": 2059,
      "▁eaataoeeeaetaeiee": 2060,
      "▁gggown": 2061,
      "▁tseaeaieown": 2062,
      "otaieerto": 2063,
      "▁aieeetc1\n": 2064,
      "▁taaieeatneae": 2065,
      "eaaedtc": 2066,
      "▁taefwn": 2067,
      "tseeeeae": 2068,
      "mtseeeeae": 2069,
      "▁oemtseeeeae": 2070,
      "ieemot": 2071,
      "▁teaaedtc": 2072,
      "▁eeaeaeeaer": 2073,
      "▁oeaiehr": 2074,
      "▁eadaieee1": 2075,
      "ieemotsee": 2076,
      "▁oieemotsee": 2077,
      "▁tsoe": 2078,
      "▁oetieeaaie": 2079,
      "aitoetn": 2080,
      "totmtn": 2081,
      "▁oeeeaieeea": 2082,
      "▁oeeeaieeeaeasee": 2083,
      "▁eeetnaiee": 2084,
      "llolloooooetaieeeto": 2085,
      "▁aieellolloooooetaieeeto": 2086,
      "▁iodiodtaiee": 2087,
      "oom": 2088,
      "oomoou": 2089,
      "▁oeteatoeatntaieetclo": 2090,
      "heae": 2091,
      "heaeeaiee": 2092,
      "▁etaieeasee": 2093,
      "▁taaieteetn": 2094,
      "▁oodaietc": 2095,
      "▁aiet": 2096,
      "aieoeoteea": 2097,
      "▁eaafaeteae": 2098,
      "▁etaieeaseeetno": 2099,
      "▁llooooaieee\n": 2100,
      "▁ieemtoown": 2101,
      "▁eaieaft": 2102,
      "▁eaieafteaieaieaie": 2103,
      "heaeeaieero": 2104,
      "▁eaaa": 2105,
      "▁oteeetaieee": 2106,
      "▁ert": 2107,
      "▁ooao": 2108,
      "aaehouoothn": 2109,
      "▁oetiaaehouoothn": 2110,
      "aieeeatsee": 2111,
      "▁erdoetv": 2112,
      "▁eaeeadero": 2113,
      "ttaoeeeae": 2114,
      "otneerto": 2115,
      "eeie": 2116,
      "▁oeteaaee": 2117,
      "▁eteae1": 2118,
      "▁taeaaietetn": 2119,
      "▁pathneteeae": 2120,
      "▁tooieemotneerto": 2121,
      "▁oteeta": 2122,
      "▁toeeaotdeaieeeaown": 2123,
      "▁oeteaaeeeeeadetaiaaeeouoo": 2124,
      "eeiehn": 2125,
      "▁taoetmtn": 2126,
      "▁oodtoot": 2127,
      "▁etaiehtahn": 2128,
      "easeetetn": 2129,
      "▁ohaoaieaaeeaieote": 2130,
      "oteeta": 2131,
      "vea": 2132,
      "▁eaeeasooootneaieaietoto": 2133,
      "▁asataiee": 2134,
      "▁eaaaieeetn1": 2135,
      "▁erdoell": 2136,
      "ltc": 2137,
      "▁oteeea": 2138,
      "hoelaeatn": 2139,
      "▁tathoelaeatn": 2140,
      "▁oteatot": 2141,
      "▁oohtoetno": 2142,
      "▁thaietc": 2143,
      "▁oetmtn": 2144,
      "▁eaat": 2145,
      "lo0": 2146,
      "▁eatotnlo0": 2147,
      "atotn": 2148,
      "eaod": 2149,
      "eaiaaeaod": 2150,
      "eaiaaeaodtotmtn": 2151,
      "etatotn": 2152,
      "▁aiaaetatotn": 2153,
      "oeltc": 2154,
      "▁eaieeeatneaseaa": 2155,
      "▁llooooia": 2156,
      "▁taieieown": 2157,
      "etototn": 2158,
      "▁oteeet": 2159,
      "▁eaeeemtn\n": 2160,
      "dpa": 2161,
      "▁eaaoeotohasa": 2162,
      "▁ottoottooheatn": 2163,
      "▁eatototn": 2164,
      "▁eatototntho": 2165,
      "llor": 2166,
      "aieaieaieea": 2167,
      "aieaieaieeatotoe": 2168,
      "otdero": 2169,
      "▁eohaooooaieaieaieeatotoe": 2170,
      "asaietetn": 2171,
      "etothn": 2172,
      "eeeaetetn": 2173,
      "▁tateaieeetstt": 2174,
      "▁eaaeaieeetotaoeeeae": 2175,
      "▁teoteoeeeatoeaaeaiee": 2176,
      "▁ttatjhn": 2177,
      "eaeaieotdero": 2178,
      "▁eatotnoieetaie": 2179,
      "▁tnta": 2180,
      "▁eeadt": 2181,
      "▁otiebat": 2182,
      "▁oodaiaaeeaeoteea": 2183,
      "▁oieemopa": 2184,
      "▁teec": 2185,
      "efa": 2186,
      "▁etaieeaseeetnoeae": 2187,
      "▁oeeeaieoeoteaieeuto": 2188,
      "iodi": 2189,
      "uoto": 2190,
      "▁eaeaieoteaie": 2191,
      "▁ttaafaeeeaetetn": 2192,
      "easatn": 2193,
      "▁etktt": 2194,
      "eaetrto": 2195,
      "▁eaeero": 2196,
      "▁llooooooh": 2197,
      "▁aieaeeaaeto": 2198,
      "aotasaietetn": 2199,
      "ieeagte": 2200,
      "▁oetaotasaietetn": 2201,
      "▁oeeeaietec": 2202,
      "▁aedtcasee": 2203,
      "▁aehtecaieaeaiaae": 2204,
      "▁llooooeaioteatn": 2205,
      "moto": 2206,
      "▁taaieeetoar": 2207,
      "▁staieeatn": 2208,
      "▁oeeae\n": 2209,
      "taieeeto": 2210,
      "▁tnohaie": 2211,
      "▁eaeeasoooooeeae": 2212,
      "asl": 2213,
      "▁tootho": 2214,
      "▁toothoasl": 2215,
      "▁tamoto": 2216,
      "oeoteaieeaee": 2217,
      "▁oodoeeae": 2218,
      "eeaaeed": 2219,
      "▁teatnpt": 2220,
      "▁eaetoeadtvo": 2221,
      "▁eaetoeadtvost": 2222,
      "▁htahn": 2223,
      "▁etaie0": 2224,
      "▁gtehn": 2225,
      "eeaaeedeaaeee": 2226,
      "tcaiee": 2227,
      "teato": 2228,
      "▁aieethaietc": 2229,
      "▁eaaaieeea": 2230,
      "▁thn0": 2231,
      "▁taeaaieeee": 2232,
      "▁ietaieoeoteea": 2233,
      "eaeeae": 2234,
      "eaieuto": 2235,
      "▁oteetar": 2236,
      "▁eatoaieeetstt": 2237,
      "eaead": 2238,
      "▁totoaiesa": 2239,
      "eaieeetoown": 2240,
      "soeot": 2241,
      "▁aieaeaieeetoown": 2242,
      "▁teetoeaieote": 2243,
      "▁emst": 2244,
      "▁teoteotn": 2245,
      "doown": 2246,
      "llolloellollofttea": 2247,
      "▁llolloellollofttea": 2248,
      "▁aieaieaie\n": 2249,
      "▁aiexetn": 2250,
      "▁oetteaewn": 2251,
      "▁elrttaoeeeae": 2252,
      "▁ouoto": 2253,
      "aet": 2254,
      "▁oeeeaieot": 2255,
      "▁llooooaieae1": 2256,
      "▁erdoeotegte\n": 2257,
      "eaeadieeohasa": 2258,
      "▁taoeeeaeaie": 2259,
      "▁taieieaeadieeohasa": 2260,
      "▁aieee2\n": 2261,
      "eaieaeot": 2262,
      "▁aieaieaeot": 2263,
      "▁aieaieaeotaoeeeae": 2264,
      "▁eaaaeeeaeee": 2265,
      "▁oeteatoeatnteer": 2266,
      "▁ietteec": 2267,
      "▁aotasaie": 2268,
      "ytetn": 2269,
      "afaetytetn": 2270,
      "eaaaieae": 2271,
      "tstof": 2272,
      "▁afaeteea": 2273,
      "▁teaaedtctn": 2274,
      "▁eaataiee": 2275,
      "▁eaetrtoeaetrto": 2276,
      "▁erdoellttaoeeeae": 2277,
      "▁eeadeaeeasoooo": 2278,
      "▁oodeaitfee": 2279,
      "▁oteetoown": 2280,
      "etnotaieerto": 2281,
      "▁lloooost": 2282,
      "▁lloooostiaec": 2283,
      "▁hrdtllorto": 2284,
      "▁eaataieellolloeatn": 2285,
      "▁erdeaaee": 2286,
      "ottn": 2287,
      "siec": 2288,
      "teeafa": 2289,
      "▁erdthaitoetn": 2290,
      "aieae0": 2291,
      "▁aiaaeeaetaiee": 2292,
      "eaaeeeto": 2293,
      "eeaaeeeto": 2294,
      "▁taoteeta": 2295,
      "▁taaetaieeeto": 2296,
      "▁oestteeaaeeeto": 2297,
      "▁oodieeeea": 2298,
      "eaieot": 2299,
      "▁aieaieetheaaeedtetn": 2300,
      "▁taeetotoieeohhre\n": 2301,
      "eeaaie": 2302,
      "▁eaieeeae": 2303,
      "▁eaieeeaegggeae": 2304,
      "▁oieemtn": 2305,
      "dtv": 2306,
      "▁eatoeaaieeee": 2307,
      "▁eaetaiee\n": 2308,
      "lotc": 2309,
      "▁etho": 2310,
      "▁teoteoeasatn": 2311,
      "▁eatooe": 2312,
      "▁aieeeaaeea": 2313,
      "▁eatoeaeaieotdero": 2314,
      "▁eaieeeatneaseear": 2315,
      "hottniebtjho": 2316,
      "▁erdeaaeeeeaaeedeaaeee": 2317,
      "▁eaieaaeaieeown": 2318,
      "▁taiaae": 2319,
      "eaaeeea": 2320,
      "aethoela": 2321,
      "▁teeaaaaethoela": 2322,
      "▁oeeeaieoeeae": 2323,
      "eaaeeeafa": 2324,
      "tm": 2325,
      "▁aeaeattetaieeeto": 2326,
      "▁erdethno": 2327,
      "▁eaallollo": 2328,
      "▁eaaetaie": 2329,
      "▁oodtaiee": 2330,
      "▁eeeaaeeeafa": 2331,
      "loaseetetn": 2332,
      "▁aieethaietc1": 2333,
      "▁llo": 2334,
      "▁oteieeaatn": 2335,
      "▁oodaieae0": 2336,
      "▁eatotneaieaietoto": 2337,
      "▁aieeeaaetnrodto": 2338,
      "emtctaiee": 2339,
      "▁totnaie": 2340,
      "eeeo": 2341,
      "aseeet": 2342,
      "▁eatooeltto": 2343,
      "▁eaaeedpa": 2344,
      "eaetothn": 2345,
      "▁tnaeae": 2346,
      "▁etai": 2347,
      "▁hrd": 2348,
      "eaiaaeeaeoteea": 2349,
      "▁oeeeaieaiaaeeaeoteea": 2350,
      "aieeeaa": 2351,
      "oeoteaie": 2352,
      "aieeeaaetnrodto": 2353,
      "▁tseetjhn": 2354,
      "taetaiee": 2355,
      "▁tc": 2356,
      "▁aieaeaieeeto": 2357,
      "▁ieteloeae": 2358,
      "▁eaatsaietetn": 2359,
      "oouoto": 2360,
      "▁ohaoouoto": 2361,
      "▁aieeetoert": 2362,
      "▁aiaaeaeeeaeee": 2363,
      "loeaiee": 2364,
      "▁eloloeaiee": 2365,
      "▁oeotdafaetasaa": 2366,
      "ifa": 2367,
      "ifaea": 2368,
      "▁eaieatn": 2369,
      "▁oodoet": 2370,
      "aieaeeiehn": 2371,
      "▁oodaieeaiaaehn": 2372,
      "▁toeeaotdaotasee": 2373,
      "emoomoou": 2374,
      "aitoemoomoou": 2375,
      "▁oeeeaieeaeero": 2376,
      "▁taieaeeiehn": 2377,
      "gggaitoemoomoou": 2378,
      "dtoo": 2379,
      "▁eatoert": 2380,
      "eeertot": 2381,
      "▁tef": 2382,
      "▁oethohr": 2383,
      "▁oteatoo": 2384,
      "▁teetoaieaiee": 2385,
      "▁aieaae\n": 2386,
      "lhe": 2387,
      "▁ottoottoohst": 2388,
      "▁teeatn": 2389,
      "▁ooheeeaaie": 2390,
      "totnaie": 2391,
      "▁ohaoaieeetc\n": 2392,
      "▁ooheatn": 2393,
      "▁eeadaieeaee\n": 2394,
      "eer0": 2395,
      "▁llooooiaee": 2396,
      "▁aieaeer0": 2397,
      "▁oteeeaoteaie": 2398,
      "ertotaoeeeae": 2399,
      "▁taoeote\n": 2400,
      "▁patneaieaietoto": 2401,
      "aieaieaieeatn": 2402,
      "▁oodai": 2403,
      "▁oetotoertotaoeeeae": 2404,
      "▁tathr": 2405,
      "euaiee": 2406,
      "▁gteeaa": 2407,
      "tn1": 2408,
      "▁eeatn1": 2409,
      "tooooo": 2410,
      "▁eeaeo": 2411,
      "▁eeaeo0": 2412,
      "▁ieeaaseeto": 2413,
      "▁staie": 2414,
      "▁eeeaaeeeafaeaieote": 2415,
      "etmeuaiee": 2416,
      "▁gtetmeuaiee": 2417,
      "▁ooheattaieeeto": 2418,
      "▁afaeaieot": 2419,
      "▁afaeaieotdtv": 2420,
      "stoo": 2421,
      "▁oodtetn": 2422,
      "▁erdoeteaaeaieaeto": 2423,
      "▁aiiohasee": 2424,
      "▁erodtoo": 2425,
      "▁paeaieeea": 2426,
      "▁ottoaieeeaaetnrodto": 2427,
      "▁erodtootetn": 2428,
      "eaelo": 2429,
      "aotoh": 2430,
      "▁oeeeaievea": 2431,
      "▁gteeaaeeeatn": 2432,
      "▁etntaoeeea": 2433,
      "▁aieeetoeeaaeasaee": 2434,
      "▁ttt": 2435,
      "▁tttetaieeeto": 2436,
      "▁ttaafaetytetn": 2437,
      "stooeatn": 2438,
      "▁paemtctaiee": 2439,
      "▁eeaefsoeo": 2440,
      "▁oohtho": 2441,
      "▁oodtjaie": 2442,
      "eaeloaiaae": 2443,
      "etopa": 2444,
      "tatotoaetn": 2445,
      "eeaeoooo": 2446,
      "▁oetathon": 2447,
      "▁ooheer": 2448,
      "▁eeea": 2449,
      "▁thoaie\n": 2450,
      "▁aieaet": 2451,
      "sttn": 2452,
      "sttnrodto": 2453,
      "▁oohtoteatnaieae": 2454,
      "▁eaaeaseetetn": 2455,
      "▁hre0\n": 2456,
      "eeertothtn": 2457,
      "▁eaeeertothtn": 2458,
      "aieetstt": 2459,
      "▁aieaethnaie": 2460,
      "▁eaatea": 2461,
      "▁oeltto": 2462,
      "oesttetn": 2463,
      "▁aieaethnaie0": 2464,
      "▁aieeoeaiertottt\n": 2465,
      "etnoieemto": 2466,
      "▁tathrto": 2467,
      "▁eaieeeatv": 2468,
      "soeotetn": 2469,
      "▁tefsoeotetn": 2470,
      "▁aieaeadeief": 2471,
      "▁tatv": 2472,
      "▁ooda": 2473,
      "▁toeeaotdtaieeasa": 2474,
      "▁teatotsttnrodto": 2475,
      "▁ooheeaaetnaieeeto\n": 2476,
      "▁etktttoown": 2477,
      "▁erdtaiee": 2478,
      "eeaeooooaiaae": 2479,
      "▁ohatoaieeaee": 2480,
      "teaetc": 2481,
      "▁tneaiaoteaiee\n": 2482,
      "▁ttaegggeae": 2483,
      "oeoteaieeouoo": 2484,
      "▁aieeaietn": 2485,
      "▁eaaeeetof": 2486,
      "▁tootktt": 2487,
      "▁ethn\n": 2488,
      "eeaeoouoo": 2489,
      "aieeemtc": 2490,
      "▁thaieaeoooooteeea": 2491,
      "▁taoeoteaieeouoo": 2492,
      "ethtn": 2493,
      "▁eaaaieaietaoeeeaethtn": 2494,
      "eaeatt": 2495,
      "▁gteea": 2496,
      "▁oteeetnoieemto": 2497,
      "aseeetero": 2498,
      "▁oeotasttmntaee": 2499,
      "▁ethoaroooo": 2500,
      "▁ohatoeaseeao": 2501,
      "▁oeeeaieeaeouoo": 2502,
      "▁eaateatoar": 2503,
      "▁oeasa\n": 2504,
      "▁erdtoot": 2505,
      "ieeahn": 2506,
      "▁eaaaiaae": 2507,
      "iecown": 2508,
      "eetoiecown": 2509,
      "▁oeeeaietaa": 2510,
      "▁eaaeaeloaiaae": 2511,
      "▁eaeeasooooetoeaier": 2512,
      "aieeesoooo": 2513,
      "▁eaiaaeetoiecown": 2514,
      "eethn": 2515,
      "▁eohaooooiee": 2516,
      "▁eatoeae0": 2517,
      "eaeieeouoo": 2518,
      "▁eretaieeeto": 2519,
      "▁aieeaiee": 2520,
      "eaee": 2521,
      "▁taeteae": 2522,
      "▁eatooeot": 2523,
      "▁oteetnsc": 2524,
      "▁oethottniebtjho": 2525,
      "eeeoetmtn": 2526,
      "▁oeoteaieeaee": 2527,
      "▁eaaieeeatneea": 2528,
      "▁aieeaiee0": 2529,
      "etottn": 2530,
      "▁erdohtoeatn": 2531,
      "etotoetoto": 2532,
      "▁oeeeaietaseeetero": 2533,
      "▁eeta1": 2534,
      "▁eaaietsee": 2535,
      "▁tatcaieeeto": 2536,
      "todcto": 2537,
      "▁iodiod": 2538,
      "▁eaataeaier": 2539,
      "▁eadoet": 2540,
      "▁oteaitfeeetopa": 2541,
      "▁teea1": 2542,
      "▁gteseetpa": 2543,
      "▁eatotthn": 2544,
      "▁erdtooteethn": 2545,
      "eteemtn": 2546,
      "▁oeaiehrdtetn": 2547,
      "tnaietc": 2548,
      "▁oteeeteae": 2549,
      "▁oeeeaieoest": 2550,
      "▁eotea\n": 2551,
      "▁erdtt": 2552,
      "etoaiaae": 2553,
      "▁odrhtn": 2554,
      "▁aieeasa": 2555,
      "tneerto": 2556,
      "▁erdoheaieeea": 2557,
      "taeeifaea": 2558,
      "etotoetotofa": 2559,
      "▁eaitfeelotothn": 2560,
      "ptown": 2561,
      "▁teatnptown": 2562,
      "aieetclo": 2563,
      "▁oodeteaieuto": 2564,
      "▁gteteeae": 2565,
      "▁llooootn": 2566,
      "ieerodtn": 2567,
      "eadthnaie": 2568,
      "aieaeadthnaie": 2569,
      "etmteaetc": 2570,
      "etmteaetcaieeeto": 2571,
      "asoteafa": 2572,
      "ieemoero": 2573,
      "aiaaeieemoero": 2574,
      "▁eaieeeaeasatoto": 2575,
      "aiatot": 2576,
      "aiatotetn": 2577,
      "▁otaiatotetn": 2578,
      "▁teoteooietaseaa": 2579,
      "▁tsee1\n": 2580,
      "▁eaeteb\n": 2581,
      "▁etaoaiaae": 2582,
      "▁aeaetotoetotofa": 2583,
      "oeltto": 2584,
      "▁eaaeaieafteoaiaae": 2585,
      "▁taiaa": 2586,
      "aitoe": 2587,
      "gggt": 2588,
      "▁tetnaieasaie": 2589,
      "gggtaitoe": 2590,
      "eaietm": 2591,
      "▁tootaiaaeieemoero": 2592,
      "▁eatoeeetn": 2593,
      "▁taoteeaeterduto": 2594,
      "eaieeeatn": 2595,
      "▁elhe": 2596,
      "eaaeasaee": 2597,
      "▁oeeeaieeeaaeasaee": 2598,
      "▁iaeaieela": 2599,
      "eaitooooo": 2600,
      "▁eeadeetc": 2601,
      "eaietc": 2602,
      "▁oeoteaietm": 2603,
      "oeoteaietc": 2604,
      "▁oeoteaietmoeoteaietc": 2605,
      "▁etsutoaiaae": 2606,
      "▁ttat": 2607,
      "eaieeeadeer": 2608,
      "▁ttateaieeeadeer": 2609,
      "▁thieeouoo": 2610,
      "▁erdoohgte": 2611,
      "erd": 2612,
      "▁eatooeotohoest": 2613,
      "▁eaaieeeatnsodsod": 2614,
      "lloetn": 2615,
      "▁eaeaieotd": 2616,
      "eaieaieaief": 2617,
      "▁ieeeaeaieaedar\n": 2618,
      "▁taieeeeawn": 2619,
      "etatttn": 2620,
      "▁taiaaetatttn": 2621,
      "ev": 2622,
      "ieemoeltc": 2623,
      "▁eeaar": 2624,
      "▁etntaoeeeaeero": 2625,
      "▁lloooollorto": 2626,
      "tsc": 2627,
      "▁ietn1": 2628,
      "▁tktsc": 2629,
      "▁aieeeieemtn": 2630,
      "▁eaeead": 2631,
      "▁oietaietetn": 2632,
      "aieeaieee": 2633,
      "hota": 2634,
      "hotatttn": 2635,
      "ieeaasee": 2636,
      "eaaetot": 2637,
      "eaaetotjhn": 2638,
      "▁teea0": 2639,
      "▁tneer": 2640,
      "▁tneertoown": 2641,
      "▁teaewn": 2642,
      "▁taeetotoieeohaieeetc": 2643,
      "ief": 2644,
      "▁toeaieaietoto": 2645,
      "▁toeeaotdoeoteaieeaee": 2646,
      "iettc": 2647,
      "▁oetodetnotaieerto": 2648,
      "▁toeaieaietotoar": 2649,
      "▁eief": 2650,
      "▁eohaooooaieaeadthnaie": 2651,
      "ec0": 2652,
      "eaaietetn": 2653,
      "▁oeotaseaaietetn": 2654,
      "aieaeeaaeto": 2655,
      "▁eatoeatneerto": 2656,
      "▁toottiisoooo\n": 2657,
      "▁etneerto": 2658,
      "▁tktt": 2659,
      "aieetaieeeto": 2660,
      "teeeea": 2661,
      "▁oodtootlloetn": 2662,
      "▁eadaeae": 2663,
      "▁taieeesoooo": 2664,
      "▁aieaiea": 2665,
      "▁eaieeeattea": 2666,
      "▁aieaeadieemtn": 2667,
      "▁teoteotneaieaietoto": 2668,
      "▁oohthoaieetaieeeto": 2669,
      "eadsa": 2670,
      "▁oodaieeemtc": 2671,
      "ter": 2672,
      "▁teater": 2673,
      "teeaeadsa": 2674,
      "▁ttateeaeadsa": 2675,
      "▁ttaeaeaetn": 2676,
      "▁eadhtahn": 2677,
      "▁oeoteaseeexeceeeoetmtn": 2678,
      "▁teeteeeea": 2679,
      "▁seaie\n": 2680,
      "eaieeouoo": 2681,
      "▁erdtec0": 2682,
      "▁eatoieemoeltc": 2683,
      "▁aiaieaieeeto": 2684,
      "▁aiaieaieeetoe": 2685,
      "▁teatoottn": 2686,
      "fteoaiaa": 2687,
      "etttt": 2688,
      "▁eaatsee": 2689,
      "▁aotetm": 2690,
      "aieero": 2691,
      "▁sodsod": 2692,
      "▁taieerhtn": 2693,
      "▁otaiatotetnasa": 2694,
      "▁toeeaotdoeoteaieetc": 2695,
      "▁eaieeeathtn": 2696,
      "aar": 2697,
      "ohtho": 2698,
      "etsc": 2699,
      "easeeexeceee": 2700,
      "▁ohatot": 2701,
      "oteetnrodto": 2702,
      "▁eaeee": 2703,
      "▁gteeea": 2704,
      "▁toeeaotdeaaieeeeto\n": 2705,
      "ieeaatn": 2706,
      "▁eaatseeoteetnrodto": 2707,
      "oteieeaatn": 2708,
      "▁llooooeeaeaieeeto": 2709,
      "etc0": 2710,
      "▁eaeeader": 2711,
      "otaieeasa": 2712,
      "▁eaeeaderotaieeasa": 2713,
      "▁aieeasadoown": 2714,
      "▁oodstooeatn": 2715,
      "▁otetoaiaae": 2716,
      "▁teatolo": 2717,
      "▁erdaieaieaieeatn": 2718,
      "▁asoteafa": 2719,
      "▁eaieeaeoouoo": 2720,
      "▁taeatn": 2721,
      "astoaie": 2722,
      "eatoaieee": 2723,
      "▁easatoar": 2724,
      "▁eadaieeetstt\n": 2725,
      "toth": 2726,
      "▁ieteaaetotjhn": 2727,
      "▁llooootaieerhtn\n": 2728,
      "tothaieeeto": 2729,
      "▁eohaooootaoeeeae": 2730,
      "▁eatoeeetneea": 2731,
      "▁eaeaetnaotasee": 2732,
      "▁eaaaieeetnasa": 2733,
      "hotsaie": 2734,
      "▁thothotsaie": 2735,
      "fteoaiaaeaieeetc": 2736,
      "eaaieown": 2737,
      "▁oeotaseaaieown": 2738,
      "daieero": 2739,
      "▁ieeeadaieero": 2740,
      "▁eaaaiaaeohtho": 2741,
      "▁tseea\n": 2742,
      "▁oodoh": 2743,
      "▁eaaodthtn": 2744,
      "▁eaaeedhotatttn": 2745,
      "▁euto": 2746,
      "▁oteatothoela": 2747,
      "▁eatoeerto": 2748,
      "▁eatoeertoieerodtn": 2749,
      "▁oteatothoelapa": 2750,
      "▁oetoetttt": 2751,
      "aieeatottt": 2752,
      "▁teatotaieeatottt": 2753,
      "▁erdoeloaseetetn": 2754,
      "▁oelttoar": 2755,
      "▁etaieoet": 2756,
      "▁ieeaaseetoaietc": 2757,
      "taieeesoooo": 2758,
      "▁teoteota": 2759,
      "▁lloooothnaie": 2760,
      "▁aie0\n": 2761,
      "▁oetodt": 2762,
      "▁oeeeaieero": 2763,
      "▁tateaee\n": 2764,
      "▁eieeagte": 2765,
      "▁ooheaa": 2766,
      "▁erdeaaaieae": 2767,
      "▁paoeot": 2768,
      "▁tktot": 2769,
      "▁oetea": 2770,
      "▁oeteaaieeeatsee": 2771,
      "▁tkto": 2772,
      "▁toteatoaieae": 2773,
      "▁otetaieeeown\n": 2774,
      "▁oesttehaetn": 2775,
      "eaieeeattea": 2776,
      "▁teoteotaero": 2777,
      "▁aietwn": 2778,
      "▁tthoo": 2779,
      "▁tthoown": 2780,
      "▁oodtv": 2781,
      "▁eaaeeeatn": 2782,
      "hohoho": 2783,
      "ood": 2784,
      "roo": 2785,
      "rooo": 2786,
      "▁oodtveatn": 2787,
      "▁tatveasa": 2788,
      "▁aieebaehtectv\n": 2789,
      "eeeaieetno": 2790,
      "oeto": 2791,
      "▁taafa": 2792,
      "▁tseegggtaitoe": 2793,
      "▁gteeeatn0": 2794,
      "▁toothoasloho": 2795,
      "▁toothoaslohoc": 2796,
      "▁eetoeetn": 2797,
      "odtaoeeeae": 2798,
      "ooe": 2799,
      "▁hrdoeltto": 2800,
      "▁ottotsiec": 2801,
      "▁eae1\n": 2802,
      "▁easaoooo": 2803,
      "elrt": 2804,
      "▁ooheaaaieeetc": 2805,
      "iodiodtaoeeeae": 2806,
      "▁etnea": 2807,
      "▁aietc0": 2808,
      "▁erdeaseeao": 2809,
      "▁oodeaaeto": 2810,
      "eetaieeeto": 2811,
      "▁oodaeaeatt": 2812,
      "▁eetoeetnaiee": 2813,
      "aieaf": 2814,
      "eaieaeeeaeee": 2815,
      "▁eaeeelot": 2816,
      "▁lloooolherodtn": 2817,
      "▁emtctaiee": 2818,
      "▁oodooheattaieeeto": 2819,
      "taoeeeaeetaieeeto": 2820,
      "▁oiettaoeeeaeetaieeeto": 2821,
      "▁eatotaiee": 2822,
      "▁teeae1\n": 2823,
      "totn": 2824,
      "odto": 2825,
      "▁oeeeaieaieeeatn": 2826,
      "stetn": 2827,
      "▁eaaeee": 2828,
      "▁erdeuto": 2829,
      "▁eaexxeaeouoo": 2830,
      "aieaieae": 2831,
      "▁aieaouoo": 2832,
      "▁oeeeaieottoottn": 2833,
      "▁ooheaaaieeetco": 2834,
      "▁toteatoaieaesodsod": 2835,
      "▁aehtecetktttoar\n": 2836,
      "▁oelotc": 2837,
      "▁teaeaae": 2838,
      "▁teaeaaedpa": 2839,
      "teao": 2840,
      "▁eeaeeea": 2841,
      "▁oohtoelrt": 2842,
      "▁ooaoeaiaaeaodtotmtn": 2843,
      "eote": 2844,
      "▁ohatoteaieethn": 2845,
      "▁oodeaieeeattea": 2846,
      "▁todc": 2847,
      "▁todctoown": 2848,
      "▁lloooostaie": 2849,
      "▁eado": 2850,
      "▁teaeaieaeeeaeee": 2851,
      "▁odeaeeasoooo": 2852,
      "eaiaaeouoo": 2853,
      "▁ooheeaeaiaaeouoo": 2854,
      "▁oeeeaieeaaeeeatn": 2855,
      "▁oeeeaietteao": 2856,
      "aieeast": 2857,
      "eaieaeeaa": 2858,
      "eaieaeeaaetouto": 2859,
      "▁eaeaieaeeaaetouto": 2860,
      "▁ttaeer\n": 2861,
      "▁aietot": 2862,
      "▁aietoter": 2863,
      "▁ttsoeotjhnaiaae": 2864,
      "▁ttaeaeero": 2865,
      "▁oeeeaieeaetaiee": 2866,
      "▁taeeexaiee": 2867,
      "▁oodtee": 2868,
      "aotohaieaieae": 2869,
      "▁taeeexaieeetnoeeeaie": 2870,
      "▁toeeaotdaseaie": 2871,
      "▁eatoeaae": 2872,
      "▁eatoeaaeeaieaeto": 2873,
      "▁oodaii": 2874,
      "▁erdaiaaeeaeoteea": 2875,
      "etaieetclo": 2876,
      "▁etaoaie": 2877,
      "eottouto": 2878,
      "gtetaieetclo": 2879,
      "▁oodeteottouto": 2880,
      "▁ttatneerto": 2881,
      "▁oodteev": 2882,
      "▁aietaoeeeae": 2883,
      "▁aieaiedutoe\n": 2884,
      "▁teeaf": 2885,
      "▁tseetoto": 2886,
      "▁tseetotoaiesa": 2887,
      "▁teeafaietn": 2888,
      "▁oodtaieeoesttetn": 2889,
      "thoela": 2890,
      "▁aehtectv": 2891,
      "▁staie1": 2892,
      "▁oetodeaeae": 2893,
      "▁aieea3": 2894,
      "▁ettaieertoetaieeeto": 2895,
      "▁toeeaotdeutoeuto": 2896,
      "▁faetthooeroetno\n": 2897,
      "▁eaatnst": 2898,
      "▁erdtteaown": 2899,
      "▁eeetneeto": 2900,
      "oestte": 2901,
      "etnoh": 2902,
      "▁teatogtetaieetclo": 2903,
      "▁eeaeeeaetnoh": 2904,
      "odtofa": 2905,
      "erdttea": 2906,
      "▁ooderdttea": 2907,
      "ieeaetn": 2908,
      "▁thnoo": 2909,
      "▁oiettetn": 2910,
      "▁eaeo": 2911,
      "etmtouto": 2912,
      "▁eaeoetmtouto": 2913,
      "faar": 2914,
      "▁asotea": 2915,
      "▁asoteafaar": 2916,
      "▁taieetso\n": 2917,
      "▁pt": 2918,
      "▁llooooooheerto": 2919,
      "▁teatoteaieeeae\n": 2920,
      "▁aioteaedooooetno": 2921,
      "▁ottoteaee": 2922,
      "▁aieaaiee": 2923,
      "▁eadoeoteaie": 2924,
      "dtnttt": 2925,
      "▁erde": 2926,
      "▁eeetneea": 2927,
      "▁eaaeeeeeadetaiaaeeouoo": 2928,
      "▁tot": 2929,
      "▁ethot": 2930,
      "▁toter": 2931,
      "tev": 2932,
      "▁oodsac": 2933,
      "etktttoown": 2934,
      "▁eohaooooeteemtn": 2935,
      "▁tteaie": 2936,
      "▁oteatoown": 2937,
      "▁tvo": 2938,
      "▁oetmtnastoaie": 2939,
      "▁aieeetoo": 2940,
      "▁oeteatoeatnllo": 2941,
      "▁oeotasttmn": 2942,
      "eadtjhn": 2943,
      "▁oeaieohetktttn": 2944,
      "taeea": 2945,
      "▁oeotasttmntaeea": 2946,
      "▁erdtn": 2947,
      "eatev": 2948,
      "▁eaateaieeaee": 2949,
      "▁erdtteaaie": 2950,
      "▁tseetsiec": 2951,
      "ohhn": 2952,
      "▁taieeohhn": 2953,
      "▁oheaieeea\n": 2954,
      "▁oeeeaieer": 2955,
      "▁oeoteea": 2956,
      "sotea": 2957,
      "▁oodoestte": 2958,
      "▁eaieasotea": 2959,
      "oheelo": 2960,
      "▁eaieafhneae": 2961,
      "▁erdeieeaetn": 2962,
      "▁tcteetohohaetn": 2963,
      "▁etco": 2964,
      "▁etaieeeto": 2965,
      "eaieasotea": 2966,
      "▁ttsoeoteaewn": 2967,
      "▁tseetnaietc": 2968,
      "▁taieetclo": 2969,
      "▁eaieasoteaaieaeo": 2970,
      "lhetktttn": 2971,
      "aown": 2972,
      "▁teer\n": 2973,
      "eaaeaieea": 2974,
      "▁oeeeaielloooollooooouoo": 2975,
      "▁eaaieeeatev": 2976,
      "▁teoteoeaeero\n": 2977,
      "▁toeeaotdasoteafa": 2978,
      "odtnttt": 2979,
      "▁erdaieaieeeto": 2980,
      "▁oohaieee": 2981,
      "▁toteatoaiaaeeaeoteea\n": 2982,
      "▁erdtmeuo": 2983,
      "eertohn": 2984,
      "hohohoeatn": 2985,
      "fatt": 2986,
      "tateaieethn": 2987,
      "▁oodoesttehre": 2988,
      "▁thetsc": 2989,
      "▁eaetaoeeeae": 2990,
      "▁eaetaoeeeaeuto": 2991,
      "▁eaieieer\n": 2992,
      "▁iodiodaieaeeaaeto": 2993,
      "▁ooaeai": 2994,
      "▁oetodtjhn": 2995,
      "▁eaieeeaeaseeao": 2996,
      "▁teoteoeaieafteoaiaae": 2997,
      "▁otefa": 2998,
      "▁eeadteeatn": 2999,
      "▁paeaieasotea": 3000,
      "▁aieaeadthnaie\n": 3001,
      "▁eaieeeatteaaiee": 3002,
      "▁tost": 3003,
      "▁hohohoeatn": 3004,
      "teatottt": 3005,
      "▁tooteatottt": 3006,
      "ma": 3007,
      "▁toteatn": 3008,
      "faafa": 3009,
      "▁taieeown": 3010,
      "▁eaeoh": 3011,
      "▁hrdc": 3012,
      "toe": 3013,
      "oeaiaieeaieee": 3014,
      "▁eadoeaiaaeaodtotmtn": 3015,
      "▁tostetaieeeto": 3016,
      "▁oodeteaeeae": 3017,
      "dtnoho": 3018,
      "▁eadtv": 3019,
      "▁paooheetc\n": 3020,
      "▁eadtvoouoo": 3021,
      "▁eadoeaieaieeeaaetmtn": 3022,
      "▁tvetaieeesoooo": 3023,
      "▁taeaie": 3024,
      "▁oodoeteaaehn": 3025,
      "▁paeaetothn": 3026,
      "▁taaieeeeto": 3027,
      "eaieee1": 3028,
      "staie1": 3029,
      "▁oeaieohteec": 3030,
      "▁tseetsee": 3031,
      "▁aioteaeeooooeae": 3032,
      "▁taaieeeeto0": 3033,
      "▁oodeaaieeeatsee": 3034,
      "▁etaiet": 3035,
      "▁gtehnst": 3036,
      "▁paotetktttn\n": 3037,
      "▁v": 3038,
      "▁aehteceaieotdeuto\n": 3039,
      "▁oodeaseeao": 3040,
      "▁teaioteaeeoooo": 3041,
      "▁aiaaeaieeeto": 3042,
      "ohasee": 3043,
      "▁teaioteaeeoooost": 3044,
      "hneae": 3045,
      "tsa": 3046,
      "▁taero": 3047,
      "▁eeaeeeae": 3048,
      "▁eaaaieeetneae": 3049,
      "▁aieeoeoteaiee": 3050,
      "▁oeeeaieaieeetn": 3051,
      "meu": 3052,
      "eaieaeeaieaee": 3053,
      "tootieer": 3054,
      "eaiaiee": 3055,
      "aieaeoaieaeo": 3056,
      "▁aieeeertotllorto\n": 3057,
      "eoteeetn": 3058,
      "▁taeieeeadtjhn": 3059,
      "▁taeieeeadtjhn0": 3060,
      "▁oodaiiohasee": 3061,
      "▁eaaoodatot": 3062,
      "▁oodettaieerto\n": 3063,
      "▁eaeaieeeto": 3064,
      "ouoto": 3065,
      "▁erdstaie1": 3066,
      "▁oeaieohtv": 3067,
      "▁odtnoho": 3068,
      "▁eeaeaseetootieer": 3069,
      "▁oetiaaeemtc": 3070,
      "▁taaieeasado": 3071,
      "▁tneeaaie": 3072,
      "▁e\n": 3073,
      "▁aieaeadttatotoaetn": 3074,
      "▁aieaeoo": 3075,
      "aaoteoteeetn": 3076,
      "▁aiiohaseeaieaaeeaieote\n": 3077,
      "▁oetoteieeaatn": 3078,
      "▁ooaeaiooe": 3079,
      "▁tseegggaitoemoomoou": 3080,
      "▁oodtohn": 3081,
      "▁taei\n": 3082,
      "▁erdaieeetstt": 3083,
      "▁eaeheaeeaieero": 3084,
      "▁aseaa": 3085,
      "▁eatottea": 3086,
      "▁lloooooohtaetaiee": 3087,
      "aieaetn": 3088,
      "eftm": 3089,
      "eftmef": 3090,
      "▁toeeaotdaieetstt": 3091,
      "▁oodeftmef": 3092,
      "▁eeadtn": 3093,
      "▁oodeftmeftcaiee": 3094,
      "etneeb": 3095,
      "▁taieteetn": 3096,
      "▁gteo": 3097,
      "mon": 3098,
      "efac": 3099,
      "▁ietaieoeoteeaown": 3100,
      "▁aotohaieaieeeto": 3101,
      "eatoetaieeeto": 3102,
      "▁eatoto": 3103,
      "▁eaieafhnllorto": 3104,
      "eetnsc": 3105,
      "toto1": 3106,
      "▁astoto1": 3107,
      "▁taaieea": 3108,
      "▁patnoheelo": 3109,
      "▁ieeaaseeert": 3110,
      "▁etteatoteatnaiee": 3111,
      "▁llos": 3112,
      "▁eeaeeeaeouoto": 3113,
      "▁eaeeasooooai": 3114,
      "▁oodooheaieaeto\n": 3115,
      "▁tmsa": 3116,
      "▁aieeeatoetaieeeto": 3117,
      "eeelo": 3118,
      "▁oiettetnaie": 3119,
      "▁aioteetnsc": 3120,
      "▁aioteetnsce": 3121,
      "▁etaiea": 3122,
      "▁paaieee": 3123,
      "eaaeaieeatsee": 3124,
      "▁etneaeeelo": 3125,
      "▁tmsaown": 3126,
      "▁eadtaieetclo": 3127,
      "▁eaieatothaieeeto": 3128,
      "▁etaieeatoeatn": 3129,
      "▁etaieeatoeatnhaetn": 3130,
      "eaeheaeeaieero": 3131,
      "▁afaetoeaier": 3132,
      "▁gteaieee1": 3133,
      "▁taiaeaieela": 3134,
      "▁tseetttmtn": 3135,
      "▁tooieemooohaieie\n": 3136,
      "▁taoeeeaeeatn\n": 3137,
      "teethn": 3138,
      "▁eatoaotohaieaieae": 3139,
      "▁eaeeasooooaietn1": 3140,
      "▁erdtteao": 3141,
      "eaaieeee": 3142,
      "▁oodaieeetstt": 3143,
      "▁aieaeoaieaeoaieaeo": 3144,
      "▁llooootneaiaoteaiee": 3145,
      "▁eatotodcto": 3146,
      "ooheerto": 3147,
      "▁hoaieeast": 3148,
      "▁gteieeohasa": 3149,
      "▁eaeaiaaeaieeeto": 3150,
      "▁etaieoeteaaeaieaeto": 3151,
      "▁tmostaieeeto": 3152,
      "ellor": 3153,
      "▁oodoieemtn": 3154,
      "▁ttaafaellor": 3155,
      "▁ttaafaellortotetn": 3156,
      "loeadar": 3157,
      "▁taeloeadar": 3158,
      "aieaeouoo": 3159,
      "▁llost": 3160,
      "tooteatn": 3161,
      "▁haetn": 3162,
      "▁oelo": 3163,
      "eaaeeatn": 3164,
      "▁oeloeaaeeatn": 3165,
      "▁eaieeea\n": 3166,
      "taoeeeaetaieeesoooo": 3167,
      "etotoea": 3168,
      "▁eadoetv": 3169,
      "aieaieetheaaeedtetn": 3170,
      "thtaeiee": 3171,
      "▁aieaeadetneeb": 3172,
      "▁oeaiehrdpa": 3173,
      "▁ethoeaaieeee": 3174,
      "▁ieeaaseethnaie": 3175,
      "▁teaieeeadst\n": 3176,
      "▁taeuto": 3177,
      "▁oeote\n": 3178,
      "▁lloooolhetktttn": 3179,
      "▁ieeeaeaieaee\n": 3180,
      "▁taoeeeaehn": 3181,
      "▁ooahneae": 3182,
      "▁aiea\n": 3183,
      "▁oodaseaie": 3184,
      "eaaaieeeto": 3185,
      "▁taieeaeooooaiaae": 3186,
      "▁paoeoteaieeea": 3187,
      "msa": 3188,
      "▁tateea1\n": 3189,
      "ello": 3190,
      "▁ethoeutoeuto": 3191,
      "hoaseea": 3192,
      "▁llooooasoteafa": 3193,
      "ettateaieethn": 3194,
      "▁eaiaaettateaieethn": 3195,
      "iebod": 3196,
      "▁afaooheerto": 3197,
      "▁taieieeasa\n": 3198,
      "▁aiaieeown": 3199,
      "▁oeaiehre": 3200,
      "▁aieeeatn0": 3201,
      "▁tktoteaitfee": 3202,
      "▁gggottn": 3203,
      "▁teoteoieeeea": 3204,
      "taeieeahn": 3205,
      "ohoo": 3206,
      "aafaee": 3207,
      "teatoe": 3208,
      "▁toothoaslohoo": 3209,
      "▁toothoaslohooeoteea": 3210,
      "▁eaatooteatn": 3211,
      "▁eaaaiteatoe": 3212,
      "▁teevoteeea": 3213,
      "▁aietaie": 3214,
      "▁lloooooelotc\n": 3215,
      "▁eadsac\n": 3216,
      "sto": 3217,
      "▁afaaieaieetheaaeedtetn": 3218,
      "▁afaaieaieetheaaeedtetn0": 3219,
      "▁aieetm": 3220,
      "▁oteaitfeeero": 3221,
      "aieeeatn": 3222,
      "▁eohaooootnoho": 3223,
      "▁oodoshtn": 3224,
      "▁taoietaseaa": 3225,
      "▁eeetnteato": 3226,
      "▁eaeeasooooeaieaieaief": 3227,
      "▁eaathoohneerto": 3228,
      "tsteeafa": 3229,
      "▁ooaetottn": 3230,
      "teaeaitooooo": 3231,
      "▁eaieafteaeaitooooo": 3232,
      "▁eaieafteaeaitoooooeaiaae": 3233,
      "▁toeeaotdeaaeaiee": 3234,
      "▁eaatseaseeao": 3235,
      "▁eaeeelottt": 3236,
      "▁erdeteemtn": 3237,
      "▁aehtecaafaee": 3238,
      "hneeea": 3239,
      "▁eatoe": 3240,
      "▁etsc": 3241,
      "▁oohtaetaiee": 3242,
      "▁aieeeae0": 3243,
      "aieeeae1": 3244,
      "▁otoaoa\n": 3245,
      "▁faafa\n": 3246,
      "▁aieaieaouoo": 3247,
      "▁oteatotn": 3248,
      "▁oteatotnst": 3249,
      "▁haetnaieaeo": 3250,
      "totoeaiaiee": 3251,
      "▁oetodteetn": 3252,
      "eatotoeaiaiee": 3253,
      "▁aeeea": 3254,
      "▁eatotm": 3255,
      "▁llooootmeu": 3256,
      "▁eaaoef": 3257,
      "▁eatoeieeagte": 3258,
      "▁eatoeaier": 3259,
      "▁eaieafteoaiaaeaieeetc": 3260,
      "▁eatotetn1": 3261,
      "▁patsteeafa": 3262,
      "▁aieaieaieae": 3263,
      "▁eaieeeaaieeaaeee\n": 3264,
      "▁etnotaiee": 3265,
      "▁aieaieaieaeeaieetno": 3266,
      "▁aioteaedooooaeaie\n": 3267,
      "▁ttahtahn": 3268,
      "etaieetea": 3269,
      "rtoown": 3270,
      "▁etnotaieertoown": 3271,
      "▁eaaoest": 3272,
      "▁aiema": 3273,
      "▁oietaseaa": 3274,
      "▁thoohneerto": 3275,
      "▁aieetmsa": 3276,
      "eaaieeeeto": 3277,
      "▁llooooeaetaiee": 3278,
      "▁oodot": 3279,
      "▁thtseeaaiaaetsaieaeo": 3280,
      "▁oeoteaiepa\n": 3281,
      "▁eaeaieoheloeae\n": 3282,
      "▁aieeeea": 3283,
      "tooteethn": 3284,
      "▁hrdtllor": 3285,
      "▁hrdtllortoown": 3286,
      "▁aotetmoheaieeea": 3287,
      "▁taoteea": 3288,
      "etoe": 3289,
      "▁eetn0\n": 3290,
      "▁eaaeaieeeaown": 3291,
      "▁oodaieeeae1": 3292,
      "▁aieaeaiea": 3293,
      "etaiaaeee": 3294,
      "ooteeafa": 3295,
      "▁etottn": 3296,
      "▁erdtcteetohohaetn": 3297,
      "eaetmteaetcaieeeto": 3298,
      "▁oeotasttmntaeear": 3299,
      "▁erdc": 3300,
      "eetauto": 3301,
      "ieeaaseeeaioteato": 3302,
      "▁ottoth": 3303,
      "▁eatoeetauto": 3304,
      "▁teatotn": 3305,
      "▁eaieafhnaieeeto": 3306,
      "eadeaieaeeaieaee": 3307,
      "▁iebeadeaieaeeaieaee": 3308,
      "▁llooooefac": 3309,
      "eaeeadeaeetc": 3310,
      "▁hrodtofa": 3311,
      "▁eatoeato": 3312,
      "▁eaeaieotdeahn": 3313,
      "▁gteiettc": 3314,
      "tooteaeieeouoo": 3315,
      "oohgte": 3316,
      "▁st0": 3317,
      "oieemto": 3318,
      "▁tahre": 3319,
      "▁eeadoeto": 3320,
      "▁tnoieetaie": 3321,
      "▁etaieeaieetn": 3322,
      "▁taeaaie": 3323,
      "moeltc": 3324,
      "▁ooaoeot": 3325,
      "▁oeeeaietnttt": 3326,
      "▁tktoeeeaieetno": 3327,
      "thosc": 3328,
      "▁erdtaeieeahn": 3329,
      "▁aaoteoteeeatn\n": 3330,
      "▁erdeaatneaie": 3331,
      "▁tefsoeotetnllorto": 3332,
      "▁iaeaieel": 3333,
      "▁teatoaieee": 3334,
      "aieteer": 3335,
      "▁aotohaieteer": 3336,
      "▁taieeoestt": 3337,
      "▁taieeoesttetoown": 3338,
      "▁llooooeutoeuto": 3339,
      "▁teadtetn": 3340,
      "▁erdeief": 3341,
      "▁eatoeatohaetn": 3342,
      "taoeeeaef": 3343,
      "▁gteaiexetn": 3344,
      "▁eood": 3345,
      "▁eoodtaoeeeaef": 3346,
      "▁ietaodtoaiaaetsaieaeo\n": 3347,
      "▁tatotnaie": 3348,
      "▁eatoeaaeeeto": 3349,
      "▁ottohottneaieote": 3350,
      "▁staieaieeeto": 3351,
      "▁aet": 3352,
      "▁aethoh": 3353,
      "▁eadeaseeao": 3354,
      "▁oeeeaieeaeaiaaeaieeeto\n": 3355,
      "▁oeotohoest": 3356,
      "▁ohaoeae\n": 3357,
      "▁ethoteeatn": 3358,
      "▁teatotooteaeieeouoo": 3359,
      "iodiodtnttt": 3360,
      "▁eaaef\n": 3361,
      "▁aeaetotoetotofatnoho": 3362,
      "▁oodoetathon": 3363,
      "▁taeae0": 3364,
      "▁teatotnaietc": 3365,
      "se": 3366,
      "aietse": 3367,
      "▁oefaietse": 3368,
      "eaieeetotvo": 3369,
      "▁oefaietseeaieeetotvo": 3370,
      "▁totoeae": 3371,
      "eaiaaeaieeea": 3372,
      "etaieeethn": 3373,
      "▁oodohtv": 3374,
      "▁ottoot": 3375,
      "ieown": 3376,
      "eaieieown": 3377,
      "▁taeitthn\n": 3378,
      "otnoieemto": 3379,
      "▁aethohotnoieemto": 3380,
      "▁taeaeero": 3381,
      "▁eeeaee": 3382,
      "▁aieaeadtodcto": 3383,
      "▁pathtaeiee": 3384,
      "▁ooaoeoteaieeouoo": 3385,
      "hotceta": 3386,
      "▁toeeaotdthneeea": 3387,
      "htne": 3388,
      "▁eatne\n": 3389,
      "toohoetaieeeto": 3390,
      "▁afatoohoetaieeeto": 3391,
      "▁eatooeeae": 3392,
      "▁oodaiea": 3393,
      "▁eatooetotn\n": 3394,
      "▁teatoooea\n": 3395,
      "▁aeadtcllorto": 3396,
      "▁faeteatotoeaiaiee": 3397,
      "▁ethoaroetmtn": 3398,
      "▁hohrtthnst\n": 3399,
      "▁patooteaeieeouoo": 3400,
      "▁eatoeeaaeasaee\n": 3401,
      "▁oohtec": 3402,
      "▁ieemoeltc": 3403,
      "▁eaethre": 3404,
      "▁eaaieaf": 3405,
      "▁aieaeadtsiec": 3406,
      "aieeaeeasoooo": 3407,
      "▁staieeaeeasoooo": 3408,
      "▁oetetaieeethn": 3409,
      "▁eeadtnttt": 3410,
      "▁eaaeeetottea\n": 3411,
      "▁oetoettttetaieeeto": 3412,
      "▁talotothn": 3413,
      "▁eteemtn": 3414,
      "▁aieaeot": 3415,
      "▁aieatoe": 3416,
      "ooteeea": 3417,
      "ieeeeawn": 3418,
      "▁ohaooteeea": 3419,
      "▁eaatsteeafa": 3420,
      "eaieela": 3421,
      "▁oodloaie\n": 3422,
      "▁loaseetctcoooo": 3423,
      "odiebod": 3424,
      "▁otello": 3425,
      "▁otelloll": 3426,
      "▁iebodiebod": 3427,
      "▁ottoottn0": 3428,
      "▁aieeetoot": 3429,
      "▁hoaseeaown\n": 3430,
      "▁ieteerto": 3431,
      "▁tseeeaa": 3432,
      "aieeetogte": 3433,
      "eaeeeaeeeduto": 3434,
      "eoteaseeexeceee": 3435,
      "▁h": 3436,
      "▁iaeaieelaown": 3437,
      "▁ieeaeooooaiaae": 3438,
      "eaaaieeasado": 3439,
      "▁eaaeeeatoeaaeaiee": 3440,
      "▁taaieaetn": 3441,
      "taa": 3442,
      "▁eaaaieeasa": 3443,
      "▁eaaaieeasadoown": 3444,
      "▁erdtodcto": 3445,
      "aeieeahn": 3446,
      "▁hreaiaae": 3447,
      "▁otellolloouoo": 3448,
      "eaieotdpa": 3449,
      "ohtc": 3450,
      "▁lotc": 3451,
      "▁eeadeatoeatn": 3452,
      "▁oteatooet": 3453,
      "▁eaaethotceta": 3454,
      "▁llooooeaeeadeaeetc": 3455,
      "▁eaaeeetotsee\n": 3456,
      "▁oodeaelo\n": 3457,
      "▁hot": 3458,
      "▁hotto": 3459,
      "▁tatc\n": 3460,
      "▁hottoeaieotdpa": 3461,
      "▁eaaoodthnaie\n": 3462,
      "▁eaatnerto": 3463,
      "▁aieeaieeaiee": 3464,
      "▁oeaiehrdt": 3465,
      "▁aieeaieeaiee0": 3466,
      "▁oodeea": 3467,
      "teaseear": 3468,
      "▁teoteooteaseear": 3469,
      "▁ottoeaeeadeaeetc": 3470,
      "aieeataeeifaea": 3471,
      "▁oello": 3472,
      "▁toteatnaieae": 3473,
      "▁toeeaotdieeeeawn": 3474,
      "▁tootktteaaaieae": 3475,
      "▁thiaec\n": 3476,
      "▁lloooottatotoaetn": 3477,
      "▁paetototn": 3478,
      "▁erdeaa": 3479,
      "▁paetototn1": 3480,
      "ooetnooooo": 3481,
      "etlo": 3482,
      "efe": 3483,
      "▁ottothooetnooooo": 3484,
      "▁tateae\n": 3485,
      "▁ouoo\n": 3486,
      "▁oteatooetieeaaie": 3487,
      "eaieaedtc": 3488,
      "▁eteaaaieeasado": 3489,
      "eaieaedtcoooo": 3490,
      "▁eaiaaeaieeeto": 3491,
      "▁ttsoeotaeieeahn": 3492,
      "▁oodottoottn": 3493,
      "▁teaetmteaetcaieeeto": 3494,
      "iecoooo": 3495,
      "▁eaaaieetstof": 3496,
      "▁eaeeelotttethno": 3497,
      "▁eaaieafiecoooo": 3498,
      "tsaie": 3499,
      "▁eadoeaiaieeaieee": 3500,
      "aaaeoooo": 3501,
      "▁eaaieafiecoooo1": 3502,
      "▁teoteotneaie": 3503,
      "aieaeeto": 3504,
      "thaieaeeto": 3505,
      "thaieaeetoeer": 3506,
      "tsuto": 3507,
      "eaaoteaiee": 3508,
      "▁oeeeaieetsuto": 3509,
      "▁ietaieoeoteeaeae": 3510,
      "▁eaafaetthooero": 3511,
      "▁etaietaieetea": 3512,
      "▁erdtea": 3513,
      "▁odtaoeeeae": 3514,
      "▁ttathaieaeetoeer": 3515,
      "oello": 3516,
      "aehtecaieaeaiaae": 3517,
      "▁teoteoeaeheaeeaieero": 3518,
      "▁eatotmtsa": 3519,
      "▁eeaduo\n": 3520,
      "▁oeeeaieaiea": 3521,
      "▁eaaieeataeeifaea": 3522,
      "▁asaeaieaieae": 3523,
      "▁eaaeaieaedtcoooo": 3524,
      "▁tsea": 3525,
      "▁aieeaee1\n": 3526,
      "aieieeasa": 3527,
      "eeeaieea": 3528,
      "eeeaieeaetaiee": 3529,
      "oeaierto": 3530,
      "eaettcaiee": 3531,
      "▁erdiet": 3532,
      "▁tktgggaitoemoomoou": 3533,
      "tac": 3534,
      "▁taoeeeaieeaetaiee": 3535,
      "▁thaieaeooooeaettcaiee": 3536,
      "▁oeotdeeaeasee": 3537,
      "▁eaaaieae1": 3538,
      "▁eatottt": 3539,
      "ttsee": 3540,
      "▁otefattsee": 3541,
      "iasaie": 3542,
      "▁eaaeaieeeadst": 3543,
      "▁aieeemtc": 3544,
      "eaiear": 3545,
      "▁erdtcaiee\n": 3546,
      "▁eaieeeaaieae": 3547,
      "▁tvo1": 3548,
      "▁erdteataeiee": 3549,
      "etotaoeeeae": 3550,
      "▁erdteataeiee0": 3551,
      "▁oteetnteer": 3552,
      "▁afaetototn": 3553,
      "▁patthn": 3554,
      "▁aieeeeastetn": 3555,
      "tofa": 3556,
      "▁oodtoteatnaieae": 3557,
      "▁eaeaieotdttt": 3558,
      "▁oteeaeterduto\n": 3559,
      "▁eggg": 3560,
      "▁tsaie": 3561,
      "loaseetctc": 3562,
      "ieemoomoou": 3563,
      "▁egggead": 3564,
      "▁aead": 3565,
      "ttthn": 3566,
      "▁oteettthn": 3567,
      "▁etaieehre": 3568,
      "▁erdoeoteaieeaee": 3569,
      "▁tnst\n": 3570,
      "▁oeeeaieoteaaoteaiee": 3571,
      "▁ietoteeta": 3572,
      "▁aeadtceatn": 3573,
      "▁gtet": 3574,
      "deer": 3575,
      "▁ttatoeeaot": 3576,
      "▁ttatoeeaotdeer": 3577,
      "▁tstofa": 3578,
      "eertotetn": 3579,
      "▁aieiaec": 3580,
      "▁aehtecaieaeouoo": 3581,
      "▁aieeeaeero\n": 3582,
      "otoea": 3583,
      "emvo": 3584,
      "▁eadoetieeaaie": 3585,
      "aead": 3586,
      "▁erdeaaeaiee": 3587,
      "▁eeeaeeeaieeouoo": 3588,
      "▁toeertotetn": 3589,
      "▁oeeeaieoteeea": 3590,
      "▁oohaieae": 3591,
      "▁etsuto\n": 3592,
      "▁eaitf": 3593,
      "▁oeeeaieiec\n": 3594,
      "▁taoeoteaie": 3595,
      "▁eatoeaeeae": 3596,
      "▁ato": 3597,
      "▁aieeeeae": 3598,
      "▁aieeetootaiaoteaiee": 3599,
      "▁eaaohn": 3600,
      "hrdc": 3601,
      "faaslo": 3602,
      "▁tooieemothtn": 3603,
      "▁oeeeaieeaieaie\n": 3604,
      "▁gteooh": 3605,
      "thaietco": 3606,
      "aefwn": 3607,
      "aotaieeeto": 3608,
      "▁eaeadtetn\n": 3609,
      "▁atoetn": 3610,
      "▁oodeeaaeasaee": 3611,
      "▁oodteaeaie": 3612,
      "▁aieaeaietatoe\n": 3613,
      "▁aeaitooooo": 3614,
      "▁oohetlo": 3615,
      "▁teatoaieeeae\n": 3616,
      "▁taetno": 3617,
      "▁ttmon": 3618,
      "▁taeieemoomoou": 3619,
      "▁aieaellorto": 3620,
      "▁tooieemo": 3621,
      "▁eaatsaietetneaeeasoooo": 3622,
      "▁tseaeaietaoeeeae": 3623,
      "▁eaaaieeetnrooo": 3624,
      "aieetstof": 3625,
      "▁taaeaieeeto": 3626,
      "▁teoteotetn": 3627,
      "▁erdeaaeaseetetn": 3628,
      "▁oestteteetn\n": 3629,
      "▁oeeeaieas": 3630,
      "▁oeeeaieasto": 3631,
      "oteatnthoela": 3632,
      "eeeaown": 3633,
      "▁aieeeaeeadeaeetc": 3634,
      "aieaellorto": 3635,
      "oeloaseetetn": 3636,
      "▁aieaeaieieown": 3637,
      "▁toeeaotdlherodtn\n": 3638,
      "▁thettooeeeaie": 3639,
      "ethotc": 3640,
      "▁eaeaetneaaeed": 3641,
      "▁eaeaetneaaeedho": 3642,
      "▁ooaaieeaiaaehn": 3643,
      "ostaieae": 3644,
      "▁tatmsa": 3645,
      "▁fiaeaieeeto": 3646,
      "▁oietaseaaown": 3647,
      "▁lloooooetn": 3648,
      "▁aieeeteemtn": 3649,
      "▁eohaooooeaaeaieeatsee": 3650,
      "▁oeaiehrdtvooooo": 3651,
      "▁aieaeadoet": 3652,
      "eaieee0": 3653,
      "▁eatollolloetouto\n": 3654,
      "eotellollo": 3655,
      "▁etaieotellollo": 3656,
      "▁eaeaetnao": 3657,
      "▁erdafa": 3658,
      "▁aieeaieagtetetn\n": 3659,
      "on": 3660,
      "ttmon": 3661,
      "▁afat": 3662,
      "fatts": 3663,
      "fattsfa": 3664,
      "▁odeaetothn": 3665,
      "hrdst": 3666,
      "▁aieooh": 3667,
      "▁toothrdc": 3668,
      "▁vea": 3669,
      "▁taeaaeaiee": 3670,
      "aieasee": 3671,
      "▁efac": 3672,
      "▁teatoatot": 3673,
      "▁eatoot": 3674,
      "eaiehre": 3675,
      "▁toeeaotdaotaieeeto": 3676,
      "etnaieec": 3677,
      "▁eaaetuto": 3678,
      "▁erdetaie": 3679,
      "▁aeaieeea": 3680,
      "▁eaaeaaie": 3681,
      "▁paotetktttoown": 3682,
      "staie0": 3683,
      "htnaiaae": 3684,
      "▁oodthtnaiaae": 3685,
      "▁eadtaa": 3686,
      "eeexaieeeto": 3687,
      "taeeexaieeeto": 3688,
      "tieemosa": 3689,
      "▁tmtieemosa": 3690,
      "▁erdteaaie\n": 3691,
      "▁taeuo\n": 3692,
      "eaaeoooo": 3693,
      "▁taitoteatoeeb": 3694,
      "▁oeeeaietaefwn": 3695,
      "▁aieaeoaieaellorto": 3696,
      "▁llooootooteethn": 3697,
      "▁erdaeaieeea": 3698,
      "eohaoooo": 3699,
      "▁eadoest": 3700,
      "▁afataeeexaieeeto": 3701,
      "▁aieeeetn": 3702,
      "▁taieetea": 3703,
      "▁eatooetv": 3704,
      "▁oeteaaehn\n": 3705,
      "▁ieeaaseeaiee\n": 3706,
      "eeaaaaeoooo": 3707,
      "eaetc": 3708,
      "▁ieeataeeifaea": 3709,
      "▁etaieetaieeeto": 3710,
      "eaito": 3711,
      "▁aieaeooohtc": 3712,
      "oeotohoest": 3713,
      "▁eaieeeaeaieaieae": 3714,
      "▁aieaeadoetrto": 3715,
      "▁eao\n": 3716,
      "▁tkttaieieeasa": 3717,
      "eeaeaduo": 3718,
      "▁taeitaieetea\n": 3719,
      "iebtn": 3720,
      "▁erdteeaaaaeoooo": 3721,
      "▁aieaeadttatotoaetn\n": 3722,
      "st1": 3723,
      "tototnaie": 3724,
      "▁ohatototnaie": 3725,
      "etasaa": 3726,
      "▁aotetmiodiodtaoeeeae": 3727,
      "▁erdea": 3728,
      "▁otiisoooo\n": 3729,
      "▁gteeaeeasoooo": 3730,
      "▁oodtoothre": 3731,
      "▁llooooetaiaaeee": 3732,
      "▁aieaieeadoeroe\n": 3733,
      "eeadao": 3734,
      "eaeeiehn": 3735,
      "etao": 3736,
      "▁aieet": 3737,
      "eaiaaeeae": 3738,
      "sttetn": 3739,
      "▁ooateeae\n": 3740,
      "toeea": 3741,
      "▁ohtoeea": 3742,
      "▁oteatoetooetaieeeto\n": 3743,
      "▁eaaoodtoteatnaieae": 3744,
      "▁llooooth": 3745,
      "▁afaetaie": 3746,
      "▁veaown": 3747,
      "▁aieeaieee0": 3748,
      "ieaeeiehn": 3749,
      "▁aieaeoeaaefeatn": 3750,
      "etoasatotototo": 3751,
      "▁erdeaeeadao": 3752,
      "▁oetodhoaseea": 3753,
      "eoee": 3754,
      "▁eeeastetn": 3755,
      "▁toeeaotdeaieafteoaiaae": 3756,
      "▁oeeeaieoteeaeterduto\n": 3757,
      "▁eatoero\n": 3758,
      "▁tooieemotthn": 3759,
      "▁aiaaeoee": 3760,
      "▁eaaoet": 3761,
      "▁aiaaeoeeeaiear": 3762,
      "eaaeeetof": 3763,
      "▁ietsaie\n": 3764,
      "▁eatototot": 3765,
      "▁tseeiodiodtnttt": 3766,
      "▁oodohtc": 3767,
      "▁aieetsee\n": 3768,
      "▁ttaoeloaseetetn": 3769,
      "▁ohaolherodtn": 3770,
      "fatc": 3771,
      "▁st1\n": 3772,
      "▁gtetetn": 3773,
      "▁stoouoo": 3774,
      "▁gteiec": 3775,
      "aieeeea": 3776,
      "▁etkttto": 3777,
      "▁eelot": 3778,
      "▁eelotaieetclo": 3779,
      "▁ottoeaiaaeeae": 3780,
      "▁ieteertoero": 3781,
      "eaieeeaeaieeea": 3782,
      "▁eaieeeaeaieeeaeaieeea": 3783,
      "▁eatootiebat": 3784,
      "▁aieaeadeeaeaieeeto": 3785,
      "▁tootllo": 3786,
      "▁oeoteaieeeattt": 3787,
      "▁otetktttoown": 3788,
      "▁oettataoeeeaetaieeesoooo": 3789,
      "▁etktttoeaetaiee": 3790,
      "▁eaieeeafatjhnllorto": 3791,
      "▁eaaooh": 3792,
      "oeoteaseeexeceee": 3793,
      "▁eetc0\n": 3794,
      "haieaeoooo": 3795,
      "aieemtc": 3796,
      "aieemtcthaietco": 3797,
      "▁aeaieeeto": 3798,
      "▁hohrteatn": 3799,
      "▁odeaeeasooooouoo": 3800,
      "▁eadthtn": 3801,
      "▁afataoeeeae": 3802,
      "▁toeeaaie": 3803,
      "▁eeadth": 3804,
      "▁tnta\n": 3805,
      "aeadoelotac": 3806,
      "▁eaieote": 3807,
      "▁oeeeaieo": 3808,
      "▁aotohaieaioteaeeoooo\n": 3809,
      "▁otefattseeeae": 3810,
      "▁tkteeae": 3811,
      "dtot": 3812,
      "dtoteea": 3813,
      "▁eteaaaieeasadost": 3814,
      "▁aieeteeae0\n": 3815,
      "▁aieee1": 3816,
      "▁eeae\n": 3817,
      "▁aieefa": 3818,
      "▁aieefametaieeeto": 3819,
      "▁ohatoaieae": 3820,
      "▁eaieaie": 3821,
      "▁ooheeea": 3822,
      "eaieaeo": 3823,
      "emetaieeeto": 3824,
      "aietmtn": 3825,
      "▁oodteaetc": 3826,
      "▁ttaeaeae": 3827,
      "▁ohaoaietc": 3828,
      "▁taemetaieeeto": 3829,
      "▁oteatooeote": 3830,
      "▁eadtthn": 3831,
      "▁gteeaaieaf": 3832,
      "▁oeeeaieaieaeasee": 3833,
      "otefatt": 3834,
      "▁eetauto": 3835,
      "▁oodiettc": 3836,
      "▁tootlloetotaoeeeae": 3837,
      "▁eadetaieeeto\n": 3838,
      "▁toeeaaiehohr": 3839,
      "▁lloooothaieemtcthaietco": 3840,
      "faetottn": 3841,
      "▁aieaeaieaeaiea": 3842,
      "▁aieaieetnoaieaie\n": 3843,
      "▁oeaieoher": 3844,
      "▁eaatsaietetnteer": 3845,
      "▁eatoc": 3846,
      "▁taetototn": 3847,
      "▁etaietsiec": 3848,
      "▁ietaodtoteea": 3849,
      "▁aieaeaieaeaieaeeae": 3850,
      "aieeetoaieeetogte": 3851,
      "▁ttiettea\n": 3852,
      "lololotnttt": 3853,
      "▁aeertohn": 3854,
      "▁eaohhrdst": 3855,
      "▁toeeaotdteaieeeae": 3856,
      "▁oteatn\n": 3857,
      "▁llooooiaeaieela": 3858,
      "▁aieaeadiodiodtaoeeeae": 3859,
      "▁eadeb": 3860,
      "▁faeteatn": 3861,
      "tstoft": 3862,
      "totjhn": 3863,
      "tstofthtn": 3864,
      "▁tsaieae": 3865,
      "▁tteathtn": 3866,
      "▁oteetnst0": 3867,
      "▁toeeaotdtnoho": 3868,
      "▁eaaieaiee": 3869,
      "▁eaaieaieemtn": 3870,
      "▁aieaeoea": 3871,
      "▁oodeutoeuto": 3872,
      "ieceaaeto": 3873,
      "eadtaieeesoooo": 3874,
      "▁oeeeaietsaiee": 3875,
      "totoetasa": 3876,
      "▁eaeaietmtn": 3877,
      "stllorto": 3878,
      "▁eatotototho": 3879,
      "▁aieoohthnaie": 3880,
      "▁oodoeto": 3881,
      "▁aieeeatot": 3882,
      "hrhtne": 3883,
      "▁tneaseear": 3884,
      "eaieafteoaiaaeaieeetc": 3885,
      "▁oeeeaieteaetmteaetcaieeeto": 3886,
      "▁ststst": 3887,
      "▁oodtn": 3888,
      "iecieceaaeto": 3889,
      "▁eatoooh": 3890,
      "▁erdtnst": 3891,
      "▁oodeeea": 3892,
      "▁oodeadtaieeesoooo": 3893,
      "▁oodeeeastllorto": 3894,
      "▁oohetoeaier": 3895,
      "▁oeoteaiee\n": 3896,
      "tteaaieee": 3897,
      "▁ttatteaaieee": 3898,
      "▁lloooooeoteaieeuto\n": 3899,
      "▁tvo0": 3900,
      "▁oeteaaeoooo": 3901,
      "▁teatoo": 3902,
      "▁etaietc": 3903,
      "▁etaietcteetohohaetn": 3904,
      "▁oohaieie\n": 3905,
      "▁iebetoasatotototo": 3906,
      "▁oeteaaeasa\n": 3907,
      "▁teoteoeatoaieee": 3908,
      "▁erdiecieceaaeto": 3909,
      "▁aieeeetnotaieerto": 3910,
      "▁totoaiet": 3911,
      "▁totoaiethtn": 3912,
      "▁erdetaieeohouoothn": 3913,
      "▁oodaietc\n": 3914,
      "▁etaieeaa": 3915,
      "kto": 3916,
      "▁afatkto": 3917,
      "▁afatktoeeeaieetno": 3918,
      "▁eaaoeftac": 3919,
      "▁oodoiet": 3920,
      "▁stststasee": 3921,
      "▁stststasee0": 3922,
      "▁oodoetoaietmtn": 3923,
      "▁etteatoteatnaeae\n": 3924,
      "▁erdthooteeafa": 3925,
      "▁etaieafaetottn": 3926,
      "vtaieaeo": 3927,
      "▁tvtaieaeoloaie": 3928,
      "▁tseeteaieethn": 3929,
      "doetotoea": 3930,
      "▁etaieot": 3931,
      "▁taoeeeaeoooo": 3932,
      "ecefe": 3933,
      "▁oetn\n": 3934,
      "bat": 3935,
      "▁eeadhtahn": 3936,
      "▁eetaareae\n": 3937,
      "▁ietethotc": 3938,
      "▁iodiodoetotoea": 3939,
      "▁gteteeae\n": 3940,
      "aaeem": 3941,
      "▁eatoaieeetoaieeetogte": 3942,
      "▁tohn": 3943,
      "▁etn0": 3944,
      "▁gtetbat": 3945,
      "htectv": 3946,
      "ytjhn": 3947,
      "eaieeteeae": 3948,
      "ooteea": 3949,
      "▁tnlosodsod": 3950,
      "mpa": 3951,
      "▁aieeeertotllor": 3952,
      "▁aieeeertotllortoouoo": 3953,
      "▁ooaetasa": 3954,
      "▁eatoeahn": 3955,
      "▁oeeeaietnaietc\n": 3956,
      "▁efampa": 3957,
      "▁etoasatotototo\n": 3958,
      "▁oodthaieaeoooo": 3959,
      "▁eaeohet": 3960,
      "▁tseeoteetneaeeasoooo": 3961,
      "▁taeaietn\n": 3962,
      "▁eeadtaiee": 3963,
      "▁aieeeaetnetaieeeto\n": 3964,
      "▁llooootnst": 3965,
      "▁eatoeaieaieaief": 3966,
      "▁oodaieaaeeteemtn": 3967,
      "▁tteaaieee": 3968,
      "▁ttateeaeadsaeerto": 3969,
      "▁erdaieasee": 3970,
      "▁tseeiaec": 3971,
      "▁tllorto\n": 3972,
      "▁ooheeeaaiear": 3973,
      "ohaooooetasaa": 3974,
      "▁gte\n": 3975,
      "otoeaeeeaeeeduto": 3976,
      "▁aieeaeaaaieeeto": 3977,
      "hohrt": 3978,
      "▁eaeohetytjhn": 3979,
      "▁ottoooh": 3980,
      "▁aieeetoaieetstt": 3981,
      "▁aietaieeesoooo": 3982,
      "▁ttaood": 3983,
      "▁etaiellolloetouto": 3984,
      "▁erdtootohhn\n": 3985,
      "eatne": 3986,
      "▁teatooeaieasaie": 3987,
      "eaieafa": 3988,
      "aaeemem": 3989,
      "▁oetiaaeemem": 3990,
      "eec": 3991,
      "▁taieieasa": 3992,
      "▁taeaieeaoero": 3993,
      "▁ttaoodeer": 3994,
      "▁hrdttmon": 3995,
      "taieetc": 3996,
      "▁tseeloaie": 3997,
      "▁aieeetoaeaie": 3998,
      "▁eadeaaieeeeto": 3999,
      "▁paeetc": 4000,
      "tooh": 4001,
      "aiiasaie": 4002,
      "▁oohgteeatn\n": 4003,
      "▁oeeeaieteaaie\n": 4004,
      "▁oodeteaeeae\n": 4005,
      "▁aieaieaieeeaeuto\n": 4006,
      "tstse": 4007,
      "▁oodeeb": 4008,
      "▁oodieeaasee": 4009,
      "eaeaaaieeeto": 4010,
      "▁afatn": 4011,
      "▁gteot": 4012,
      "▁oettaero\n": 4013,
      "▁aieaeoteea": 4014,
      "ohaooooaieae": 4015,
      "▁teaaedtctoar": 4016,
      "▁eeadoetoeeae": 4017,
      "▁llooooeeaeaieeeto\n": 4018,
      "▁eatoetao": 4019,
      "soeotjhn": 4020,
      "▁gtehnouoo": 4021,
      "▁eeadtstse": 4022,
      "▁oodeeb1": 4023,
      "▁erdaieae": 4024,
      "▁eaaeedt": 4025,
      "▁aieeeatn2\n": 4026,
      "▁thaieaeooootsiec": 4027,
      "▁erdttsoeotjhn": 4028,
      "▁oodieeaaseeeeae": 4029,
      "eaieetmtn": 4030,
      "▁tktoieemtn": 4031,
      "▁ttae": 4032,
      "▁ttatjhn\n": 4033,
      "▁oetotopa": 4034,
      "▁tatllorto\n": 4035,
      "▁tkttsaie": 4036,
      "▁hr\n": 4037,
      "▁afaasoteafa": 4038,
      "aieaieaieafa": 4039,
      "▁oetodaieaieaieafa": 4040,
      "▁aieetstofthtn": 4041,
      "iaee": 4042,
      "▁tootktttaieetc": 4043,
      "etkttotn": 4044,
      "▁gteoieemtn": 4045,
      "▁ttaehtectv": 4046,
      "▁lltoieemopaoeoteaiee\n": 4047,
      "▁eatothnaie\n": 4048,
      "▁ieeeaeaiee\n": 4049,
      "▁ttan": 4050,
      "▁ttaehtectvown": 4051,
      "aithoe": 4052,
      "▁oohtotaithoe": 4053,
      "▁thneeeaown": 4054,
      "oohteea": 4055,
      "▁easto": 4056,
      "hoaie": 4057,
      "▁oelloohteea": 4058,
      "▁erdseetpa": 4059,
      "▁ottoeaa": 4060,
      "▁toeeaotdthtn": 4061,
      "▁oodiet": 4062,
      "▁oeaieetmtn": 4063,
      "▁oieemopa\n": 4064,
      "▁otefatown": 4065,
      "▁oetoieemopa": 4066,
      "▁haeadoelotac": 4067,
      "▁aehtecthntv\n": 4068,
      "▁eadaiee": 4069,
      "▁oodeaaeaieeetotaoeeeae": 4070,
      "▁eiebtn": 4071,
      "▁oeeeaietneaseaa\n": 4072,
      "▁atotaieee\n": 4073,
      "▁oteatooetotoea": 4074,
      "▁eeaderodtno\n": 4075,
      "▁toeeaotdthoaie": 4076,
      "▁erdtnoieetaie": 4077,
      "▁eaaaietoe": 4078,
      "▁taoest": 4079,
      "eetuto": 4080,
      "gtea": 4081,
      "▁gtea": 4082,
      "▁erdaieetstof": 4083,
      "▁ia": 4084,
      "dtcteetohohaetn": 4085,
      "▁gteoteieeaatn": 4086,
      "▁aee\n": 4087,
      "mostaieae": 4088,
      "▁eadeaaeeetof": 4089,
      "▁eaathosc": 4090,
      "▁eaitfeeaieeteeae": 4091,
      "▁ietaodtoteeaown": 4092,
      "▁aeadeahn": 4093,
      "▁oodeatoaieee": 4094,
      "▁etaieeeto\n": 4095,
      "▁tktottn": 4096,
      "▁llooooasoteoef\n": 4097,
      "aieaeeb": 4098,
      "▁oodeaiea": 4099,
      "▁oodoohtotnaie": 4100,
      "▁tnstaieeeto": 4101,
      "▁tseetcaiee": 4102,
      "▁oeoteeto": 4103,
      "eeeaieoeoteea": 4104,
      "▁oeoteetoeeeaieoeoteea": 4105,
      "▁atotaoeeeae": 4106,
      "▁eeatotetn": 4107,
      "▁eeatotetnet": 4108,
      "▁ohaot": 4109,
      "eeteaieuto": 4110,
      "▁aeaitoooooeeteaieuto": 4111,
      "▁taotaiaoteaiee": 4112,
      "hottneeto": 4113,
      "aieaieeecefe": 4114,
      "▁etno1": 4115,
      "▁hno": 4116,
      "▁teevegggeae": 4117,
      "▁oteeetsodsod": 4118,
      "eaieaieas": 4119,
      "eaieaieaseaa": 4120,
      "▁ohtaoeeeaetaieeesoooo": 4121,
      "▁ooheloeae\n": 4122,
      "▁eaaeedaieaeeb": 4123,
      "▁eaaeohaooooaieae": 4124,
      "▁aieaieeeb": 4125,
      "▁tcaiee": 4126,
      "▁oodtaoeeeae": 4127,
      "▁etaiaaeee\n": 4128,
      "▁teadsac": 4129,
      "eertoooea": 4130,
      "▁toeertoooea": 4131,
      "▁ao": 4132,
      "▁oodhtahngte": 4133,
      "▁tseeeasa": 4134,
      "▁egggeadst": 4135,
      "▁oodtsteeafa": 4136,
      "▁aieeeatothotho": 4137,
      "aietcaiee": 4138,
      "▁paoohtc": 4139,
      "▁taeedtjhn\n": 4140,
      "eciee": 4141,
      "ecieeiee": 4142,
      "▁erdtoteatnaieae\n": 4143,
      "▁tatneaseear": 4144,
      "▁tatv0": 4145,
      "▁oodoelotac\n": 4146,
      "▁oetaeaie\n": 4147,
      "▁eadeotea": 4148,
      "▁taeohaooooetasaa": 4149,
      "▁ottoeaaeeeatn": 4150,
      "▁etaieoetotoea": 4151,
      "▁taieaito": 4152,
      "▁taieaitoecieeiee": 4153,
      "▁gteeaeeae": 4154,
      "▁eeatotetnetaieeaee": 4155,
      "▁aotasee": 4156,
      "eaaeedpa": 4157,
      "aieeeaieeaee": 4158,
      "▁oteatoaieeeaieeaee": 4159,
      "ototn": 4160,
      "▁eeadaieeetc\n": 4161,
      "▁ooheeaaetnerto": 4162,
      "▁aiaaeeaaieeee\n": 4163,
      "▁eeadoetofaaslo": 4164,
      "▁eaeaetnaieeeea": 4165,
      "▁oodeaiaaeaieeea": 4166,
      "▁tvtaieaeoaieeeeto": 4167,
      "hreaiaae": 4168,
      "▁taoiet": 4169,
      "▁taoiettaoeeeae": 4170,
      "▁tmeu\n": 4171,
      "▁aieas": 4172,
      "▁oeeeaieea\n": 4173,
      "▁teoteoeadtvoeatn\n": 4174,
      "▁eaexxeae\n": 4175,
      "▁erdaieea": 4176,
      "▁oetoeoteaseeexeceee": 4177,
      "▁oeoteaieeea\n": 4178,
      "eaieaiee": 4179,
      "ieeaseea": 4180,
      "▁tse": 4181,
      "▁aotohaieeae\n": 4182,
      "▁tseeeaaaieeetn": 4183,
      "▁ieeaaseeaieaeo": 4184,
      "▁oteatoaieee": 4185,
      "aieeetaie": 4186,
      "▁eeadtaieeetaie": 4187,
      "etfeteaieafuto": 4188,
      "▁odthtn\n": 4189,
      "▁oodoeaierto": 4190,
      "aieeaiee": 4191,
      "▁ooheaetn\n": 4192,
      "▁oodeeae": 4193,
      "▁toeeaotdeaseeao": 4194,
      "▁todcto": 4195,
      "▁ieteaetaiee": 4196,
      "▁aieeoeaierto0\n": 4197,
      "▁oodtootieer": 4198,
      "▁erdieteloeae": 4199,
      "▁oteeae": 4200,
      "▁teaeaaee": 4201,
      "▁erdoeaiaieeaieee": 4202,
      "tstofa": 4203,
      "▁gteai": 4204,
      "▁eeadoelotac": 4205,
      "eaaietsee": 4206,
      "▁eatoieeaaseeeaioteato": 4207,
      "asaar": 4208,
      "▁aiaaellooootaoeeeaeown": 4209,
      "▁ooafiaeaieeeto": 4210,
      "▁aeeeaee": 4211,
      "▁aieeae1": 4212,
      "▁aeaeeteattuto\n": 4213,
      "▁oodteaaie\n": 4214,
      "▁ooheeaaetnoo": 4215,
      "▁oeeeaieeaiaaeaieeea": 4216,
      "▁gtept": 4217,
      "aieieo": 4218,
      "eohaooooeaaeaieeatsee": 4219,
      "aieieoeoteea": 4220,
      "▁toteatnouoo": 4221,
      "▁tseeth": 4222,
      "▁tatoot": 4223,
      "▁oeloasee\n": 4224,
      "▁eaataieieoeoteea": 4225,
      "▁teeasaar\n": 4226,
      "▁eatoood": 4227,
      "▁aieeeeaa": 4228,
      "▁gteatot": 4229,
      "▁eatoteeatn": 4230,
      "▁ietasaar": 4231,
      "▁afa1\n": 4232,
      "▁aieiaec0": 4233,
      "▁ieteaaemtn\n": 4234,
      "toteec": 4235,
      "▁eeeatoteec": 4236,
      "eaieaieeeto": 4237,
      "▁oeoteaieeaieaieeeto": 4238,
      "▁taeae": 4239,
      "▁erdeetn": 4240,
      "▁eaietn": 4241,
      "▁tseeooh": 4242,
      "▁ethoar\n": 4243,
      "▁tatoothre": 4244,
      "▁erdaieea1": 4245,
      "boooo": 4246,
      "aaeeboooo": 4247,
      "▁eatooodstooeatn": 4248,
      "▁aieo": 4249,
      "▁eaeoteeasahn\n": 4250,
      "totnlo": 4251,
      "▁aotohaietcaiee": 4252,
      "eerodt": 4253,
      "▁etotoatn\n": 4254,
      "aieeethn": 4255,
      "▁tatnst\n": 4256,
      "aitoaieeethn": 4257,
      "iaaeeboooo": 4258,
      "▁eaaoetiaaeeboooo": 4259,
      "▁eadeohaooooeaaeaieeatsee": 4260,
      "▁aehtecaiea": 4261,
      "▁eeadthaitoaieeethn": 4262,
      "▁etneaeeae": 4263,
      "eeeaef": 4264,
      "eeaeo": 4265,
      "▁aieeaa": 4266,
      "▁tseetstofa": 4267,
      "▁eaaietc\n": 4268,
      "▁eaaoodeaieeaoero": 4269,
      "▁allollo": 4270,
      "▁allollofa": 4271,
      "eaieaieeeaaetmtn": 4272,
      "▁aieeetoeeaeaduo": 4273,
      "eaaseaie": 4274,
      "▁aieaseaaseaie": 4275,
      "eaieaeeta": 4276,
      "▁aieaeoeae": 4277,
      "▁oeeeaie0\n": 4278,
      "▁gteoohetktttn": 4279,
      "▁aiaaeloaseetctc": 4280,
      "eroown": 4281,
      "▁oteaitfeeeroown": 4282,
      "eastoaie": 4283,
      "taoeeeaeastoaie": 4284,
      "▁teatoareatn": 4285,
      "▁aiethtn": 4286,
      "▁tseeeaaetfeteaieafuto": 4287,
      "etodcto": 4288,
      "▁gtetodcto": 4289,
      "▁eatoaaoteoteeetn": 4290,
      "▁oodeetn": 4291,
      "▁oodeetnrooo": 4292,
      "▁taieeeaieaeeta": 4293,
      "▁tooieemoteasa\n": 4294,
      "▁teatnhre\n": 4295,
      "▁ohaoiec": 4296,
      "▁teatotootasaee\n": 4297,
      "▁eeadtnoho": 4298,
      "▁eaiaaegte\n": 4299,
      "▁eaeeelotttea": 4300,
      "▁gteaietoe": 4301,
      "aieiaec": 4302,
      "etasee": 4303,
      "▁erdtsiec": 4304,
      "hrodtofa": 4305,
      "thtseea": 4306,
      "oteetnsc": 4307,
      "ieeohhn": 4308,
      "▁af": 4309,
      "▁oodetno": 4310,
      "eerodtoown": 4311,
      "▁oodetno0": 4312,
      "▁eaaetn": 4313,
      "▁ieerodtoown": 4314,
      "▁eatotoe": 4315,
      "▁tatetnaieasaie": 4316,
      "▁teatotoottaeiee": 4317,
      "▁erdieeohasa": 4318,
      "▁tkthreaiaae": 4319,
      "▁eaeeae": 4320,
      "▁tseetneaieaietoto": 4321,
      "▁oodeaaaieaietaoeeeae": 4322,
      "▁oeteatoeatnetaie": 4323,
      "▁oodhrodtofa": 4324,
      "▁oetotoea": 4325,
      "▁ieemoeltcaieee": 4326,
      "▁paaieaieeeto": 4327,
      "▁taieellolloeatn\n": 4328,
      "▁aeeeaeeeouoo": 4329,
      "▁erdafataoeeeaeastoaie": 4330,
      "▁oetiaaeememoteatnthoela": 4331,
      "ohaieee": 4332,
      "▁oesttesac\n": 4333,
      "▁eaatta": 4334,
      "▁ieerodtoown0": 4335,
      "ottoo": 4336,
      "▁asatvo": 4337,
      "tseetsee": 4338,
      "▁ooataiee": 4339,
      "▁eaatsoteato": 4340,
      "▁teadeaeero\n": 4341,
      "▁eaai": 4342,
      "▁eohaoooohohr": 4343,
      "▁ooaeeaeasee\n": 4344,
      "▁eohaoooohohrtthnst": 4345,
      "asto": 4346,
      "▁aieaeaieaeaieae": 4347,
      "▁oteaseearst": 4348,
      "▁oohouoto": 4349,
      "▁eaelost1": 4350,
      "ietaieoeoteea": 4351,
      "▁aaoteoteeaeaaeedhn": 4352,
      "eemtc": 4353,
      "▁etaieoelotac": 4354,
      "faown": 4355,
      "▁thooteea": 4356,
      "▁thooteeafaown": 4357,
      "ohai": 4358,
      "eaeaieotd": 4359,
      "▁aieaeadtc": 4360,
      "▁ohaoaieaieaieeea": 4361,
      "▁aieaeadtcthtseea": 4362,
      "eaeaieotdttt": 4363,
      "▁eadoh": 4364,
      "▁eadohetkttotn": 4365,
      "▁oeteatoaieee": 4366,
      "▁oelloodtoea\n": 4367,
      "▁taaotoh": 4368,
      "▁aieaeaieaeaieaeohaieee": 4369,
      "▁eadtaoeeeae": 4370,
      "▁oeeeaieoeeae\n": 4371,
      "▁tsaiee": 4372,
      "▁teoteooeoteaseeexeceee": 4373,
      "haitoetn": 4374,
      "▁oohtotnaie\n": 4375,
      "▁elrtpa": 4376,
      "▁oodtneerto": 4377,
      "▁ieeaasee\n": 4378,
      "▁oodtsiec": 4379,
      "eadpa": 4380,
      "▁aieaeothn": 4381,
      "▁aieaeothneeea": 4382,
      "▁eaattaafaetytetn": 4383,
      "oodt": 4384,
      "▁taaotohaieaieeeto": 4385,
      "▁aieeteta": 4386,
      "▁etaieatot": 4387,
      "totnasee": 4388,
      "uooetmtn": 4389,
      "▁taeuooetmtn": 4390,
      "▁oohetnotaieerto": 4391,
      "▁teoteoeeeatoeaaeaiee\n": 4392,
      "▁tst": 4393,
      "etaeai": 4394,
      "xetaeai": 4395,
      "▁erdaie": 4396,
      "eaieaaeaiee": 4397,
      "teaeaie": 4398,
      "▁eeadeaaeeeto": 4399,
      "▁eaitfeet": 4400,
      "▁oohouotoaieaeo": 4401,
      "▁taeeaeaieeeto": 4402,
      "▁oodoeeeaielloooollooooieb\n": 4403,
      "oeotaseaaie": 4404,
      "▁eatoeaaaieaietaoeeeae\n": 4405,
      "eteaeaaee": 4406,
      "▁eatoeaieeatn": 4407,
      "▁aieeetotthn": 4408,
      "▁ooder": 4409,
      "etktttotjhn": 4410,
      "▁oeotetktttotjhn": 4411,
      "▁oodaeertohn": 4412,
      "▁oteeaegte": 4413,
      "▁tasac\n": 4414,
      "▁erdoteeta": 4415,
      "▁ttsoeotn": 4416,
      "▁eeeato": 4417,
      "▁eaitfeetefsoeo": 4418,
      "▁ooaoef": 4419,
      "astoto": 4420,
      "▁eaaeatne": 4421,
      "▁aieaieeebpa": 4422,
      "▁iodiodoeote": 4423,
      "▁taieeesafa\n": 4424,
      "▁taatetn": 4425,
      "oeaiehre": 4426,
      "▁eaaetnrooo": 4427,
      "▁oodaiee": 4428,
      "ieero": 4429,
      "▁teevieero": 4430,
      "▁teevieerodto": 4431,
      "ohaieeeatn": 4432,
      "▁ttsoeotnoieetaie": 4433,
      "▁lhe": 4434,
      "▁lheohaieeeatn": 4435,
      "▁oettaeroastoto": 4436,
      "▁ieeaaseeoodt": 4437,
      "▁ieeaaseeoodteaaie": 4438,
      "▁heaaeedtetn": 4439,
      "▁oodtneertoeae": 4440,
      "▁ooatneaie": 4441,
      "▁aieaeadtoot": 4442,
      "iebta": 4443,
      "▁oef\n": 4444,
      "ieetn": 4445,
      "▁ooataoeeeae": 4446,
      "odiodtnttt": 4447,
      "aoeeeaeoooo": 4448,
      "▁eaeeasoooototn": 4449,
      "▁aiestaie": 4450,
      "otsa": 4451,
      "▁tmotsa": 4452,
      "▁eaahrhtne": 4453,
      "▁eaahrhtneoooo": 4454,
      "▁eaitfeeteaeaie": 4455,
      "▁aieeeaieeaee\n": 4456,
      "▁odtcteetohohaetn": 4457,
      "▁totneaaeedpa": 4458,
      "▁tstto": 4459,
      "eatnthoela": 4460,
      "▁etneaeta": 4461,
      "▁teatoar\n": 4462,
      "tv0": 4463,
      "emeu": 4464,
      "▁eatoth": 4465,
      "▁gtee": 4466,
      "▁tseetv0": 4467,
      "▁ohaoseaie": 4468,
      "▁afatneaseaa": 4469,
      "eeeoetn": 4470,
      "▁aeeeaeeeoetn": 4471,
      "oeoteaieeea": 4472,
      "teeaeoooo": 4473,
      "▁afatneaseaa1": 4474,
      "▁ietn1\n": 4475,
      "▁eaitfeeoeaiehre": 4476,
      "▁aieaeadtoottaeiee": 4477,
      "▁ttaeatooeer\n": 4478,
      "▁eaahottneeto": 4479,
      "▁erdtmsa": 4480,
      "taieeeeae": 4481,
      "fattsfat": 4482,
      "▁oeotasttmntaeeato": 4483,
      "tan": 4484,
      "▁aeaie": 4485,
      "▁erdttan": 4486,
      "iemeu": 4487,
      "▁oohthosc": 4488,
      "▁etaieeaaefeatn": 4489,
      "eatnpt": 4490,
      "▁eaaaieaietaoeeeae": 4491,
      "▁odtotnasee": 4492,
      "▁eaaaieaietaoeeeaest": 4493,
      "▁llooooaieaieeecefe": 4494,
      "▁oodgte": 4495,
      "aiaaeloaseetctc": 4496,
      "hno": 4497,
      "▁teetoeief": 4498,
      "▁toeeaotdteaetmteaetcaieeeto": 4499,
      "▁eaaeaieea\n": 4500,
      "▁aieaieaieeea\n": 4501,
      "▁hta": 4502,
      "▁aieeexetaeai": 4503,
      "▁eaaeedtaithoeouoo": 4504,
      "▁teatoaotasee": 4505,
      "▁aieeetoeetuto": 4506,
      "▁erdoteetnsc": 4507,
      "▁oodeaieatothaieeeto": 4508,
      "▁oefouoo": 4509,
      "▁eatoaseaie": 4510,
      "▁aieeeteaeaaee": 4511,
      "▁eaethrdtetn\n": 4512,
      "▁thaieaeooooaieeaee": 4513,
      "▁taeeexaieeetnoeeeaie\n": 4514,
      "▁lh": 4515,
      "▁eadetsuto\n": 4516,
      "▁aieot": 4517,
      "▁taethoar\n": 4518,
      "▁hohrt": 4519,
      "▁aiaieeaaiaieee\n": 4520,
      "esac": 4521,
      "▁faetthooero\n": 4522,
      "aieeaaee": 4523,
      "eaeattetaieeeto": 4524,
      "▁erdaiaaeloaseetctc": 4525,
      "▁eaaaeaeattetaieeeto": 4526,
      "▁teetn1": 4527,
      "▁oodeaaetniec\n": 4528,
      "▁taaaoteoteeetn": 4529,
      "▁oetiodiodtnttt": 4530,
      "▁teaaieeaaee": 4531,
      "totaieeesoooo": 4532,
      "eatoetn": 4533,
      "▁afatseetsee": 4534,
      "▁taeadpa": 4535,
      "htecaieaeaiaae": 4536,
      "totoeaeeeaeeeduto": 4537,
      "▁taieetc": 4538,
      "eaeifaea": 4539,
      "▁oodteaeifaea": 4540,
      "▁oeaiea": 4541,
      "▁oeeeaieoteieeaatn": 4542,
      "▁tastaie0": 4543,
      "▁oheaieeeaown\n": 4544,
      "▁erdtsaie": 4545,
      "eteato": 4546,
      "ebuto": 4547,
      "eteatoebuto": 4548,
      "▁ieeaaseeaieea": 4549,
      "eaieeaeoouoo": 4550,
      "tsfattsfat": 4551,
      "▁ottoooheetc": 4552,
      "oeotohasa": 4553,
      "▁staieown": 4554,
      "▁taseeet\n": 4555,
      "dthtnaie": 4556,
      "▁oeeeaieodthtnaie": 4557,
      "▁erdietfaafa": 4558,
      "▁easeeao": 4559,
      "▁thaietcoown": 4560,
      "▁aieaeoteeatn": 4561,
      "▁eaieaeaierthtn\n": 4562,
      "▁ooea": 4563,
      "▁oeeeaiestaie": 4564,
      "▁loaie": 4565,
      "▁ooaloaie": 4566,
      "▁erdtesac": 4567,
      "▁ietfaafa": 4568,
      "▁oodoohtoteatnaieae": 4569,
      "▁eetn1\n": 4570,
      "▁eaieeeaeea": 4571,
      "▁oettataoeeeaeouoo\n": 4572,
      "▁staieown1": 4573,
      "▁eaieaieae": 4574,
      "dsa": 4575,
      "▁eaieaieaeown": 4576,
      "loo": 4577,
      "▁teatoaie\n": 4578,
      "▁eatototo": 4579,
      "▁taeaiaaeaieeeto\n": 4580,
      "▁eaeaetntsfattsfat": 4581,
      "ietfaafa": 4582,
      "▁taieetcloo": 4583,
      "taar": 4584,
      "▁eaaeetaar": 4585,
      "▁eaaeetaar1": 4586,
      "▁eatototoeatoetn": 4587,
      "▁oohaieeasado": 4588,
      "▁hrhtne": 4589,
      "▁htahoetaieeeto": 4590,
      "ieeataeeifaea": 4591,
      "▁oetteaewn\n": 4592,
      "▁taieetcloooea": 4593,
      "▁tsfattsfa": 4594,
      "aoeot": 4595,
      "▁teeafa": 4596,
      "▁llooootwn\n": 4597,
      "▁oohoeoteea": 4598,
      "▁aieaeeeaeee": 4599,
      "▁loaseetctc\n": 4600,
      "ietn1": 4601,
      "▁aieiaec1": 4602,
      "▁oeeeaieth": 4603,
      "hoaieeast": 4604,
      "▁eatototothoetaiaaeee": 4605,
      "▁tsttouoo": 4606,
      "▁gteeaaie": 4607,
      "▁thaieaeooooteatn": 4608,
      "▁eaaaieeetnst": 4609,
      "aeaieeeto": 4610,
      "▁erdoelloodtoea": 4611,
      "▁paoeoteaie": 4612,
      "▁oodhottneaieote": 4613,
      "▁oeeeaieteatnpt": 4614,
      "▁aieeeeaeasee": 4615,
      "▁taetasa\n": 4616,
      "▁asaoeot": 4617,
      "▁eetnaie": 4618,
      "▁ottoaehtecaieaeaiaae": 4619,
      "▁aieaetnta0\n": 4620,
      "▁llooooeaioteatn\n": 4621,
      "aieaest": 4622,
      "tooooofatc": 4623,
      "toohtooooofatc": 4624,
      "toohtooooofatcttt": 4625,
      "eeetpa": 4626,
      "▁oetoetteeae\n": 4627,
      "▁oodhoaieeast": 4628,
      "▁oeteaieeea\n": 4629,
      "oeaieasaie": 4630,
      "eatoohtooooofatcttt": 4631,
      "▁eatoteeafa": 4632,
      "▁eatoteeafaeatoohtooooofatcttt": 4633,
      "▁aieetooteethn": 4634,
      "▁oeaieaieeeaaetmtn": 4635,
      "▁oeeeaielloooollooooieb": 4636,
      "▁ieeaaseellolloftaea\n": 4637,
      "▁afathneeea0\n": 4638,
      "▁oodstaie0": 4639,
      "▁aieeeaetn\n": 4640,
      "▁asaeaeeemtn": 4641,
      "▁tseethettooeeeaie": 4642,
      "▁ttaetaiaaeeouoo\n": 4643,
      "▁taatetnouoo": 4644,
      "▁eadeaieduto\n": 4645,
      "▁aiethaitoetn": 4646,
      "▁hohrthaietktttn": 4647,
      "▁teeaeadsa": 4648,
      "▁eaaae": 4649,
      "▁eatoeaieafteoaiaaeaieeetc": 4650,
      "▁oeeeaieooh": 4651,
      "▁aieeataieeesoooo": 4652,
      "oietaseaa": 4653,
      "▁gggaieeeatn": 4654,
      "▁llooootso\n": 4655,
      "▁eaahohrt": 4656,
      "▁taeae1": 4657,
      "▁teoteototoeaeeeaeeeduto": 4658,
      "ebaiaae": 4659,
      "▁oeeeaietnebaiaae": 4660,
      "▁lltoieemopa\n": 4661,
      "▁oeoteaseeexecee": 4662,
      "▁eatooown\n": 4663,
      "▁eadaieeaee": 4664,
      "▁tseeoohgte": 4665,
      "▁etaieeohouoothn": 4666,
      "▁eohaooooieaeeiehn": 4667,
      "▁oetieetn": 4668,
      "▁toeeaotdeaeheaeeaieero": 4669,
      "▁iecieceaaetoown\n": 4670,
      "aeertohn": 4671,
      "▁thtseea\n": 4672,
      "▁ooaaiee": 4673,
      "▁teetoaie\n": 4674,
      "▁oest\n": 4675,
      "▁aiee1": 4676,
      "▁eaeeadeaeetc": 4677,
      "▁etntaoeeeaeaieae": 4678,
      "▁eatotaoeeeae": 4679,
      "▁llooooeeetpa": 4680,
      "▁ohaoetaie": 4681,
      "▁ohaoetaie1": 4682,
      "▁eaeeasoooooietaseaa": 4683,
      "asatotetn": 4684,
      "eaieeaeoero": 4685,
      "▁staiepa": 4686,
      "▁eaaeedoeoteaieeuto\n": 4687,
      "▁astn\n": 4688,
      "▁etaieeaieeaeoero": 4689,
      "▁eaeeelottteatotnlo": 4690,
      "eaieeetaoeeeae": 4691,
      "totoeoteea": 4692,
      "▁oeoteetotoeoteea": 4693,
      "▁ooalololotnttt": 4694,
      "▁aieaeer0\n": 4695,
      "hnoaieaeo": 4696,
      "▁asaaieeaieee": 4697,
      "▁oeeeaieoohaieee": 4698,
      "▁teaaie": 4699,
      "▁ooaeaaieeeeto": 4700,
      "otefattsee": 4701,
      "▁eaaetniec": 4702,
      "▁erdhottniebtjho": 4703,
      "▁etototn": 4704,
      "▁aieeaet": 4705,
      "▁eatoaieeeea": 4706,
      "▁etasaaero": 4707,
      "▁lloooototoeaeeeaeeeduto": 4708,
      "▁tmotsao": 4709,
      "▁oeeeaietaoeeeae": 4710,
      "▁eaaeetn": 4711,
      "asoteea": 4712,
      "▁tnstaiaae": 4713,
      "▁oodoietaieiaec": 4714,
      "▁oteetaemvo": 4715,
      "▁oode": 4716,
      "iaeaieela": 4717,
      "▁oellttaoeeeae": 4718,
      "▁taeaieeaeoero\n": 4719,
      "▁taafataoeeeae": 4720,
      "▁erdhtahn": 4721,
      "▁eaaaehtecaieaeaiaae": 4722,
      "▁tseeaieeetstt": 4723,
      "▁eaaoodeaseeao": 4724,
      "▁tofatc": 4725,
      "▁odthtngte": 4726,
      "▁ieeaaseetsee": 4727,
      "▁eaathneeea": 4728,
      "aseeetieb": 4729,
      "▁eaathneeeaown": 4730,
      "▁oohtotaseeetieb": 4731,
      "▁pthre": 4732,
      "▁eaeeatouto": 4733,
      "eaeaiaaeaieeeto": 4734,
      "heaaeedtetn": 4735,
      "▁teaeaieown\n": 4736,
      "▁eatoaieeemtc": 4737,
      "▁egggeadetaieeeto": 4738,
      "▁erdafataoeeeae": 4739,
      "▁erdaaoteoteeetn": 4740,
      "otasee": 4741,
      "▁patneerto\n": 4742,
      "ieemtoown": 4743,
      "▁teevoohgte": 4744,
      "eatoar": 4745,
      "▁tseeoohtoeae": 4746,
      "▁teoteoieemosa\n": 4747,
      "▁eatoaieeaieagte\n": 4748,
      "hthoela": 4749,
      "▁taaieeaiee": 4750,
      "▁ieetaiepa\n": 4751,
      "▁tseeoteetnrodto": 4752,
      "ttaieeesoooo": 4753,
      "etaieeoesttetn": 4754,
      "▁eaiaaetaieeoesttetn": 4755,
      "▁eeaesttetn": 4756,
      "▁eeaeeta": 4757,
      "▁taoet": 4758,
      "▁erdoohto": 4759,
      "▁eahnsodsod": 4760,
      "▁erdoohtov": 4761,
      "jeatn": 4762,
      "▁eaaetcohasa\n": 4763,
      "▁teaeaie\n": 4764,
      "▁eatotaieeasa": 4765,
      "▁ietaieoeoteeaasee": 4766,
      "oeaieaieaieaseaa": 4767,
      "▁teoteotoeaieaieaieaseaa": 4768,
      "▁teoteotoeaieaieaieaseaaetaieeeto": 4769,
      "▁tev": 4770,
      "tothtn": 4771,
      "ohaieaieeeaaetmtn": 4772,
      "▁oohoeoteaseeexeceee": 4773,
      "utotaieeesoooo": 4774,
      "▁terd": 4775,
      "▁terdutotaieeesoooo": 4776,
      "▁tktetototn": 4777,
      "▁eaeeasoooohnoaieaeo": 4778,
      "▁eeeatoeeta": 4779,
      "▁eatooeotohoest\n": 4780,
      "llolloeae": 4781,
      "▁oodellolloeae": 4782,
      "▁oodieeohhn": 4783,
      "▁oohhre\n": 4784,
      "aiee0": 4785,
      "▁aieer": 4786,
      "▁terdutotaieeesoooo0": 4787,
      "▁eer": 4788,
      "emtaoeeeae": 4789,
      "▁aeademtaoeeeae": 4790,
      "eiefeatn": 4791,
      "▁tootieer\n": 4792,
      "▁tseetseetaieeesoooo": 4793,
      "▁aeaieeeatn": 4794,
      "▁etaietaoeeeaeoooo": 4795,
      "▁tolo": 4796,
      "eaeaieoteaie": 4797,
      "▁eaieaohaieaieeeaaetmtn": 4798,
      "▁eadaieeeaetn": 4799,
      "▁tseetaieerhtn": 4800,
      "▁tvaiee0": 4801,
      "▁oodotefattsee": 4802,
      "▁taeieetc\n": 4803,
      "tmon": 4804,
      "▁aietstt": 4805,
      "▁oodeaeheaeeaieero": 4806,
      "▁aehtecaieaeasee": 4807,
      "▁ottotoetasa": 4808,
      "▁paotetktttneae": 4809,
      "▁aieietn1": 4810,
      "▁oodeaaaieeetn": 4811,
      "▁eadtaiee": 4812,
      "▁oohtn": 4813,
      "▁iemeu\n": 4814,
      "▁tootktttso": 4815,
      "▁ttaafaeeeaetetn\n": 4816,
      "aseear": 4817,
      "▁aotaseear": 4818,
      "▁aieaeoeaieaieae": 4819,
      "▁eaaaiaaellooootaoeeeae": 4820,
      "▁teatotoetasa": 4821,
      "▁eaaiaec": 4822,
      "taie": 4823,
      "▁aitoe": 4824,
      "▁aedtcaieaeeaaeto": 4825,
      "▁oeeeaieseaie\n": 4826,
      "oteeaeteatoebuto": 4827,
      "▁oohaiee": 4828,
      "▁tseeieemtoown": 4829,
      "▁aieaeemtc": 4830,
      "▁etasee\n": 4831,
      "▁erdeaeero\n": 4832,
      "▁totniaec": 4833,
      "▁aieeetoaieeetogte": 4834,
      "eaieeetof": 4835,
      "eoteaie": 4836,
      "▁ottoottoohaieaie\n": 4837,
      "▁eadoeaieaieeeaaetmtn\n": 4838,
      "▁tooieemoea": 4839,
      "▁eaaieeeetoetaieeeto": 4840,
      "easaoooo": 4841,
      "eiee": 4842,
      "htaeiee": 4843,
      "▁ottotaiee": 4844,
      "etaief": 4845,
      "▁toeeaotdtnaietc": 4846,
      "▁oodieteasaoooo": 4847,
      "eaaote": 4848,
      "▁taoeeeaeaie\n": 4849,
      "▁tvtaieeeeae": 4850,
      "▁taeeexaieeetneea\n": 4851,
      "▁aieeetoeaetaiee": 4852,
      "▁teadt": 4853,
      "▁aieaiet": 4854,
      "▁aieaietv": 4855,
      "rhtnaiee": 4856,
      "▁aieaeadrhtnaiee": 4857,
      "eeatn0": 4858,
      "▁eaaoeoteertottea": 4859,
      "▁erdeaaeto": 4860,
      "▁oettotoeae\n": 4861,
      "▁tneaie\n": 4862,
      "teatoetaieeeto": 4863,
      "▁tcteatoetaieeeto": 4864,
      "tootgte": 4865,
      "toeasatn": 4866,
      "▁easatoeasatn": 4867,
      "▁aiiasaieown\n": 4868,
      "▁oodaieaeaieeeto": 4869,
      "▁etaieoteaaote": 4870,
      "▁loaseetctcouoo\n": 4871,
      "▁oodeiefeatn": 4872,
      "▁aieseetpa": 4873,
      "▁eadaeae\n": 4874,
      "▁erdtteaoeeeaie": 4875,
      "thoaiaae": 4876,
      "▁ooaeaeaaaieeeto": 4877,
      "oetn": 4878,
      "▁oeteaeaieotdero": 4879,
      "▁eae2\n": 4880,
      "▁erdaotohaieaieae": 4881,
      "▁aseaie\n": 4882,
      "▁teatoeaieeaeoouoo": 4883,
      "▁eatotnoieetaie\n": 4884,
      "▁toeeaotdtn": 4885,
      "▁eatoeeeaef": 4886,
      "etneaieaietoto": 4887,
      "▁eatoooheerto": 4888,
      "▁aeeeaeeeeaieeea": 4889,
      "▁tooieemoeaeeadeaeetc": 4890,
      "eaaar": 4891,
      "▁aseaaar": 4892,
      "▁llooootootgte": 4893,
      "▁oohaieegte": 4894,
      "▁aieeeiemeu": 4895,
      "▁ttallothn\n": 4896,
      "▁etn1\n": 4897,
      "eetno": 4898,
      "▁tooieemoot": 4899,
      "teatoteatnaeae": 4900,
      "▁hottniebtjho\n": 4901,
      "▁asaa": 4902,
      "▁taeaet": 4903,
      "▁thaietco": 4904,
      "eaeaieeea": 4905,
      "▁aiaaeaeaieeea": 4906,
      "▁thaieaeoooooeaierto": 4907,
      "▁eaaoodaieaieaieeatn": 4908,
      "▁afaeahn": 4909,
      "▁eaatnoieetaie": 4910,
      "dtvtaieaeo": 4911,
      "▁ooaieemtn": 4912,
      "▁eaaieeaaseeeaioteato\n": 4913,
      "▁emetaieeeto": 4914,
      "▁tseeeahn": 4915,
      "▁oodotoaoa\n": 4916,
      "▁taeaaetaseea\n": 4917,
      "▁erdetnaieec": 4918,
      "▁tnoh\n": 4919,
      "▁tteao": 4920,
      "oteatoown": 4921,
      "▁ooaeaieaie": 4922,
      "▁tooieemooteeta": 4923,
      "otaieeesoooo": 4924,
      "▁oodoeaiehre": 4925,
      "▁taaietaie": 4926,
      "ottootto": 4927,
      "▁thaietktttn\n": 4928,
      "▁aiaaetsaieaeo": 4929,
      "▁tjeatn": 4930,
      "▁eerto\n": 4931,
      "taieeoesttetn": 4932,
      "fs": 4933,
      "▁ooaeaa": 4934,
      "▁aieaieeaiee\n": 4935,
      "▁oeoteaieetc": 4936,
      "▁oohtoo": 4937,
      "▁oteeaeetn\n": 4938,
      "▁oeeeaieoshtn": 4939,
      "▁teadteeae": 4940,
      "▁eatoetoeaier": 4941,
      "▁erdoeaierto": 4942,
      "▁teoteoaseaie": 4943,
      "▁llooootaieeoesttetn": 4944,
      "▁ohaoaeaieeeto": 4945,
      "▁aieeaaieeetstt": 4946,
      "▁erdoeaieasaie": 4947,
      "▁oodeaeaieotdttt": 4948,
      "doo": 4949,
      "▁aieethaietc0": 4950,
      "rodoo": 4951,
      "▁oeeeaietnlo": 4952,
      "▁ooatnaietc": 4953,
      "▁ooaaieeeaieeetaoeeeae": 4954,
      "▁teatoteetn": 4955,
      "▁oetodtmostaieae": 4956,
      "▁toloetaieeeto": 4957,
      "▁thtseeastteeaaieaeo": 4958,
      "▁oodoetn": 4959,
      "▁eatoheaaeedtetn": 4960,
      "▁taetaie0": 4961,
      "▁aeaitoooooetneaieaietoto": 4962,
      "▁eaieaftn": 4963,
      "▁gteeae": 4964,
      "▁gteeaexxeae": 4965,
      "▁ieboello": 4966,
      "otellollo": 4967,
      "ohetotn": 4968,
      "▁eet": 4969,
      "aeho": 4970,
      "▁ieteertoer": 4971,
      "▁tteatteaaieeeto\n": 4972,
      "▁erdoeote\n": 4973,
      "▁ethotc\n": 4974,
      "▁thaieaeoooooteatnthoela": 4975,
      "▁eatoeaieee": 4976,
      "▁tseet": 4977,
      "▁erder\n": 4978,
      "▁llooootaieeasa": 4979,
      "▁eatoeatn\n": 4980,
      "▁oodotellollo": 4981,
      "▁ooaeaaeaiee": 4982,
      "▁elr": 4983,
      "▁elrttaieeesoooo": 4984,
      "▁oeaietmtn": 4985,
      "▁tktttmon": 4986,
      "eaieeuto": 4987,
      "toteatngte": 4988,
      "▁teetoteatngte": 4989,
      "▁aieeaieatoar": 4990,
      "tetnaieasaie": 4991,
      "▁tseeeea": 4992,
      "▁afaeteaeeae": 4993,
      "▁afaeteaeeae1": 4994,
      "ooteatn": 4995,
      "▁tnohaieeeto": 4996,
      "▁taeaeoteea": 4997,
      "▁oietasee": 4998,
      "▁oeaieeaeetmtn\n": 4999
    },
    "merges": [
      "e a",
      "e e",
      "a i",
      "o o",
      "e t",
      "▁ t",
      "ea i",
      "o t",
      "ai ee",
      "e ea",
      "▁ ea",
      "t o",
      "▁ o",
      "t n",
      "eai e",
      "ea e",
      "et n",
      "▁ ai",
      "▁t a",
      "eai ee",
      "▁ oo",
      "oo oo",
      "l l",
      "et o",
      "a s",
      "e ot",
      "h n",
      "t a",
      "ai e",
      "e r",
      "t t",
      "t s",
      "▁ et",
      "▁ aiee",
      "a a",
      "t ot",
      "▁ea a",
      "▁t aiee",
      "ee r",
      "w n",
      "o h",
      "▁ i",
      "d t",
      "s t",
      "u to",
      "ea a",
      "ts o",
      "▁ ot",
      "▁t n",
      "l o",
      "▁ a",
      "s a",
      "▁taiee tso",
      "ll oooo",
      "▁oo d",
      "▁t ea",
      "e o",
      "▁ e",
      "▁oo h",
      "▁o ee",
      "▁t eea",
      "ll o",
      "eaiee ea",
      "h o",
      "▁ lloooo",
      "e c",
      "▁ er",
      "a o",
      "s ee",
      "h r",
      "f a",
      "p a",
      "▁ eai",
      "t c",
      "▁t ta",
      "as ee",
      "eea e",
      "t ea",
      "▁o eot",
      "er o",
      "g t",
      "aiee eto",
      "i ee",
      "o wn",
      "ee e",
      "ee ea",
      "▁ai ea",
      "▁teea ea",
      "▁er d",
      "▁ eea",
      "d uto",
      "m tn",
      "ot o",
      "u oo",
      "et c",
      "▁o e",
      "▁o h",
      "ea etn",
      "▁eaa ee",
      "s oooo",
      "t oo",
      "r to",
      "e b",
      "▁ea to",
      "▁ea d",
      "ea tn",
      "▁o et",
      "eer o",
      "ee eae",
      "eai ea",
      "a r",
      "eai eea",
      "gt e",
      "aiee e",
      "hr e",
      "ai aa",
      "▁oee eaie",
      "ai eea",
      "eaie duto",
      "sa c",
      "h tn",
      "▁ pa",
      "o eot",
      "▁t eot",
      "▁ ee",
      "a eae",
      "▁t oo",
      "ea dt",
      "ai eae",
      "▁t see",
      "▁tea to",
      "ea eero",
      "tot o",
      "as a",
      "▁eea d",
      "eai et",
      "eaieduto e",
      "▁ai eaiedutoe",
      "et ot",
      "etn 1",
      "o eeeae",
      "k tt",
      "i i",
      "ii soooo",
      "▁et aeae",
      "▁t h",
      "▁oe st",
      "▁tn 1",
      "et aiee",
      "eaie r",
      "eaiee eto",
      "▁teot eo",
      "i eb",
      "eea ot",
      "llo llo",
      "▁t o",
      "a ot",
      "o uoo",
      "▁i eea",
      "t hn",
      "i ec",
      "et ktt",
      "▁ea e",
      "e f",
      "s tt",
      "▁ eaieeea",
      "ai ea",
      "▁aiee eaetn",
      "l ot",
      "ea to",
      "eai eaie",
      "ta oeeeae",
      "t aiee",
      "▁ etn1",
      "oo h",
      "▁aiee 0",
      "▁tsee 1",
      "▁a e",
      "aot eaiee",
      "etktt tn",
      "eea a",
      "aa e",
      "t ec",
      "eaa e",
      "h tec",
      "e u",
      "▁i et",
      "ot e",
      "▁to eeaot",
      "t f",
      "s eea",
      "a t",
      "g g",
      "t h",
      "et aieeeto",
      "o e",
      "ea sa",
      "ee tn",
      "tn oo",
      "▁oest tnoo",
      "▁ta ee",
      "h ot",
      "▁toeeaot d",
      "▁ai e",
      "tt t",
      "j hn",
      "▁et asee",
      "a e",
      "oeot e",
      "oh a",
      "iee oh",
      "s o",
      "▁a ot",
      "hn aie",
      "▁t ho",
      "▁teato aie",
      "▁ieea asee",
      "▁ai eae",
      "ea see",
      "s uto",
      "▁eaaee etot",
      "▁oo dt",
      "fa et",
      "e m",
      "iee m",
      "oha oooo",
      "eot eea",
      "eer to",
      "toto ieeoh",
      "▁taee totoieeoh",
      "ea d",
      "▁e ohaoooo",
      "▁ lo",
      "ee to",
      "lo eae",
      "▁ea tn",
      "▁ hr",
      "▁taeetotoieeoh hre",
      "▁ m",
      "▁ta t",
      "s aie",
      "▁oh ao",
      "▁tea d",
      "▁ea et",
      "llo rto",
      "▁ot iisoooo",
      "et mtn",
      "ai etc",
      "▁ gte",
      "eai aoteaiee",
      "▁tta eer",
      "▁ as",
      "▁oh eaieeea",
      "aiee etc",
      "▁tn eaiaoteaiee",
      "as e",
      "ot hn",
      "▁er dt",
      "▁ead sac",
      "eaieaie f",
      "eea tn",
      "eee x",
      "▁m oto",
      "▁aot oh",
      "▁aiee eaeero",
      "eai eae",
      "▁ta eeex",
      "▁ st",
      "hot tn",
      "aiee et",
      "i et",
      "▁eai eaieaief",
      "▁ f",
      "a to",
      "▁oee eaiet",
      "▁oeot eaie",
      "ll othn",
      "▁tta llothn",
      "eo wn",
      "so eo",
      "▁ae htec",
      "▁ai i",
      "aie i",
      "▁oeoteaie pa",
      "th oo",
      "h ta",
      "▁ea tot",
      "eer tot",
      "tf e",
      "aa ot",
      "d tn",
      "eea soooo",
      "hta hn",
      "ot eea",
      "▁et suto",
      "etn o",
      "▁eai ea",
      "aieae o",
      "ai et",
      "eaie ote",
      "eaa ee",
      "▁ aaot",
      "▁i ee",
      "eaiee eae",
      "▁o eto",
      "aa fa",
      "tt iisoooo",
      "▁too ttiisoooo",
      "t eeae",
      "▁eaaee d",
      "▁ faet",
      "▁ot ea",
      "▁i em",
      "ieb at",
      "▁ot eea",
      "t j",
      "eaieeea d",
      "▁taiee e",
      "eaieea ee",
      "▁tea tot",
      "▁a fa",
      "tj ho",
      "▁ta o",
      "▁et ao",
      "eaiea eto",
      "▁eaaeeetot tea",
      "i a",
      "aiaa e",
      "▁f aafa",
      "▁tn lo",
      "▁a ee",
      "▁ta aiea",
      "▁ta e",
      "▁ eto",
      "▁ eaie",
      "ts ee",
      "▁oh ato",
      "▁taaiea aiee",
      "▁ood eae",
      "a eaie",
      "▁ta tea",
      "e 1",
      "▁tatea ee",
      "as aa",
      "▁ea eaie",
      "dt htn",
      "eee mtn",
      "▁ hottn",
      "eai etn",
      "▁o eeae",
      "oto a",
      "ao eeeae",
      "▁teoteo iebat",
      "▁tea tn",
      "▁oe stt",
      "▁taeeex aieeeto",
      "tot ot",
      "r htn",
      "ee ta",
      "t v",
      "▁oee eaieea",
      "▁teea e1",
      "▁i eb",
      "eo uoo",
      "totot oto",
      "▁ai eaieeeto",
      "er duto",
      "eot eeea",
      "▁aieaieeeto 0",
      "asa totototo",
      "e loeae",
      "ieb tjho",
      "eadt etn",
      "o ea",
      "▁eto asatotototo",
      "▁ea aiee",
      "d to",
      "ee tc",
      "▁tho aie",
      "▁o hn",
      "▁ta sac",
      "▁o dthtn",
      "eaieeead st",
      "▁ rto",
      "▁o etn",
      "▁aotoh ai",
      "▁e lo",
      "▁erd oeote",
      "gg g",
      "▁ooh etktttn",
      "too oea",
      "ef soeo",
      "ea eaie",
      "▁t t",
      "lot n",
      "lo lotn",
      "lolotn ttt",
      "▁t eaieeeadst",
      "too wn",
      "▁eaaee eto",
      "ee eaie",
      "▁ea etaiee",
      "ot ea",
      "▁ai eai",
      "▁lo lolotnttt",
      "▁ot etaiee",
      "▁ea eeasoooo",
      "▁otetaiee eown",
      "▁o easa",
      "▁hottn iebtjho",
      "eu o",
      "dt c",
      "t etn",
      "ot eato",
      "ea aie",
      "▁tn st",
      "otoa tn",
      "▁ot eaa",
      "▁eatn e",
      "▁eai tfe",
      "eai aa",
      "ot n",
      "d o",
      "ts tt",
      "ero dtn",
      "d ero",
      "▁ai eto",
      "i eer",
      "▁ea eadtetn",
      "▁t seea",
      "h oh",
      "▁ea eaetn",
      "▁ee tn",
      "aieeet stt",
      "thoo ero",
      "▁o eaie",
      "et aiaa",
      "▁iem eu",
      "▁ hre",
      "▁hre 0",
      "▁oodeae lo",
      "▁lloooo t",
      "▁i eeea",
      "▁ gt",
      "▁ea too",
      "aiee c",
      "et oo",
      "ao a",
      "▁faet thooero",
      "ee ouoo",
      "r o",
      "▁tead eaeero",
      "t ho",
      "▁i ec",
      "etaiaa eeouoo",
      "u o",
      "seea r",
      "▁ea eeemtn",
      "▁eohaoooo aieec",
      "eadt c",
      "▁ea o",
      "ead ar",
      "▁a eadtc",
      "▁a tot",
      "dt etn",
      "▁ae dtc",
      "oh eloeae",
      "hoh r",
      "▁ai aae",
      "▁eaeaie oheloeae",
      "▁elo eadar",
      "▁ea as",
      "▁t wn",
      "▁toeeaotd ea",
      "▁ood eaa",
      "▁tn eaie",
      "aie 0",
      "▁et asaa",
      "▁eaas oteea",
      "▁ea aietc",
      "eeaa etn",
      "aiei e",
      "▁ooh eeaaetn",
      "▁ta oeote",
      "▁ohato htahn",
      "▁ieea ase",
      "lo aie",
      "eto uto",
      "eertot tea",
      "l a",
      "x x",
      "xx eae",
      "▁oeot eertottea",
      "▁aieae 1",
      "▁oteea eetn",
      "ieem o",
      "ggg eae",
      "aieea asee",
      "et erduto",
      "▁eae xxeae",
      "▁ai eea",
      "▁et otoatn",
      "oo t",
      "▁oeot d",
      "oeot eaiee",
      "m tc",
      "▁aaot eoteea",
      "llollo etouto",
      "eaiea saie",
      "eea wn",
      "▁th ot",
      "▁eaa ai",
      "aieae oooo",
      "▁tho ao",
      "▁eai eeatn",
      "oe lot",
      "▁as eaie",
      "ae htec",
      "as eea",
      "▁aaoteoteea dero",
      "eaaee d",
      "▁t s",
      "▁tead tstt",
      "ho ar",
      "▁aiea eadt",
      "▁tta etaiaaeeouoo",
      "tf ee",
      "aieea ee",
      "▁ieeaasee eeta",
      "▁ee ta",
      "▁tat eae",
      "▁ta a",
      "▁oeot eaiee",
      "▁ta euo",
      "▁tae i",
      "▁o eaieasaie",
      "▁teato ar",
      "▁oteaa ote",
      "▁t k",
      "tc tc",
      "asee tctc",
      "▁ea sa",
      "▁ eaier",
      "tt hn",
      "▁thot ho",
      "taiee rto",
      "▁oodt efsoeo",
      "▁oet ta",
      "▁aiee e",
      "▁st aie0",
      "eaaeed hn",
      "as aie",
      "t to",
      "eaiee tn",
      "e gggeae",
      "tot eatn",
      "eaae eaieote",
      "▁afa 1",
      "▁otea seear",
      "v o",
      "▁eaet eb",
      "▁aiee teeae",
      "▁aieeteeae 0",
      "▁lo aseetctc",
      "▁ eee",
      "eot ea",
      "eai aae",
      "l tto",
      "▁aiee eaaeedhn",
      "▁eaie ieer",
      "eea easee",
      "▁oheaieeea own",
      "ea s",
      "▁tta aiee",
      "hr dtetn",
      "▁aieaeadt hnaie",
      "lloooo lloooo",
      "▁ttaaiee eero",
      "erodtn o",
      "▁eead erodtno",
      "▁iee eeawn",
      "▁aii oh",
      "llollo f",
      "eeea eee",
      "▁ eeae",
      "▁ eotea",
      "▁ood o",
      "et s",
      "▁oeeeaie own",
      "▁oeotd aeaie",
      "▁aiee o",
      "iet tea",
      "▁tt iettea",
      "▁t m",
      "▁oeot e",
      "▁aiee eto",
      "er to",
      "▁eea etmtn",
      "▁ooheeaaetn aieeeto",
      "▁ta oeeeae",
      "▁eato llolloetouto",
      "▁tea toooea",
      "ai aoteaiee",
      "▁ood ooh",
      "eaieeeae uto",
      "▁aieai eaieeeaeuto",
      "▁eetn 0",
      "eaae hn",
      "▁eead aieeaee",
      "▁as tn",
      "▁eato eatn",
      "o aoa",
      "▁ot oaoa",
      "▁eaa ef",
      "t jhn",
      "s eaie",
      "▁oo a",
      "iee mtn",
      "▁t tso",
      "▁ieeaase eaiee",
      "▁eaet hrdtetn",
      "tot tt",
      "▁aieto e",
      "lloooo taoeeeae",
      "ets aieaeo",
      "▁aiioh ase",
      "▁lloooo egggeae",
      "eai eaaeeaieote",
      "▁aiiohase eaieaaeeaieote",
      "▁e loeae",
      "et etn",
      "▁eead aieeetc",
      "f t",
      "aiaa etsaieaeo",
      "▁ta tc",
      "▁t ee",
      "▁eae 2",
      "eo ero",
      "▁aiaae llooootaoeeeae",
      "▁taoeeeae own",
      "e oo",
      "▁teoteo eaeero",
      "▁ ho",
      "▁ sac",
      "ea eto",
      "▁et aiaa",
      "▁etaiaa eee",
      "aieee 1",
      "ia ec",
      "▁oet eaaehn",
      "▁atot aieee",
      "asaie own",
      "▁et aie",
      "▁ hohr",
      "aiee etn",
      "▁aii asaieown",
      "▁oee eaietn",
      "▁tao eeea",
      "▁pa ot",
      "s aa",
      "▁teea saa",
      "et aieee",
      "▁oeaie rto",
      "▁eai aae",
      "▁eaiaae gte",
      "▁tn 2",
      "ee oooo",
      "a etn",
      "▁too ieem",
      "otea eeoooo",
      "taiee rhtn",
      "a eaiee",
      "▁aiea etn",
      "▁eaaeeetot see",
      "o d",
      "▁tn oh",
      "do ero",
      "eaieea doero",
      "▁a ea",
      "▁ead aieeetstt",
      "e uto",
      "oooo o",
      "▁lloooo taieerhtn",
      "▁eaa eto",
      "st aie",
      "▁tn eeae",
      "▁aaot eoteeea",
      "tt ea",
      "etoo wn",
      "▁oeeeaie oe",
      "▁aaoteoteeea tn",
      "▁paot etktttn",
      "▁ea 1",
      "aiee eae",
      "etot n",
      "▁oodooh eaieaeto",
      "▁et hoar",
      "▁t tea",
      "▁ho aseea",
      "▁aiee eertot",
      "▁hoaseea own",
      "▁aotohai eaieae",
      "et teeae",
      "i eea",
      "ts eea",
      "▁lloooo as",
      "▁ooh eaetn",
      "▁aieeeertot llorto",
      "▁pa ooh",
      "▁too to",
      "ot d",
      "oh asa",
      "t htn",
      "▁tk t",
      "aieea sa",
      "aieea tn",
      "aiet etn",
      "▁th tseea",
      "▁ta eaietn",
      "▁oo at",
      "▁et taieerto",
      "▁ooh gte",
      "▁paooh eetc",
      "▁ooh to",
      "▁ta et",
      "▁oeeeaiet jhn",
      "▁odthtn aieeeto",
      "aiee eeto",
      "▁eae 1",
      "▁ooat eeae",
      "▁t v",
      "▁aie eaiea",
      "▁lloooo aieee",
      "eaier tottt",
      "▁aieeo eaiertottt",
      "oh aieie",
      "▁aie 0",
      "ai tho",
      "p ao",
      "▁t aiei",
      "▁teatot oot",
      "▁eaaee etn",
      "▁ohao aieeetc",
      "taoeeeae hn",
      "▁eaaeeetn eae",
      "▁tta ea",
      "gt etetn",
      "▁ai aa",
      "▁aieeaiea gtetetn",
      "eas eaa",
      "llollo eatn",
      "▁e mtc",
      "▁oeeeaieoe ltto",
      "eeaa eea",
      "to ar",
      "aitho eouoo",
      "eato eatn",
      "▁th aieaeoooo",
      "so d",
      "▁aiee tsee",
      "ft eo",
      "▁eaaeed llollo",
      "ta ae",
      "m taae",
      "▁eaaeedllollo mtaae",
      "▁et aieeet",
      "▁oet eaa",
      "▁t ai",
      "▁eaa eeaaeea",
      "eeaot e",
      "▁ta aieee1",
      "eai oteato",
      "▁eead uo",
      "▁lloooot aithoeouoo",
      "▁teatot eaieeeae",
      "aehtec tv",
      "▁aiee b",
      "▁eato aieee",
      "ta ea",
      "▁aieeb aehtectv",
      "▁t eaieeaee",
      "▁ieeaasee llollof",
      "▁ieeaaseellollof taea",
      "▁st 1",
      "▁ead et",
      "▁tn eeaote",
      "▁aieea ee",
      "▁aieeaee 1",
      "asa ee",
      "iec eaa",
      "▁eadet suto",
      "▁teatotoot asaee",
      "▁ooh tot",
      "▁aieee 2",
      "▁eatoaieee 2",
      "▁ seaie",
      "▁oestt e",
      "▁ood loaie",
      "oeoteaiee uto",
      "sa hn",
      "etn iec",
      "▁a eea",
      "▁eaaai etn",
      "▁ta see",
      "▁tasee et",
      "tea tn",
      "hn eerto",
      "▁ot eato",
      "a tot",
      "▁ea aieeaasee",
      "▁lloooo eaeaie",
      "▁eaaieeaasee eaioteato",
      "▁erdoeote gte",
      "▁iec ieceaa",
      "▁oodeaa etniec",
      "oteea eterduto",
      "▁iecieceaa etoown",
      "▁iet ao",
      "eaiaa eaieeeto",
      "▁eaetaiee pa",
      "▁oeot as",
      "oo uoo",
      "▁eatot hnaie",
      "▁ta eaa",
      "as eaa",
      "▁ta aieeatn",
      "▁teea aa",
      "fteo aiaae",
      "iet aseaa",
      "ea tsee",
      "▁ot too",
      "h hn",
      "eai tfee",
      "▁teot eoo",
      "dto aiaaetsaieaeo",
      "▁iet tc",
      "a ec",
      "▁eaa et",
      "▁easa toto",
      "▁toeeaotdea aieeeeto",
      "▁ietao dtoaiaaetsaieaeo",
      "▁ rhtn",
      "ro dto",
      "▁ot eatn",
      "▁oetta ero",
      "ai eaie",
      "▁oeeeaieea a",
      "thoo hneerto",
      "oelot c",
      "▁lloooo oelotc",
      "eadt vo",
      "toto aetn",
      "▁taiee llolloeatn",
      "▁ea eae",
      "▁ea eoteea",
      "eoteeea own",
      "tn eaie",
      "▁ea eoteeeaown",
      "ta o",
      "aeaiee la",
      "▁eaiea eaier",
      "tao eeea",
      "ea tt",
      "▁taa thn",
      "t eer",
      "▁pa eaier",
      "▁ai etn1",
      "▁i aec",
      "▁tea eaie",
      "▁ai tfe",
      "eaiea s",
      "tot eato",
      "▁tai toteato",
      "▁t eeto",
      "l h",
      "▁oeeeaie eaieaie",
      "▁eaeaetn iec",
      "eai eaieae",
      "▁t eer",
      "eai eaiet",
      "▁oeeeaie oteeaeterduto",
      "tthn st",
      "ae oooo",
      "▁ai ot",
      "▁otea toooea",
      "▁ta ea",
      "▁lloooo tso",
      "eaieaiet oto",
      "▁t llorto",
      "▁eatoo etotn",
      "▁ieeea eaiee",
      "tc 0",
      "▁ee tc0",
      "iee t",
      "▁o uoo",
      "▁erd aiee",
      "▁teatn gte",
      "tt ooh",
      "e la",
      "▁taitoteato etn",
      "ee erto",
      "eai oteaeeoooo",
      "▁gt eaie",
      "▁eeta ar",
      "e x",
      "ia eaieeeto",
      "▁aieaieeeto0 \n",
      "easee ex",
      "easeeex ec",
      "▁hohr tthnst",
      "▁ eaieduto",
      "aiee ee",
      "▁too t",
      "▁ai eaae",
      "lloooolloooo ieb",
      "▁ etno",
      "▁ottoo ttooh",
      "▁ot etaieee",
      "▁lloooot wn",
      "▁eato eaa",
      "pao eot",
      "▁oet otn",
      "▁teatn aiee",
      "▁oeto etteeae",
      "▁ta tn",
      "t ee",
      "aiea sa",
      "o eeae",
      "▁ot ee",
      "▁oodo eeeaie",
      "▁iem tetn",
      "▁iemtetn 0",
      "ai to",
      "aieeasa do",
      "a c",
      "▁oodoeeeaie lloooollooooieb",
      "▁teeaaa aeoooo",
      "▁aotoh aieasa",
      "eaieeadoero e",
      "▁ai eaieeadoeroe",
      "▁ee etn",
      "▁erdaiee eaetn",
      "▁oohto eae",
      "ea etaiee",
      "o et",
      "▁ohao eae",
      "toteatn aieae",
      "▁etno 0",
      "d ar",
      "easa ee",
      "eaieeea duto",
      "▁toeeaotdea eaieeeaduto",
      "▁eaieeea own",
      "oelot ac",
      "o eai",
      "eae d",
      "▁oee eaiee",
      "▁aehtec etktt",
      "eaed oooo",
      "▁aieaetn ta",
      "▁aieaetnta 0",
      "▁aehtecetktt toar",
      "f iaeaieeeto",
      "▁taoeeea eeatn",
      "tea toteatn",
      "▁ood et",
      "eaa eee",
      "ee lo",
      "▁tta totoaetn",
      "▁aiot eaedoooo",
      "▁erdt c",
      "▁ai eaieaie",
      "▁aeea o",
      "eea d",
      "▁t aieeaasee",
      "▁aiea ead",
      "▁aieai eaieeea",
      "▁oeteaa eaieaeto",
      "▁th oo",
      "▁et teatoteatn",
      "▁ai etn",
      "eea sa",
      "▁oeto d",
      "▁aiee eaieeaee",
      "▁eaaiee eatsee",
      "▁th iaec",
      "▁oteea eterduto",
      "▁ooh fiaeaieeeto",
      "etn ooooo",
      "▁ttea own",
      "▁ta eaieea",
      "eea eoteea",
      "m toown",
      "▁aotohai eaioteaeeoooo",
      "▁tee v",
      "▁teato aieeeae",
      "s c",
      "▁teeasaa r",
      "▁ta saie",
      "▁oeoteaiee ouoo",
      "eaa taoeeeaehn",
      "▁ ll",
      "eaa eaiee",
      "to ieemo",
      "ho uoo",
      "▁ll toieemo",
      "t eea",
      "▁ttso eot",
      "houoo thn",
      "▁eai tfee",
      "t aieaeo",
      "▁ot aiaoteaiee",
      "▁ood eaier",
      "▁tkt eaataoeeeaehn",
      "▁oeot easeeexec",
      "▁lloooo taoeeeae",
      "▁iee t",
      "▁oeeeaie lloooolloooo",
      "▁eetaar eae",
      "▁eaa eaieea",
      "seea o",
      "eea eaieeeto",
      "ai eai",
      "▁erdtc aiee",
      "▁taeaieea eoero",
      "ts to",
      "▁etaieeet a",
      "▁ooh aieie",
      "o st",
      "▁lloooo o",
      "▁taiei eeasa",
      "▁otetaieeeown ero",
      "▁teoteoo ohaieie",
      "▁tooto hhn",
      "▁faetthooero etno",
      "ho etaieeeto",
      "thn tv",
      "▁aehtec thntv",
      "ot eaetn",
      "▁ts iec",
      "eaieas oteaetn",
      "eaieasoteaetn o",
      "▁eaa ts",
      "▁thoo etnooooo",
      "▁aehtec eaieasoteaetno",
      "eaieetn o",
      "lot aoeeeae",
      "eaiea ee",
      "thn aie",
      "▁oeeeaietn aietc",
      "▁etteatoteatn aeae",
      "▁ood oelotac",
      "s htn",
      "v tot",
      "▁oeaierto etc",
      "▁gte loaie",
      "tt m",
      "ta ee",
      "▁oeaiertoetc o",
      "tn 0",
      "etoo etaieeeto",
      "▁oteato etooetaieeeto",
      "l r",
      "▁aioteaedoooo aeaie",
      "ea eeemtn",
      "eeaa easaee",
      "▁eetn 1",
      "▁ai aiee",
      "▁eai eea",
      "to aie",
      "▁pa tn",
      "lo asee",
      "▁lloooo iec",
      "▁oet eatoeatn",
      "er tot",
      "▁ooa eeaeasee",
      "▁ohao aieea",
      "lr t",
      "▁oet i",
      "▁llooooo ietaseaa",
      "▁eaieeea fa",
      "▁eaieeeafa tjhn",
      "ieemo sa",
      "▁eeta ttt",
      "▁tv taieaeo",
      "et a",
      "sa fa",
      "▁taei tthn",
      "▁eaaiee ee",
      "▁taieee safa",
      "▁oohtot v",
      "▁tm ost",
      "▁aieeeto ar",
      "▁eai aa",
      "ai etktttn",
      "▁ea aie",
      "eaae mtn",
      "eaiee e",
      "od i",
      "▁iec 1",
      "▁et asa",
      "▁tn1 \n",
      "ea seeao",
      "▁oodeae 0",
      "oto aoa",
      "▁iet eaaemtn",
      "ot eaiee",
      "▁eaieea eoero",
      "▁oetta taoeeeae",
      "▁oettataoeeeae ouoo",
      "ttm n",
      "▁eato ero",
      "tc lo",
      "▁eaa aieeasado",
      "a faet",
      "ta e",
      "▁iet saie",
      "▁t taiee",
      "▁eaa oo",
      "too eer",
      "▁ttaea tooeer",
      "aot asee",
      "▁ood otoaoa",
      "▁eaeoteea sahn",
      "p t",
      "eaiet aoeeeae",
      "▁eaieaeaier thtn",
      "▁oteatoooea \n",
      "et aie",
      "etc 1",
      "▁too hoetaieeeto",
      "▁erd eaeero",
      "▁et aieea",
      "eaieea tn",
      "ot eeea",
      "▁e m",
      "st oouoo",
      "▁oeeeaie stoouoo",
      "▁eatot n",
      "aieeetn eea",
      "▁ieb eaeeemtn",
      "hr eown",
      "▁oestte hreown",
      "e st",
      "▁eaieeeafatjhn teer",
      "▁aiee etc1",
      "lh erodtn",
      "▁taeeex aieeetneea",
      "▁ieeea eaieaee",
      "ta r",
      "▁ooh hre",
      "▁tooieem ot",
      "m euo",
      "etn 0",
      "ead uo",
      "ot eo",
      "oteo ef",
      "▁erdt h",
      "et eetn",
      "▁teoteo ieemosa",
      "ro etmtn",
      "▁teeasaa roetmtn",
      "▁aie s",
      "tar 0",
      "▁aies tar0",
      "▁oeeeaielloooolloooo tetn",
      "t pa",
      "▁t otn",
      "▁oeeeaie iec",
      "▁llooooas oteoef",
      "▁eaa ta",
      "▁oestt eteetn",
      "▁eaa eaetaiee",
      "▁aehteceaieasoteaetno \n",
      "▁aot etc",
      "th aieaeoooo",
      "aiaa eeaeoteea",
      "▁aiaa eea",
      "▁teeaea \n",
      "▁a eeeaeee",
      "▁ot to",
      "see tpa",
      "oh o",
      "▁ eaieetn",
      "▁oodt eaaie",
      "▁aieae st",
      "ea hn",
      "t mtn",
      "▁ea dt",
      "▁oeoteaseeexec eee",
      "eaiea fteoaiaae",
      "eaiaa eeerto",
      "▁taiee t",
      "▁erd aehtec",
      "▁teatn hre",
      "▁llooooas to",
      "ao eeea",
      "aiet see",
      "▁ eerto",
      "ee t",
      "▁erdaehtec etktttn",
      "stt eea",
      "eea 1",
      "▁oteaa oteaiee",
      "too t",
      "▁taet asa",
      "▁aieae 0",
      "etc ohasa",
      "eaiet aoeeea",
      "▁eaaai eaietaoeeea",
      "ai aieee",
      "▁ai aieea",
      "▁aiaieea aiaieee",
      "▁thtseea stteea",
      "▁ea hn",
      "▁eaa thaieaeoooo",
      "▁t thn",
      "▁eaaeed hn",
      "▁ood ts",
      "eaiee thn",
      "sod sod",
      "▁t hnaie",
      "▁ood htahn",
      "▁ood eeaeasee",
      "▁teaeaie own",
      "d c",
      "▁tneaie sa",
      "e i",
      "▁eaa etcohasa",
      "▁tat eea1",
      "eaie otd",
      "▁tao eeeaie",
      "▁aeadtc ee",
      "▁eaathaieaeoooo teatn",
      "ts ts",
      "to wn",
      "hot c",
      "▁ood i",
      "o u",
      "m o",
      "eaiee etc",
      "▁eea eaduo",
      "▁eato eaiaaeeerto",
      "n aie",
      "▁pa thoohneerto",
      "to eatn",
      "tae iee",
      "▁oodi etn0",
      "▁etaie 1",
      "dt jhn",
      "ai eaietaoeeeae",
      "▁erdt oo",
      "at etn",
      "ieem to",
      "▁taathn erto",
      "▁aiee eatn",
      "▁aiaae eaiet",
      "▁aiaaeeaiet mtoown",
      "▁eaiea f",
      "▁ts eaeaie",
      "▁o eaieeaee",
      "▁oeaieeaee tmtn",
      "▁er o",
      "et m",
      "▁oestt etn",
      "eae 1",
      "▁ etn",
      "ttmn taee",
      "▁ieb lo",
      "eaiaae hn",
      "eaiee etn",
      "o etmtn",
      "▁teeto aie",
      "aiea r",
      "▁teev oteato",
      "▁ea eto",
      "▁ood ea",
      "em tc",
      "▁eaaeed oeoteaieeuto",
      "▁teato eeaeaieeeto",
      "tsts t",
      "fa as",
      "aiea saie",
      "▁eaie otd",
      "▁tooto houoothn",
      "▁eatn hre",
      "▁eaieotd etaieeeto",
      "▁ieeea eaieae",
      "▁ieeeaeaieae dar",
      "▁ieb ta",
      "ho ela",
      "eaa tneaie",
      "ot eetn",
      "▁oeeeaiet s",
      "▁ee to",
      "▁oeotas toaie",
      "▁oeeeaietn easeaa",
      "▁m atetn",
      "▁ai eaieetno",
      "eeea aie",
      "s tstst",
      "ttt mtn",
      "tot etn",
      "▁ohao eaieaieae",
      "▁gte sac",
      "▁e lrt",
      "o ero",
      "▁et aiee",
      "▁oodts hn",
      "et ea",
      "▁erd toteatnaieae",
      "▁eea easee",
      "eaeto eae",
      "▁pa eaetoeae",
      "▁eea tn0",
      "▁eatoeaa aieaietaoeeeae",
      "▁ea oh",
      "▁eaieeea eaieeadoero",
      "▁aieaieetno aieaie",
      "et asa",
      "eaiee eaa",
      "e llollof",
      "llollo ellollof",
      "▁oeot ee",
      "▁eaa aiee",
      "oeoteaiee tc",
      "▁lloooo ea",
      "▁faet eae",
      "▁tae iee",
      "▁oe loasee",
      "▁eae lo",
      "eaiet ato",
      "eaietato e",
      "▁aiea eaietatoe",
      "i e",
      "▁oodt hnaie",
      "etn aieasaie",
      "eaieotd euto",
      "▁aehtec eaieotdeuto",
      "et aoeeeae",
      "▁erdt eaaie",
      "▁aea eatt",
      "▁too ieet",
      "▁tooieet aiear",
      "eaieeeaa etmtn",
      "▁eaa e",
      "▁teot eot",
      "aieeeto ar",
      "toto eae",
      "▁eato ieemtn",
      "et too",
      "ettoo eeeaie",
      "▁ieblo aieaeo",
      "▁erd er",
      "▁aieeeaetn etaieeeto",
      "▁oet totoeae",
      "▁oeeeaiets eaeaie",
      "f soeo",
      "▁tta oeeae",
      "oe st",
      "▁tooieem oo",
      "eaieea oero",
      "▁iee mo",
      "▁pa thn",
      "▁ohato st",
      "▁ieemo sa",
      "▁taet hoar",
      "▁erd a",
      "▁ooh ou",
      "▁tooieemoo ohaieie",
      "▁oee eai",
      "faas lotaoeeeae",
      "▁t efsoeo",
      "▁eato eeaaeasaee",
      "▁tea etc",
      "aieee 0",
      "▁ea ststst",
      "tsto eoteea",
      "▁oeotee tstoeoteea",
      "▁oeoteetstoeoteea 0",
      "t eaieethn",
      "eae wn",
      "▁ hn",
      "▁oeto faaslotaoeeeae",
      "▁ta eaeto",
      "oh toeatn",
      "▁aieeeatn 2",
      "etno eeeaie",
      "▁eaaet otoatn",
      "etea easee",
      "▁tnoh o",
      "▁tooieemot easa",
      "▁ooh eetc",
      "▁eaaeed aieeeae",
      "eaiet mtn",
      "aa ee",
      "e gte",
      "egte uto",
      "▁ai oteaeeoooo",
      "▁erd ooh",
      "afaet asaa",
      "▁toeeaotd lherodtn",
      "▁eaoh llorto",
      "▁et egteuto",
      "▁oodet taieerto",
      "▁faeteae oetmtn",
      "eaie rto",
      "taiee tea",
      "▁eaa tn",
      "▁ooh tc",
      "▁ottoottooh aieaie",
      "ea r",
      "eaiea ear",
      "▁eaata tc",
      "▁pa aieeetstt",
      "▁eatn aieee0",
      "▁eai eaieaear",
      "▁ead eaatneaie",
      "▁easa ee",
      "ea eeasoooo",
      "▁taee dtjhn",
      "▁o d",
      "▁taei taieetea",
      "d st",
      "et v",
      "otoa fa",
      "▁oet t",
      "▁tt ai",
      "ea eae",
      "▁pa eteaeasee",
      "▁oohou otoafa",
      "▁tsee sahn",
      "eerto aieeetc",
      "▁oeot eertoaieeetc",
      "▁aiee ea",
      "▁toot ieer",
      "▁et hotc",
      "▁tn 3",
      "▁oeot ohasa",
      "▁lltoieemo pa",
      "er t",
      "▁ead etaieeeto",
      "eeea tn",
      "▁oodeaa eaieeetn",
      "oeai eaieeeaaetmtn",
      "▁eaeaetn staie",
      "ot eatn",
      "▁oeeeaieeaa taoeeeaehn",
      "▁et hn",
      "hottn eaieote",
      "eero dtn",
      "▁eaiea fteoaiaae",
      "▁eaaaieaietaoeeea eaieeetc",
      "j aie",
      "▁ttai aeaieela",
      "▁ttaiaeaieela eer",
      "▁ood tttmtn",
      "▁eohaoooo aieae",
      "▁eaieaieaief thtn",
      "▁ieb a",
      "paoeot etteeae",
      "▁eaa paoeotetteeae",
      "▁eead ot",
      "▁ooh thnaie",
      "▁patn eerto",
      "▁oe ll",
      "▁iet eaaie",
      "▁i odi",
      "▁eaae eaieaeto",
      "eaeto eadtvo",
      "eaetoeadtvo eelo",
      "▁eaa eaetoeadtvoeelo",
      "▁tatn st",
      "oeot as",
      "▁ieba 1",
      "▁eeadot eeae",
      "ot eaie",
      "too uoo",
      "▁eae 0",
      "▁llooooea eaiaaeaieeeto",
      "▁etaieeet hn",
      "▁ead eaieduto",
      "eas to",
      "▁t erduto",
      "▁to etasa",
      "▁lloooo thn",
      "▁em vo",
      "▁ooh eerto",
      "▁ooh gt",
      "▁oohgt eeatn",
      "▁oeeeaie 0",
      "▁aietn eaie",
      "▁o iet",
      "▁eaiea toown",
      "ot aiaoteaiee",
      "eeto f",
      "▁et eetof",
      "▁eohaoooo et",
      "tjho eaitfee",
      "▁eteetof tjhoeaitfee",
      "▁toeeaot dt",
      "▁ea eaieeaoero",
      "▁ooh eaieee",
      "ieet aie",
      "oo u",
      "eaie eaiee",
      "▁taathn ttt",
      "▁ asa",
      "▁pa eaieeatn",
      "easa toto",
      "▁gte hre",
      "eae fa",
      "▁iet eaefa",
      "▁eeto aieeetc",
      "▁aiaaeea aieeee",
      "et oto",
      "▁tn o",
      "▁tv 0",
      "▁taeiee tc",
      "▁eaieeea tn",
      "▁ttso eoo",
      "ee tea",
      "tt uto",
      "eetea ttuto",
      "▁erd eahn",
      "aeaiee l",
      "▁paeteaeasee own",
      "t aieee",
      "▁et a",
      "▁lloooo tneaie",
      "st 0",
      "▁erd oet",
      "▁oeeeaieeaa etaie",
      "▁ieet aie",
      "▁oeeeaiet eea",
      "eeaa ee",
      "▁eaaiee eeto",
      "▁aea eeteattuto",
      "▁ieeaase eaie",
      "▁aieee 0",
      "▁tatn easeaa",
      "▁oet rto",
      "▁ seetpa",
      "▁eaitfee iec",
      "oeotas ttmntaee",
      "▁e fa",
      "▁lloooothn oo",
      "▁et c",
      "ttea aieeeto",
      "▁eaaeaieea st",
      "h aetn",
      "▁ttea tteaaieeeto",
      "▁ot tn",
      "s town",
      "v ooooo",
      "▁ta taiee",
      "▁ttsoeoo etv",
      "dto ea",
      "▁erdt jhn",
      "aaee mtc",
      "▁taieee ooh",
      "too e",
      "tooe stown",
      "▁taieeeooh tooestown",
      "▁eae ia",
      "▁eaeia et",
      "oo dtoea",
      "dt hnaie",
      "▁eta hre",
      "▁aiee dst",
      "▁erd taoeeeae",
      "▁iec 0",
      "et aseea",
      "▁eaaoo dthnaie",
      "▁taeaa etaseea",
      "▁ p",
      "aiaae eaietmtn",
      "▁f soeo",
      "aieea a",
      "▁hottn eaieote",
      "▁ood atot",
      "▁ea aietetn",
      "e sa",
      "▁thaieaeoooo aiee",
      "▁tm esa",
      "▁ead st",
      "▁erdth ettooeeeaie",
      "▁ot tot",
      "▁oetod easto",
      "ktt tn",
      "oh eet",
      "oheet ktttn",
      "ai eaieeeto",
      "et eeae",
      "▁eead aiaaeeaietmtn",
      "▁eaeiaet tjhn",
      "▁eaeiaettjhn eaaeee",
      "eeaa tn",
      "▁ead oeoteaieetc",
      "ef eatn",
      "to eeaot",
      "▁ead otaiaoteaiee",
      "▁aiee staie",
      "▁e c",
      "aiee mtn",
      "▁ood oeotasttmntaee",
      "etn rodto",
      "ai etn",
      "u toouoo",
      "▁oeeeaiee otea",
      "▁oodea aietsee",
      "▁eatn eatoeatn",
      "▁aiee eaa",
      "eea fa",
      "▁ooh eea",
      "▁erda eeeaeee",
      "ieea aie",
      "▁t oteato",
      "▁ ggg",
      "ea seear",
      "▁ooh eloeae",
      "▁tae eaieaie",
      "▁tsee oteetn",
      "▁totn 2",
      "▁oeeeaiet eaaie",
      "o etotn",
      "▁aiee eeto",
      "▁lloooo eae",
      "▁eaa oheetktttn",
      "▁eatoo teea",
      "▁t eetn",
      "▁i etot",
      "▁aieae o",
      "et hn",
      "eo shtn",
      "▁teoteo eadtvo",
      "aiet eetn",
      "▁taeeaieaie iee",
      "▁taeeaieaieiee eto",
      "oh er",
      "▁oe f",
      "▁eatooteea eoshtn",
      "▁oell oodtoea",
      "▁aieeo eaierto",
      "vtot a",
      "vtot vtota",
      "▁taeaa eto",
      "▁ vtotvtota",
      "▁t hn",
      "dtn o",
      "otea fa",
      "▁ai eeae",
      "m etaieeeto",
      "to hn",
      "▁ttaea eead",
      "▁ttaeaeead eer",
      "▁aieeoeaierto 0",
      "etaoeeeae hn",
      "▁ttaiee mtn",
      "tso d",
      "▁et eaie",
      "oh ouoo",
      "▁taoeeea etaoeeeaehn",
      "▁ero dtno",
      "▁teoteoeadtvo eatn",
      "eeaa eto",
      "oeot eea",
      "toot tn",
      "eto eaier",
      "▁eaats aiet",
      "a fa",
      "▁eaatsaiet etnoeeeaie",
      "eetc ero",
      "▁oh eetcero",
      "▁oeot eaieeea",
      "aieeaa eee",
      "▁aie st0",
      "ooh eeeaaie",
      "euto euto",
      "ee mtn",
      "▁oeteaa easa",
      "ot ot",
      "▁eaieeea ooheeeaaie",
      "ai eaiee",
      "▁taiee eeae",
      "▁ooheeaaetn eae",
      "th aietktttn",
      "▁p aieemtn",
      "▁eatoeaa aieeetn",
      "▁oestte sac",
      "▁oeotdaeaie \n",
      "▁lloooo oeoteaieeuto",
      "▁aietn 3",
      "oe stt",
      "▁oohtot naie",
      "ertot jhn",
      "▁to ertotjhn",
      "▁erd oe",
      "▁eato aiee",
      "▁eaieeea oetotn",
      "▁oee eaieeead",
      "▁oeeeaieeead uo",
      "▁eteaie utoouoo",
      "▁ pao",
      "▁pao est",
      "▁eadt etn1",
      "▁eto eaier",
      "em uto",
      "▁ai eaieeaiee",
      "▁aotohai eeae",
      "▁aieeea 0",
      "▁eaieaieaief \n",
      "▁eaet tc",
      "▁eaeaetn emuto",
      "thn eeea",
      "▁eaiea totetn",
      "▁elo eadtetn",
      "▁eaieeea aieeaaeee",
      "▁aieto eouoo",
      "eaa eto",
      "▁teetn 0",
      "eeea d",
      "eeead etaiaaeeouoo",
      "▁tm eu",
      "tee mtn",
      "▁ead tsod",
      "▁eaeto eadt",
      "▁eaetoeadt vooooo",
      "ai eoteeea",
      "▁ieet aieoteeea",
      "▁ieetaieoteeea 0",
      "▁aiee ts",
      "eaaee teemtn",
      "▁eaieatotetn eaeae",
      "eaiea gte",
      "eaaee dtetn",
      "▁ooh thoohneerto",
      "eaiee etot",
      "paoeot eaiee",
      "▁lltoieemo paoeoteaiee",
      "ot aiee",
      "▁tkt aiaaetsaieaeo",
      "▁eea eaieeeto",
      "aie eaieagte",
      "▁aii aeaieel",
      "▁aiiaeaieel ae",
      "e eaiaae",
      "▁aieets eeaiaae",
      "▁oeeeaie seaie",
      "▁ta thaietktttn",
      "▁oh a",
      "▁tat erduto",
      "▁th aieeeto",
      "▁eatot etnaieasaie",
      "▁aiee tstt",
      "▁aieetstt 1",
      "ho e",
      "▁tta teaieethn",
      "▁aieea 2",
      "ohouoo thn",
      "▁t oto",
      "▁tno ieemto",
      "eae 0",
      "ieeoh asa",
      "aie hoe",
      "▁aiee0 \n",
      "▁ttso eo",
      "▁eaa aieeetn",
      "aieai eaieeea",
      "hr aiehoe",
      "▁eato hraiehoe",
      "▁oeeeaie hottneaieote",
      "eatt aieeeto",
      "d hohr",
      "o ieetaie",
      "▁taiee soooo",
      "▁toeeaotd ieemtn",
      "▁gte fsoeo",
      "▁aieeae dhohr",
      "ts oooo",
      "taeiee tsoooo",
      "▁llooooeaeaie \n",
      "▁ood ohtoeatn",
      "taoeeea eea",
      "▁iebta aieeeto",
      "▁ood taoeeeaeea",
      "▁afa thneeea",
      "▁afathneeea 0",
      "▁eato ea",
      "hot ho",
      "▁eatoaiee eouoo",
      "▁taseeet ero",
      "toeeaot dar",
      "eeea to",
      "eaieeea own",
      "▁ta eaier",
      "aie sa",
      "▁t eta",
      "▁oeaie oh",
      "aiet aie",
      "▁lloooo llolloellollof",
      "dc to",
      "▁faet etno",
      "eaie oher",
      "tee c",
      "▁eeetn rodto",
      "tv o",
      "eaiea f",
      "▁eaet rto",
      "lot eetn",
      "▁eeaetmtn \n",
      "▁ttsoeot jhn",
      "▁tta afa",
      "▁eato aieeaieagte",
      "iee eea",
      "▁teadtstt \n",
      "to eae",
      "▁th aietktttn",
      "eai aeaieela",
      "▁eaaiee eaiaeaieela",
      "▁ood oteeea",
      "eaa efeatn",
      "▁oeeeaie oeaieaieeeaaetmtn",
      "▁eaieaf hn",
      "▁ot eaitfee",
      "ef wn",
      "▁tao eeae",
      "▁ietot aiaoteaiee",
      "▁aea easee",
      "aiea eaiaae",
      "dt aiee",
      "▁efa metaieeeto",
      "▁eaa faet",
      "▁tmost toeeaotdar",
      "▁ooh taeieetsoooo",
      "lot othn",
      "etaiee ohouoothn",
      "▁ai eaaeto",
      "oo wn",
      "▁eaaiee eatn",
      "▁ttaiee eea",
      "▁eohaooooet asaa",
      "▁ead loteetn",
      "▁aiee etot",
      "▁tao eaieoher",
      "▁oet eaieeea",
      "▁tseeoteetn st",
      "iee ouoo",
      "▁eaiaa eeerto",
      "▁aie eaiaaehn",
      "i aaeemtc",
      "▁a eae1",
      "as eaie",
      "▁eohaoooo eelo",
      "ea et",
      "▁oeti eerodtn",
      "to hhn",
      "▁tmost aieae",
      "eaieaf uto",
      "▁aieae own",
      "▁ooh aietaie",
      "ai oteato",
      "aioteato etn",
      "aiaa eer",
      "et eaieafuto",
      "f eteaieafuto",
      "▁ttsoeo eaieafteoaiaae",
      "▁eead afaetasaa",
      "▁oestt etmtn",
      "ei ef",
      "▁ood aotasee",
      "▁oodt aioteatoetn",
      "et pa",
      "eeeato eaaeaiee",
      "▁erdtoo tohhn",
      "▁teoteo eaieeea",
      "▁teoteoeaieeea sc",
      "▁erdooh toeae",
      "▁iodi o",
      "▁ai eaaeeteemtn",
      "▁erdtoo teatn",
      "▁ooh ouoo",
      "▁taea eeae",
      "tt tn",
      "oo et",
      "oeai ooet",
      "▁eaa o",
      "otot etn",
      "x etn",
      "▁ot eetn",
      "th eaaeedtetn",
      "▁etc f",
      "oh taoeeeae",
      "ieea ase",
      "▁oohouoo aiaaeer",
      "▁tee taieee",
      "▁etaie ohtaoeeeae",
      "oeaiooet iaaeemtc",
      "▁oeeeaieea eaiaaeaieeeto",
      "eaa eaieaeto",
      "▁ood aieeetoar",
      "▁tt ie",
      "▁hr dt",
      "t eeto",
      "taiee tclo",
      "oh oest",
      "▁a faet",
      "ieeaase eaiee",
      "▁ieb aieaieaieeea",
      "▁oet ototetn",
      "oha etn",
      "h ohaetn",
      "teeto hohaetn",
      "▁teatot hotho",
      "ee etn",
      "aito eaiaae",
      "ethn o",
      "b ta",
      "aie bta",
      "ta ero",
      "i eto",
      "▁o ieto",
      "▁tnoh ouoo",
      "▁oieto est",
      "▁teoteo ieeaaseeaiee",
      "aieae 1",
      "et stt",
      "▁loaseetctc ouoo",
      "▁eai eaaeaiee",
      "▁erd emtc",
      "▁eaaoo d",
      "▁erd ttea",
      "▁ea eouoo",
      "▁teoteo aiee",
      "▁t aiebta",
      "th aietc",
      "▁tat meuo",
      "▁aeea tohn",
      "▁aeeatohn aieee",
      "ts iec",
      "▁ta eaieetn",
      "▁ta pt",
      "toto e",
      "ieemo pa",
      "oh eaieeea",
      "▁ai eaiee",
      "▁ooh eaieaieae",
      "▁oet aeaie",
      "▁etaieea eeasoooo",
      "tn eaieaietoto",
      "▁eai oeaiooetiaaeemtc",
      "▁ood aitoeaiaae",
      "eead ea",
      "eeadea eetc",
      "▁eaa oeot",
      "ee b",
      "▁aieeetot etn",
      "▁eaeoteea tvo",
      "▁hohr etaieeeto",
      "▁ee etpa",
      "eee htn",
      "▁hr eeehtn",
      "▁eeae llorto",
      "▁oteato eeaeasee",
      "ae iee",
      "▁o shtn",
      "▁ooheea dt",
      "▁et lotaoeeeae",
      "▁ea eea",
      "eai oteatn",
      "▁pathn ela",
      "eeafa aieeeto",
      "▁ooheeadt eeafaaieeeto",
      "lloooo o",
      "llo llooooo",
      "ea eea",
      "eaieeetot aoeeeae",
      "▁eea eaeea",
      "eaieeea uto",
      "▁eae eaieeeauto",
      "▁ta etaieeohouoothn",
      "▁pa taero",
      "aie eaiaaehn",
      "▁ooh ero",
      "▁ta aeaie",
      "▁oett meuo",
      "eai eaieaie",
      "tn oho",
      "▁taeaa eaieeeae",
      "to uto",
      "▁ohao aieee",
      "▁aieae ouoo",
      "▁oohetktttn \n",
      "eaiet a",
      "eaieta toown",
      "▁ea eaieote",
      "▁eaeaieote staie",
      "▁eaa eaaefeatn",
      "eaiet eer",
      "▁ea eaietatoown",
      "▁ieeaasee eaaeee",
      "▁tn eaieteer",
      "▁ttsoeot jaie",
      "▁teoteoaiee eeta",
      "etaieee soooo",
      "ea eeeaeee",
      "▁aieestaie oooo",
      "▁taiee eouoo",
      "▁erd iaec",
      "▁toteato aiaaeeaeoteea",
      "▁ llolloetouto",
      "▁eatot efsoeo",
      "▁oodeaa easatoto",
      "ei eeaatn",
      "▁tat llorto",
      "▁ieetaie pa",
      "▁eaaet feteaieafuto",
      "▁aietn1 \n",
      "▁ta eaiaaeaieeeto",
      "▁ohao ai",
      "▁oo aietn",
      "▁eatoo own",
      "eaiee etstt",
      "▁oet oto",
      "ho n",
      "at hon",
      "et aeiee",
      "taoeeea etaeiee",
      "▁eaa taoeeeaetaeiee",
      "▁ggg own",
      "▁tseaeaie own",
      "otaiee rto",
      "▁aieeetc1 \n",
      "▁taaieeatn eae",
      "eaae dtc",
      "▁ta efwn",
      "tsee eeae",
      "m tseeeeae",
      "▁oe mtseeeeae",
      "ieem ot",
      "▁t eaaedtc",
      "▁eeaeaeea er",
      "▁oeaie hr",
      "▁ead aieee1",
      "ieemot see",
      "▁o ieemotsee",
      "▁ts oe",
      "▁oet ieeaaie",
      "aito etn",
      "tot mtn",
      "▁oee eaieeea",
      "▁oeeeaieeea easee",
      "▁eeetn aiee",
      "llollooooo etaieeeto",
      "▁aiee llolloooooetaieeeto",
      "▁iodio dtaiee",
      "oo m",
      "oom oou",
      "▁oeteatoeatn taieetclo",
      "h eae",
      "heae eaiee",
      "▁etaieea see",
      "▁ta aieteetn",
      "▁ood aietc",
      "▁ai et",
      "aie oeoteea",
      "▁eaafaet eae",
      "▁etaieeasee etno",
      "▁llooooaieee \n",
      "▁iee mtoown",
      "▁eaiea ft",
      "▁eaieaft eaieaieaie",
      "heaeeaiee ro",
      "▁ea aa",
      "▁otee etaieee",
      "▁er t",
      "▁oo ao",
      "aae houoothn",
      "▁oeti aaehouoothn",
      "aiee eatsee",
      "▁erdoet v",
      "▁eaeea dero",
      "t taoeeeae",
      "otn eerto",
      "ee ie",
      "▁oet eaaee",
      "▁et eae1",
      "▁taea aietetn",
      "▁pathn eteeae",
      "▁tooieem otneerto",
      "▁ot eeta",
      "▁toeeaotd eaieeeaown",
      "▁oeteaaee eeeadetaiaaeeouoo",
      "eeie hn",
      "▁tao etmtn",
      "▁oodt oot",
      "▁etaie htahn",
      "easee tetn",
      "▁ohaoai eaaeeaieote",
      "ot eeta",
      "v ea",
      "▁eaeeasoooo tneaieaietoto",
      "▁asa taiee",
      "▁eaaaiee etn1",
      "▁erdoe ll",
      "l tc",
      "▁ot eeea",
      "hoela eatn",
      "▁tat hoelaeatn",
      "▁otea tot",
      "▁oohto etno",
      "▁th aietc",
      "▁oet mtn",
      "▁eaa t",
      "lo 0",
      "▁eatotn lo0",
      "atot n",
      "ea od",
      "eaiaa eaod",
      "eaiaaeaod totmtn",
      "et atotn",
      "▁aiaa etatotn",
      "oe ltc",
      "▁eaieeeatn easeaa",
      "▁lloooo ia",
      "▁taiei eown",
      "etot otn",
      "▁otee et",
      "▁eaeeemtn \n",
      "d pa",
      "▁eaaoeot ohasa",
      "▁ottoottooh eatn",
      "▁eatot otn",
      "▁eatototn tho",
      "llo r",
      "aieai eaieea",
      "aieaieaieea totoe",
      "ot dero",
      "▁eohaoooo aieaieaieeatotoe",
      "as aietetn",
      "etot hn",
      "eeea etetn",
      "▁tat eaieeetstt",
      "▁eaa eaieeetotaoeeeae",
      "▁teoteo eeeatoeaaeaiee",
      "▁tta tjhn",
      "eaeaie otdero",
      "▁eatotn oieetaie",
      "▁tn ta",
      "▁eea dt",
      "▁ot iebat",
      "▁ood aiaaeeaeoteea",
      "▁o ieemopa",
      "▁tee c",
      "e fa",
      "▁etaieeaseeetno eae",
      "▁oeeeaie oeoteaieeuto",
      "i odi",
      "u oto",
      "▁eaeaie oteaie",
      "▁ttaafa eeeaetetn",
      "easa tn",
      "▁et ktt",
      "eaet rto",
      "▁ea eero",
      "▁lloooo ooh",
      "▁aiea eeaaeto",
      "aot asaietetn",
      "ieea gte",
      "▁oet aotasaietetn",
      "▁oeeeaiet ec",
      "▁aedtc asee",
      "▁aehtec aieaeaiaae",
      "▁lloooo eaioteatn",
      "m oto",
      "▁ta aieeetoar",
      "▁st aieeatn",
      "▁oeeae \n",
      "t aieeeto",
      "▁tnoh aie",
      "▁eaeeasoooo oeeae",
      "as l",
      "▁too tho",
      "▁tootho asl",
      "▁ta moto",
      "oeot eaieeaee",
      "▁oodo eeae",
      "eeaaee d",
      "▁teatn pt",
      "▁eaeto eadtvo",
      "▁eaetoeadtvo st",
      "▁ htahn",
      "▁et aie0",
      "▁gte hn",
      "eeaaeed eaaeee",
      "tc aiee",
      "tea to",
      "▁aiee thaietc",
      "▁eaaaiee ea",
      "▁thn 0",
      "▁taea aieeee",
      "▁iet aieoeoteea",
      "ea eeae",
      "eaie uto",
      "▁oteeta r",
      "▁eato aieeetstt",
      "ea ead",
      "▁toto aiesa",
      "eaiee etoown",
      "s oeot",
      "▁aiea eaieeetoown",
      "▁teeto eaieote",
      "▁em st",
      "▁teoteot n",
      "d oown",
      "llolloellollof ttea",
      "▁ llolloellollofttea",
      "▁aieaieaie \n",
      "▁aie xetn",
      "▁oett eaewn",
      "▁elrt taoeeeae",
      "▁o uoto",
      "a et",
      "▁oeeeaie ot",
      "▁lloooo aieae1",
      "▁erdoeotegte \n",
      "eaead ieeohasa",
      "▁taoeeea eaie",
      "▁taiei eaeadieeohasa",
      "▁aieee2 \n",
      "eaieae ot",
      "▁ai eaieaeot",
      "▁aieaieaeot aoeeeae",
      "▁eaaa eeeaeee",
      "▁oeteatoeatn teer",
      "▁iet teec",
      "▁aot asaie",
      "y tetn",
      "afaet ytetn",
      "eaa aieae",
      "tsto f",
      "▁afaet eea",
      "▁teaaedtc tn",
      "▁eaa taiee",
      "▁eaetrto eaetrto",
      "▁erdoell ttaoeeeae",
      "▁eead eaeeasoooo",
      "▁ood eaitfee",
      "▁otee toown",
      "etn otaieerto",
      "▁lloooo st",
      "▁lloooost iaec",
      "▁hrdt llorto",
      "▁eaataiee llolloeatn",
      "▁erd eaaee",
      "ot tn",
      "s iec",
      "teea fa",
      "▁erdth aitoetn",
      "aieae 0",
      "▁aiaaeea etaiee",
      "eaaee eto",
      "eeaaee eto",
      "▁ta oteeta",
      "▁taa etaieeeto",
      "▁oestt eeaaeeeto",
      "▁ood ieeeea",
      "eaie ot",
      "▁aieaiee theaaeedtetn",
      "▁taeetotoieeohhre \n",
      "eea aie",
      "▁ eaieeeae",
      "▁eaieeeae gggeae",
      "▁o ieemtn",
      "dt v",
      "▁eatoea aieeee",
      "▁eaetaiee \n",
      "lot c",
      "▁et ho",
      "▁teoteo easatn",
      "▁eatoo e",
      "▁aieeeaa eea",
      "▁eato eaeaieotdero",
      "▁eaieeeatn easeear",
      "hottn iebtjho",
      "▁erdeaaee eeaaeedeaaeee",
      "▁eaieaaeaiee own",
      "▁t aiaae",
      "eaa eeea",
      "aet hoela",
      "▁teeaaa aethoela",
      "▁oeeeaie oeeae",
      "eaaeeea fa",
      "t m",
      "▁aeaeatt etaieeeto",
      "▁erd ethno",
      "▁eaa llollo",
      "▁eaaet aie",
      "▁oodt aiee",
      "▁ee eaaeeeafa",
      "loasee tetn",
      "▁aieethaietc 1",
      "▁ llo",
      "▁ot eieeaatn",
      "▁ood aieae0",
      "▁eatotn eaieaietoto",
      "▁aieeeaa etnrodto",
      "emtc taiee",
      "▁totn aie",
      "ee eo",
      "asee et",
      "▁eatooe ltto",
      "▁eaaeed pa",
      "ea etothn",
      "▁tn aeae",
      "▁et ai",
      "▁hr d",
      "eaiaa eeaeoteea",
      "▁oeeeai eaiaaeeaeoteea",
      "aiee eaa",
      "oeot eaie",
      "aieeeaa etnrodto",
      "▁tsee tjhn",
      "ta etaiee",
      "▁t c",
      "▁aiea eaieeeto",
      "▁iet eloeae",
      "▁eaats aietetn",
      "oou oto",
      "▁oha oouoto",
      "▁aieeeto ert",
      "▁aiaa eaeeeaeee",
      "lo eaiee",
      "▁elo loeaiee",
      "▁oeotd afaetasaa",
      "i fa",
      "ifa ea",
      "▁eai eatn",
      "▁oodo et",
      "aiea eeiehn",
      "▁ood aieeaiaaehn",
      "▁toeeaotd aotasee",
      "em oomoou",
      "aito emoomoou",
      "▁oeeeaieea eero",
      "▁t aieaeeiehn",
      "ggg aitoemoomoou",
      "dt oo",
      "▁eato ert",
      "ee ertot",
      "▁t ef",
      "▁oet hohr",
      "▁otea too",
      "▁teeto aieaiee",
      "▁aieaae \n",
      "lh e",
      "▁ottoottooh st",
      "▁teea tn",
      "▁ooh eeeaaie",
      "tot naie",
      "▁ohaoaieeetc \n",
      "▁ooh eatn",
      "▁eeadaieeaee \n",
      "eer 0",
      "▁llooooia ee",
      "▁aiea eer0",
      "▁oteeea oteaie",
      "ertot aoeeeae",
      "▁taoeote \n",
      "▁patn eaieaietoto",
      "aieai eaieeatn",
      "▁ood ai",
      "▁oetoto ertotaoeeeae",
      "▁tat hr",
      "eu aiee",
      "▁gt eeaa",
      "tn 1",
      "▁eea tn1",
      "t ooooo",
      "▁eea eo",
      "▁eeaeo 0",
      "▁ieeaasee to",
      "▁st aie",
      "▁eeeaaeeeafa eaieote",
      "etm euaiee",
      "▁gt etmeuaiee",
      "▁ooh eattaieeeto",
      "▁afa eaieot",
      "▁afaeaieot dtv",
      "st oo",
      "▁oodt etn",
      "▁erdoet eaaeaieaeto",
      "▁aiioh asee",
      "▁ero dtoo",
      "▁pa eaieeea",
      "▁otto aieeeaaetnrodto",
      "▁erodtoo tetn",
      "eae lo",
      "aot oh",
      "▁oeeeaie vea",
      "▁gteeaa eeeatn",
      "▁etn taoeeea",
      "▁aieeeto eeaaeasaee",
      "▁t tt",
      "▁ttt etaieeeto",
      "▁tta afaetytetn",
      "stoo eatn",
      "▁pa emtctaiee",
      "▁eeae fsoeo",
      "▁ooh tho",
      "▁oodt jaie",
      "eaelo aiaae",
      "eto pa",
      "ta totoaetn",
      "eeae oooo",
      "▁oet athon",
      "▁ooh eer",
      "▁ eeea",
      "▁thoaie \n",
      "▁aiea et",
      "st tn",
      "sttn rodto",
      "▁ooh toteatnaieae",
      "▁eaa easeetetn",
      "▁hre0 \n",
      "eeertot htn",
      "▁ea eeertothtn",
      "aiee tstt",
      "▁aieaet hnaie",
      "▁eaa tea",
      "▁oe ltto",
      "oestt etn",
      "▁aieaethnaie 0",
      "▁aieeoeaiertottt \n",
      "etno ieemto",
      "▁tathr to",
      "▁eaieeea tv",
      "soeot etn",
      "▁tef soeotetn",
      "▁aieaead eief",
      "▁tat v",
      "▁ood a",
      "▁toeeaotdt aieeasa",
      "▁teatot sttnrodto",
      "▁ooheeaaetnaieeeto \n",
      "▁etktt toown",
      "▁erdt aiee",
      "eeaeoooo aiaae",
      "▁ohato aieeaee",
      "tea etc",
      "▁tneaiaoteaiee \n",
      "▁tta egggeae",
      "oeoteaiee ouoo",
      "▁aie eaietn",
      "▁eaaeeeto f",
      "▁toot ktt",
      "▁ethn \n",
      "eeae oouoo",
      "aieee mtc",
      "▁thaieaeoooo oteeea",
      "▁ta oeoteaieeouoo",
      "et htn",
      "▁eaaaieaietaoeeea ethtn",
      "ea eatt",
      "▁gt eea",
      "▁otee etnoieemto",
      "aseeet ero",
      "▁oeotas ttmntaee",
      "▁ethoar oooo",
      "▁ohato easeeao",
      "▁oeeeaieea eouoo",
      "▁eaatea toar",
      "▁oeasa \n",
      "▁erdt oot",
      "ieea hn",
      "▁eaa aiaae",
      "iec own",
      "eeto iecown",
      "▁oeeeaiet aa",
      "▁eaa eaeloaiaae",
      "▁eaeeasoooo etoeaier",
      "aieee soooo",
      "▁eaiaa eetoiecown",
      "ee thn",
      "▁eohaoooo iee",
      "▁eato eae0",
      "eae ieeouoo",
      "▁er etaieeeto",
      "▁aie eaiee",
      "ea ee",
      "▁taet eae",
      "▁eatoo eot",
      "▁oteetn sc",
      "▁oet hottniebtjho",
      "eeeo etmtn",
      "▁oeot eaieeaee",
      "▁eaaieeeatn eea",
      "▁aieeaiee 0",
      "etot tn",
      "▁erd ohtoeatn",
      "etoto etoto",
      "▁oeeeaiet aseeetero",
      "▁eeta 1",
      "▁ea aietsee",
      "▁tatc aieeeto",
      "to dcto",
      "▁iodi od",
      "▁eaata eaier",
      "▁ead oet",
      "▁oteaitfee etopa",
      "▁teea 1",
      "▁gte seetpa",
      "▁eatot thn",
      "▁erdtoot eethn",
      "et eemtn",
      "▁oeaie hrdtetn",
      "tn aietc",
      "▁oteeet eae",
      "▁oeeeaieoe st",
      "▁eotea \n",
      "▁erd tt",
      "eto aiaae",
      "▁od rhtn",
      "▁aieea sa",
      "tn eerto",
      "▁erd oheaieeea",
      "taee ifaea",
      "etotoetoto fa",
      "▁eaitfee lotothn",
      "p town",
      "▁teatn ptown",
      "aiee tclo",
      "▁oodet eaieuto",
      "▁gt eteeae",
      "▁lloooo tn",
      "i eerodtn",
      "eadt hnaie",
      "aiea eadthnaie",
      "etm teaetc",
      "etmteaetc aieeeto",
      "as oteafa",
      "ieemo ero",
      "aiaae ieemoero",
      "▁eaieeea easatoto",
      "ai atot",
      "aiatot etn",
      "▁ot aiatotetn",
      "▁teoteoo ietaseaa",
      "▁tsee1 \n",
      "▁eaeteb \n",
      "▁etao aiaae",
      "▁aea etotoetotofa",
      "oe ltto",
      "▁eaa eaieafteoaiaae",
      "▁t aiaa",
      "aito e",
      "gg gt",
      "▁t etnaieasaie",
      "gggt aitoe",
      "eaiet m",
      "▁toot aiaaeieemoero",
      "▁eato eeetn",
      "▁ta oteeaeterduto",
      "eaieeea tn",
      "▁e lhe",
      "eaa easaee",
      "▁oeeeaiee eaaeasaee",
      "▁i aeaieela",
      "eai tooooo",
      "▁eead eetc",
      "eai etc",
      "▁oeot eaietm",
      "oeot eaietc",
      "▁oeoteaietm oeoteaietc",
      "▁etsuto aiaae",
      "▁tta t",
      "eaieeead eer",
      "▁ttat eaieeeadeer",
      "▁th ieeouoo",
      "▁erdooh gte",
      "er d",
      "▁eatooeot ohoest",
      "▁eaaieeeatn sodsod",
      "llo etn",
      "▁eaeaie otd",
      "eai eaieaief",
      "▁ieeeaeaieaedar \n",
      "▁taiee eeawn",
      "eta tttn",
      "▁taiaa etatttn",
      "e v",
      "ieem oeltc",
      "▁eea ar",
      "▁etntaoeeea eero",
      "▁lloooo llorto",
      "ts c",
      "▁i etn1",
      "▁tk tsc",
      "▁aieee ieemtn",
      "▁ea eead",
      "▁oiet aietetn",
      "aie eaieee",
      "hot a",
      "hota tttn",
      "ieea asee",
      "eaa etot",
      "eaaetot jhn",
      "▁teea 0",
      "▁tn eer",
      "▁tneer toown",
      "▁t eaewn",
      "▁taeetotoieeoh aieeetc",
      "i ef",
      "▁to eaieaietoto",
      "▁toeeaotd oeoteaieeaee",
      "iet tc",
      "▁oetod etnotaieerto",
      "▁toeaieaietoto ar",
      "▁e ief",
      "▁eohaoooo aieaeadthnaie",
      "ec 0",
      "ea aietetn",
      "▁oeotas eaaietetn",
      "aiea eeaaeto",
      "▁eatoeatn eerto",
      "▁toottiisoooo \n",
      "▁etn eerto",
      "▁t ktt",
      "aiee taieeeto",
      "tee eea",
      "▁oodtoot lloetn",
      "▁ead aeae",
      "▁taieee soooo",
      "▁ai eaiea",
      "▁eaieeea ttea",
      "▁aieaead ieemtn",
      "▁teoteotn eaieaietoto",
      "▁oohtho aieetaieeeto",
      "ead sa",
      "▁ood aieeemtc",
      "t er",
      "▁tea ter",
      "teea eadsa",
      "▁tta teeaeadsa",
      "▁ttaea eaetn",
      "▁ead htahn",
      "▁oeoteaseeexec eeeoetmtn",
      "▁tee teeeea",
      "▁seaie \n",
      "eaiee ouoo",
      "▁erdt ec0",
      "▁eato ieemoeltc",
      "▁ai aieaieeeto",
      "▁aiaieaieeeto e",
      "▁tea toottn",
      "fteo aiaa",
      "et ttt",
      "▁eaa tsee",
      "▁aot etm",
      "aiee ro",
      "▁ sodsod",
      "▁taiee rhtn",
      "▁otaiatotetn asa",
      "▁toeeaotd oeoteaieetc",
      "▁eaieeea thtn",
      "aa r",
      "oh tho",
      "ets c",
      "easeeexec eee",
      "▁oh atot",
      "oteetn rodto",
      "▁ea eee",
      "▁gt eeea",
      "▁toeeaotdeaaieeeeto \n",
      "i eeaatn",
      "▁eaatsee oteetnrodto",
      "ote ieeaatn",
      "▁lloooo eeaeaieeeto",
      "etc 0",
      "▁eaeead er",
      "ot aieeasa",
      "▁eaeeader otaieeasa",
      "▁aieeasa doown",
      "▁ood stooeatn",
      "▁ot etoaiaae",
      "▁teato lo",
      "▁erd aieaieaieeatn",
      "▁as oteafa",
      "▁eai eeaeoouoo",
      "▁ta eatn",
      "as toaie",
      "eato aieee",
      "▁easa toar",
      "▁eadaieeetstt \n",
      "tot h",
      "▁iet eaaetotjhn",
      "▁llooootaieerhtn \n",
      "toth aieeeto",
      "▁eohaoooo taoeeeae",
      "▁eatoeeetn eea",
      "▁eaeaetn aotasee",
      "▁eaaaieeetn asa",
      "hot saie",
      "▁thot hotsaie",
      "fteoaiaa eaieeetc",
      "eaaie own",
      "▁oeotas eaaieown",
      "d aieero",
      "▁ieeea daieero",
      "▁eaaaiaae ohtho",
      "▁tseea \n",
      "▁ood oh",
      "▁eaao dthtn",
      "▁eaaeed hotatttn",
      "▁e uto",
      "▁oteatot hoela",
      "▁eato eerto",
      "▁eatoeerto ieerodtn",
      "▁oteatothoela pa",
      "▁oeto etttt",
      "aieea tottt",
      "▁teatot aieeatottt",
      "▁erdoe loaseetetn",
      "▁oeltto ar",
      "▁etaie oet",
      "▁ieeaaseeto aietc",
      "taieee soooo",
      "▁teoteot a",
      "▁lloooo thnaie",
      "▁aie0 \n",
      "▁oeto dt",
      "▁oeeeaiee ro",
      "▁tateaee \n",
      "▁e ieeagte",
      "▁ooh eaa",
      "▁erd eaaaieae",
      "▁ paoeot",
      "▁tk tot",
      "▁oet ea",
      "▁oetea aieeeatsee",
      "▁tk to",
      "▁toteato aieae",
      "▁otetaieeeown \n",
      "▁oestte haetn",
      "eaieeea ttea",
      "▁teoteota ero",
      "▁aiet wn",
      "▁t thoo",
      "▁tthoo wn",
      "▁oodt v",
      "▁eaa eeeatn",
      "hoh oho",
      "oo d",
      "r oo",
      "roo o",
      "▁oodtv eatn",
      "▁tatv easa",
      "▁aieebaehtectv \n",
      "ee eaieetno",
      "o eto",
      "▁taa fa",
      "▁tsee gggtaitoe",
      "▁gteeea tn0",
      "▁toothoasl oho",
      "▁toothoasloho c",
      "▁eeto eetn",
      "od taoeeeae",
      "oo e",
      "▁hrd oeltto",
      "▁ottot siec",
      "▁eae1 \n",
      "▁easa oooo",
      "e lrt",
      "▁ooheaa aieeetc",
      "iodi odtaoeeeae",
      "▁etn ea",
      "▁ai etc0",
      "▁erd easeeao",
      "▁oodeaa eto",
      "eet aieeeto",
      "▁ooda eaeatt",
      "▁eetoeetn aiee",
      "aiea f",
      "eaiea eeeaeee",
      "▁eaeee lot",
      "▁lloooo lherodtn",
      "▁emtc taiee",
      "▁oodooh eattaieeeto",
      "taoeeea eetaieeeto",
      "▁oiet taoeeeaeetaieeeto",
      "▁eatot aiee",
      "▁teeae1 \n",
      "tot n",
      "o dto",
      "▁oeeeai eaieeeatn",
      "st etn",
      "▁eaa eee",
      "▁erd euto",
      "▁eaexxeae ouoo",
      "ai eaieae",
      "▁aiea ouoo",
      "▁oeeeaieot toottn",
      "▁ooheaaaieeetc o",
      "▁toteatoaieae sodsod",
      "▁aehtecetktttoar \n",
      "▁oe lotc",
      "▁tea eaae",
      "▁teaeaae dpa",
      "tea o",
      "▁eea eeea",
      "▁oohto elrt",
      "▁ooao eaiaaeaodtotmtn",
      "eot e",
      "▁ohatot eaieethn",
      "▁ood eaieeeattea",
      "▁to dc",
      "▁todc toown",
      "▁lloooo staie",
      "▁ead o",
      "▁tea eaieaeeeaeee",
      "▁od eaeeasoooo",
      "eaiaa eouoo",
      "▁ooheea eaiaaeouoo",
      "▁oeeeaieeaa eeeatn",
      "▁oeeeaiet teao",
      "aieea st",
      "eaiea eeaa",
      "eaieaeeaa etouto",
      "▁ea eaieaeeaaetouto",
      "▁ttaeer \n",
      "▁ai etot",
      "▁aietot er",
      "▁ttsoeotjhn aiaae",
      "▁tta eaeero",
      "▁oeeeaieea etaiee",
      "▁taeeex aiee",
      "▁oodt ee",
      "aotoh aieaieae",
      "▁taeeexaiee etnoeeeaie",
      "▁toeeaotd aseaie",
      "▁eato eaae",
      "▁eatoeaae eaieaeto",
      "▁oodai i",
      "▁erd aiaaeeaeoteea",
      "etaiee tclo",
      "▁etao aie",
      "eot touto",
      "gt etaieetclo",
      "▁oodet eottouto",
      "▁tta tneerto",
      "▁oodtee v",
      "▁ai etaoeeeae",
      "▁aieaiedutoe \n",
      "▁teea f",
      "▁tsee toto",
      "▁tseetoto aiesa",
      "▁teeaf aietn",
      "▁oodtaiee oesttetn",
      "tho ela",
      "▁aehtec tv",
      "▁staie 1",
      "▁oetod eaeae",
      "▁aieea 3",
      "▁ettaieerto etaieeeto",
      "▁toeeaotd eutoeuto",
      "▁faetthooeroetno \n",
      "▁eaatn st",
      "▁erdttea own",
      "▁eeetn eeto",
      "oestt e",
      "etn oh",
      "▁teato gtetaieetclo",
      "▁eeaeeea etnoh",
      "odto fa",
      "erd ttea",
      "▁ood erdttea",
      "ieea etn",
      "▁thn oo",
      "▁oiet tetn",
      "▁ea eo",
      "etm touto",
      "▁eaeo etmtouto",
      "f aar",
      "▁as otea",
      "▁asotea faar",
      "▁taieetso \n",
      "▁ pt",
      "▁llooooooh eerto",
      "▁teatoteaieeeae \n",
      "▁aioteaedoooo etno",
      "▁ottot eaee",
      "▁aiea aiee",
      "▁ead oeoteaie",
      "dtn ttt",
      "▁erd e",
      "▁eeetn eea",
      "▁eaaee eeeadetaiaaeeouoo",
      "▁t ot",
      "▁et hot",
      "▁tot er",
      "t ev",
      "▁ood sac",
      "etktt toown",
      "▁eohaooooet eemtn",
      "▁tt eaie",
      "▁otea toown",
      "▁t vo",
      "▁oetmtn astoaie",
      "▁aiee etoo",
      "▁oeteatoeatn llo",
      "▁oeotas ttmn",
      "eadt jhn",
      "▁oeaieoh etktttn",
      "ta eea",
      "▁oeotasttmn taeea",
      "▁erd tn",
      "ea tev",
      "▁eaat eaieeaee",
      "▁erdtt eaaie",
      "▁tsee tsiec",
      "oh hn",
      "▁taiee ohhn",
      "▁oheaieeea \n",
      "▁oeeeaiee r",
      "▁oeot eea",
      "s otea",
      "▁ood oestte",
      "▁eaiea sotea",
      "oh eelo",
      "▁eaieafhn eae",
      "▁erde ieeaetn",
      "▁tc teetohohaetn",
      "▁etc o",
      "▁et aieeeto",
      "eaieas otea",
      "▁ttsoeot eaewn",
      "▁tsee tnaietc",
      "▁taiee tclo",
      "▁eaieasotea aieaeo",
      "lh etktttn",
      "ao wn",
      "▁teer \n",
      "eaa eaieea",
      "▁oeeeaielloooolloooo ouoo",
      "▁eaaiee eatev",
      "▁teoteoeaeero \n",
      "▁toeeaotd asoteafa",
      "o dtnttt",
      "▁erd aieaieeeto",
      "▁ooh aieee",
      "▁toteatoaiaaeeaeoteea \n",
      "▁erdt meuo",
      "eerto hn",
      "hohoho eatn",
      "fa tt",
      "ta teaieethn",
      "▁oodoestte hre",
      "▁th etsc",
      "▁eaet aoeeeae",
      "▁eaetaoeeeae uto",
      "▁eaieieer \n",
      "▁iodiod aieaeeaaeto",
      "▁ooa eai",
      "▁oeto dtjhn",
      "▁eaieeea easeeao",
      "▁teoteo eaieafteoaiaae",
      "▁ot efa",
      "▁eeadt eeatn",
      "▁pa eaieasotea",
      "▁aieaeadthnaie \n",
      "▁eaieeeattea aiee",
      "▁to st",
      "▁ hohohoeatn",
      "tea tottt",
      "▁too teatottt",
      "m a",
      "▁t oteatn",
      "f aafa",
      "▁taiee own",
      "▁eae oh",
      "▁hr dc",
      "to e",
      "oeai aieeaieee",
      "▁eado eaiaaeaodtotmtn",
      "▁tost etaieeeto",
      "▁oodet eaeeae",
      "dtn oho",
      "▁eadt v",
      "▁paooheetc \n",
      "▁eadtv oouoo",
      "▁ead oeaieaieeeaaetmtn",
      "▁tv etaieeesoooo",
      "▁ta eaie",
      "▁oodoet eaaehn",
      "▁pa eaetothn",
      "▁ta aieeeeto",
      "eaiee e1",
      "staie 1",
      "▁oeaieoh teec",
      "▁tsee tsee",
      "▁aioteaeeoooo eae",
      "▁taaieeeeto 0",
      "▁oodea aieeeatsee",
      "▁et aiet",
      "▁gtehn st",
      "▁paotetktttn \n",
      "▁ v",
      "▁aehteceaieotdeuto \n",
      "▁ood easeeao",
      "▁t eaioteaeeoooo",
      "▁aiaa eaieeeto",
      "oh asee",
      "▁teaioteaeeoooo st",
      "hn eae",
      "ts a",
      "▁ta ero",
      "▁eea eeeae",
      "▁eaaaieeetn eae",
      "▁aiee oeoteaiee",
      "▁oeeeai eaieeetn",
      "m eu",
      "eaieae eaieaee",
      "toot ieer",
      "eai aiee",
      "aieaeo aieaeo",
      "▁aieeeertotllorto \n",
      "eot eeetn",
      "▁taeiee eadtjhn",
      "▁taeieeeadtjhn 0",
      "▁oodaii ohasee",
      "▁eaaood atot",
      "▁oodettaieerto \n",
      "▁ea eaieeeto",
      "ou oto",
      "▁erd staie1",
      "▁oeaieoh tv",
      "▁o dtnoho",
      "▁eeaeasee tootieer",
      "▁oeti aaeemtc",
      "▁ta aieeasado",
      "▁tn eeaaie",
      "▁e \n",
      "▁aieaeadt tatotoaetn",
      "▁aieae oo",
      "aaot eoteeetn",
      "▁aiiohaseeaieaaeeaieote \n",
      "▁oet oteieeaatn",
      "▁ooaeai ooe",
      "▁tsee gggaitoemoomoou",
      "▁ood tohn",
      "▁taei \n",
      "▁erd aieeetstt",
      "▁eae heaeeaieero",
      "▁as eaa",
      "▁eatot tea",
      "▁llooooooh taetaiee",
      "ai eaetn",
      "ef tm",
      "eftm ef",
      "▁toeeaotd aieetstt",
      "▁ood eftmef",
      "▁eead tn",
      "▁oodeftmef tcaiee",
      "etn eeb",
      "▁t aieteetn",
      "▁gt eo",
      "mo n",
      "efa c",
      "▁ietaieoeoteea own",
      "▁aotohai eaieeeto",
      "eato etaieeeto",
      "▁ea toto",
      "▁eaieafhn llorto",
      "eetn sc",
      "toto 1",
      "▁as toto1",
      "▁ta aieea",
      "▁patn oheelo",
      "▁ieeaasee ert",
      "▁etteatoteatn aiee",
      "▁llo s",
      "▁eeaeeeae ouoto",
      "▁eaeeasoooo ai",
      "▁oodooheaieaeto \n",
      "▁tm sa",
      "▁aiee eatoetaieeeto",
      "eee lo",
      "▁oiettetn aie",
      "▁aiot eetnsc",
      "▁aioteetnsc e",
      "▁et aiea",
      "▁pa aieee",
      "eaaeaieea tsee",
      "▁etnea eeelo",
      "▁tmsa own",
      "▁eadt aieetclo",
      "▁eaiea tothaieeeto",
      "▁etaieea toeatn",
      "▁etaieeatoeatn haetn",
      "eae heaeeaieero",
      "▁afa etoeaier",
      "▁gt eaieee1",
      "▁tai aeaieela",
      "▁tsee tttmtn",
      "▁tooieemooohaieie \n",
      "▁taoeeeaeeatn \n",
      "tee thn",
      "▁eato aotohaieaieae",
      "▁eaeeasooooai etn1",
      "▁erdttea o",
      "ea aieeee",
      "▁ood aieeetstt",
      "▁aieaeo aieaeoaieaeo",
      "▁llooootn eaiaoteaiee",
      "▁eatoto dcto",
      "ooh eerto",
      "▁ho aieeast",
      "▁gte ieeohasa",
      "▁ea eaiaaeaieeeto",
      "▁etaieoet eaaeaieaeto",
      "▁tmost aieeeto",
      "e llor",
      "▁oodo ieemtn",
      "▁ttaafa ellor",
      "▁ttaafaellor totetn",
      "lo eadar",
      "▁tae loeadar",
      "aieae ouoo",
      "▁llo st",
      "too teatn",
      "▁ haetn",
      "▁oe lo",
      "eaa eeatn",
      "▁oelo eaaeeatn",
      "▁eaieeea \n",
      "taoeeea etaieeesoooo",
      "etoto ea",
      "▁eadoet v",
      "aieaiee theaaeedtetn",
      "th taeiee",
      "▁aieaead etneeb",
      "▁oeaiehr dpa",
      "▁etho eaaieeee",
      "▁ieeaasee thnaie",
      "▁teaieeeadst \n",
      "▁tae uto",
      "▁oeote \n",
      "▁lloooo lhetktttn",
      "▁ieeeaeaieaee \n",
      "▁taoeeeae hn",
      "▁ooa hneae",
      "▁aiea \n",
      "▁ood aseaie",
      "eaa aieeeto",
      "▁tai eeaeooooaiaae",
      "▁paoeot eaieeea",
      "m sa",
      "▁tateea1 \n",
      "e llo",
      "▁etho eutoeuto",
      "ho aseea",
      "▁llooooas oteafa",
      "et tateaieethn",
      "▁eaiaa ettateaieethn",
      "ieb od",
      "▁afa ooheerto",
      "▁taieieeasa \n",
      "▁aiaiee own",
      "▁oeaie hre",
      "▁aieeeatn 0",
      "▁tktot eaitfee",
      "▁ggg ottn",
      "▁teoteo ieeeea",
      "tae ieeahn",
      "oh oo",
      "aafa ee",
      "teato e",
      "▁toothoasl ohoo",
      "▁toothoaslohoo eoteea",
      "▁eaa tooteatn",
      "▁eaaai teatoe",
      "▁teev oteeea",
      "▁ai etaie",
      "▁lloooooelotc \n",
      "▁eadsac \n",
      "s to",
      "▁afa aieaieetheaaeedtetn",
      "▁afaaieaieetheaaeedtetn 0",
      "▁aiee tm",
      "▁oteaitfee ero",
      "aiee eatn",
      "▁eohaoooo tnoho",
      "▁oodo shtn",
      "▁tao ietaseaa",
      "▁eeetn teato",
      "▁eaeeasoooo eaieaieaief",
      "▁eaa thoohneerto",
      "ts teeafa",
      "▁ooa etottn",
      "tea eaitooooo",
      "▁eaieaf teaeaitooooo",
      "▁eaieafteaeaitooooo eaiaae",
      "▁toeeaotd eaaeaiee",
      "▁eaats easeeao",
      "▁eaeeelot tt",
      "▁erd eteemtn",
      "▁aehtec aafaee",
      "hn eeea",
      "▁eato e",
      "▁et sc",
      "▁ooh taetaiee",
      "▁aiee eae0",
      "aieeeae 1",
      "▁otoaoa \n",
      "▁faafa \n",
      "▁aieaiea ouoo",
      "▁oteatot n",
      "▁oteatotn st",
      "▁haetn aieaeo",
      "toto eaiaiee",
      "▁oetodt eetn",
      "ea totoeaiaiee",
      "▁a eeea",
      "▁eatot m",
      "▁lloooot meu",
      "▁eaao ef",
      "▁eatoe ieeagte",
      "▁eato eaier",
      "▁eaiea fteoaiaaeaieeetc",
      "▁eatot etn1",
      "▁pa tsteeafa",
      "▁aieai eaieae",
      "▁eaieeeaaieeaaeee \n",
      "▁etn otaiee",
      "▁aieaieaieae eaieetno",
      "▁aioteaedooooaeaie \n",
      "▁tta htahn",
      "etaiee tea",
      "r toown",
      "▁etnotaiee rtoown",
      "▁eaa oest",
      "▁aie ma",
      "▁o ietaseaa",
      "▁thoo hneerto",
      "▁aieetm sa",
      "ea aieeeeto",
      "▁lloooo eaetaiee",
      "▁ood ot",
      "▁thtseea aiaaetsaieaeo",
      "▁oeoteaiepa \n",
      "▁eaeaieoheloeae \n",
      "▁aiee eea",
      "too teethn",
      "▁hrdt llor",
      "▁hrdtllor toown",
      "▁aotetm oheaieeea",
      "▁ta oteea",
      "eto e",
      "▁eetn0 \n",
      "▁eaa eaieeeaown",
      "▁ood aieeeae1",
      "▁aiea eaiea",
      "etaiaa eee",
      "oot eeafa",
      "▁et ottn",
      "▁erdtc teetohohaetn",
      "ea etmteaetcaieeeto",
      "▁oeotasttmntaeea r",
      "▁erd c",
      "eeta uto",
      "ieeaasee eaioteato",
      "▁ottot h",
      "▁eato eetauto",
      "▁teatot n",
      "▁eaieafhn aieeeto",
      "ead eaieaeeaieaee",
      "▁ieb eadeaieaeeaieaee",
      "▁lloooo efac",
      "ea eeadeaeetc",
      "▁hr odtofa",
      "▁eato eato",
      "▁eaeaieotd eahn",
      "▁gte iettc",
      "toot eaeieeouoo",
      "ooh gte",
      "▁st 0",
      "o ieemto",
      "▁ta hre",
      "▁eead oeto",
      "▁tno ieetaie",
      "▁etaie eaieetn",
      "▁ta eaaie",
      "m oeltc",
      "▁ooao eot",
      "▁oeeeaietn ttt",
      "▁tkto eeeaieetno",
      "tho sc",
      "▁erd taeieeahn",
      "▁aaoteoteeeatn \n",
      "▁erd eaatneaie",
      "▁tefsoeotetn llorto",
      "▁i aeaieel",
      "▁teato aieee",
      "aiet eer",
      "▁aotoh aieteer",
      "▁taiee oestt",
      "▁taieeoestt etoown",
      "▁lloooo eutoeuto",
      "▁tea dtetn",
      "▁erd eief",
      "▁eatoeato haetn",
      "taoeeeae f",
      "▁gteaie xetn",
      "▁e ood",
      "▁eood taoeeeaef",
      "▁ietaodtoaiaaetsaieaeo \n",
      "▁ta totnaie",
      "▁eato eaaeeeto",
      "▁otto hottneaieote",
      "▁st aieaieeeto",
      "▁a et",
      "▁aet hoh",
      "▁ead easeeao",
      "▁oeeeaieeaeaiaaeaieeeto \n",
      "▁oeot ohoest",
      "▁ohaoeae \n",
      "▁ethot eeatn",
      "▁teatotoot eaeieeouoo",
      "iodi odtnttt",
      "▁eaaef \n",
      "▁aeaetotoetotofa tnoho",
      "▁oodoet athon",
      "▁ta eae0",
      "▁teatotn aietc",
      "s e",
      "aiet se",
      "▁oef aietse",
      "eaieeetot vo",
      "▁oefaietse eaieeetotvo",
      "▁toto eae",
      "eaiaa eaieeea",
      "etaiee ethn",
      "▁oodoh tv",
      "▁ottoo t",
      "i eown",
      "eaie ieown",
      "▁taeitthn \n",
      "otn oieemto",
      "▁aethoh otnoieemto",
      "▁ta eaeero",
      "▁eeea ee",
      "▁aieaead todcto",
      "▁pa thtaeiee",
      "▁ooaoeot eaieeouoo",
      "hotc eta",
      "▁toeeaotdt hneeea",
      "htn e",
      "▁eatne \n",
      "too hoetaieeeto",
      "▁afa toohoetaieeeto",
      "▁eatoo eeae",
      "▁ood aiea",
      "▁eatooetotn \n",
      "▁teatoooea \n",
      "▁aeadtc llorto",
      "▁faet eatotoeaiaiee",
      "▁ethoar oetmtn",
      "▁hohrtthnst \n",
      "▁pa tooteaeieeouoo",
      "▁eatoeeaaeasaee \n",
      "▁ooh tec",
      "▁iee moeltc",
      "▁eaet hre",
      "▁ea aieaf",
      "▁aieaead tsiec",
      "aieea eeasoooo",
      "▁st aieeaeeasoooo",
      "▁oet etaieeethn",
      "▁eeadtn ttt",
      "▁eaaeeetottea \n",
      "▁oetoetttt etaieeeto",
      "▁ta lotothn",
      "▁et eemtn",
      "▁aieae ot",
      "▁aiea toe",
      "oot eeea",
      "iee eeawn",
      "▁oha ooteeea",
      "▁eaats teeafa",
      "eaiee la",
      "▁oodloaie \n",
      "▁loaseetctc oooo",
      "od iebod",
      "▁ot ello",
      "▁otello ll",
      "▁ieb odiebod",
      "▁ottoot tn0",
      "▁aieeetoo t",
      "▁hoaseeaown \n",
      "▁iet eerto",
      "▁tsee eaa",
      "aieeeto gte",
      "eaeeeaeee duto",
      "eot easeeexeceee",
      "▁ h",
      "▁iaeaieel aown",
      "▁i eeaeooooaiaae",
      "eaa aieeasado",
      "▁eaa eeeatoeaaeaiee",
      "▁ta aieaetn",
      "ta a",
      "▁eaa aieeasa",
      "▁eaaaieeasa doown",
      "▁erd todcto",
      "ae ieeahn",
      "▁hr eaiaae",
      "▁otelloll oouoo",
      "eaieotd pa",
      "oh tc",
      "▁ lotc",
      "▁eead eatoeatn",
      "▁oteatoo et",
      "▁eaaet hotceta",
      "▁llooooea eeadeaeetc",
      "▁eaaeeetotsee \n",
      "▁oodeaelo \n",
      "▁ hot",
      "▁hot to",
      "▁tatc \n",
      "▁hotto eaieotdpa",
      "▁eaaoodthnaie \n",
      "▁eaatn erto",
      "▁aie eaieeaiee",
      "▁oeaiehr dt",
      "▁aieeaieeaiee 0",
      "▁ood eea",
      "tea seear",
      "▁teoteoo teaseear",
      "▁otto eaeeadeaeetc",
      "aieea taeeifaea",
      "▁oe llo",
      "▁toteatn aieae",
      "▁toeeaotd ieeeeawn",
      "▁tootktt eaaaieae",
      "▁thiaec \n",
      "▁lloooot tatotoaetn",
      "▁pa etototn",
      "▁erd eaa",
      "▁paetototn 1",
      "oo etnooooo",
      "et lo",
      "ef e",
      "▁ottoth ooetnooooo",
      "▁tateae \n",
      "▁ouoo \n",
      "▁oteatooet ieeaaie",
      "eaieae dtc",
      "▁et eaaaieeasado",
      "eaieaedtc oooo",
      "▁eaiaa eaieeeto",
      "▁ttsoeot aeieeahn",
      "▁oodot toottn",
      "▁tea etmteaetcaieeeto",
      "iec oooo",
      "▁eaaaiee tstof",
      "▁eaeeelottt ethno",
      "▁eaaieaf iecoooo",
      "ts aie",
      "▁ead oeaiaieeaieee",
      "aa aeoooo",
      "▁eaaieafiecoooo 1",
      "▁teoteotn eaie",
      "aiea eeto",
      "th aieaeeto",
      "thaieaeeto eer",
      "ts uto",
      "eaa oteaiee",
      "▁oeeeaiee tsuto",
      "▁ietaieoeoteea eae",
      "▁eaafaet thooero",
      "▁etai etaieetea",
      "▁erdt ea",
      "▁od taoeeeae",
      "▁tta thaieaeetoeer",
      "oe llo",
      "aehtec aieaeaiaae",
      "▁teoteo eaeheaeeaieero",
      "▁eatotm tsa",
      "▁eeaduo \n",
      "▁oeeeai eaiea",
      "▁ea aieeataeeifaea",
      "▁asa eaieaieae",
      "▁eaa eaieaedtcoooo",
      "▁ts ea",
      "▁aieeaee1 \n",
      "aiei eeasa",
      "ee eaieea",
      "eeeaieea etaiee",
      "o eaierto",
      "eaet tcaiee",
      "▁erd iet",
      "▁tkt gggaitoemoomoou",
      "ta c",
      "▁tao eeeaieeaetaiee",
      "▁thaieaeoooo eaettcaiee",
      "▁oeotd eeaeasee",
      "▁eaa aieae1",
      "▁eatot tt",
      "tt see",
      "▁otefa ttsee",
      "i asaie",
      "▁eaa eaieeeadst",
      "▁aiee emtc",
      "eaiea r",
      "▁erdtcaiee \n",
      "▁eaieeea aieae",
      "▁tvo 1",
      "▁erdtea taeiee",
      "etot aoeeeae",
[...]
