{
  "version": "1.0",
  "truncation": null,
  "padding": null,
  "added_tokens": [
    {
      "id": 0,
      "content": "[UNK]",
      "single_word": false,
      "lstrip": false,
      "rstrip": false,
      "normalized": false,
      "special": true
    },
    {
      "id": 1,
      "content": "[CLS]",
      "single_word": false,
      "lstrip": false,
      "rstrip": false,
      "normalized": false,
      "special": true
    },
    {
      "id": 2,
      "content": "[SEP]",
      "single_word": false,
      "lstrip": false,
      "rstrip": false,
      "normalized": false,
      "special": true
    },
    {
      "id": 3,
      "content": "[PAD]",
      "single_word": false,
      "lstrip": false,
      "rstrip": false,
      "normalized": false,
      "special": true
    },
    {
      "id": 4,
      "content": "[MASK]",
      "single_word": false,
      "lstrip": false,
      "rstrip": false,
      "normalized": false,
      "special": true
    }
  ],
  "normalizer": null,
  "pre_tokenizer": {
    "type": "Whitespace"
  },
  "post_processor": null,
  "decoder": null,
  "model": {
    "type": "BPE",
    "dropout": null,
    "unk_token": "[UNK]",
    "continuing_subword_prefix": null,
    "end_of_word_suffix": null,
    "fuse_unk": false,
    "byte_fallback": false,
    "vocab": {
      "[UNK]": 0,
      "[CLS]": 1,
      "[SEP]": 2,
      "[PAD]": 3,
      "[MASK]": 4,
      "0": 5,
      "1": 6,
      "2": 7,
      "3": 8,
      "a": 9,
      "b": 10,
      "c": 11,
      "d": 12,
      "e": 13,
      "f": 14,
      "g": 15,
      "h": 16,
      "i": 17,
      "j": 18,
      "k": 19,
      "l": 20,
      "m": 21,
      "n": 22,
      "o": 23,
      "p": 24,
      "q": 25,
      "r": 26,
      "s": 27,
      "t": 28,
      "u": 29,
      "v": 30,
      "w": 31,
      "x": 32,
      "y": 33,
      "ea": 34,
      "ee": 35,
      "ai": 36,
      "oo": 37,
      "et": 38,
      "eai": 39,
      "ot": 40,
      "aiee": 41,
      "eea": 42,
      "tn": 43,
      "to": 44,
      "ta": 45,
      "eae": 46,
      "eaie": 47,
      "eaa": 48,
      "etn": 49,
      "oe": 50,
      "eaiee": 51,
      "ts": 52,
      "oooo": 53,
      "ll": 54,
      "aie": 55,
      "tt": 56,
      "eto": 57,
      "hn": 58,
      "as": 59,
      "oh": 60,
      "tea": 61,
      "taiee": 62,
      "er": 63,
      "oee": 64,
      "tot": 65,
      "aa": 66,
      "eer": 67,
      "ead": 68,
      "ood": 69,
      "te": 70,
      "wn": 71,
      "st": 72,
      "uto": 73,
      "teea": 74,
      "ote": 75,
      "ooh": 76,
      "lo": 77,
      "th": 78,
      "ie": 79,
      "sa": 80,
      "tso": 81,
      "taieetso": 82,
      "lloooo": 83,
      "tc": 84,
      "too": 85,
      "aiea": 86,
      "iee": 87,
      "erd": 88,
      "oeot": 89,
      "llo": 90,
      "eatn": 91,
      "eato": 92,
      "own": 93,
      "pa": 94,
      "eta": 95,
      "fa": 96,
      "hr": 97,
      "eaaee": 98,
      "tta": 99,
      "etaiee": 100,
      "asee": 101,
      "eee": 102,
      "eaieeea": 103,
      "eaiea": 104,
      "oet": 105,
      "eeae": 106,
      "oto": 107,
      "teeaea": 108,
      "aieae": 109,
      "eead": 110,
      "aiaa": 111,
      "mtn": 112,
      "uoo": 113,
      "aieeea": 114,
      "ae": 115,
      "etc": 116,
      "oha": 117,
      "od": 118,
      "rto": 119,
      "soooo": 120,
      "oeeeaie": 121,
      "tsee": 122,
      "aieea": 123,
      "ouoo": 124,
      "aot": 125,
      "ets": 126,
      "ar": 127,
      "gte": 128,
      "oeeeae": 129,
      "eero": 130,
      "hre": 131,
      "aieeeto": 132,
      "aieee": 133,
      "eaieea": 134,
      "thn": 135,
      "ieb": 136,
      "eas": 137,
      "duto": 138,
      "aieaie": 139,
      "ieea": 140,
      "oteea": 141,
      "ero": 142,
      "sac": 143,
      "ho": 144,
      "iec": 145,
      "aieai": 146,
      "teato": 147,
      "teote": 148,
      "oest": 149,
      "tetn": 150,
      "tn1": 151,
      "toto": 152,
      "dutoe": 153,
      "aieaiedutoe": 154,
      "eaae": 155,
      "iet": 156,
      "teeae": 157,
      "otd": 158,
      "ktt": 159,
      "ii": 160,
      "iisoooo": 161,
      "etn1": 162,
      "etaeae": 163,
      "etot": 164,
      "taoeeeae": 165,
      "aieeeaetn": 166,
      "eaier": 167,
      "elo": 168,
      "otea": 169,
      "asa": 170,
      "eaieeeto": 171,
      "oea": 172,
      "etktt": 173,
      "eetn": 174,
      "oeote": 175,
      "llollo": 176,
      "eaiaa": 177,
      "tv": 178,
      "lot": 179,
      "tj": 180,
      "eaieai": 181,
      "eaeaie": 182,
      "toeea": 183,
      "eeea": 184,
      "aiee0": 185,
      "toeeaotd": 186,
      "tae": 187,
      "tho": 188,
      "tsee1": 189,
      "taee": 190,
      "tec": 191,
      "oeeeai": 192,
      "aoteaiee": 193,
      "etktttn": 194,
      "eaaeed": 195,
      "gg": 196,
      "htec": 197,
      "etaieeeto": 198,
      "aehtec": 199,
      "tf": 200,
      "ieem": 201,
      "aiaae": 202,
      "teoteo": 203,
      "otoa": 204,
      "tnoo": 205,
      "oesttnoo": 206,
      "ttt": 207,
      "etasee": 208,
      "eeaa": 209,
      "hot": 210,
      "aiet": 211,
      "eeto": 212,
      "ieeaasee": 213,
      "ieeoh": 214,
      "uo": 215,
      "afa": 216,
      "eeta": 217,
      "teatoaie": 218,
      "eeex": 219,
      "aieeetc": 220,
      "eaet": 221,
      "eaaeeetot": 222,
      "etsuto": 223,
      "htn": 224,
      "ohaoooo": 225,
      "eaeea": 226,
      "eerto": 227,
      "thtn": 228,
      "eohaoooo": 229,
      "eaitf": 230,
      "taeetoto": 231,
      "taeetotoieeoh": 232,
      "oeeae": 233,
      "tneai": 234,
      "thoo": 235,
      "tead": 236,
      "eloeae": 237,
      "oheaieeea": 238,
      "toott": 239,
      "aietc": 240,
      "taeetotoieeohhre": 241,
      "oeoteaiee": 242,
      "teatot": 243,
      "otiisoooo": 244,
      "llorto": 245,
      "me": 246,
      "ohao": 247,
      "thnaie": 248,
      "eaieeead": 249,
      "tneaiaoteaiee": 250,
      "ttaeer": 251,
      "etaieee": 252,
      "teatn": 253,
      "eaieaieaie": 254,
      "oer": 255,
      "tneaie": 256,
      "taieee": 257,
      "stt": 258,
      "moto": 259,
      "ase": 260,
      "othn": 261,
      "eaetn": 262,
      "see": 263,
      "aotoh": 264,
      "oeo": 265,
      "eadsac": 266,
      "easa": 267,
      "oeoteaie": 268,
      "etaiaa": 269,
      "aieaeo": 270,
      "eaieaieaief": 271,
      "tseea": 272,
      "toh": 273,
      "eatot": 274,
      "fs": 275,
      "taeeex": 276,
      "aii": 277,
      "etno": 278,
      "aee": 279,
      "aieeeaeero": 280,
      "ieba": 281,
      "easee": 282,
      "eetc": 283,
      "faet": 284,
      "aie0": 285,
      "llothn": 286,
      "ttallothn": 287,
      "eaaiee": 288,
      "fsoeo": 289,
      "oeoteaiepa": 290,
      "eertot": 291,
      "eaeero": 292,
      "oeto": 293,
      "otetaieee": 294,
      "aaote": 295,
      "tahn": 296,
      "eaetaiee": 297,
      "saie": 298,
      "odtn": 299,
      "aaoteot": 300,
      "faa": 301,
      "eaiaae": 302,
      "eaieeeae": 303,
      "etas": 304,
      "gt": 305,
      "toottiisoooo": 306,
      "oteato": 307,
      "oestt": 308,
      "faafa": 309,
      "iebat": 310,
      "oeaie": 311,
      "eaeee": 312,
      "eaieeaee": 313,
      "taaiea": 314,
      "etao": 315,
      "ooa": 316,
      "tjho": 317,
      "aieaieeeto": 318,
      "eaaeeetottea": 319,
      "eaieaeto": 320,
      "tnlo": 321,
      "tnst": 322,
      "tat": 323,
      "eadtetn": 324,
      "twn": 325,
      "aieeaee": 326,
      "taaieaaiee": 327,
      "oodeae": 328,
      "teaee": 329,
      "em": 330,
      "eaeeasoooo": 331,
      "etmtn": 332,
      "eatoo": 333,
      "tateaee": 334,
      "meu": 335,
      "atot": 336,
      "eaeeemtn": 337,
      "aieaead": 338,
      "etasaa": 339,
      "taeeexaieeeto": 340,
      "teoteoiebat": 341,
      "easeea": 342,
      "ieer": 343,
      "rhtn": 344,
      "odthtn": 345,
      "totot": 346,
      "teeae1": 347,
      "eatoeatn": 348,
      "oetn": 349,
      "taie": 350,
      "totototo": 351,
      "erduto": 352,
      "hottn": 353,
      "tai": 354,
      "eaaeeeto": 355,
      "aieaieeeto0": 356,
      "ttea": 357,
      "etoasa": 358,
      "etoasatotototo": 359,
      "ohn": 360,
      "oeeeaiet": 361,
      "aeaie": 362,
      "teaieeead": 363,
      "erodtn": 364,
      "tee": 365,
      "oeeeaieea": 366,
      "oero": 367,
      "thoaie": 368,
      "oeasa": 369,
      "iebtjho": 370,
      "hottniebtjho": 371,
      "tasac": 372,
      "tjhn": 373,
      "oohetktttn": 374,
      "erdoeote": 375,
      "toown": 376,
      "ggg": 377,
      "etstt": 378,
      "toooea": 379,
      "lolo": 380,
      "lotn": 381,
      "lololotn": 382,
      "teaieeeadst": 383,
      "lololotnttt": 384,
      "eaieeatn": 385,
      "oteaa": 386,
      "aec": 387,
      "hrd": 388,
      "otetaieeeown": 389,
      "iaec": 390,
      "eaeaetn": 391,
      "eatne": 392,
      "taea": 393,
      "dtc": 394,
      "taoee": 395,
      "loasee": 396,
      "eaitfe": 397,
      "oel": 398,
      "etotoa": 399,
      "etotoatn": 400,
      "tthn": 401,
      "etaie": 402,
      "tstt": 403,
      "eaaeedhn": 404,
      "otn": 405,
      "aietn": 406,
      "eaieaf": 407,
      "eaeadtetn": 408,
      "ieeaase": 409,
      "tefsoeo": 410,
      "hoh": 411,
      "ieemo": 412,
      "iemeu": 413,
      "aieeetstt": 414,
      "llooootaoeeeae": 415,
      "thooero": 416,
      "faetthooero": 417,
      "aotohaieai": 418,
      "eaaeto": 419,
      "aead": 420,
      "aieee2": 421,
      "hre0": 422,
      "oodeaelo": 423,
      "odto": 424,
      "aieae1": 425,
      "aieec": 426,
      "etoo": 427,
      "oteeea": 428,
      "oa": 429,
      "otoaoa": 430,
      "eaieote": 431,
      "eeaeasee": 432,
      "teadeaeero": 433,
      "jhn": 434,
      "etaiaaee": 435,
      "etaiaaeeouoo": 436,
      "eohaooooaieec": 437,
      "eloead": 438,
      "eloeadar": 439,
      "eao": 440,
      "aeadtc": 441,
      "aseaie": 442,
      "ieeea": 443,
      "aedtc": 444,
      "easeear": 445,
      "eaas": 446,
      "eeadero": 447,
      "oheloeae": 448,
      "eaeaieoheloeae": 449,
      "hohr": 450,
      "ieeeea": 451,
      "taeai": 452,
      "ao": 453,
      "eaasoteea": 454,
      "loaie": 455,
      "erodtno": 456,
      "eaaietc": 457,
      "aieie": 458,
      "eeaaetn": 459,
      "ooheeaaetn": 460,
      "taoeote": 461,
      "ohatoh": 462,
      "ohatohtahn": 463,
      "etouto": 464,
      "oeoteertot": 465,
      "oeoteertottea": 466,
      "oelot": 467,
      "xx": 468,
      "oteeaeetn": 469,
      "xxeae": 470,
      "teatoar": 471,
      "etho": 472,
      "tatc": 473,
      "gggeae": 474,
      "oteeaet": 475,
      "eaexxeae": 476,
      "aieeaasee": 477,
      "teer": 478,
      "eae1": 479,
      "oeotd": 480,
      "oteeaeterduto": 481,
      "oodeaa": 482,
      "eb": 483,
      "aietoe": 484,
      "thot": 485,
      "eetn0": 486,
      "oeaiea": 487,
      "llolloetouto": 488,
      "oeaierto": 489,
      "tk": 490,
      "aieaeoooo": 491,
      "thoao": 492,
      "thaieaeoooo": 493,
      "eaaef": 494,
      "aaoteoteeadero": 495,
      "teadtstt": 496,
      "ethoar": 497,
      "ttaetaiaaeeouoo": 498,
      "oeaieasaie": 499
    },
    "merges": [
      "e a",
      "e e",
      "a i",
      "o o",
      "e t",
      "ea i",
      "o t",
      "ai ee",
      "e ea",
      "t n",
      "t o",
      "t a",
      "ea e",
      "eai e",
      "ea a",
      "et n",
      "o e",
      "eai ee",
      "t s",
      "oo oo",
      "l l",
      "ai e",
      "t t",
      "et o",
      "h n",
      "a s",
      "o h",
      "t ea",
      "t aiee",
      "e r",
      "o ee",
      "t ot",
      "a a",
      "ee r",
      "ea d",
      "oo d",
      "t e",
      "w n",
      "s t",
      "u to",
      "t eea",
      "ot e",
      "oo h",
      "l o",
      "t h",
      "i e",
      "s a",
      "ts o",
      "taiee tso",
      "ll oooo",
      "t c",
      "t oo",
      "ai ea",
      "i ee",
      "er d",
      "oe ot",
      "ll o",
      "ea tn",
      "ea to",
      "o wn",
      "p a",
      "et a",
      "f a",
      "h r",
      "eaa ee",
      "t ta",
      "et aiee",
      "as ee",
      "ee e",
      "eaiee ea",
      "eai ea",
      "o et",
      "eea e",
      "ot o",
      "teea ea",
      "ai eae",
      "eea d",
      "ai aa",
      "m tn",
      "u oo",
      "aiee ea",
      "a e",
      "et c",
      "oh a",
      "o d",
      "r to",
      "s oooo",
      "oee eaie",
      "ts ee",
      "ai eea",
      "o uoo",
      "a ot",
      "et s",
      "a r",
      "g te",
      "oee eae",
      "eer o",
      "hr e",
      "aiee eto",
      "aiee e",
      "eai eea",
      "t hn",
      "ie b",
      "ea s",
      "d uto",
      "ai eaie",
      "i eea",
      "ot eea",
      "er o",
      "sa c",
      "h o",
      "ie c",
      "ai eai",
      "tea to",
      "te ote",
      "oe st",
      "t etn",
      "tn 1",
      "tot o",
      "duto e",
      "aieaie dutoe",
      "eaa e",
      "i et",
      "teea e",
      "ot d",
      "k tt",
      "i i",
      "ii soooo",
      "etn 1",
      "eta eae",
      "et ot",
      "ta oeeeae",
      "aieeea etn",
      "eaie r",
      "e lo",
      "ot ea",
      "as a",
      "eaiee eto",
      "o ea",
      "et ktt",
      "ee tn",
      "oe ote",
      "llo llo",
      "eai aa",
      "t v",
      "l ot",
      "t j",
      "eai eai",
      "ea eaie",
      "to eea",
      "ee ea",
      "aiee 0",
      "toeea otd",
      "ta e",
      "th o",
      "tsee 1",
      "ta ee",
      "te c",
      "oee eai",
      "aot eaiee",
      "etktt tn",
      "eaaee d",
      "g g",
      "h tec",
      "etaiee eto",
      "ae htec",
      "t f",
      "iee m",
      "aiaa e",
      "teote o",
      "oto a",
      "tn oo",
      "oest tnoo",
      "tt t",
      "et asee",
      "eea a",
      "h ot",
      "ai et",
      "ee to",
      "ieea asee",
      "iee oh",
      "u o",
      "a fa",
      "ee ta",
      "teato aie",
      "eee x",
      "aiee etc",
      "ea et",
      "eaaee etot",
      "ets uto",
      "h tn",
      "oha oooo",
      "ea eea",
      "eer to",
      "th tn",
      "e ohaoooo",
      "eai tf",
      "taee toto",
      "taeetoto ieeoh",
      "o eeae",
      "tn eai",
      "th oo",
      "tea d",
      "elo eae",
      "oh eaieeea",
      "too tt",
      "ai etc",
      "taeetotoieeoh hre",
      "oeot eaiee",
      "tea tot",
      "ot iisoooo",
      "llo rto",
      "m e",
      "oha o",
      "thn aie",
      "eaiee ead",
      "tneai aoteaiee",
      "tta eer",
      "etaiee e",
      "tea tn",
      "eaieai eaie",
      "oe r",
      "tn eaie",
      "taiee e",
      "s tt",
      "m oto",
      "as e",
      "ot hn",
      "ea etn",
      "s ee",
      "aot oh",
      "oe o",
      "ead sac",
      "ea sa",
      "oeot eaie",
      "et aiaa",
      "aieae o",
      "eaieaieaie f",
      "ts eea",
      "to h",
      "ea tot",
      "f s",
      "ta eeex",
      "ai i",
      "etn o",
      "a ee",
      "aieeea eero",
      "ieb a",
      "eas ee",
      "ee tc",
      "fa et",
      "aie 0",
      "ll othn",
      "tta llothn",
      "ea aiee",
      "fs oeo",
      "oeoteaie pa",
      "eer tot",
      "ea eero",
      "o eto",
      "ot etaieee",
      "aa ote",
      "ta hn",
      "ea etaiee",
      "s aie",
      "od tn",
      "aaote ot",
      "f aa",
      "eaiaa e",
      "eaiee eae",
      "et as",
      "g t",
      "toott iisoooo",
      "ot eato",
      "oe stt",
      "faa fa",
      "ieba t",
      "o eaie",
      "ea eee",
      "eaieea ee",
      "ta aiea",
      "eta o",
      "oo a",
      "tj ho",
      "ai eaieeeto",
      "eaaeeetot tea",
      "eaiea eto",
      "tn lo",
      "tn st",
      "ta t",
      "ead tetn",
      "t wn",
      "aieea ee",
      "taaiea aiee",
      "ood eae",
      "tea ee",
      "e m",
      "eaeea soooo",
      "et mtn",
      "ea too",
      "ta teaee",
      "me u",
      "a tot",
      "eaeee mtn",
      "aiea ead",
      "etas aa",
      "taeeex aieeeto",
      "teoteo iebat",
      "eas eea",
      "i eer",
      "r htn",
      "od thtn",
      "tot ot",
      "teeae 1",
      "eato eatn",
      "o etn",
      "t aie",
      "totot oto",
      "erd uto",
      "hot tn",
      "t ai",
      "eaaee eto",
      "aieaieeeto 0",
      "tt ea",
      "eto asa",
      "etoasa totototo",
      "o hn",
      "oeeeai et",
      "a eaie",
      "t eaieeead",
      "er odtn",
      "t ee",
      "oee eaieea",
      "oer o",
      "tho aie",
      "oea sa",
      "ieb tjho",
      "hottn iebtjho",
      "ta sac",
      "tj hn",
      "ooh etktttn",
      "erd oeote",
      "too wn",
      "gg g",
      "ets tt",
      "too oea",
      "lo lo",
      "lot n",
      "lolo lotn",
      "teaieeead st",
      "lololotn ttt",
      "eaieea tn",
      "ot eaa",
      "ae c",
      "hr d",
      "otetaieee own",
      "i aec",
      "ea eaetn",
      "eatn e",
      "ta ea",
      "d tc",
      "ta oee",
      "lo asee",
      "eaitf e",
      "oe l",
      "et otoa",
      "etotoa tn",
      "tt hn",
      "et aie",
      "ts tt",
      "eaaeed hn",
      "ot n",
      "ai etn",
      "eaiea f",
      "ea eadtetn",
      "ieea ase",
      "te fsoeo",
      "h oh",
      "ieem o",
      "ie meu",
      "aiee etstt",
      "lloooo taoeeeae",
      "thoo ero",
      "faet thooero",
      "aotoh aieai",
      "eaa eto",
      "a ead",
      "aieee 2",
      "hre 0",
      "oodeae lo",
      "od to",
      "aieae 1",
      "aiee c",
      "et oo",
      "ot eeea",
      "o a",
      "otoa oa",
      "eaie ote",
      "eea easee",
      "tead eaeero",
      "j hn",
      "etaiaa ee",
      "etaiaaee ouoo",
      "eohaoooo aieec",
      "elo ead",
      "eloead ar",
      "ea o",
      "aead tc",
      "as eaie",
      "iee ea",
      "ae dtc",
      "easeea r",
      "eaa s",
      "eead ero",
      "oh eloeae",
      "eaeaie oheloeae",
      "hoh r",
      "iee eea",
      "ta eai",
      "a o",
      "eaas oteea",
      "lo aie",
      "erodtn o",
      "ea aietc",
      "aie ie",
      "eeaa etn",
      "ooh eeaaetn",
      "ta oeote",
      "oha toh",
      "ohatoh tahn",
      "eto uto",
      "oeot eertot",
      "oeoteertot tea",
      "oe lot",
      "x x",
      "oteea eetn",
      "xx eae",
      "teato ar",
      "et ho",
      "ta tc",
      "ggg eae",
      "oteea et",
      "eae xxeae",
      "aieea asee",
      "t eer",
      "eae 1",
      "oeot d",
      "oteeaet erduto",
      "ood eaa",
      "e b",
      "aiet oe",
      "th ot",
      "eetn 0",
      "o eaiea",
      "llollo etouto",
      "oeaie rto",
      "t k",
      "aieae oooo",
      "tho ao",
      "th aieaeoooo",
      "eaae f",
      "aaoteot eeadero",
      "tead tstt",
      "etho ar",
      "tta etaiaaeeouoo",
      "oeaiea saie"
    ]
  }
}