{
  "version": "1.0",
  "truncation": null,
  "padding": null,
  "added_tokens": [
    {
      "id": 0,
      "content": "[UNK]",
      "single_word": false,
      "lstrip": false,
      "rstrip": false,
      "normalized": false,
      "special": true
    },
    {
      "id": 1,
      "content": "[CLS]",
      "single_word": false,
      "lstrip": false,
      "rstrip": false,
      "normalized": false,
      "special": true
    },
    {
      "id": 2,
      "content": "[SEP]",
      "single_word": false,
      "lstrip": false,
      "rstrip": false,
      "normalized": false,
      "special": true
    },
    {
      "id": 3,
      "content": "[PAD]",
      "single_word": false,
      "lstrip": false,
      "rstrip": false,
      "normalized": false,
      "special": true
    },
    {
      "id": 4,
      "content": "[MASK]",
      "single_word": false,
      "lstrip": false,
      "rstrip": false,
      "normalized": false,
      "special": true
    }
  ],
  "normalizer": null,
  "pre_tokenizer": {
    "type": "Whitespace"
  },
  "post_processor": null,
  "decoder": null,
  "model": {
    "type": "BPE",
    "dropout": null,
    "unk_token": "[UNK]",
    "continuing_subword_prefix": null,
    "end_of_word_suffix": null,
    "fuse_unk": false,
    "byte_fallback": false,
    "vocab": {
      "[UNK]": 0,
      "[CLS]": 1,
      "[SEP]": 2,
      "[PAD]": 3,
      "[MASK]": 4,
      "0": 5,
      "1": 6,
      "2": 7,
      "3": 8,
      "a": 9,
      "b": 10,
      "c": 11,
      "d": 12,
      "e": 13,
      "f": 14,
      "g": 15,
      "h": 16,
      "i": 17,
      "j": 18,
      "k": 19,
      "l": 20,
      "m": 21,
      "n": 22,
      "o": 23,
      "p": 24,
      "q": 25,
      "r": 26,
      "s": 27,
      "t": 28,
      "u": 29,
      "v": 30,
      "w": 31,
      "x": 32,
      "y": 33,
      "ea": 34,
      "ee": 35,
      "ai": 36,
      "oo": 37,
      "et": 38,
      "eai": 39,
      "ot": 40,
      "aiee": 41,
      "eea": 42,
      "tn": 43,
      "to": 44,
      "ta": 45,
      "eae": 46,
      "eaie": 47,
      "eaa": 48,
      "etn": 49,
      "oe": 50,
      "eaiee": 51,
      "ts": 52,
      "oooo": 53,
      "ll": 54,
      "aie": 55,
      "tt": 56,
      "eto": 57,
      "hn": 58,
      "as": 59,
      "oh": 60,
      "tea": 61,
      "taiee": 62,
      "er": 63,
      "oee": 64,
      "tot": 65,
      "aa": 66,
      "eer": 67,
      "ead": 68,
      "ood": 69,
      "te": 70,
      "wn": 71,
      "st": 72,
      "uto": 73,
      "teea": 74,
      "ote": 75,
      "ooh": 76,
      "lo": 77,
      "th": 78,
      "ie": 79,
      "sa": 80,
      "tso": 81,
      "taieetso": 82,
      "lloooo": 83,
      "tc": 84,
      "too": 85,
      "aiea": 86,
      "iee": 87,
      "erd": 88,
      "oeot": 89,
      "llo": 90,
      "eatn": 91,
      "eato": 92,
      "own": 93,
      "pa": 94,
      "eta": 95,
      "fa": 96,
      "hr": 97,
      "eaaee": 98,
      "tta": 99,
      "etaiee": 100,
      "asee": 101,
      "eee": 102,
      "eaieeea": 103,
      "eaiea": 104,
      "oet": 105,
      "eeae": 106,
      "oto": 107,
      "teeaea": 108,
      "aieae": 109,
      "eead": 110,
      "aiaa": 111,
      "mtn": 112,
      "uoo": 113,
      "aieeea": 114,
      "ae": 115,
      "etc": 116,
      "oha": 117,
      "od": 118,
      "rto": 119,
      "soooo": 120,
      "oeeeaie": 121,
      "tsee": 122,
      "aieea": 123,
      "ouoo": 124,
      "aot": 125,
      "ets": 126,
      "ar": 127,
      "gte": 128,
      "oeeeae": 129,
      "eero": 130,
      "hre": 131,
      "aieeeto": 132,
      "aieee": 133,
      "eaieea": 134,
      "thn": 135,
      "ieb": 136,
      "eas": 137,
      "duto": 138,
      "aieaie": 139,
      "ieea": 140,
      "oteea": 141,
      "ero": 142,
      "sac": 143,
      "ho": 144,
      "iec": 145,
      "aieai": 146,
      "teato": 147,
      "teote": 148,
      "oest": 149,
      "tetn": 150,
      "tn1": 151,
      "toto": 152,
      "dutoe": 153,
      "aieaiedutoe": 154,
      "eaae": 155,
      "iet": 156,
      "teeae": 157,
      "otd": 158,
      "ktt": 159,
      "ii": 160,
      "iisoooo": 161,
      "etn1": 162,
      "etaeae": 163,
      "etot": 164,
      "taoeeeae": 165,
      "aieeeaetn": 166,
      "eaier": 167,
      "elo": 168,
      "otea": 169,
      "asa": 170,
      "eaieeeto": 171,
      "oea": 172,
      "etktt": 173,
      "eetn": 174,
      "oeote": 175,
      "llollo": 176,
      "eaiaa": 177,
      "tv": 178,
      "lot": 179,
      "tj": 180,
      "eaieai": 181,
      "eaeaie": 182,
      "toeea": 183,
      "eeea": 184,
      "aiee0": 185,
      "toeeaotd": 186,
      "tae": 187,
      "tho": 188,
      "tsee1": 189,
      "taee": 190,
      "tec": 191,
      "oeeeai": 192,
      "aoteaiee": 193,
      "etktttn": 194,
      "eaaeed": 195,
      "gg": 196,
      "htec": 197,
      "etaieeeto": 198,
      "aehtec": 199,
      "tf": 200,
      "ieem": 201,
      "aiaae": 202,
      "teoteo": 203,
      "otoa": 204,
      "tnoo": 205,
      "oesttnoo": 206,
      "ttt": 207,
      "etasee": 208,
      "eeaa": 209,
      "hot": 210,
      "aiet": 211,
      "eeto": 212,
      "ieeaasee": 213,
      "ieeoh": 214,
      "uo": 215,
      "afa": 216,
      "eeta": 217,
      "teatoaie": 218,
      "eeex": 219,
      "aieeetc": 220,
      "eaet": 221,
      "eaaeeetot": 222,
      "etsuto": 223,
      "htn": 224,
      "ohaoooo": 225,
      "eaeea": 226,
      "eerto": 227,
      "thtn": 228,
      "eohaoooo": 229,
      "eaitf": 230,
      "taeetoto": 231,
      "taeetotoieeoh": 232,
      "oeeae": 233,
      "tneai": 234,
      "thoo": 235,
      "tead": 236,
      "eloeae": 237,
      "oheaieeea": 238,
      "toott": 239,
      "aietc": 240,
      "taeetotoieeohhre": 241,
      "oeoteaiee": 242,
      "teatot": 243,
      "otiisoooo": 244,
      "llorto": 245,
      "me": 246,
      "ohao": 247,
      "thnaie": 248,
      "eaieeead": 249,
      "tneaiaoteaiee": 250,
      "ttaeer": 251,
      "etaieee": 252,
      "teatn": 253,
      "eaieaieaie": 254,
      "oer": 255,
      "tneaie": 256,
      "taieee": 257,
      "stt": 258,
      "moto": 259,
      "ase": 260,
      "othn": 261,
      "eaetn": 262,
      "see": 263,
      "aotoh": 264,
      "oeo": 265,
      "eadsac": 266,
      "easa": 267,
      "oeoteaie": 268,
      "etaiaa": 269,
      "aieaeo": 270,
      "eaieaieaief": 271,
      "tseea": 272,
      "toh": 273,
      "eatot": 274,
      "fs": 275,
      "taeeex": 276,
      "aii": 277,
      "etno": 278,
      "aee": 279,
      "aieeeaeero": 280,
      "ieba": 281,
      "easee": 282,
      "eetc": 283,
      "faet": 284,
      "aie0": 285,
      "llothn": 286,
      "ttallothn": 287,
      "eaaiee": 288,
      "fsoeo": 289,
      "oeoteaiepa": 290,
      "eertot": 291,
      "eaeero": 292,
      "oeto": 293,
      "otetaieee": 294,
      "aaote": 295,
      "tahn": 296,
      "eaetaiee": 297,
      "saie": 298,
      "odtn": 299,
      "aaoteot": 300,
      "faa": 301,
      "eaiaae": 302,
      "eaieeeae": 303,
      "etas": 304,
      "gt": 305,
      "toottiisoooo": 306,
      "oteato": 307,
      "oestt": 308,
      "faafa": 309,
      "iebat": 310,
      "oeaie": 311,
      "eaeee": 312,
      "eaieeaee": 313,
      "taaiea": 314,
      "etao": 315,
      "ooa": 316,
      "tjho": 317,
      "aieaieeeto": 318,
      "eaaeeetottea": 319,
      "eaieaeto": 320,
      "tnlo": 321,
      "tnst": 322,
      "tat": 323,
      "eadtetn": 324,
      "twn": 325,
      "aieeaee": 326,
      "taaieaaiee": 327,
      "oodeae": 328,
      "teaee": 329,
      "em": 330,
      "eaeeasoooo": 331,
      "etmtn": 332,
      "eatoo": 333,
      "tateaee": 334,
      "meu": 335,
      "atot": 336,
      "eaeeemtn": 337,
      "aieaead": 338,
      "etasaa": 339,
      "taeeexaieeeto": 340,
      "teoteoiebat": 341,
      "easeea": 342,
      "ieer": 343,
      "rhtn": 344,
      "odthtn": 345,
      "totot": 346,
      "teeae1": 347,
      "eatoeatn": 348,
      "oetn": 349,
      "taie": 350,
      "totototo": 351,
      "erduto": 352,
      "hottn": 353,
      "tai": 354,
      "eaaeeeto": 355,
      "aieaieeeto0": 356,
      "ttea": 357,
      "etoasa": 358,
      "etoasatotototo": 359,
      "ohn": 360,
      "oeeeaiet": 361,
      "aeaie": 362,
      "teaieeead": 363,
      "erodtn": 364,
      "tee": 365,
      "oeeeaieea": 366,
      "oero": 367,
      "thoaie": 368,
      "oeasa": 369,
      "iebtjho": 370,
      "hottniebtjho": 371,
      "tasac": 372,
      "tjhn": 373,
      "oohetktttn": 374,
      "erdoeote": 375,
      "toown": 376,
      "ggg": 377,
      "etstt": 378,
      "toooea": 379,
      "lolo": 380,
      "lotn": 381,
      "lololotn": 382,
      "teaieeeadst": 383,
      "lololotnttt": 384,
      "eaieeatn": 385,
      "oteaa": 386,
      "aec": 387,
      "hrd": 388,
      "otetaieeeown": 389,
      "iaec": 390,
      "eaeaetn": 391,
      "eatne": 392,
      "taea": 393,
      "dtc": 394,
      "taoee": 395,
      "loasee": 396,
      "eaitfe": 397,
      "oel": 398,
      "etotoa": 399,
      "etotoatn": 400,
      "tthn": 401,
      "etaie": 402,
      "tstt": 403,
      "eaaeedhn": 404,
      "otn": 405,
      "aietn": 406,
      "eaieaf": 407,
      "eaeadtetn": 408,
      "ieeaase": 409,
      "tefsoeo": 410,
      "hoh": 411,
      "ieemo": 412,
      "iemeu": 413,
      "aieeetstt": 414,
      "llooootaoeeeae": 415,
      "thooero": 416,
      "faetthooero": 417,
      "aotohaieai": 418,
      "eaaeto": 419,
      "aead": 420,
      "aieee2": 421,
      "hre0": 422,
      "oodeaelo": 423,
      "odto": 424,
      "aieae1": 425,
      "aieec": 426,
      "etoo": 427,
      "oteeea": 428,
      "oa": 429,
      "otoaoa": 430,
      "eaieote": 431,
      "eeaeasee": 432,
      "teadeaeero": 433,
      "jhn": 434,
      "etaiaaee": 435,
      "etaiaaeeouoo": 436,
      "eohaooooaieec": 437,
      "eloead": 438,
      "eloeadar": 439,
      "eao": 440,
      "aeadtc": 441,
      "aseaie": 442,
      "ieeea": 443,
      "aedtc": 444,
      "easeear": 445,
      "eaas": 446,
      "eeadero": 447,
      "oheloeae": 448,
      "eaeaieoheloeae": 449,
      "hohr": 450,
      "ieeeea": 451,
      "taeai": 452,
      "ao": 453,
      "eaasoteea": 454,
      "loaie": 455,
      "erodtno": 456,
      "eaaietc": 457,
      "aieie": 458,
      "eeaaetn": 459,
      "ooheeaaetn": 460,
      "taoeote": 461,
      "ohatoh": 462,
      "ohatohtahn": 463,
      "etouto": 464,
      "oeoteertot": 465,
      "oeoteertottea": 466,
      "oelot": 467,
      "xx": 468,
      "oteeaeetn": 469,
      "xxeae": 470,
      "teatoar": 471,
      "etho": 472,
      "tatc": 473,
      "gggeae": 474,
      "oteeaet": 475,
      "eaexxeae": 476,
      "aieeaasee": 477,
      "teer": 478,
      "eae1": 479,
      "oeotd": 480,
      "oteeaeterduto": 481,
      "oodeaa": 482,
      "eb": 483,
      "aietoe": 484,
      "thot": 485,
      "eetn0": 486,
      "oeaiea": 487,
      "llolloetouto": 488,
      "oeaierto": 489,
      "tk": 490,
      "aieaeoooo": 491,
      "thoao": 492,
      "thaieaeoooo": 493,
      "eaaef": 494,
      "aaoteoteeadero": 495,
      "teadtstt": 496,
      "ethoar": 497,
      "ttaetaiaaeeouoo": 498,
      "oeaieasaie": 499,
      "eaitfee": 500,
      "aieaeadthnaie": 501,
      "ieeaaseeeeta": 502,
      "oteaaote": 503,
      "tateae": 504,
      "tnoh": 505,
      "taeuo": 506,
      "staie0": 507,
      "oetmtn": 508,
      "ieeaaseeaiee": 509,
      "taei": 510,
      "taa": 511,
      "tctc": 512,
      "tto": 513,
      "ooheetc": 514,
      "aiioh": 515,
      "thotho": 516,
      "etasa": 517,
      "oetta": 518,
      "eaaie": 519,
      "oodtefsoeo": 520,
      "taieerto": 521,
      "ettaieerto": 522,
      "ieeeeawn": 523,
      "asaie": 524,
      "eaieetn": 525,
      "eaeteb": 526,
      "afa1": 527,
      "eaaeeaieote": 528,
      "eeeaeee": 529,
      "oteaseear": 530,
      "egggeae": 531,
      "aieeteeae": 532,
      "aieeteeae0": 533,
      "loaseetctc": 534,
      "aieeeaaeedhn": 535,
      "eotea": 536,
      "eaieieer": 537,
      "emtc": 538,
      "hrdtetn": 539,
      "oheaieeeaown": 540,
      "ttaaiee": 541,
      "oeeeaielloooo": 542,
      "oeeeaielloooolloooo": 543,
      "ttaaieeeero": 544,
      "eeaderodtno": 545,
      "gtet": 546,
      "llollof": 547,
      "tts": 548,
      "oiet": 549,
      "aietetn": 550,
      "otai": 551,
      "oeeeaieown": 552,
      "ia": 553,
      "oeotdaeaie": 554,
      "toot": 555,
      "ttiet": 556,
      "ttiettea": 557,
      "eeaetmtn": 558,
      "oohto": 559,
      "tootoh": 560,
      "erto": 561,
      "oeteaae": 562,
      "ec": 563,
      "ooheeaaetnaieeeto": 564,
      "eatollolloetouto": 565,
      "teatoooea": 566,
      "aieeaiea": 567,
      "oodooh": 568,
      "eaieeeaeuto": 569,
      "aieaieaieeeaeuto": 570,
      "aea": 571,
      "staie": 572,
      "aieeetn": 573,
      "oeteaaehn": 574,
      "eeadaieeaee": 575,
      "astn": 576,
      "taieerhtn": 577,
      "ieemtn": 578,
      "eaaieeeeto": 579,
      "seaie": 580,
      "totn": 581,
      "oeltto": 582,
      "aoeeeae": 583,
      "oeotas": 584,
      "aiiasaie": 585,
      "eaethrdtetn": 586,
      "eaeto": 587,
      "eaeae": 588,
      "otaiaoteaiee": 589,
      "oohgte": 590,
      "etsaieaeo": 591,
      "aiaaetsaieaeo": 592,
      "aiiohase": 593,
      "llooooegggeae": 594,
      "etaiaaeee": 595,
      "aiaaellooootaoeeeae": 596,
      "eaieaaeeaieote": 597,
      "aiiohaseeaieaaeeaieote": 598,
      "aieee1": 599,
      "eeeatn": 600,
      "eeaown": 601,
      "eeadaieeetc": 602,
      "eaieel": 603,
      "teoteoea": 604,
      "eadtv": 605,
      "taoeeeaeown": 606,
      "eae2": 607,
      "eeaeoero": 608,
      "aotohaieaieae": 609,
      "aar": 610,
      "oeteaa": 611,
      "teoteoeaeero": 612,
      "easatoto": 613,
      "aieeasa": 614,
      "hoas": 615,
      "ethn": 616,
      "eaiaaegte": 617,
      "atotaieee": 618,
      "aiiasaieown": 619,
      "eaieaie": 620,
      "aieaetn": 621,
      "oeeeaietn": 622,
      "paot": 623,
      "saar": 624,
      "teeasaar": 625,
      "oteatn": 626,
      "tn2": 627,
      "oteaee": 628,
      "aetn": 629,
      "euto": 630,
      "tooieem": 631,
      "tneeae": 632,
      "oteaeeoooo": 633,
      "eaaeeetotsee": 634,
      "eaed": 635,
      "tottt": 636,
      "eadaieeetstt": 637,
      "llooootaieerhtn": 638,
      "etoown": 639,
      "aaoteoteeeatn": 640,
      "paotetktttn": 641,
      "ea1": 642,
      "aieeeae": 643,
      "oodooheaieaeto": 644,
      "aieeeertot": 645,
      "hoaseeaown": 646,
      "toteato": 647,
      "htahn": 648,
      "etteeae": 649,
      "eaieduto": 650,
      "ooheaetn": 651,
      "etaoeeeae": 652,
      "thtseea": 653,
      "llooooas": 654,
      "ooooo": 655,
      "eaieotd": 656,
      "taoeeeaehn": 657,
      "easaee": 658,
      "oooh": 659,
      "aieeeertotllorto": 660,
      "ohasa": 661,
      "aieeatn": 662,
      "aeeeaeee": 663,
      "oetotn": 664,
      "taeaietn": 665,
      "gtetetn": 666,
      "tneea": 667,
      "paooheetc": 668,
      "aehtectv": 669,
      "teaieeaee": 670,
      "oeeeaietjhn": 671,
      "odthtnaieeeto": 672,
      "el": 673,
      "ooateeae": 674,
      "iod": 675,
      "llooooaieee": 676,
      "aieeo": 677,
      "eaiertottt": 678,
      "aieeoeaiertottt": 679,
      "thoe": 680,
      "toe": 681,
      "tkt": 682,
      "ooohaieie": 683,
      "teatotoo": 684,
      "oestte": 685,
      "teeto": 686,
      "eaaeeetn": 687,
      "ohaoaieeetc": 688,
      "eaaeeetneae": 689,
      "aieeaieagtetetn": 690,
      "aieetsee": 691,
      "ooho": 692,
      "easeaa": 693,
      "eahn": 694,
      "llolloeatn": 695,
      "oeeeaieoeltto": 696,
      "eeaaeea": 697,
      "taieellolloeatn": 698,
      "thoeouoo": 699,
      "taithoeouoo": 700,
      "eaaeeaaeea": 701,
      "st1": 702,
      "eaieafte": 703,
      "eaieafteo": 704,
      "eaaeedllollo": 705,
      "taae": 706,
      "mtaae": 707,
      "eaaeedllollomtaae": 708,
      "iettc": 709,
      "taaieee1": 710,
      "teaaie": 711,
      "aeaieel": 712,
      "aseaa": 713,
      "ieemosa": 714,
      "taoeeeaeea": 715,
      "eeaduo": 716,
      "aieeetoar": 717,
      "oohtoeae": 718,
      "eaaieeee": 719,
      "eaieeeaown": 720,
      "eaaaieai": 721,
      "eaioteato": 722,
      "llooootaithoeouoo": 723,
      "ieetaie": 724,
      "teatoteaieeeae": 725,
      "aieaieaieeea": 726,
      "eaaieeea": 727,
      "tasee": 728,
      "tneeaote": 729,
      "aieeb": 730,
      "aieebaehtectv": 731,
      "ieeaaseellollof": 732,
      "ieeaaseellolloftaea": 733,
      "oef": 734,
      "eaiaaeaieeeto": 735,
      "sod": 736,
      "eeetn": 737,
      "aieeaee1": 738,
      "ieciec": 739,
      "oelotc": 740,
      "eadetsuto": 741,
      "tllorto": 742,
      "oeoteaieeuto": 743,
      "teatotoota": 744,
      "saee": 745,
      "teatotootasaee": 746,
      "teeaaa": 747,
      "eatoaieee2": 748,
      "aeae": 749,
      "oodloaie": 750,
      "eaaaietn": 751,
      "sahn": 752,
      "etniec": 753,
      "oetod": 754,
      "aeea": 755,
      "taseeet": 756,
      "ouoothn": 757,
      "ieta": 758,
      "tm": 759,
      "thoohn": 760,
      "thoohneerto": 761,
      "eeaeaieeeto": 762,
      "aieeasad": 763,
      "oeteaaeaieaeto": 764,
      "eaaieeaasee": 765,
      "llooooeaeaie": 766,
      "eaaieeaaseeeaioteato": 767,
      "erdoeotegte": 768,
      "oodeaaetniec": 769,
      "eaaetoown": 770,
      "iecieceaaetoown": 771,
      "teaeaie": 772,
      "eaaeaiee": 773,
      "hnaie": 774,
      "eaetaieepa": 775,
      "aietn1": 776,
      "oouoo": 777,
      "taaieeatn": 778,
      "eatothnaie": 779,
      "totv": 780,
      "eaieas": 781,
      "eaieafteoaiaae": 782,
      "tsiec": 783,
      "ieemopa": 784,
      "tootohhn": 785,
      "eaaieeeatsee": 786,
      "taeiee": 787,
      "ietaodto": 788,
      "ietaodtoaiaaetsaieaeo": 789,
      "toeeaotdeaaieeeeto": 790,
      "rodto": 791,
      "oettaero": 792,
      "toar": 793,
      "eaeoteea": 794,
      "oeoteaieeouoo": 795,
      "tcaiee": 796,
      "oteeeaown": 797,
      "eaeoteeeaown": 798,
      "lloooooelotc": 799,
      "totoaetn": 800,
      "ttatotoaetn": 801,
      "paeaier": 802,
      "etoto": 803,
      "eaieaeaier": 804,
      "taathn": 805,
      "eatt": 806,
      "toteatn": 807,
      "tfe": 808,
      "aitfe": 809,
      "eaetoeadtv": 810,
      "eaieaieae": 811,
      "eaaeee": 812,
      "tetn0": 813,
      "taitoteato": 814,
      "etotn": 815,
      "eaieasotea": 816,
      "toeeaotdea": 817,
      "aiaaeeai": 818,
      "oeeeaieeaieaie": 819,
      "eaeaetniec": 820,
      "etm": 821,
      "oeeeaieoteeaeterduto": 822,
      "hohrtthn": 823,
      "hohrtthnst": 824,
      "aeoooo": 825,
      "llooootso": 826,
      "teeaaaaeoooo": 827,
      "oteatoooea": 828,
      "aiot": 829,
      "eaieaietoto": 830,
      "ohato": 831,
      "teatngte": 832,
      "toteatnaieae": 833,
      "eatooetotn": 834,
      "ieeeaeaiee": 835,
      "eetc0": 836,
      "ost": 837,
      "gteaie": 838,
      "eaiaaee": 839,
      "otee": 840,
      "ottoott": 841,
      "tteaown": 842,
      "ottoottooh": 843,
      "taitoteatoetn": 844,
      "teev": 845,
      "eetaar": 846,
      "eaiaaeeerto": 847,
      "fia": 848,
      "fiaeaieeeto": 849,
      "easeeex": 850,
      "easeeexec": 851,
      "aieasa": 852,
      "thai": 853,
      "aieaae": 854,
      "oeai": 855,
      "oeeeaielloooollooooieb": 856,
      "llooootwn": 857,
      "oodthnaie": 858,
      "oietaseaa": 859,
      "etno0": 860,
      "teatnaiee": 861,
      "oetoetteeae": 862,
      "taoeeea": 863,
      "oeeeaieeaa": 864,
      "easeeexeceee": 865,
      "iem": 866,
      "iemtetn0": 867,
      "oodoeeeaielloooollooooieb": 868,
      "eaaeaieea": 869,
      "aieee0": 870,
      "aotohaieasa": 871,
      "ac": 872,
      "oeroe": 873,
      "eeadoeroe": 874,
      "aieaieeadoeroe": 875,
      "tme": 876,
      "erdaieeeaetn": 877,
      "ohaoeae": 878,
      "aieeeaieeaee": 879,
      "aieaetnta": 880,
      "eaieeeaduto": 881,
      "toeeaotdeaeaieeeaduto": 882,
      "oelotac": 883,
      "aehtecetktt": 884,
      "eaedoooo": 885,
      "aieaetnta0": 886,
      "aehtecetktttoar": 887,
      "taoeeeaeeatn": 888,
      "oeoteaseeexeceee": 889,
      "teatoteatn": 890,
      "etteatoteatn": 891,
      "aeaieela": 892,
      "oeeeaiee": 893,
      "aioteaedoooo": 894,
      "aieaieaie": 895,
      "aeeao": 896,
      "taieeaasee": 897,
      "etco": 898,
      "thiaec": 899,
      "hottneaie": 900,
      "oteetn": 901,
      "aieeasado": 902,
      "hottneaieote": 903,
      "os": 904,
      "ttsoeot": 905,
      "ieeasa": 906,
      "oohfiaeaieeeto": 907,
      "etnooooo": 908,
      "lh": 909,
      "eeaeoteea": 910,
      "aotohaieaioteaeeoooo": 911,
      "aieae0": 912,
      "tasaie": 913,
      "eaieee": 914,
      "teatoaieeeae": 915,
      "gteea": 916,
      "ttm": 917,
      "eaataoeeeaehn": 918,
      "toieemopa": 919,
      "lltoieemopa": 920,
      "oodeaier": 921,
      "aieaiee": 922,
      "taieaeo": 923,
      "tkteaataoeeeaehn": 924,
      "oohaieie": 925,
      "eetaareae": 926,
      "erdtcaiee": 927,
      "taeaieeaeoero": 928,
      "etaieeeta": 929,
      "eaieta": 930,
      "taieieeasa": 931,
      "taeeexaieeetn": 932,
      "otetaieeeownero": 933,
      "etteatoteatnaeae": 934,
      "mtc": 935,
      "teoteooohaieie": 936,
      "faetthooeroetno": 937,
      "faeteae": 938,
      "oesttehre": 939,
      "thntv": 940,
      "aehtecthntv": 941,
      "eaieasoteaetno": 942,
      "thooetnooooo": 943,
      "oeta": 944,
      "aehteceaieasoteaetno": 945,
      "eaats": 946,
      "aieemtn": 947,
      "eaieetno": 948,
      "tnoho": 949,
      "teea1": 950,
      "lotaoeeeae": 951,
      "eeatn": 952,
      "easeeao": 953,
      "eaieaee": 954,
      "oeeeaietnaietc": 955,
      "aiets": 956,
      "eaeead": 957,
      "oodoelotac": 958,
      "eaaaieeetn": 959,
      "oshtn": 960,
      "tvtaieaeo": 961,
      "tooho": 962,
      "gteloaie": 963,
      "otto": 964,
      "toohoetaieeeto": 965,
      "oesttetn": 966,
      "aieeae": 967,
      "oeaiertoetco": 968,
      "etooetaieeeto": 969,
      "oteatoetooetaieeeto": 970,
      "oeteatoeatn": 971,
      "aioteaedooooaeaie": 972,
      "aiaiee": 973,
      "eeaaeasaee": 974,
      "totnaie": 975,
      "eetn1": 976,
      "etoeaier": 977,
      "sc": 978,
      "iaa": 979,
      "eatotn": 980,
      "toaie": 981,
      "oeloasee": 982,
      "llooooiec": 983,
      "stoouoo": 984,
      "eaieeaeoero": 985,
      "oeotohasa": 986,
      "teaetc": 987,
      "ooaeeaeasee": 988,
      "ohaoaieea": 989,
      "aotasee": 990,
      "lloooooietaseaa": 991,
      "eaieeeafa": 992,
      "eaieeeafatjhn": 993,
      "eetattt": 994,
      "iets": 995,
      "safa": 996,
      "taieeesafa": 997,
      "oeaieoh": 998,
      "taeitthn": 999,
      "eaaaieeasado": 1000,
      "oohtotv": 1001,
      "ooet": 1002,
      "eaaemtn": 1003,
      "iec1": 1004,
      "taiea": 1005,
      "oteaiee": 1006,
      "eaelo": 1007,
      "ieteaaemtn": 1008,
      "oodeae0": 1009,
      "elr": 1010,
      "oettataoeeeae": 1011,
      "oettataoeeeaeouoo": 1012,
      "eae0": 1013,
      "ttmn": 1014,
      "eatoero": 1015,
      "oeotasttmn": 1016,
      "tclo": 1017,
      "oteaaoteaiee": 1018,
      "thaietktttn": 1019,
      "ietsaie": 1020,
      "tpa": 1021,
      "ttaeatoo": 1022,
      "ttaeatooeer": 1023,
      "oodotoaoa": 1024,
      "aeaeatt": 1025,
      "eaeoteeasahn": 1026,
      "oell": 1027,
      "iebeaeeemtn": 1028,
      "oela": 1029,
      "eaieaeaierthtn": 1030,
      "aieeeatn": 1031,
      "erdeaeero": 1032,
      "etaieea": 1033,
      "oeeeaiestoouoo": 1034,
      "oodteaaie": 1035,
      "tmost": 1036,
      "oieem": 1037,
      "oesttehreown": 1038,
      "eeaead": 1039,
      "eaieeeafatjhnteer": 1040,
      "aieeetc1": 1041,
      "taeaa": 1042,
      "lherodtn": 1043,
      "aieaest": 1044,
      "taeeexaieeetneea": 1045,
      "ieeeaeaieaee": 1046,
      "ma": 1047,
      "sta": 1048,
      "oohhre": 1049,
      "eeaeaduo": 1050,
      "oteoef": 1051,
      "eteetn": 1052,
      "teoteoieemosa": 1053,
      "teeasaaroetmtn": 1054,
      "r0": 1055,
      "aiesta": 1056,
      "pt": 1057,
      "aiestar0": 1058,
      "aiaaeea": 1059,
      "oeeeaielloooollooootetn": 1060,
      "oeeeaieiec": 1061,
      "llooooasoteoef": 1062,
      "oestteteetn": 1063,
      "eaaeaetaiee": 1064,
      "etea": 1065,
      "ooheerto": 1066,
      "aotetc": 1067,
      "etn0": 1068,
      "aiaaeeaeoteea": 1069,
      "ethot": 1070,
      "seetpa": 1071,
      "tmtn": 1072,
      "thaieaeooooteatn": 1073,
      "erdaehtec": 1074,
      "teatnhre": 1075,
      "patn": 1076,
      "llooooasto": 1077,
      "etaoee": 1078,
      "aietsee": 1079,
      "erdaehtecetktttn": 1080,
      "taieet": 1081,
      "thtseeastt": 1082,
      "taetasa": 1083,
      "etcohasa": 1084,
      "eaaaieaietaoee": 1085,
      "thtseeastteea": 1086,
      "aiaieea": 1087,
      "aiaieee": 1088,
      "aiaieeaaiaieee": 1089,
      "oodhtahn": 1090,
      "eaieethn": 1091,
      "oodeeaeasee": 1092,
      "teaeaieown": 1093,
      "tneaiesa": 1094,
      "eaaetcohasa": 1095,
      "teeafa": 1096,
      "tootieer": 1097,
      "tateea1": 1098,
      "lloll": 1099,
      "taoeeeaie": 1100,
      "aeadtcee": 1101,
      "eaathaieaeooooteatn": 1102,
      "ete": 1103,
      "tsts": 1104,
      "town": 1105,
      "tseaeaie": 1106,
      "ethotc": 1107,
      "ooheeea": 1108,
      "oodi": 1109,
      "eatoeaiaaeeerto": 1110,
      "pathoohneerto": 1111,
      "eaieeetc": 1112,
      "totoeae": 1113,
      "oodietn0": 1114,
      "etaie1": 1115,
      "iodiod": 1116,
      "eaaietsee": 1117,
      "toeatn": 1118,
      "vo": 1119,
      "oodts": 1120,
      "iebta": 1121,
      "taathnerto": 1122,
      "eaaaieaietaoeeeae": 1123,
      "aiaaeeaietm": 1124,
      "aiaaeeaietmtoown": 1125,
      "oeaieeaee": 1126,
      "oeaieeaeetmtn": 1127,
      "aieeaiaae": 1128,
      "ieblo": 1129,
      "oeotasttmntaee": 1130,
      "eaieeeatn": 1131,
      "aieets": 1132,
      "eaieeetn": 1133,
      "aieeeaa": 1134,
      "aieeaiaaehn": 1135,
      "teetoaie": 1136,
      "eaaeeaieaeto": 1137,
      "teevoteato": 1138,
      "eaaeedoeoteaieeuto": 1139,
      "eaeaiaaeaieeeto": 1140,
      "teatoeeaeaieeeto": 1141,
      "eeatn0": 1142,
      "tootohouoothn": 1143,
      "faas": 1144,
      "aieasaie": 1145,
      "eatnhre": 1146,
      "eaieotdetaieeeto": 1147,
      "eaatsaietetn": 1148,
      "ieeeaeai": 1149,
      "eaedar": 1150,
      "ieeeaeaieaedar": 1151,
      "oetofaas": 1152,
      "eaatneaie": 1153,
      "oeeeaiets": 1154,
      "eaoh": 1155,
      "oeoteaieetc": 1156,
      "eeeaie": 1157,
      "oeotastoaie": 1158,
      "oeotee": 1159,
      "oeeeaietneaseaa": 1160,
      "matetn": 1161,
      "aieaieetno": 1162,
      "sodsod": 1163,
      "ooheeeaaie": 1164,
      "tttmtn": 1165,
      "totetn": 1166,
      "ohaoeaieaieae": 1167,
      "teec": 1168,
      "gtesac": 1169,
      "thnoo": 1170,
      "eaieeaoero": 1171,
      "oodtshn": 1172,
      "eaetoeae": 1173,
      "eaaietetn": 1174,
      "erdtoteatnaieae": 1175,
      "eaetrto": 1176,
      "paoeot": 1177,
      "eteaie": 1178,
      "oohtc": 1179,
      "paeaetoeae": 1180,
      "eatoeaaaieaietaoeeeae": 1181,
      "eaieead": 1182,
      "eaieeadoero": 1183,
      "taieetea": 1184,
      "eaieeeaeaieeadoero": 1185,
      "uoto": 1186,
      "aieaieetnoaieaie": 1187,
      "ertot": 1188,
      "llolloe": 1189,
      "llolloellollof": 1190,
      "ottn": 1191,
      "ttaafa": 1192,
      "aieeeeto": 1193,
      "aieaeaieta": 1194,
      "aieaeaietatoe": 1195,
      "ro": 1196,
      "eaieotdeuto": 1197,
      "aehteceaieotdeuto": 1198,
      "erdteaaie": 1199,
      "ert": 1200,
      "tseeoteetn": 1201,
      "tooiee": 1202,
      "taiear": 1203,
      "tooieetaiear": 1204,
      "etaieeethn": 1205,
      "eaaetmtn": 1206,
      "oodto": 1207,
      "tstst": 1208,
      "eatoieemtn": 1209,
      "ettoo": 1210,
      "ettooeeeaie": 1211,
      "thaietc": 1212,
      "iebloaieaeo": 1213,
      "taieetclo": 1214,
      "efa": 1215,
      "erder": 1216,
      "aieeeaetnetaieeeto": 1217,
      "oteeta": 1218,
      "aito": 1219,
      "oettotoeae": 1220,
      "aieetstt": 1221,
      "teae": 1222,
      "oeeeaietseaeaie": 1223,
      "aioteaeeoooo": 1224,
      "ttaoeeae": 1225,
      "pathn": 1226,
      "ohatost": 1227,
      "oodatot": 1228,
      "taethoar": 1229,
      "tooieemooohaieie": 1230,
      "st0": 1231,
      "taeaeto": 1232,
      "oohthnaie": 1233,
      "eatoeeaaeasaee": 1234,
      "tktt": 1235,
      "eaststst": 1236,
      "tstoe": 1237,
      "oeoteetstoe": 1238,
      "oeoteetstoeoteea": 1239,
      "oteeae": 1240,
      "oeoteetstoeoteea0": 1241,
      "oetofaaslotaoeeeae": 1242,
      "aieeeatn2": 1243,
      "eaieeeaaetmtn": 1244,
      "aieeeea": 1245,
      "ohtoeatn": 1246,
      "tv0": 1247,
      "oeaieaieeeaaetmtn": 1248,
      "eaaetotoatn": 1249,
      "thneeea": 1250,
      "eteaeasee": 1251,
      "eaaeedaieeeae": 1252,
      "tooieemotea": 1253,
      "tooieemoteasa": 1254,
      "eatoaieee": 1255,
      "iaaee": 1256,
      "thettooeeeaie": 1257,
      "gteuto": 1258,
      "etegteuto": 1259,
      "eadetaieeeto": 1260,
      "afaetasaa": 1261,
      "taeaier": 1262,
      "toeeaotdlherodtn": 1263,
      "eaohllorto": 1264,
      "dtjhn": 1265,
      "oodettaieerto": 1266,
      "tooe": 1267,
      "faeteaeoetmtn": 1268,
      "taeedtjhn": 1269,
      "oeatn": 1270,
      "easto": 1271,
      "paeteaeasee": 1272,
      "taieeeto": 1273,
      "ottoottoohaieaie": 1274,
      "tneaseaa": 1275,
      "eaatatc": 1276,
      "ear": 1277,
      "eaieaear": 1278,
      "paaieeetstt": 1279,
      "eatnaieee0": 1280,
      "eaieaieaear": 1281,
      "eadeaatneaie": 1282,
      "oetrto": 1283,
      "emvo": 1284,
      "taeitaieetea": 1285,
      "aieto": 1286,
      "uotoa": 1287,
      "uotoafa": 1288,
      "oohouotoafa": 1289,
      "ttai": 1290,
      "tseesahn": 1291,
      "oteaie": 1292,
      "eertoaieeetc": 1293,
      "oeoteertoaieeetc": 1294,
      "oetot": 1295,
      "tn3": 1296,
      "ief": 1297,
      "ieteaaie": 1298,
      "oodeaaeaieeetn": 1299,
      "eaeaetnstaie": 1300,
      "oeeeaieeaataoeeeaehn": 1301,
      "eaaaieaietaoeeea": 1302,
      "eohaooooaieae": 1303,
      "ieerodtn": 1304,
      "eaaaieaietaoeeeaeaieeetc": 1305,
      "ttaiaeaieela": 1306,
      "ttaiaeaieelaeer": 1307,
      "eief": 1308,
      "oodtttmtn": 1309,
      "patneerto": 1310,
      "eeasoooo": 1311,
      "terduto": 1312,
      "eaieaieaiefthtn": 1313,
      "paoeotetteeae": 1314,
      "eaapaoeotetteeae": 1315,
      "taetaiee": 1316,
      "tvo": 1317,
      "erdtoo": 1318,
      "oeelo": 1319,
      "eaaeaetoeadtv": 1320,
      "eaaeaetoeadtvoeelo": 1321,
      "tatnst": 1322,
      "ieba1": 1323,
      "ttaoeeeae": 1324,
      "eeadoteeae": 1325,
      "toouoo": 1326,
      "ooheaieee": 1327,
      "llooooeaeaiaaeaieeeto": 1328,
      "eadeaieduto": 1329,
      "toetasa": 1330,
      "taeieetc": 1331,
      "aieeee": 1332,
      "tmeu": 1333,
      "eadst": 1334,
      "oohgteea": 1335,
      "oohgteeatn": 1336,
      "oeeeaie0": 1337,
      "aietneaie": 1338,
      "eelo": 1339,
      "eetoaieeetc": 1340,
      "eaieatoown": 1341,
      "eetof": 1342,
      "eteetof": 1343,
      "tjhoeaitfee": 1344,
      "eteetoftjhoeaitfee": 1345,
      "eaeaieeaoero": 1346,
      "elrt": 1347,
      "aeaee": 1348,
      "ttsoe": 1349,
      "taathnttt": 1350,
      "toottn": 1351,
      "paeaieeatn": 1352,
      "gtehre": 1353,
      "eaefa": 1354,
      "ieteaefa": 1355,
      "aiaaeeaaieeee": 1356,
      "hoe": 1357,
      "oeoteea": 1358,
      "ttuto": 1359,
      "teattuto": 1360,
      "aeaeeteattuto": 1361,
      "oeeeaieteea": 1362,
      "erdeahn": 1363,
      "paeteaeaseeown": 1364,
      "llooootneaie": 1365,
      "oeeeaieeaaetaie": 1366,
      "ottot": 1367,
      "ieeaaseeaie": 1368,
      "tatneaseaa": 1369,
      "oieemto": 1370,
      "metaieeeto": 1371,
      "eaitfeeiec": 1372,
      "oieetaie": 1373,
      "lloooothnoo": 1374,
      "eeaaee": 1375,
      "aietaie": 1376,
      "eaaeaieeast": 1377,
      "tteaaieeeto": 1378,
      "tteatteaaieeeto": 1379,
      "haetn": 1380,
      "dst": 1381,
      "dc": 1382,
      "stown": 1383,
      "ooetv": 1384,
      "ttsoeooetv": 1385,
      "teaieethn": 1386,
      "erdtjhn": 1387,
      "aieeaa": 1388,
      "iaaeemtc": 1389,
      "oohtooe": 1390,
      "aieedst": 1391,
      "oohtooestown": 1392,
      "taieeeoohtooestown": 1393,
      "eaeia": 1394,
      "eaeiaet": 1395,
      "oodtoea": 1396,
      "oown": 1397,
      "tath": 1398,
      "oelloodtoea": 1399,
      "etahre": 1400,
      "atn": 1401,
      "iec0": 1402,
      "erdtaoeeeae": 1403,
      "oeoteaieeea": 1404,
      "etaseea": 1405,
      "eaaoodthnaie": 1406,
      "oteieea": 1407,
      "taeaaetaseea": 1408,
      "eaeaieotd": 1409,
      "asotea": 1410,
      "taieeeeae": 1411,
      "tataiee": 1412,
      "eaieae": 1413,
      "aiaaeeaietmtn": 1414,
      "oheetc": 1415,
      "eaee": 1416,
      "tmesa": 1417,
      "thaieaeooooaiee": 1418,
      "erdthettooeeeaie": 1419,
      "oeoteaieeaee": 1420,
      "oetodeasto": 1421,
      "tktttn": 1422,
      "ohee": 1423,
      "oheetktttn": 1424,
      "eeadaiaaeeaietmtn": 1425,
      "eaeiaettjhn": 1426,
      "eaeiaettjhneaaeee": 1427,
      "eadoeoteaieetc": 1428,
      "eadotaiaoteaiee": 1429,
      "aieestaie": 1430,
      "oodoeotasttmntaee": 1431,
      "etnrodto": 1432,
      "eaaoheetktttn": 1433,
      "utoouoo": 1434,
      "erdttea": 1435,
      "oeeeaieeotea": 1436,
      "tmeuo": 1437,
      "oodeaaietsee": 1438,
      "eatneatoeatn": 1439,
      "aieeoeaierto": 1440,
      "erdaeeeaeee": 1441,
      "ieeaaie": 1442,
      "ooheloeae": 1443,
      "taeeaieaie": 1444,
      "totn2": 1445,
      "oeeeaieteaaie": 1446,
      "llooooeae": 1447,
      "oteieeaatn": 1448,
      "teaewn": 1449,
      "oohtotnaie": 1450,
      "teoteoeadtv": 1451,
      "aieteetn": 1452,
      "taeeaieaieiee": 1453,
      "taeeaieaieieeeto": 1454,
      "taero": 1455,
      "tota": 1456,
      "eatooteeae": 1457,
      "eatooteeaeoshtn": 1458,
      "vtotv": 1459,
      "vtotvtota": 1460,
      "taeaaeto": 1461,
      "tsod": 1462,
      "ttaeaeead": 1463,
      "ttaeaeeadeer": 1464,
      "aieeoeaierto0": 1465,
      "etaoeeeaehn": 1466,
      "aieeeaaetnrodto": 1467,
      "ttaieemtn": 1468,
      "oeaieoher": 1469,
      "aiaaeta": 1470,
      "taoeeeaetaoeeeaehn": 1471,
      "teoteoeadtvoeatn": 1472,
      "eaieatotetn": 1473,
      "eaatsaietetnoeeeaie": 1474,
      "oheetcero": 1475,
      "eeaaeto": 1476,
      "eteaieutoouoo": 1477,
      "aieeaaeee": 1478,
      "aiest0": 1479,
      "oeteaaeasa": 1480,
      "eemtn": 1481,
      "ooheeaaetneae": 1482,
      "eaieeeaooheeeaaie": 1483,
      "paieemtn": 1484,
      "eatoeaaaieeetn": 1485,
      "oesttesac": 1486,
      "lloooooeoteaieeuto": 1487,
      "eloeadtetn": 1488,
      "eaaet": 1489,
      "ttsoeotjhn": 1490,
      "aietn3": 1491,
      "toertot": 1492,
      "toertotjhn": 1493,
      "oohthoohneerto": 1494,
      "eaieeeaoetotn": 1495,
      "aotohaieeae": 1496,
      "aieaeeaaeto": 1497,
      "oeeeaieeead": 1498,
      "oeeeaieeeaduo": 1499,
      "teta": 1500,
      "otetn": 1501,
      "paoest": 1502,
      "eadtetn1": 1503,
      "emuto": 1504,
      "aieaieeaiee": 1505,
      "ttateaieethn": 1506,
      "aieeea0": 1507,
      "eaettc": 1508,
      "eaeaetnemuto": 1509,
      "eadtsod": 1510,
      "aietoeouoo": 1511,
      "eaieeeaaieeaaeee": 1512,
      "aieeaieagte": 1513,
      "taieesoooo": 1514,
      "teetn0": 1515,
      "aieaeouoo": 1516,
      "eeead": 1517,
      "eaaeeeeead": 1518,
      "eaaeeeeeadetaiaaeeouoo": 1519,
      "teemtn": 1520,
      "eaetoeadtvooooo": 1521,
      "oteeea0": 1522,
      "ieetaieoteeea0": 1523,
      "eaaeeteemtn": 1524,
      "eaieatotetneaeae": 1525,
      "oetoto": 1526,
      "eteemtn": 1527,
      "aieaaeeteemtn": 1528,
      "otaiee": 1529,
      "lltoieemopaoeoteaiee": 1530,
      "tktaiaaetsaieaeo": 1531,
      "aiiaeaieel": 1532,
      "aiiaeaieelae": 1533,
      "oieemtn": 1534,
      "eeaiaae": 1535,
      "aieetseeaiaae": 1536,
      "oeeeaieseaie": 1537,
      "tathaietktttn": 1538,
      "taterduto": 1539,
      "thaieeeto": 1540,
      "etnaieasaie": 1541,
      "eatotetnaieasaie": 1542,
      "oetv": 1543,
      "aieetstt1": 1544,
      "tmostaieae": 1545,
      "aieea2": 1546,
      "ohouoothn": 1547,
      "tnoieemto": 1548,
      "ieeohasa": 1549,
      "oteaitfee": 1550,
      "eaatn": 1551,
      "toeeaotdar": 1552,
      "aiehoe": 1553,
      "hraiehoe": 1554,
      "ttsoeo": 1555,
      "eatohraiehoe": 1556,
      "oeeeaiehottneaieote": 1557,
      "eattaieeeto": 1558,
      "dhohr": 1559,
      "toeeaotdieemtn": 1560,
      "gtefsoeo": 1561,
      "taseeetero": 1562,
      "aieeaedhohr": 1563,
      "tsoooo": 1564,
      "taeieetsoooo": 1565,
      "aehtecaiea": 1566,
      "eieea": 1567,
      "hoela": 1568,
      "oodohtoeatn": 1569,
      "iebtaaieeeto": 1570,
      "etotaoeeeae": 1571,
      "oodtaoeeeaeea": 1572,
      "afathneeea": 1573,
      "afathneeea0": 1574,
      "aiesa": 1575,
      "hotho": 1576,
      "eatoaieeeouoo": 1577,
      "tmosttoeeaotdar": 1578,
      "taieeesoooo": 1579,
      "eiee": 1580,
      "totoaiesa": 1581,
      "lloooollolloellollof": 1582,
      "eaieafhn": 1583,
      "faetetno": 1584,
      "eeetnrodto": 1585,
      "tohn": 1586,
      "loteetn": 1587,
      "eatoaieeaieagte": 1588,
      "eteae": 1589,
      "eohaooooetasaa": 1590,
      "eaiaeaieela": 1591,
      "eaaieeeaiaeaieela": 1592,
      "ouoto": 1593,
      "oodoteeea": 1594,
      "eaaefeatn": 1595,
      "oeeeaieoeaieaieeeaaetmtn": 1596,
      "oetieeaaie": 1597,
      "eaaieeeatn": 1598,
      "fwn": 1599,
      "taoeeae": 1600,
      "ietotaiaoteaiee": 1601,
      "aeaeasee": 1602,
      "efametaieeeto": 1603,
      "oohtaeieetsoooo": 1604,
      "todc": 1605,
      "lotothn": 1606,
      "aieaaeto": 1607,
      "eaieaaeaiee": 1608,
      "ttaieeeea": 1609,
      "teeatn": 1610,
      "aieeetot": 1611,
      "eadloteetn": 1612,
      "taoeaieoher": 1613,
      "tseeoteetnst": 1614,
      "oeteaieeea": 1615,
      "ieeouoo": 1616,
      "oetieerodtn": 1617,
      "emtctaiee": 1618,
      "aeae1": 1619,
      "ieown": 1620,
      "eohaooooeelo": 1621,
      "iaeaieel": 1622,
      "eaieafuto": 1623,
      "aieaeown": 1624,
      "oohaietaie": 1625,
      "oteatoetn": 1626,
      "ouooaiaa": 1627,
      "ouooaiaaeer": 1628,
      "fet": 1629,
      "feteaieafuto": 1630,
      "ttsoeoeaieafteoaiaae": 1631,
      "eeadafaetasaa": 1632,
      "taioteatoetn": 1633,
      "oesttetmtn": 1634,
      "oeoteai": 1635,
      "oodaotasee": 1636,
      "iaeaieela": 1637,
      "tnohouoo": 1638,
      "oodtaioteatoetn": 1639,
      "aehtecaieaeaiaae": 1640,
      "eeet": 1641,
      "eeetpa": 1642,
      "eatoeaaeaiee": 1643,
      "erdtootohhn": 1644,
      "teoteoeaieeea": 1645,
      "teoteoeaieeeasc": 1646,
      "erdoohtoeae": 1647,
      "aeeeatn": 1648,
      "teoteoo": 1649,
      "erdtooteatn": 1650,
      "taeaeeae": 1651,
      "tttn": 1652,
      "tneaieaietoto": 1653,
      "oohouooaiaaeer": 1654,
      "oeaiooet": 1655,
      "xetn": 1656,
      "theaaeed": 1657,
      "aieaieetheaaeed": 1658,
      "etcf": 1659,
      "eaaetfeteaieafuto": 1660,
      "ohtaoeeeae": 1661,
      "teetaieee": 1662,
      "etaieohtaoeeeae": 1663,
      "eaioeaiooet": 1664,
      "etnotaiee": 1665,
      "oeeeaieeaeaiaaeaieeeto": 1666,
      "taeaieetn": 1667,
      "oodaieeetoar": 1668,
      "asoteafa": 1669,
      "aet": 1670,
      "eaioeaiooetiaaeemtc": 1671,
      "eaioteatn": 1672,
      "ttie": 1673,
      "ohoest": 1674,
      "oetototetn": 1675,
      "iebaieaieaieeea": 1676,
      "ohaetn": 1677,
      "hohaetn": 1678,
      "teetohohaetn": 1679,
      "teatothotho": 1680,
      "meuo": 1681,
      "aitoeaiaae": 1682,
      "etaieeesoooo": 1683,
      "bta": 1684,
      "ethno": 1685,
      "etktttoown": 1686,
      "oietoest": 1687,
      "teoteoieeaaseeaiee": 1688,
      "odtot": 1689,
      "loaseetctcouoo": 1690,
      "eaeouoo": 1691,
      "oohero": 1692,
      "erdemtc": 1693,
      "taiebta": 1694,
      "teoteoaiee": 1695,
      "tatmeuo": 1696,
      "aeeatohn": 1697,
      "aeeatohnaieee": 1698,
      "tapt": 1699,
      "aiiohasee": 1700,
      "eutoeuto": 1701,
      "ottoottn": 1702,
      "ooheaieaieae": 1703,
      "oetaeaie": 1704,
      "eaeeeaeee": 1705,
      "etaieeaeeasoooo": 1706,
      "oodaitoeaiaae": 1707,
      "jaie": 1708,
      "eaeetc": 1709,
      "ela": 1710,
      "toetn": 1711,
      "aieeetotetn": 1712,
      "ieemtoown": 1713,
      "hohretaieeeto": 1714,
      "eaeoteeatvo": 1715,
      "eeaellorto": 1716,
      "hreee": 1717,
      "hreeehtn": 1718,
      "oteatoeeaeasee": 1719,
      "ooheead": 1720,
      "etlotaoeeeae": 1721,
      "pathnela": 1722,
      "llooooo": 1723,
      "teeafaaieeeto": 1724,
      "ooheeadteeafaaieeeto": 1725,
      "llollooooo": 1726,
      "aieellollooooo": 1727,
      "eeaeaeea": 1728,
      "eaeeaieeea": 1729,
      "eaeeaieeeauto": 1730,
      "taetaieeohouoothn": 1731,
      "pataero": 1732,
      "eatotnlo": 1733,
      "iodiodtaiee": 1734,
      "otsee": 1735,
      "taaeaie": 1736,
      "oettmeuo": 1737,
      "eeb": 1738,
      "taeaaeaieeeae": 1739,
      "eatote": 1740,
      "ohaoaieee": 1741,
      "ohaoo": 1742,
      "tttetaieeeto": 1743,
      "eaeaieta": 1744,
      "eaeaietatoown": 1745,
      "eaeaieote": 1746,
      "eaeaieotestaie": 1747,
      "eaaeaaefeatn": 1748,
      "eteer": 1749,
      "tneaieteer": 1750,
      "ieeaaseeeaaeee": 1751,
      "ttsoeotjaie": 1752,
      "teoteoaieeeeta": 1753,
      "aieestaieoooo": 1754,
      "taieeeouoo": 1755,
      "erdiaec": 1756,
      "toteatoaiaaeeaeoteea": 1757,
      "eatotefsoeo": 1758,
      "oodeaaeasatoto": 1759,
      "tatllorto": 1760,
      "ieetaiepa": 1761,
      "etaeiee": 1762,
      "taeaiaaeaieeeto": 1763,
      "teethn": 1764,
      "eeetneea": 1765,
      "ooaietn": 1766,
      "eeetnaiee": 1767,
      "eatooown": 1768,
      "eaieeetstt": 1769,
      "thon": 1770,
      "oetathon": 1771,
      "tsoe": 1772,
      "tof": 1773,
      "taoeeeaetaeiee": 1774,
      "eaataoeeeaetaeiee": 1775,
      "gggown": 1776,
      "taefwn": 1777,
      "tseaeaieown": 1778,
      "taaieeatneae": 1779,
      "teaae": 1780,
      "teaaedtc": 1781,
      "oem": 1782,
      "tseeeeae": 1783,
      "oemtseeeeae": 1784,
      "taiei": 1785,
      "eeaeaeeaer": 1786,
      "eadaieee1": 1787,
      "oieemotsee": 1788,
      "ety": 1789,
      "oeeeaieeea": 1790,
      "oeeeaieeeaeasee": 1791,
      "aieellolloooooetaieeeto": 1792,
      "moo": 1793,
      "oomoo": 1794,
      "oomoou": 1795,
      "oeteatoeatntaieetclo": 1796,
      "heae": 1797,
      "heaeeaiee": 1798,
      "etaieeasee": 1799,
      "taaieteetn": 1800,
      "etototn": 1801,
      "oodaietc": 1802,
      "ietaie": 1803,
      "eaafaeteae": 1804,
      "etaieeaseeetno": 1805,
      "teaieaieaie": 1806,
      "eaieafteaieaieaie": 1807,
      "heaeeaieero": 1808,
      "oteeetaieee": 1809,
      "eteeae": 1810,
      "eh": 1811,
      "oetiaa": 1812,
      "ehouoothn": 1813,
      "oetiaaehouoothn": 1814,
      "aeaeattetaieeeto": 1815,
      "aieaaeeaieote": 1816,
      "totoe": 1817,
      "erdoetv": 1818,
      "eaeeadero": 1819,
      "etottn": 1820,
      "otneerto": 1821,
      "eaaeaieeetotaoeeeae": 1822,
      "iaee": 1823,
      "pathneteeae": 1824,
      "eteae1": 1825,
      "taeaaietetn": 1826,
      "staie1": 1827,
      "tooieemotneerto": 1828,
      "toeeaotdeaieeeaown": 1829,
      "oeteaaeeeeeadetaiaaeeouoo": 1830,
      "iehn": 1831,
      "taoetmtn": 1832,
      "etaie0": 1833,
      "etaiehtahn": 1834,
      "easeetetn": 1835,
      "eaaeaseetetn": 1836,
      "ohaoaieaaeeaieote": 1837,
      "vea": 1838,
      "eaeeasooootneaieaietoto": 1839,
      "oho": 1840,
      "aieeetn1": 1841,
      "eeeaet": 1842,
      "asataiee": 1843,
      "eaaaieeetn1": 1844,
      "thr": 1845,
      "oelaeatn": 1846,
      "oellttaoeeeae": 1847,
      "taieieown": 1848,
      "ieteloeae": 1849,
      "teoteoee": 1850,
      "tathoelaeatn": 1851,
      "aieeemtc": 1852,
      "otiebat": 1853,
      "oohtoetno": 1854,
      "ooe": 1855,
      "eaiee0": 1856,
      "eatotnlo0": 1857,
      "eaodtot": 1858,
      "eaiaaeaodtot": 1859,
      "eaiaaeaodtotmtn": 1860,
      "oeaiaaeaodtotmtn": 1861,
      "aiaaetatotn": 1862,
      "oeltc": 1863,
      "eaieeeatneaseaa": 1864,
      "eaaeedpa": 1865,
      "tnta": 1866,
      "ottoottooheatn": 1867,
      "eaaoeotohasa": 1868,
      "tcteetohohaetn": 1869,
      "eaeaieoteaie": 1870,
      "eatototn": 1871,
      "eatototntho": 1872,
      "llor": 1873,
      "aieaieaieea": 1874,
      "eohaooooaieaieaieea": 1875,
      "eohaooooaieaieaieeatotoe": 1876,
      "etsc": 1877,
      "asaietetn": 1878,
      "aieetstof": 1879,
      "oieemopa": 1880,
      "etothn": 1881,
      "eeeaetetn": 1882,
      "tateaieeetstt": 1883,
      "teoteoeeeatoeaaeaiee": 1884,
      "aedtcasee": 1885,
      "ttaafaeeeaetetn": 1886,
      "ttatjhn": 1887,
      "eaeaieotdero": 1888,
      "ieemoeltc": 1889,
      "eatotnoieetaie": 1890,
      "oodaiaaeeaeoteea": 1891,
      "etaieeaseeetnoeae": 1892,
      "oeeeaieoeoteaieeuto": 1893,
      "teatnpt": 1894,
      "eaaeeetof": 1895,
      "otasaietetn": 1896,
      "tnohaie": 1897,
      "oetaotasaietetn": 1898,
      "oeeeaietec": 1899,
      "llooooeaioteatn": 1900,
      "taaieeetoar": 1901,
      "staieeatn": 1902,
      "eieeagte": 1903,
      "toeeaotdt": 1904,
      "aieaeaieeeto": 1905,
      "eaeeasoooooeeae": 1906,
      "asl": 1907,
      "tootho": 1908,
      "toothoasl": 1909,
      "tamoto": 1910,
      "oodoeeae": 1911,
      "eeaaeed": 1912,
      "eaaeeeeaaeed": 1913,
      "eaetoeadtvost": 1914,
      "gtehn": 1915,
      "eaaeeeeaaeedeaaeee": 1916,
      "aieaeaiee": 1917,
      "eaetothn": 1918,
      "aieethaietc": 1919,
      "eaaaieeea": 1920,
      "thn0": 1921,
      "taeaaieeee": 1922,
      "aotasaie": 1923,
      "aiaaeeaetaiee": 1924,
      "oteetar": 1925,
      "aiexetn": 1926,
      "oohtho": 1927,
      "eatoaieeetstt": 1928,
      "ietteec": 1929,
      "eeaeo": 1930,
      "faea": 1931,
      "eaead": 1932,
      "tmsa": 1933,
      "aieaieae": 1934,
      "aieaeaieeetoown": 1935,
      "eaieatn": 1936,
      "teetoeaieote": 1937,
      "emst": 1938,
      "teoteotn": 1939,
      "aieeasadoown": 1940,
      "llolloellollofttea": 1941,
      "thaitoetn": 1942,
      "oetteaewn": 1943,
      "elrttaoeeeae": 1944,
      "llooooaieae1": 1945,
      "taieieaead": 1946,
      "taieieaeadieeohasa": 1947,
      "taoeeeaeaie": 1948,
      "otaoeeeae": 1949,
      "aieaieaeotaoeeeae": 1950,
      "teaaedtctn": 1951,
      "oeteatoeatnteer": 1952,
      "eaaaeeeaeee": 1953,
      "eteea": 1954,
      "tetnaieasaie": 1955,
      "etytetn": 1956,
      "ttaafaetytetn": 1957,
      "eaaaieae": 1958,
      "eaetrtoeaetrto": 1959,
      "afaeteea": 1960,
      "erdoellttaoeeeae": 1961,
      "hrdtllorto": 1962,
      "eeadeaeeasoooo": 1963,
      "oodeaitfee": 1964,
      "eafa": 1965,
      "oteetoown": 1966,
      "stiaec": 1967,
      "lloooostiaec": 1968,
      "etnotaieerto": 1969,
      "aieaieetheaaeedtetn": 1970,
      "eaietn": 1971,
      "eaataieellolloeatn": 1972,
      "erdthaitoetn": 1973,
      "taiaae": 1974,
      "aieeaieee": 1975,
      "taoteeta": 1976,
      "aieeet": 1977,
      "tootllo": 1978,
      "eeaaeeeto": 1979,
      "taaetaieeeto": 1980,
      "oestteeaaeeeto": 1981,
      "oodieeeea": 1982,
      "eaieeeaegggeae": 1983,
      "teoteot": 1984,
      "aieeeaaeea": 1985,
      "eatoeaaieeee": 1986,
      "teoteoeasa": 1987,
      "teoteoeasatn": 1988,
      "eatoeaeaieotdero": 1989,
      "eaieeeatneaseear": 1990,
      "aieaeoaieaeo": 1991,
      "erdeaaeeeeaaeedeaaeee": 1992,
      "eaieaaeaieeown": 1993,
      "teeaaaaet": 1994,
      "teeaaaaethoela": 1995,
      "oeeeaieoeeae": 1996,
      "eaaetaie": 1997,
      "erdethno": 1998,
      "eaaeeeafa": 1999,
      "eeeaaeeeafa": 2000,
      "eaeheaeeaieero": 2001,
      "eaallollo": 2002,
      "ottoottoohst": 2003,
      "oteeeaoteaie": 2004,
      "oteetnsc": 2005,
      "oeloaseetetn": 2006,
      "aieethaietc1": 2007,
      "eot": 2008,
      "oodtaiee": 2009,
      "todcto": 2010,
      "ooheattaieeeto": 2011,
      "oodaieae0": 2012,
      "eatotneaieaietoto": 2013,
      "eltto": 2014,
      "eatooeltto": 2015,
      "tnaeae": 2016,
      "oeeeaieeaetaiee": 2017,
      "eaiaaeeaeoteea": 2018,
      "oeeeaieaiaaeeaeoteea": 2019,
      "tjaie": 2020,
      "tseetjhn": 2021,
      "oohtaetaiee": 2022,
      "eaeeadeaeetc": 2023,
      "ohaoouoto": 2024,
      "aieeetoer": 2025,
      "aieeetoert": 2026,
      "eeatn1": 2027,
      "aiaaeaeeeaeee": 2028,
      "loeaiee": 2029,
      "eloloeaiee": 2030,
      "oeotdafaetasaa": 2031,
      "ifaea": 2032,
      "totaoeeeae": 2033,
      "eaeeae": 2034,
      "eeiehn": 2035,
      "oodaieeaiaaehn": 2036,
      "toeeaotdaotasee": 2037,
      "emoomoou": 2038,
      "aitoemoomoou": 2039,
      "gggaitoemoomoou": 2040,
      "oeeeaieeaeero": 2041,
      "taieaeeiehn": 2042,
      "odtoo": 2043,
      "eatoert": 2044,
      "oethohr": 2045,
      "teetoaieaiee": 2046,
      "etoe": 2047,
      "ooheatn": 2048,
      "oeotaseaaie": 2049,
      "eer0": 2050,
      "llooooiaee": 2051,
      "aieaeer0": 2052,
      "tefs": 2053,
      "eear": 2054,
      "eaaood": 2055,
      "patneaieaietoto": 2056,
      "aieaieaieeatn": 2057,
      "afaeaieotd": 2058,
      "eeeaaeeeafaeaieote": 2059,
      "oertotaoeeeae": 2060,
      "oetotoertotaoeeeae": 2061,
      "tkto": 2062,
      "eeaeo0": 2063,
      "ieeaaseeto": 2064,
      "ef": 2065,
      "meuaiee": 2066,
      "gtetmeuaiee": 2067,
      "erodtoo": 2068,
      "afaeaieotdtv": 2069,
      "otefa": 2070,
      "stoo": 2071,
      "oodtetn": 2072,
      "aitoe": 2073,
      "erdoeteaaeaieaeto": 2074,
      "ietn1": 2075,
      "paeaieeea": 2076,
      "ottoaieeeaaetnrodto": 2077,
      "erodtootetn": 2078,
      "oeeeaievea": 2079,
      "gteeaaeeeatn": 2080,
      "aieeetoeeaaeasaee": 2081,
      "stooeatn": 2082,
      "paemtctaiee": 2083,
      "eeaefsoeo": 2084,
      "oohtoteatnaieae": 2085,
      "thaieaeoooooteeea": 2086,
      "oodtjaie": 2087,
      "eaeloaiaae": 2088,
      "etopa": 2089,
      "oteaitfeeetopa": 2090,
      "tooieemot": 2091,
      "ooheer": 2092,
      "eteaieuto": 2093,
      "tnrodto": 2094,
      "sttnrodto": 2095,
      "aieaethn": 2096,
      "teatotsttnrodto": 2097,
      "ertothtn": 2098,
      "eaeeertothtn": 2099,
      "aieaethnaie0": 2100,
      "oeaiehrdtetn": 2101,
      "oeotetn": 2102,
      "eaieeeatv": 2103,
      "tathrto": 2104,
      "ieemto": 2105,
      "etnoieemto": 2106,
      "eaaeeeatn": 2107,
      "tefsoeotetn": 2108,
      "ietaseaa": 2109,
      "eadsa": 2110,
      "teeaeadsa": 2111,
      "aieaeadeief": 2112,
      "toeeaotdtaieeasa": 2113,
      "ooooaiaae": 2114,
      "erdtaiee": 2115,
      "ohatoaieeaee": 2116,
      "toothr": 2117,
      "ttaegggeae": 2118,
      "eeaeooooaiaae": 2119,
      "aieeaietn": 2120,
      "tnaietc": 2121,
      "oteeetnoieemto": 2122,
      "eaieeae": 2123,
      "oeeeaieeae": 2124,
      "eohaooooiee": 2125,
      "eaieeaeoouoo": 2126,
      "iebod": 2127,
      "taoeoteaieeouoo": 2128,
      "eaethtn": 2129,
      "eaaaieaietaoeeeaethtn": 2130,
      "tootktt": 2131,
      "eaieeeattea": 2132,
      "oeaiehrd": 2133,
      "ethoaroooo": 2134,
      "tseeoteetnrodto": 2135,
      "ohatoeaseeao": 2136,
      "oeeeaieeaeouoo": 2137,
      "eaateatoar": 2138,
      "tneerto": 2139,
      "oeeeaietaa": 2140,
      "iecown": 2141,
      "eaiaaeeto": 2142,
      "eaiaaeetoiecown": 2143,
      "oteeeteae": 2144,
      "eaaeaeloaiaae": 2145,
      "eaeeasooooetoeaier": 2146,
      "eatoeae0": 2147,
      "ieeahn": 2148,
      "etero": 2149,
      "eretaieeeto": 2150,
      "taeteae": 2151,
      "eatooeot": 2152,
      "eaaieeeatneea": 2153,
      "oethottniebtjho": 2154,
      "eait": 2155,
      "aieeaiee0": 2156,
      "erdohtoeatn": 2157,
      "eeta1": 2158,
      "etotoetoto": 2159,
      "oeeeaietasee": 2160,
      "oeeeaietaseeetero": 2161,
      "tatcaieeeto": 2162,
      "eaataeaier": 2163,
      "gteseetpa": 2164,
      "eatotthn": 2165,
      "erdtooteethn": 2166,
      "eadaiee": 2167,
      "on": 2168,
      "oeeeaieoest": 2169,
      "etoaiaae": 2170,
      "odrhtn": 2171,
      "efac": 2172,
      "erdoheaieeea": 2173,
      "taeeifaea": 2174,
      "etotoetotofa": 2175,
      "eaitfeelotothn": 2176,
      "ptown": 2177,
      "teatnptown": 2178,
      "eaaieeeatnsodsod": 2179,
      "oodeteaieuto": 2180,
      "gteteeae": 2181,
      "teaetcaieeeto": 2182,
      "teatoottn": 2183,
      "ieemoero": 2184,
      "eaieeeaeasatoto": 2185,
      "siec": 2186,
      "otaiatot": 2187,
      "otaiatotetn": 2188,
      "teoteooietaseaa": 2189,
      "etaoaiaae": 2190,
      "aeaetotoetotofa": 2191,
      "eaaeaieafteoaiaae": 2192,
      "easaoooo": 2193,
      "otetoaiaae": 2194,
      "gggt": 2195,
      "gggtaitoe": 2196,
      "aiaaeieemoero": 2197,
      "tootaiaaeieemoero": 2198,
      "taoteeaeterduto": 2199,
      "he": 2200,
      "elhe": 2201,
      "eaaeasaee": 2202,
      "oeeeaieeeaaeasaee": 2203,
      "eeadeetc": 2204,
      "ietaieoeoteea": 2205,
      "etmoeoteai": 2206,
      "oeoteaietmoeoteai": 2207,
      "oeoteaietmoeoteaietc": 2208,
      "etsutoaiaae": 2209,
      "ttateaieeead": 2210,
      "ttateaieeeadeer": 2211,
      "thieeouoo": 2212,
      "erdoohgte": 2213,
      "eatooeotohoest": 2214,
      "tootlloetn": 2215,
      "taeetotoieeohaieeetc": 2216,
      "eeawn": 2217,
      "taieeeeawn": 2218,
      "taiaaeta": 2219,
      "taiaaetatttn": 2220,
      "lloooollorto": 2221,
      "oeaiehre": 2222,
      "eeaar": 2223,
      "etntaoee": 2224,
      "etntaoeeeaeero": 2225,
      "tneaseear": 2226,
      "tsc": 2227,
      "aietaoeeeae": 2228,
      "tktsc": 2229,
      "aieeeieemtn": 2230,
      "eatoeatneerto": 2231,
      "oietaietetn": 2232,
      "etneerto": 2233,
      "oetotoea": 2234,
      "teea0": 2235,
      "eaaeedhot": 2236,
      "eaaeedhota": 2237,
      "eaaeedhotatttn": 2238,
      "eaaetot": 2239,
      "ieteaaetot": 2240,
      "ieteaaetotjhn": 2241,
      "tneer": 2242,
      "tneertoown": 2243,
      "toeaieaietoto": 2244,
      "toeeaotdoeoteaieeaee": 2245,
      "oetodetnotaieerto": 2246,
      "toeaieaietotoar": 2247,
      "oteatot": 2248,
      "tev": 2249,
      "eohaooooaieaeadthnaie": 2250,
      "oeotaseaaietetn": 2251,
      "aieetaieeeto": 2252,
      "teeeea": 2253,
      "teeteeeea": 2254,
      "oodtootlloetn": 2255,
      "eadaeae": 2256,
      "aieaiea": 2257,
      "touto": 2258,
      "tnoieetaie": 2259,
      "aieaeadieemtn": 2260,
      "teoteotneaieaietoto": 2261,
      "oohthoaieetaieeeto": 2262,
      "oodaieeemtc": 2263,
      "ter": 2264,
      "teater": 2265,
      "ttateeaeadsa": 2266,
      "ttaeaeaetn": 2267,
      "eadhtahn": 2268,
      "oeoteaseeexeceeeoetmtn": 2269,
      "oello": 2270,
      "erdtec": 2271,
      "erdtec0": 2272,
      "eatoieemoeltc": 2273,
      "aiaieaiee": 2274,
      "aiaieaieeetoe": 2275,
      "eaieafteoaiaa": 2276,
      "aotetm": 2277,
      "eadaieero": 2278,
      "otaiatotetnasa": 2279,
      "toeeaotdoeoteaieetc": 2280,
      "eaieeeathtn": 2281,
      "eaaaieeetnasa": 2282,
      "aiaaeoh": 2283,
      "eaaaiaaeoh": 2284,
      "ieeeadaieero": 2285,
      "eaatseeoteetnrodto": 2286,
      "oesttehaetn": 2287,
      "tseetsee": 2288,
      "llooooeeaeaieeeto": 2289,
      "eaieatot": 2290,
      "teatolo": 2291,
      "oteatoown": 2292,
      "eaeeader": 2293,
      "otaieeasa": 2294,
      "eaeeaderotaieeasa": 2295,
      "oodstooeatn": 2296,
      "ohatot": 2297,
      "eeeae": 2298,
      "oteatothoela": 2299,
      "easatoar": 2300,
      "taeatn": 2301,
      "oohaieee": 2302,
      "erdaieaieaieeatn": 2303,
      "oeotohoest": 2304,
      "tth": 2305,
      "haieeeto": 2306,
      "eaieatothaieeeto": 2307,
      "eohaooootaoeeeae": 2308,
      "eatoeeetneea": 2309,
      "tktot": 2310,
      "eaeaetnaotasee": 2311,
      "iodiodtaoeeeae": 2312,
      "hotsaie": 2313,
      "thothotsaie": 2314,
      "tsaie": 2315,
      "eaieafteoaiaaeaieeetc": 2316,
      "oeotaseaaieown": 2317,
      "eaaaiaaeohtho": 2318,
      "oodoh": 2319,
      "eaaodthtn": 2320,
      "aeaieeea": 2321,
      "eetauto": 2322,
      "eatoeerto": 2323,
      "eatoeertoieerodtn": 2324,
      "oteatothoelapa": 2325,
      "oetoet": 2326,
      "aieeatottt": 2327,
      "teatotaieeatottt": 2328,
      "erdoeloaseetetn": 2329,
      "oelttoar": 2330,
      "ieeaaseetoaietc": 2331,
      "tveasa": 2332,
      "lloooothnaie": 2333,
      "oeeeaieero": 2334,
      "oteatoo": 2335,
      "aieaaiee": 2336,
      "erdeaaaieae": 2337,
      "eatotaiee": 2338,
      "oeteaaieeeatsee": 2339,
      "toteatoaieae": 2340,
      "aotohaieaieeeto": 2341,
      "aero": 2342,
      "teoteotaero": 2343,
      "eeetneeto": 2344,
      "aietwn": 2345,
      "eaaaieeetc": 2346,
      "tthoown": 2347,
      "astoto": 2348,
      "oodtv": 2349,
      "roo": 2350,
      "rooo": 2351,
      "oodtveatn": 2352,
      "hohoh": 2353,
      "tofa": 2354,
      "tatveasa": 2355,
      "tktoee": 2356,
      "tktoeeeaieetno": 2357,
      "gteeeatn": 2358,
      "taafa": 2359,
      "ooheaaaieeetc": 2360,
      "eetoeetn": 2361,
      "tseegggtaitoe": 2362,
      "gteeeatn0": 2363,
      "eteaeeae": 2364,
      "taoeeeaee": 2365,
      "toothoasloho": 2366,
      "toothoaslohoc": 2367,
      "hrdoeltto": 2368,
      "ottotsiec": 2369,
      "aietc0": 2370,
      "erdeaseeao": 2371,
      "eaateaieeaee": 2372,
      "oodeaaeto": 2373,
      "eaeai": 2374,
      "eetoeetnaiee": 2375,
      "aieaf": 2376,
      "eaieaeeeaeee": 2377,
      "eaeeelot": 2378,
      "lloooolherodtn": 2379,
      "oodooheattaieeeto": 2380,
      "oiettaoeeeaee": 2381,
      "oiettaoeeeaeetaieeeto": 2382,
      "oeeeaieaieeeatn": 2383,
      "stetn": 2384,
      "ooheaaaieeetco": 2385,
      "eaeaieeeto": 2386,
      "eaexxeaeouoo": 2387,
      "erdeuto": 2388,
      "oeaieohetktttn": 2389,
      "aieaouoo": 2390,
      "oeeeaieottoottn": 2391,
      "dpa": 2392,
      "thetsc": 2393,
      "toteatoaieaesodsod": 2394,
      "teaeaae": 2395,
      "teaeaaedpa": 2396,
      "eeaeeea": 2397,
      "teao": 2398,
      "oohtoelrt": 2399,
      "ooaoeaiaaeaodtotmtn": 2400,
      "gtetaiee": 2401,
      "ohatoteaieethn": 2402,
      "oodeaieeeattea": 2403,
      "todctoown": 2404,
      "lloooostaie": 2405,
      "teaeaieaeeeaeee": 2406,
      "ooheea": 2407,
      "odeaeeasoooo": 2408,
      "eaiaaeouoo": 2409,
      "ooheeaeaiaaeouoo": 2410,
      "oeeeaieeaaeeeatn": 2411,
      "oeeeaietteao": 2412,
      "aieeast": 2413,
      "hoaieeast": 2414,
      "aieaellorto": 2415,
      "eaeaiea": 2416,
      "eeaaetouto": 2417,
      "eaeaieaeeaaetouto": 2418,
      "aietot": 2419,
      "teetn": 2420,
      "aietoter": 2421,
      "etaoaie": 2422,
      "ttsoeotjhnaiaae": 2423,
      "ttaeaeero": 2424,
      "taeeexaieeetnoeeeaie": 2425,
      "ttmon": 2426,
      "toeeaotdaseaie": 2427,
      "eatoeaaeeaieaeto": 2428,
      "erdaiaaeeaeoteea": 2429,
      "gtetaieetclo": 2430,
      "ottouto": 2431,
      "eteottouto": 2432,
      "teatogtetaieetclo": 2433,
      "oodeteottouto": 2434,
      "oodtaoeeeae": 2435,
      "ttatneerto": 2436,
      "oodteev": 2437,
      "oetiaaeemtc": 2438,
      "eaieafhneae": 2439,
      "thoela": 2440,
      "tseetotoaiesa": 2441,
      "teeaf": 2442,
      "teeafaietn": 2443,
      "oodtaieeoesttetn": 2444,
      "eaieee1": 2445,
      "astoaie": 2446,
      "oetodeaeae": 2447,
      "aieea3": 2448,
      "ettaieertoetaieeeto": 2449,
      "toeeaotdeutoeuto": 2450,
      "eaatnst": 2451,
      "erdtteaown": 2452,
      "etnoh": 2453,
      "tteaie": 2454,
      "eeaeeeaetnoh": 2455,
      "odtofa": 2456,
      "hrodtofa": 2457,
      "ooderdttea": 2458,
      "oiettetn": 2459,
      "mtouto": 2460,
      "eaeoet": 2461,
      "eaeoetmtouto": 2462,
      "faar": 2463,
      "asoteafaar": 2464,
      "llooooooheerto": 2465,
      "aioteaedooooetno": 2466,
      "ottoteaee": 2467,
      "oeteatoeatnllo": 2468,
      "eaioteaeeoooo": 2469,
      "toter": 2470,
      "eadoeoteaie": 2471,
      "eaeeelottt": 2472,
      "oodsac": 2473,
      "eohaooooeteemtn": 2474,
      "eaewn": 2475,
      "oetmtnastoaie": 2476,
      "eadtjhn": 2477,
      "aieeetoo": 2478,
      "oeotasttmnta": 2479,
      "teaioteaeeoooo": 2480,
      "eaaieeeatev": 2481,
      "erdtteaaie": 2482,
      "tseetsiec": 2483,
      "taieeoh": 2484,
      "taieeohhn": 2485,
      "oeeeaieer": 2486,
      "tnoheelo": 2487,
      "patnoheelo": 2488,
      "eieeaetn": 2489,
      "erdeieeaetn": 2490,
      "ttsoeoteaewn": 2491,
      "tseetnaietc": 2492,
      "tneeaaie": 2493,
      "eaieasoteaaieaeo": 2494,
      "lhetktttn": 2495,
      "oeeeaielloooollooooouoo": 2496,
      "oohtot": 2497,
      "hrdc": 2498,
      "tooteatn": 2499,
      "toeeaotdasoteafa": 2500,
      "iodtn": 2501,
      "iodtnttt": 2502,
      "erdaieaieeeto": 2503,
      "erdtmeuo": 2504,
      "eertohn": 2505,
      "hohohoeatn": 2506,
      "oodoesttehre": 2507,
      "oetoteieeaatn": 2508,
      "etaoeeeaeuto": 2509,
      "iodiodaieaeeaaeto": 2510,
      "eaetaoeeeaeuto": 2511,
      "oetodtjhn": 2512,
      "eaieeeaeaseeao": 2513,
      "aeertohn": 2514,
      "teoteoeaieafteoaiaae": 2515,
      "aieeeato": 2516,
      "eeadteeatn": 2517,
      "eaeeelo": 2518,
      "iodiodtnttt": 2519,
      "paeaieasotea": 2520,
      "oeaiaieeaieee": 2521,
      "toothre": 2522,
      "eaieeeatt": 2523,
      "eaieeeatteaaiee": 2524,
      "oteeatn": 2525,
      "tost": 2526,
      "oodaeaeatt": 2527,
      "tooteatot": 2528,
      "tooteatottt": 2529,
      "taieeown": 2530,
      "eaeoh": 2531,
      "taeuto": 2532,
      "eadoeaiaaeaodtotmtn": 2533,
      "tostetaieeeto": 2534,
      "oodeteaeeae": 2535,
      "eadtvoouoo": 2536,
      "eaieeeaeaieeea": 2537,
      "teaetm": 2538,
      "eadoeaieaieeeaaetmtn": 2539,
      "tmef": 2540,
      "eftmef": 2541,
      "tvetaieeesoooo": 2542,
      "teaetmteaetcaieeeto": 2543,
      "taeaie": 2544,
      "oodoeteaaehn": 2545,
      "paeaetothn": 2546,
      "taaieeeeto": 2547,
      "etneeb": 2548,
      "oeaieohteec": 2549,
      "aioteaeeooooeae": 2550,
      "taaieeeeto0": 2551,
      "oodeaaieeeatsee": 2552,
      "gtehnst": 2553,
      "oodeaseeao": 2554,
      "aiaaeaieeeto": 2555,
      "teaioteaeeoooost": 2556,
      "tsa": 2557,
      "eeaeeeae": 2558,
      "eaiooe": 2559,
      "eaaaieeetneae": 2560,
      "aieeoeoteaiee": 2561,
      "oeeeaieaieeetn": 2562,
      "ottoth": 2563,
      "taeieeeadtjhn": 2564,
      "taeieeeadtjhn0": 2565,
      "oodaiiohasee": 2566,
      "eaaoodatot": 2567,
      "erdstaie1": 2568,
      "oeaieohtv": 2569,
      "odtnoho": 2570,
      "eeaeaseetootieer": 2571,
      "taaieeasado": 2572,
      "eatottea": 2573,
      "ieeaaseethnaie": 2574,
      "aieaeadttatotoaetn": 2575,
      "utoeuto": 2576,
      "aaoteoteeetn": 2577,
      "ooaeaiooe": 2578,
      "llost": 2579,
      "tseegggaitoemoomoou": 2580,
      "taieteetn": 2581,
      "tstofa": 2582,
      "oodtohn": 2583,
      "erdaieeetstt": 2584,
      "lloooooohtaetaiee": 2585,
      "toeeaotdaieetstt": 2586,
      "oodeftmef": 2587,
      "eaeaieotdttt": 2588,
      "oodeftmeftcaiee": 2589,
      "aieiaec": 2590,
      "tnttt": 2591,
      "ietaieoeot": 2592,
      "ietaieoeoteeaown": 2593,
      "tteaaieee": 2594,
      "eaieafhnllorto": 2595,
      "astoto1": 2596,
      "taaieea": 2597,
      "aioteetn": 2598,
      "ieeaaseeert": 2599,
      "etteatoteatnaiee": 2600,
      "llos": 2601,
      "eeaeeeaeouoto": 2602,
      "aafa": 2603,
      "eeetnteato": 2604,
      "eatotod": 2605,
      "aieeeatoetaieeeto": 2606,
      "oiettetnaie": 2607,
      "sce": 2608,
      "aioteetnsce": 2609,
      "thooteeafa": 2610,
      "etaiea": 2611,
      "paaieee": 2612,
      "eohaooooeaaeaieea": 2613,
      "eohaooooeaaeaieeatsee": 2614,
      "etneaeeelo": 2615,
      "eaieaeeaieaee": 2616,
      "tmsaown": 2617,
      "eadtaieetclo": 2618,
      "etaieeatoeatn": 2619,
      "etaieeatoeatnhaetn": 2620,
      "hneae": 2621,
      "afaetoeaier": 2622,
      "gteaieee1": 2623,
      "cto": 2624,
      "taiaeaieela": 2625,
      "tseetttmtn": 2626,
      "aiethtn": 2627,
      "eatoaotohaieaieae": 2628,
      "eaeeasooooaietn1": 2629,
      "oodaieeetstt": 2630,
      "aieaeoaieaeoaieaeo": 2631,
      "llooootneaiaoteaiee": 2632,
      "oelo": 2633,
      "eatotodcto": 2634,
      "gteieeohasa": 2635,
      "eaaoef": 2636,
      "aieeaeeasoooo": 2637,
      "aietaiee": 2638,
      "etaieoeteaaeaieaeto": 2639,
      "tmos": 2640,
      "tmostaieeeto": 2641,
      "ellor": 2642,
      "oodoieemtn": 2643,
      "thtaeiee": 2644,
      "oteaitfeeero": 2645,
      "ttaafaellor": 2646,
      "ttaafaellortotetn": 2647,
      "taeloeadar": 2648,
      "aethoh": 2649,
      "hoaseea": 2650,
      "eaaeeatn": 2651,
      "oeloeaaeeatn": 2652,
      "otefat": 2653,
      "otefattsee": 2654,
      "taoeeeaetaieeesoooo": 2655,
      "eaaaieeeto": 2656,
      "eadoetv": 2657,
      "oeaiehrdpa": 2658,
      "oodaiee": 2659,
      "aieaeadetneeb": 2660,
      "lloooolhetktttn": 2661,
      "ethoeaaieeee": 2662,
      "ooahneae": 2663,
      "oetodteetn": 2664,
      "taeieeahn": 2665,
      "oodaseaie": 2666,
      "taieeaeooooaiaae": 2667,
      "paoeoteaieeea": 2668,
      "ethoe": 2669,
      "ethoeutoeuto": 2670,
      "eohaooootnoho": 2671,
      "oteafa": 2672,
      "llooooasoteafa": 2673,
      "eaiaaet": 2674,
      "tateaieethn": 2675,
      "eaiaaettateaieethn": 2676,
      "afaooheerto": 2677,
      "eaiaiee": 2678,
      "aiaieeown": 2679,
      "tktoteaitfee": 2680,
      "aieeeatn0": 2681,
      "gggottn": 2682,
      "teoteoieeeea": 2683,
      "aafaee": 2684,
      "oeaiehr": 2685,
      "teatoe": 2686,
      "aiteatoe": 2687,
      "ooeoteea": 2688,
      "ohooeoteea": 2689,
      "toothoaslohooeoteea": 2690,
      "eaatooteatn": 2691,
      "eaaaiteatoe": 2692,
      "teevoteeea": 2693,
      "afaaieaieetheaaeed": 2694,
      "afaaieaieetheaaeedtetn0": 2695,
      "oodoshtn": 2696,
      "taoietaseaa": 2697,
      "tsteeafa": 2698,
      "eaeeasooooeaieaieaief": 2699,
      "eaathoohneerto": 2700,
      "ooaetottn": 2701,
      "eatoto": 2702,
      "teaeait": 2703,
      "eaieafteaeait": 2704,
      "oooooeaiaae": 2705,
      "eaieafteaeaitoooooeaiaae": 2706,
      "toeeaotdeaaeaiee": 2707,
      "eatotoeaiaiee": 2708,
      "eaatseaseeao": 2709,
      "erdeteemtn": 2710,
      "aehtecaafaee": 2711,
      "tooteethn": 2712,
      "totnst": 2713,
      "aieaieaouoo": 2714,
      "aieeeae0": 2715,
      "oteatotnst": 2716,
      "haetnaieaeo": 2717,
      "ottoo": 2718,
      "tllor": 2719,
      "eatotm": 2720,
      "llooootmeu": 2721,
      "eeadeaeetc": 2722,
      "ietfaafa": 2723,
      "thneeeaown": 2724,
      "eatoeieeagte": 2725,
      "eatoeaier": 2726,
      "eatotetn1": 2727,
      "patsteeafa": 2728,
      "aieaieaieae": 2729,
      "aieaieaieaeeaieetno": 2730,
      "ttahtahn": 2731,
      "rtoown": 2732,
      "etnotaieertoown": 2733,
      "thaietco": 2734,
      "aieeetoaieeeto": 2735,
      "aiema": 2736,
      "ieeataeeifaea": 2737,
      "aieetmsa": 2738,
      "llooooeaetaiee": 2739,
      "eth": 2740,
      "thtseeaaiaaetsaieaeo": 2741,
      "ieeaaseeeaioteato": 2742,
      "hrdtllor": 2743,
      "hrdtllortoown": 2744,
      "aotetmoheaieeea": 2745,
      "taoteea": 2746,
      "etv": 2747,
      "eaaeaieeeaown": 2748,
      "aieaeaiea": 2749,
      "eatottt": 2750,
      "eatoeato": 2751,
      "eeaiee": 2752,
      "oodaieeeae1": 2753,
      "erdtcteetohohaetn": 2754,
      "patoot": 2755,
      "oeotasttmntaeear": 2756,
      "erdc": 2757,
      "eatoeetauto": 2758,
      "teatotn": 2759,
      "eaieafhnaieeeto": 2760,
      "llooooefac": 2761,
      "eadeaieaeeaieaee": 2762,
      "iebeadeaieaeeaieaee": 2763,
      "eaeaieotdeahn": 2764,
      "gteiettc": 2765,
      "iebodiebod": 2766,
      "eaeieeouoo": 2767,
      "patooteaeieeouoo": 2768,
      "aietaieetea": 2769,
      "oteatnthoela": 2770,
      "tahre": 2771,
      "aehtecaieaeouoo": 2772,
      "etaieeaieetn": 2773,
      "taeaaie": 2774,
      "oeeeaietnttt": 2775,
      "erdtaeieeahn": 2776,
      "erdeaatneaie": 2777,
      "tefsoeotetnllorto": 2778,
      "eeeaee": 2779,
      "otellollo": 2780,
      "teatoaieee": 2781,
      "aieatoe": 2782,
      "eaiaaeaieeea": 2783,
      "aieeeeae": 2784,
      "aieteer": 2785,
      "aotohaieteer": 2786,
      "taieeoestt": 2787,
      "taieeoesttetoown": 2788,
      "llooooeutoeuto": 2789,
      "aeaieeeto": 2790,
      "teadtetn": 2791,
      "eatoeatohaetn": 2792,
      "erdeief": 2793,
      "eoodtaoeeeae": 2794,
      "eoodtaoeeeaef": 2795,
      "gteaiexetn": 2796,
      "oetiaaee": 2797,
      "tatotnaie": 2798,
      "ottohottneaieote": 2799,
      "staieaieeeto": 2800,
      "eatoeaaeeeto": 2801,
      "aieeesoooo": 2802,
      "eadeaseeao": 2803,
      "afataoeeeae": 2804,
      "ethoteeatn": 2805,
      "teaeieeouoo": 2806,
      "teatotooteaeieeouoo": 2807,
      "aeaetotoetotofatnoho": 2808,
      "oodoetathon": 2809,
      "taeae0": 2810,
      "teatotnaietc": 2811,
      "oefaiets": 2812,
      "etotvo": 2813,
      "eeaieeetotvo": 2814,
      "oefaietseeaieeetotvo": 2815,
      "oodohtv": 2816,
      "eaieieown": 2817,
      "otnoieemto": 2818,
      "aethohotnoieemto": 2819,
      "hreaiaae": 2820,
      "taeaeero": 2821,
      "eeeaeeeaiee": 2822,
      "aieaeadtodcto": 2823,
      "pathtaeiee": 2824,
      "eaaethotc": 2825,
      "ooaoeoteaieeouoo": 2826,
      "eaaethotceta": 2827,
      "toeeaotdthneeea": 2828,
      "hrhtn": 2829,
      "hrhtne": 2830,
      "oohtec": 2831,
      "afatoohoetaieeeto": 2832,
      "eatooeeae": 2833,
      "eatoot": 2834,
      "aeadtcllorto": 2835,
      "faeteatotoeaiaiee": 2836,
      "ethoaroetmtn": 2837,
      "eaaieaf": 2838,
      "eaethre": 2839,
      "aieaeadtsiec": 2840,
      "staieeaeeasoooo": 2841,
      "oetetaieeethn": 2842,
      "eaaeaieeead": 2843,
      "talotothn": 2844,
      "eeadtnttt": 2845,
      "ieeaeooooaiaae": 2846,
      "oetoettttetaieeeto": 2847,
      "teeea": 2848,
      "ohaooteeea": 2849,
      "eaatsteeafa": 2850,
      "loaseetctcoooo": 2851,
      "otelloll": 2852,
      "ottoottn0": 2853,
      "ieteerto": 2854,
      "eaettcaiee": 2855,
      "etaieeohouoothn": 2856,
      "eaeeeaeeeduto": 2857,
      "lotc": 2858,
      "iaeaieelaown": 2859,
      "teas": 2860,
      "aieeetoaieeetogte": 2861,
      "eaaeeeatoeaaeaiee": 2862,
      "taaieaetn": 2863,
      "eaaaieeasadoown": 2864,
      "ttaeiee": 2865,
      "erdtodcto": 2866,
      "taieetc": 2867,
      "otellolloouoo": 2868,
      "ttan": 2869,
      "eaieotdpa": 2870,
      "aieaeeto": 2871,
      "eeadeatoeatn": 2872,
      "llooooeaeeadeaeetc": 2873,
      "hotto": 2874,
      "hottoeaieotdpa": 2875,
      "erdtteao": 2876,
      "eaatnerto": 2877,
      "aieeaie": 2878,
      "oteatooet": 2879,
      "aieeaieeaiee0": 2880,
      "oodeea": 2881,
      "eaitoooo": 2882,
      "aeaitoooo": 2883,
      "teaseear": 2884,
      "teoteooteaseear": 2885,
      "oohthosc": 2886,
      "odsod": 2887,
      "ottoeaeeadeaeetc": 2888,
      "eaaieea": 2889,
      "eaaieeataeeifaea": 2890,
      "toeeaotdieeeeawn": 2891,
      "hno": 2892,
      "tootktteaaaieae": 2893,
      "lloooottatotoaetn": 2894,
      "paetototn": 2895,
      "etlo": 2896,
      "paetototn1": 2897,
      "efe": 2898,
      "ooetnooooo": 2899,
      "ottothooetnooooo": 2900,
      "aeieeahn": 2901,
      "oteatooetieeaaie": 2902,
      "eaieaedtc": 2903,
      "eaieaedtcoooo": 2904,
      "ttsoeotaeieeahn": 2905,
      "oodottoottn": 2906,
      "eaaaieetstof": 2907,
      "iecoooo": 2908,
      "eaeeelotttethno": 2909,
      "eaaieafiecoooo": 2910,
      "eadoeaiaieeaieee": 2911,
      "teoteotneaie": 2912,
      "eaaieafiecoooo1": 2913,
      "thaieaeeto": 2914,
      "ttathaieaeeto": 2915,
      "ttathaieaeetoeer": 2916,
      "aieasee": 2917,
      "tsuto": 2918,
      "oeeeaieetsuto": 2919,
      "ietaieoeoteeaeae": 2920,
      "eaafaetthooero": 2921,
      "etaietaieetea": 2922,
      "odtaoeeeae": 2923,
      "teoteoeaeheaeeaieero": 2924,
      "eatotmtsa": 2925,
      "oeeeaieaiea": 2926,
      "seea": 2927,
      "eaaeaieaedtcoooo": 2928,
      "asaeaieaieae": 2929,
      "tvo1": 2930,
      "tseaeai": 2931,
      "erdtea": 2932,
      "eaaoest": 2933,
      "tktgggaitoemoomoou": 2934,
      "otot": 2935,
      "aieieeasa": 2936,
      "tac": 2937,
      "taoeeeaieeaetaiee": 2938,
      "thaieaeooooeaettcaiee": 2939,
      "oeotdeeaeasee": 2940,
      "eaaaieae1": 2941,
      "eaaeaieeeadst": 2942,
      "eeadtaiee": 2943,
      "taoeoteaie": 2944,
      "eaieeeaaieae": 2945,
      "ietoteeta": 2946,
      "erdteataeiee": 2947,
      "erdteataeiee0": 2948,
      "oteetnteer": 2949,
      "afaetototn": 2950,
      "patthn": 2951,
      "aieeeeastetn": 2952,
      "eaiear": 2953,
      "oodtoteatnaieae": 2954,
      "thosc": 2955,
      "eggg": 2956,
      "eloasee": 2957,
      "aiaaeloasee": 2958,
      "aiaaeloaseetctc": 2959,
      "ieemoomoou": 2960,
      "oteett": 2961,
      "oteettthn": 2962,
      "etaieehre": 2963,
      "erdoeoteaieeaee": 2964,
      "oeeeaieoteaaoteaiee": 2965,
      "hohrteatn": 2966,
      "aeadtceatn": 2967,
      "toeeaotdeer": 2968,
      "ttatoeeaotdeer": 2969,
      "eertotetn": 2970,
      "eadoetieeaaie": 2971,
      "eatoooh": 2972,
      "eeeaeeeaieeouoo": 2973,
      "toeertotetn": 2974,
      "oeeeaieoteeea": 2975,
      "oohaieae": 2976,
      "eaeeadao": 2977,
      "eatoeaeeae": 2978,
      "taiaoteaiee": 2979,
      "ooohtc": 2980,
      "aieeetootaiaoteaiee": 2981,
      "oodthtn": 2982,
      "eaaohn": 2983,
      "tooieemothtn": 2984,
      "oohetlo": 2985,
      "aotaieeeto": 2986,
      "atoetn": 2987,
      "oodeeaaeasaee": 2988,
      "taetno": 2989,
      "oodteaeaie": 2990,
      "taeieemoomoou": 2991,
      "oetofaaslo": 2992,
      "tooieemo": 2993,
      "eaatsaietetneaeeasoooo": 2994,
      "tseaeaietaoeeeae": 2995,
      "eaaaieeetnrooo": 2996,
      "taaeaieeeto": 2997,
      "teoteotetn": 2998,
      "etnaieec": 2999,
      "erdeaaeaseetetn": 3000,
      "oeeeaieas": 3001,
      "oeeeaieasto": 3002,
      "aieaeaieieown": 3003,
      "aieeeaeeadeaeetc": 3004,
      "taoeeeaeoooo": 3005,
      "aieemtc": 3006,
      "eaaeedho": 3007,
      "eaeaetneaaeedho": 3008,
      "ooaaieeaiaaehn": 3009,
      "msa": 3010,
      "tatmsa": 3011,
      "oeeeaieta": 3012,
      "oietaseaaown": 3013,
      "lloooooetn": 3014,
      "aieeeteemtn": 3015,
      "tvooooo": 3016,
      "oeaiehrdtvooooo": 3017,
      "etaieotellollo": 3018,
      "eaeaetnao": 3019,
      "fatts": 3020,
      "fattsfa": 3021,
      "tototn": 3022,
      "eaohhrd": 3023,
      "tsfattsfa": 3024,
      "odeaetothn": 3025,
      "eaohhrdst": 3026,
      "eeeastetn": 3027,
      "toothrdc": 3028,
      "taeaaeaiee": 3029,
      "teatoatot": 3030,
      "eadthtn": 3031,
      "toeeaotdaotaieeeto": 3032,
      "eaaetuto": 3033,
      "erdetaie": 3034,
      "eaaeaaie": 3035,
      "paotetktttoown": 3036,
      "oodthtnaiaae": 3037,
      "ehtec": 3038,
      "heaaeed": 3039,
      "oetoetttt": 3040,
      "eadtaa": 3041,
      "ieaee": 3042,
      "tieemosa": 3043,
      "tmtieemosa": 3044,
      "efwn": 3045,
      "oeteaaeoooo": 3046,
      "taitoteatoeeb": 3047,
      "oeeeaietaefwn": 3048,
      "aieaeoaieaellorto": 3049,
      "llooootooteethn": 3050,
      "aieeeetn": 3051,
      "erdaeaieeea": 3052,
      "eadoest": 3053,
      "afataeeexaieeeto": 3054,
      "eatooetv": 3055,
      "heaaeedtetn": 3056,
      "etaieetaieeeto": 3057,
      "aieaeooohtc": 3058,
      "eaieeeaeaieaieae": 3059,
      "aieaeadoetrto": 3060,
      "eaieuto": 3061,
      "tkttaieieeasa": 3062,
      "iebtn": 3063,
      "erdteeaaaaeoooo": 3064,
      "tototnaie": 3065,
      "ohatototnaie": 3066,
      "aotetmiodiodtaoeeeae": 3067,
      "gteeaeeasoooo": 3068,
      "eaaoeftac": 3069,
      "oohteea": 3070,
      "aietaieeesoooo": 3071,
      "oodtoothre": 3072,
      "llooooetaiaaeee": 3073,
      "hottneeto": 3074,
      "eaiaaeeae": 3075,
      "ieaeeiehn": 3076,
      "ohtoeea": 3077,
      "sttetn": 3078,
      "eaaoodtoteatnaieae": 3079,
      "afaetaie": 3080,
      "veaown": 3081,
      "aieeaieee0": 3082,
      "aieaeoeaaefeatn": 3083,
      "etkttto": 3084,
      "erdeaeeadao": 3085,
      "oetodhoaseea": 3086,
      "toeeaotdeaieafteoaiaae": 3087,
      "teaieuto": 3088,
      "tooieemotthn": 3089,
      "oeeeaiear": 3090,
      "aiaaeoeeeaiear": 3091,
      "eatototot": 3092,
      "tuto": 3093,
      "erdeaaeaiee": 3094,
      "tseeiodiodtnttt": 3095,
      "oodohtc": 3096,
      "etaiets": 3097,
      "hohrt": 3098,
      "eaeaietmtn": 3099,
      "ttaoeloaseetetn": 3100,
      "ohaolherodtn": 3101,
      "tkteeae": 3102,
      "eelot": 3103,
      "ieteertoero": 3104,
      "eetuto": 3105,
      "otetktttoown": 3106,
      "gteiec": 3107,
      "aieetclo": 3108,
      "eelotaieetclo": 3109,
      "etktttoeaetaiee": 3110,
      "ottoeaiaaeeae": 3111,
      "eaieeeaeaieeeaeaieeea": 3112,
      "eatootiebat": 3113,
      "iecieceaaeto": 3114,
      "aieaeadeeaeaieeeto": 3115,
      "oeoteaieeeattt": 3116,
      "oettataoeeeaetaieeesoooo": 3117,
      "eaieeeafatjhnllorto": 3118,
      "eteaa": 3119,
      "aieemtcthaietco": 3120,
      "odeaeeasooooouoo": 3121,
      "haead": 3122,
      "aieeasadost": 3123,
      "toeeaaie": 3124,
      "haeadoelotac": 3125,
      "otefattseeeae": 3126,
      "ietaodtot": 3127,
      "iebetoasatotototo": 3128,
      "eteaaaieeasadost": 3129,
      "aieefa": 3130,
      "aieefametaieeeto": 3131,
      "aieaieeeb": 3132,
      "ohatoaieae": 3133,
      "eaieaeo": 3134,
      "aietmtn": 3135,
      "oetoaietmtn": 3136,
      "oodteaetc": 3137,
      "ttaeaeae": 3138,
      "ohaoaietc": 3139,
      "oodaiea": 3140,
      "taemetaieeeto": 3141,
      "oteatooe": 3142,
      "oteatooeote": 3143,
      "eadtthn": 3144,
      "thaieemtcthaietco": 3145,
      "aieeeatot": 3146,
      "ieeaaseeeeae": 3147,
      "tvo0": 3148,
      "gteeaaieaf": 3149,
      "aef": 3150,
      "oeeeaieaieaeasee": 3151,
      "aefeatn": 3152,
      "oodiettc": 3153,
      "tootlloetotaoeeeae": 3154,
      "toeeaaiehohr": 3155,
      "lloooothaieemtcthaietco": 3156,
      "aieaeaieaeaiea": 3157,
      "faetottn": 3158,
      "eaatsaietetnteer": 3159,
      "otaieerto": 3160,
      "eatoc": 3161,
      "taetototn": 3162,
      "etaietsiec": 3163,
      "aieaeaieaeaieaeeae": 3164,
      "toeeaotdteaieeeae": 3165,
      "llooooiaeaieela": 3166,
      "aieaeadiodiodtaoeeeae": 3167,
      "eadeb": 3168,
      "aiear": 3169,
      "faeteatn": 3170,
      "aieeaiee": 3171,
      "aieetstofthtn": 3172,
      "tteathtn": 3173,
      "tsaieae": 3174,
      "oteetnst0": 3175,
      "toeeaotdtnoho": 3176,
      "eaaieaiee": 3177,
      "eaaieaieemtn": 3178,
      "oodeutoeuto": 3179,
      "aieaeoea": 3180,
      "oodeer": 3181,
      "oetasa": 3182,
      "oeeeaietsaiee": 3183,
      "eeeast": 3184,
      "eeeastllorto": 3185,
      "aieoohthnaie": 3186,
      "aieaeoo": 3187,
      "mteaetcaieeeto": 3188,
      "eaetmteaetcaieeeto": 3189,
      "oeeeaieteaetmteaetcaieeeto": 3190,
      "eadtaieeesoooo": 3191,
      "erdtnst": 3192,
      "oodeadtaieeesoooo": 3193,
      "oodeeeastllorto": 3194,
      "oohetoeaier": 3195,
      "oot": 3196,
      "ttatteaaieee": 3197,
      "teatoo": 3198,
      "etaietc": 3199,
      "etaietcteetohohaetn": 3200,
      "teoteoeatoaieee": 3201,
      "erdiecieceaaeto": 3202,
      "aieeeetnotaieerto": 3203,
      "totoaiethtn": 3204,
      "erdetaieeohouoothn": 3205,
      "afatktoeeeaieetno": 3206,
      "oodoiet": 3207,
      "ststs": 3208,
      "stststasee": 3209,
      "stststasee0": 3210,
      "oodoetoaietmtn": 3211,
      "sto": 3212,
      "erdthooteeafa": 3213,
      "etaieafaetottn": 3214,
      "tktts": 3215,
      "tvtaieaeoloaie": 3216,
      "tseeteaieethn": 3217,
      "tnlosodsod": 3218,
      "ecefe": 3219,
      "ba": 3220,
      "toaiee": 3221,
      "bat": 3222,
      "mpa": 3223,
      "eeadhtahn": 3224,
      "iodiodoetotoea": 3225,
      "ietethotc": 3226,
      "teaeaaee": 3227,
      "eaeaaaieeeto": 3228,
      "eatoaieeetoaieeetogte": 3229,
      "gtetbat": 3230,
      "aieaeot": 3231,
      "aieeeertotllor": 3232,
      "aieeeertotllortoouoo": 3233,
      "ooaetasa": 3234,
      "eatoeahn": 3235,
      "efampa": 3236,
      "tseeiaec": 3237,
      "oodthaieaeoooo": 3238,
      "ooataoeeeae": 3239,
      "eaieasaie": 3240,
      "tseeoteetneaeeasoooo": 3241,
      "etno1": 3242,
      "llooootnst": 3243,
      "eatoeaieaieaief": 3244,
      "oodaieaaeeteemtn": 3245,
      "ttateeaeadsaeerto": 3246,
      "erdaieasee": 3247,
      "boooo": 3248,
      "ooheeeaaiear": 3249,
      "ohaooooetasaa": 3250,
      "hrdttmon": 3251,
      "otoeaeeeaeeeduto": 3252,
      "aieeaeaaaieeeto": 3253,
      "tktottn": 3254,
      "rt": 3255,
      "etytjhn": 3256,
      "eaeohetytjhn": 3257,
      "aieeetoaieetstt": 3258,
      "ttaoodeer": 3259,
      "etaiellolloetouto": 3260,
      "teatooeaieasaie": 3261,
      "eaieafa": 3262,
      "oetiaaeeme": 3263,
      "taieieasa": 3264,
      "taeaieeaoero": 3265,
      "tseeloaie": 3266,
      "aieeetoaeaie": 3267,
      "eadeaaieeeeto": 3268,
      "paeetc": 3269,
      "tootktttaieetc": 3270,
      "etotoea": 3271,
      "tstse": 3272,
      "oodeeb": 3273,
      "eaieato": 3274,
      "lhe": 3275,
      "aieaeoteea": 3276,
      "teaaedtctoar": 3277,
      "eeadoeto": 3278,
      "eeadoetoeeae": 3279,
      "ooea": 3280,
      "oetiaaeemem": 3281,
      "gtehnouoo": 3282,
      "eeadtstse": 3283,
      "oodeeb1": 3284,
      "erdaieae": 3285,
      "eatoetao": 3286,
      "ttaehtec": 3287,
      "thaieaeooootsiec": 3288,
      "erdttsoeotjhn": 3289,
      "oodieeaaseeeeae": 3290,
      "eaieetmtn": 3291,
      "tktoieemtn": 3292,
      "aieaieaieafa": 3293,
      "oetotopa": 3294,
      "tkttsaie": 3295,
      "oeaieetmtn": 3296,
      "afaasoteafa": 3297,
      "ttaehtectv": 3298,
      "toeeaotdthtn": 3299,
      "oetodaieaieaieafa": 3300,
      "etkttotn": 3301,
      "gteoieemtn": 3302,
      "oohtotai": 3303,
      "ttaehtectvown": 3304,
      "oohtotaithoe": 3305,
      "oelloohteea": 3306,
      "erdseetpa": 3307,
      "eiebtn": 3308,
      "eaitfeeaiee": 3309,
      "otefatown": 3310,
      "oetoieemopa": 3311,
      "eaieeetotaoeeeae": 3312,
      "oodeaaeaieeetotaoeeeae": 3313,
      "aaoteoteea": 3314,
      "eec": 3315,
      "oteatooetotoea": 3316,
      "dcto": 3317,
      "toeeaotdthoaie": 3318,
      "erdtnoieetaie": 3319,
      "eaaaietoe": 3320,
      "taoest": 3321,
      "erdaieetstof": 3322,
      "gteoteieeaatn": 3323,
      "eeaesttetn": 3324,
      "eadeaaeeetof": 3325,
      "eaathosc": 3326,
      "eaitfeeaieeteeae": 3327,
      "otasee": 3328,
      "ietaodtoteeaown": 3329,
      "tsaiee": 3330,
      "eaaeohaoooo": 3331,
      "aeadeahn": 3332,
      "oodeatoaieee": 3333,
      "aieaeeb": 3334,
      "oodoohtotnaie": 3335,
      "tns": 3336,
      "tnstaieeeto": 3337,
      "tseetcaiee": 3338,
      "aieaieeecefe": 3339,
      "oeoteeto": 3340,
      "eeeaieoeoteea": 3341,
      "oeoteetoeeeaieoeoteea": 3342,
      "atotaoeeeae": 3343,
      "eeatotetn": 3344,
      "eeatotetnet": 3345,
      "oeeteaieuto": 3346,
      "aeaitoooooeeteaieuto": 3347,
      "aitoetn": 3348,
      "taotaiaoteaiee": 3349,
      "teevegggeae": 3350,
      "etsodsod": 3351,
      "oteeetsodsod": 3352,
      "ohtaoeeeaetaieeesoooo": 3353,
      "eaieaieaieas": 3354,
      "eaieaieaieaseaa": 3355,
      "eaaeedaieaeeb": 3356,
      "eaaeohaooooaieae": 3357,
      "tjeatn": 3358,
      "teadsac": 3359,
      "toeer": 3360,
      "toeertoooea": 3361,
      "oodhtahngte": 3362,
      "tseeeasa": 3363,
      "egggeadst": 3364,
      "othneeea": 3365,
      "oodtsteeafa": 3366,
      "aieeeatothotho": 3367,
      "aietcaiee": 3368,
      "paoohtc": 3369,
      "toottaeiee": 3370,
      "toec": 3371,
      "ieeiee": 3372,
      "aieaitoec": 3373,
      "aieaitoecieeiee": 3374,
      "tatneaseear": 3375,
      "tootgte": 3376,
      "tatv0": 3377,
      "eadeotea": 3378,
      "taeohaooooetasaa": 3379,
      "ottoeaaeeeatn": 3380,
      "etaieoetotoea": 3381,
      "taieaitoecieeiee": 3382,
      "gteeaeeae": 3383,
      "eeatotetnetaieeaee": 3384,
      "oteatoaieeeaieeaee": 3385,
      "aieas": 3386,
      "ooheeaaetnerto": 3387,
      "eeadoetofaaslo": 3388,
      "eaeaetnaieeeea": 3389,
      "etnea": 3390,
      "oodeaiaaeaieeea": 3391,
      "tvtaieaeoaieeeeto": 3392,
      "taoiet": 3393,
      "taoiettaoeeeae": 3394,
      "erdaieea": 3395,
      "oetoeoteaseeexeceee": 3396,
      "eaiaaeeatn": 3397,
      "ieeaseea": 3398,
      "oetieeaseea": 3399,
      "tseeeaaaieeetn": 3400,
      "ieeaaseeaieaeo": 3401,
      "oteatoaieee": 3402,
      "eeadtaieeetaie": 3403,
      "oodoeaierto": 3404,
      "oohetnotaieerto": 3405,
      "oodeeae": 3406,
      "toeeaotdeaseeao": 3407,
      "etneaeeae": 3408,
      "ieteaetaiee": 3409,
      "oodtootieer": 3410,
      "erdieteloeae": 3411,
      "oeteatoeatnetaie": 3412,
      "erdoeaiaieeaieee": 3413,
      "eeadoelotac": 3414,
      "aotohaietcaiee": 3415,
      "eeeato": 3416,
      "taieieea": 3417,
      "ohetkttotn": 3418,
      "eatoieeaaseeeaioteato": 3419,
      "asaar": 3420,
      "ietasaar": 3421,
      "aiaaellooootaoeeeaeown": 3422,
      "ooafiaeaieeeto": 3423,
      "aieeae1": 3424,
      "ooheeaaetnoo": 3425,
      "oeeeaieeaiaaeaieeea": 3426,
      "gtept": 3427,
      "vtaieaeo": 3428,
      "toteatnouoo": 3429,
      "gteai": 3430,
      "ieoeoteea": 3431,
      "taieieoeoteea": 3432,
      "eaataieieoeoteea": 3433,
      "eatoood": 3434,
      "aieeeeaa": 3435,
      "gteatot": 3436,
      "eatoteeatn": 3437,
      "aieiaec0": 3438,
      "eeeatot": 3439,
      "eeeatoteec": 3440,
      "eaieaieeeto": 3441,
      "oeoteaieeaieaieeeto": 3442,
      "erdeetn": 3443,
      "lrt": 3444,
      "tatoothre": 3445,
      "erdaieea1": 3446,
      "oetiaaeeboooo": 3447,
      "eatooodstooeatn": 3448,
      "ieerod": 3449,
      "thaitoaiee": 3450,
      "thaitoaieeethn": 3451,
      "tthtn": 3452,
      "otefatthtn": 3453,
      "eaaoetiaaeeboooo": 3454,
      "gteeaaie": 3455,
      "eadeohaooooeaaeaieeatsee": 3456,
      "eeadthaitoaieeethn": 3457,
      "oelloaieae": 3458,
      "tseetstofa": 3459,
      "eaaoodeaieeaoero": 3460,
      "allollo": 3461,
      "allollofa": 3462,
      "aieeetoeeaeaduo": 3463,
      "eaaseaie": 3464,
      "aieaseaaseaie": 3465,
      "aieaeoeae": 3466,
      "eaieaeeta": 3467,
      "gteoohetktttn": 3468,
      "eroown": 3469,
      "oteaitfeeeroown": 3470,
      "afataoeeea": 3471,
      "eastoaie": 3472,
      "teatoareatn": 3473,
      "eetnrooo": 3474,
      "tseeeaaetfeteaieafuto": 3475,
      "tmtsa": 3476,
      "afataoeeeaeastoaie": 3477,
      "tooh": 3478,
      "etodcto": 3479,
      "gtetodcto": 3480,
      "eatoaaoteoteeetn": 3481,
      "oodeetnrooo": 3482,
      "taieeeaieaeeta": 3483,
      "eeeaef": 3484,
      "ohaoiec": 3485,
      "eeadtnoho": 3486,
      "elrtpa": 3487,
      "gteaietoe": 3488,
      "teetn1": 3489,
      "erdtsiec": 3490,
      "taaaoteoteeetn": 3491,
      "eatoeb": 3492,
      "ieeohhn": 3493,
      "tkthr": 3494,
      "ieerodtoown": 3495,
      "oodetno0": 3496,
      "eatotoe": 3497,
      "aieaietaoeeeae": 3498,
      "ohaot": 3499,
      "tatetnaieasaie": 3500,
      "teatotoottaeiee": 3501,
      "erdieeohasa": 3502,
      "tkthreaiaae": 3503,
      "tseetneaieaietoto": 3504,
      "oodeaaaieaietaoeeeae": 3505,
      "oteaseearst": 3506,
      "oodhrodtofa": 3507,
      "ieemoeltcaieee": 3508,
      "paaieaieeeto": 3509,
      "aeeeaeeeouoo": 3510,
      "erdafataoeeeaeastoaie": 3511,
      "oetiaaeememoteatnthoela": 3512,
      "ieerodtoown0": 3513,
      "aaoteoteeaeaaeedhn": 3514,
      "asatvo": 3515,
      "aieaeaieaeaieae": 3516,
      "eadpa": 3517,
      "eaatsoteato": 3518,
      "eaaieeeetoetaieeeto": 3519,
      "eohaoooohohrtthnst": 3520,
      "tneaseearouoo": 3521,
      "oohouoto": 3522,
      "eaelost1": 3523,
      "afatseetsee": 3524,
      "eemtc": 3525,
      "ohaieee": 3526,
      "etaieoelotac": 3527,
      "thooteeafaown": 3528,
      "aieaeadtc": 3529,
      "ohaoaieaieaieeea": 3530,
      "tstto": 3531,
      "aieeaaee": 3532,
      "aieaeadtcthtseea": 3533,
      "eadohetkttotn": 3534,
      "oeteatoaieee": 3535,
      "aieaeaieaeaieaeohaieee": 3536,
      "eadtaoeeeae": 3537,
      "oteeet": 3538,
      "teoteooeot": 3539,
      "teoteooeoteaseeexeceee": 3540,
      "ieet": 3541,
      "oodtneerto": 3542,
      "mvo": 3543,
      "eaai": 3544,
      "oodtsiec": 3545,
      "aieaeothneeea": 3546,
      "eaattaafaetytetn": 3547,
      "aieeteta": 3548,
      "totjhn": 3549,
      "taaotohaieaieeeto": 3550,
      "etaieatot": 3551,
      "odtotn": 3552,
      "odtotnasee": 3553,
      "uooetmtn": 3554,
      "taeuooetmtn": 3555,
      "tse": 3556,
      "xeta": 3557,
      "xetaeai": 3558,
      "eeadeaaeeeto": 3559,
      "oohouotoaieaeo": 3560,
      "taeeaeaieeeto": 3561,
      "eaieatoar": 3562,
      "eatoth": 3563,
      "iaetaieee": 3564,
      "eatoeaieeatn": 3565,
      "aieeetotthn": 3566,
      "thre": 3567,
      "etktttotjhn": 3568,
      "oeotetktttotjhn": 3569,
      "ooder": 3570,
      "taatetn": 3571,
      "oodaeertohn": 3572,
      "oteeaegte": 3573,
      "erdoteeta": 3574,
      "erdaie": 3575,
      "ttsoeotn": 3576,
      "eaitfeetefsoeo": 3577,
      "ooaoef": 3578,
      "eaaeatne": 3579,
      "aieaieeebpa": 3580,
      "iodiodoeote": 3581,
      "eaaetn": 3582,
      "eaaetnrooo": 3583,
      "ieerodto": 3584,
      "teevieerodto": 3585,
      "ttsoeotnoieetaie": 3586,
      "ohaieeeatn": 3587,
      "lheohaieeeatn": 3588,
      "oettaeroastoto": 3589,
      "ieeaaseeoodteaaie": 3590,
      "oodtneertoeae": 3591,
      "otetc": 3592,
      "ooatneaie": 3593,
      "ooataiee": 3594,
      "hrhtneoooo": 3595,
      "eaeeasoooototn": 3596,
      "etneaeta": 3597,
      "aiestaie": 3598,
      "otsa": 3599,
      "tmotsa": 3600,
      "teetoeief": 3601,
      "eaahrhtneoooo": 3602,
      "eaitfeeteaeaie": 3603,
      "odtcteetohohaetn": 3604,
      "totneaaeedpa": 3605,
      "tseetv0": 3606,
      "ohaoseaie": 3607,
      "asto": 3608,
      "afatneaseaa": 3609,
      "aeeeaeeeoetn": 3610,
      "teeaeoooo": 3611,
      "hnoaieaeo": 3612,
      "afatneaseaa1": 3613,
      "aieth": 3614,
      "eaitfeeoeaiehre": 3615,
      "aieaeadtoottaeiee": 3616,
      "eaahottneeto": 3617,
      "erdtmsa": 3618,
      "eatotaoeeeae": 3619,
      "eeato": 3620,
      "oeotasttmntaeeato": 3621,
      "erdttan": 3622,
      "tsfattsfat": 3623,
      "etaieeaaefeatn": 3624,
      "eatoteea": 3625,
      "eaaaieaietaoeeeaest": 3626,
      "llooooaieaieeecefe": 3627,
      "oodgte": 3628,
      "toeeaotdteaetmteaetcaieeeto": 3629,
      "aieeexetaeai": 3630,
      "hta": 3631,
      "teatoaotasee": 3632,
      "eaaeedtaithoeouoo": 3633,
      "aieeetoeetuto": 3634,
      "erdoteetnsc": 3635,
      "oodeaieatothaieeeto": 3636,
      "oefouoo": 3637,
      "eatoaseaie": 3638,
      "aieeetea": 3639,
      "aieeeteaeaaee": 3640,
      "thaieaeooooaieeaee": 3641,
      "gtegte": 3642,
      "tsttouoo": 3643,
      "tesac": 3644,
      "erdaiaaeloaseetctc": 3645,
      "eaaaeaeattetaieeeto": 3646,
      "eaatneeae": 3647,
      "oetiodiodtnttt": 3648,
      "teaaieeaaee": 3649,
      "tstof": 3650,
      "ottootto": 3651,
      "ieeaaseetsee": 3652,
      "taeadpa": 3653,
      "totoeaeeeaeeeduto": 3654,
      "oodteae": 3655,
      "eatooe": 3656,
      "oodteaeifaea": 3657,
      "oeeeaieoteieeaatn": 3658,
      "oeeeaietaoeeeae": 3659,
      "tastaie0": 3660,
      "eaieoteaie": 3661,
      "erdtsaie": 3662,
      "eatoebuto": 3663,
      "totaieeesoooo": 3664,
      "ieeaaseeaieea": 3665,
      "ottoooheetc": 3666,
      "oteeaeteatoebuto": 3667,
      "staieown": 3668,
      "odthtnaie": 3669,
      "oeeeaieodthtnaie": 3670,
      "erdietfaafa": 3671,
      "thaietcoown": 3672,
      "oeaieas": 3673,
      "aieaeoteeatn": 3674,
      "oeeeaiestaie": 3675,
      "ooaloaie": 3676,
      "erdtesac": 3677,
      "oodoohtoteatnaieae": 3678,
      "taemvo": 3679,
      "eatotototh": 3680,
      "eaieeeaeea": 3681,
      "eatototo": 3682,
      "staieown1": 3683,
      "eaieaieaeown": 3684,
      "loo": 3685,
      "oeeeaieth": 3686,
      "eatototoeato": 3687,
      "eaeaetntsfattsfat": 3688,
      "eatototoeatoetn": 3689,
      "taieetcloo": 3690,
      "taar": 3691,
      "eaaeetaar": 3692,
      "eaaeetaar1": 3693,
      "oohaieeasado": 3694,
      "hoetaieeeto": 3695,
      "eeaote": 3696,
      "htahoetaieeeto": 3697,
      "taieetcloooea": 3698,
      "oohoeoteea": 3699,
      "aieaeeeaeee": 3700,
      "asaa": 3701,
      "aiaaeee": 3702,
      "oetaiaaeee": 3703,
      "aieiaec1": 3704,
      "oeeeaieteatn": 3705,
      "eatototothoetaiaaeee": 3706,
      "eaaaieeetnst": 3707,
      "erdoelloodtoea": 3708,
      "ietsodsod": 3709,
      "paoeoteaie": 3710,
      "ooooofa": 3711,
      "oodhottneaieote": 3712,
      "oeeeaieteatnpt": 3713,
      "tooooofa": 3714,
      "tooooofatc": 3715,
      "aieeeeaeasee": 3716,
      "eetnaie": 3717,
      "ottoaehtecaieaeaiaae": 3718,
      "ohaoet": 3719,
      "aedtcaieaeeaaeto": 3720,
      "taieeasa": 3721,
      "toohtooooofatc": 3722,
      "toohtooooofatcttt": 3723,
      "oodhoaieeast": 3724,
      "faeatoohtooooofatcttt": 3725,
      "eatoteeafaeatoohtooooofatcttt": 3726,
      "aiee1": 3727,
      "aieetooteethn": 3728,
      "aieeeaiee": 3729,
      "taeae1": 3730,
      "oodstaie0": 3731,
      "tseethettooeeeaie": 3732,
      "asaeaeeemtn": 3733,
      "gggaieeeatn": 3734,
      "aie1": 3735,
      "taatetnouoo": 3736,
      "gtee": 3737,
      "hohrthaietktttn": 3738,
      "aiethaitoetn": 3739,
      "eatoeaieafteoaiaaeaieeetc": 3740,
      "aieeataieeesoooo": 3741,
      "eaahohrt": 3742,
      "ieetn": 3743,
      "teoteototoeaeeeaeeeduto": 3744,
      "ebaiaae": 3745,
      "oeeeaietnebaiaae": 3746,
      "oeoteaseeexec": 3747,
      "oeoteaseeexecee": 3748,
      "eadaieeaee": 3749,
      "tseeoohgte": 3750,
      "eohaooooieaeeiehn": 3751,
      "oetieetn": 3752,
      "toeeaotdeaeheaeeaieero": 3753,
      "eaieaiee": 3754,
      "aieeaotetc": 3755,
      "etntaoeeea": 3756,
      "etntaoeeeaeaieae": 3757,
      "mtctaiee": 3758,
      "llooooeeetpa": 3759,
      "ohaoetaie1": 3760,
      "eaeeasoooooietaseaa": 3761,
      "asatotetn": 3762,
      "staiepa": 3763,
      "otasatotetn": 3764,
      "etaieeaieeaeoero": 3765,
      "eaeeelottteatotnlo": 3766,
      "totoeoteea": 3767,
      "teieea": 3768,
      "oeoteetotoeoteea": 3769,
      "teoteoto": 3770,
      "ooalololotnttt": 3771,
      "aieeeaieeetaoeeeae": 3772,
      "asaaieeaieee": 3773,
      "oeeeaieoohaieee": 3774,
      "ooaeaaieeeeto": 3775,
      "eaieaoh": 3776,
      "eaaetniec": 3777,
      "erdhottniebtjho": 3778,
      "etaietaoeeeae": 3779,
      "tnstaiaae": 3780,
      "eatoaieeeea": 3781,
      "aieeaet": 3782,
      "etasaaero": 3783,
      "lloooototoeaeeeaeeeduto": 3784,
      "tmotsao": 3785,
      "eaaeetn": 3786,
      "oodoietaieiaec": 3787,
      "oteetaemvo": 3788,
      "taafataoeeeae": 3789,
      "seeao": 3790,
      "erdhtahn": 3791,
      "eaaaehtecaieaeaiaae": 3792,
      "tseeaieeetstt": 3793,
      "eaaoodeaseeao": 3794,
      "tofatc": 3795,
      "odthtngte": 3796,
      "etieb": 3797,
      "aseeetieb": 3798,
      "oohtotaseeetieb": 3799,
      "eaathneeeaown": 3800,
      "pthre": 3801,
      "eaeeatouto": 3802,
      "eatoaieeemtc": 3803,
      "egggeadetaieeeto": 3804,
      "erdafataoeeeae": 3805,
      "erdaaoteoteeetn": 3806,
      "teevoohgte": 3807,
      "aieeaseeao": 3808,
      "tseeoohtoeae": 3809,
      "taaieeaiee": 3810,
      "eeaeeta": 3811,
      "ttaieeesoooo": 3812,
      "etaieeoesttetn": 3813,
      "eaiaaetaieeoesttetn": 3814,
      "oohtov": 3815,
      "eahnsodsod": 3816,
      "erdoohtov": 3817,
      "eatotaieeasa": 3818,
      "ietaieoeoteeaasee": 3819,
      "eaieaieaieaseaaetaieeeto": 3820,
      "teoteotoeaieaieaieaseaaetaieeeto": 3821,
      "aieaieeeaaetmtn": 3822,
      "oohoeoteaseeexeceee": 3823,
      "terd": 3824,
      "utotaieeesoooo": 3825,
      "terdutotaieeesoooo": 3826,
      "tktetototn": 3827,
      "eaeeasoooohnoaieaeo": 3828,
      "oodieeohhn": 3829,
      "eeeatoeeta": 3830,
      "eaieaohaieaieeeaaetmtn": 3831,
      "ellollo": 3832,
      "oodellollo": 3833,
      "oodellolloeae": 3834,
      "aieer": 3835,
      "terdutotaieeesoooo0": 3836,
      "emtaoeeeae": 3837,
      "aeademtaoeeeae": 3838,
      "aeaieeeatn": 3839,
      "tseetseetaieeesoooo": 3840,
      "etaietaoeeeaeoooo": 3841,
      "aieaeemtn": 3842,
      "tolo": 3843,
      "eadaieeeaetn": 3844,
      "tseetaieerhtn": 3845,
      "tvaiee0": 3846,
      "oodotefattsee": 3847,
      "oohtn": 3848,
      "tmon": 3849,
      "aietstt": 3850,
      "oodeaeheaeeaieero": 3851,
      "aehtecaieaeasee": 3852,
      "rhtnaiee": 3853,
      "ottotoetasa": 3854,
      "paotetktttneae": 3855,
      "aieietn1": 3856,
      "oodeaaaieeetn": 3857,
      "tootktttso": 3858,
      "aseear": 3859,
      "aotaseear": 3860,
      "aieaeoeaieaieae": 3861,
      "eaaaiaaellooootaoeeeae": 3862,
      "teatotoetasa": 3863,
      "eaaiaec": 3864,
      "tseeieemtoown": 3865,
      "oodiet": 3866,
      "aieaeemtc": 3867,
      "totniaec": 3868,
      "eaieaeaieeeto": 3869,
      "eaieaeaieeetof": 3870,
      "tooieemoea": 3871,
      "oohaiee": 3872,
      "toeeaotdtnaietc": 3873,
      "etaief": 3874,
      "oodieteasaoooo": 3875,
      "tvtaieeeeae": 3876,
      "aieeetoeaetaiee": 3877,
      "easatn": 3878,
      "aieaietv": 3879,
      "eiefeatn": 3880,
      "aieaeadrhtnaiee": 3881,
      "eaaoeoteertottea": 3882,
      "erdeaaeto": 3883,
      "tcteato": 3884,
      "tcteatoetaieeeto": 3885,
      "toeasatn": 3886,
      "easatoeasatn": 3887,
      "oodeiefeatn": 3888,
      "otaieeesoooo": 3889,
      "oodaieaeaieeeto": 3890,
      "etaieoteaaote": 3891,
      "ptho": 3892,
      "aieseetpa": 3893,
      "erdtteaoeeeaie": 3894,
      "pthoaiaae": 3895,
      "oeteaeaieotdero": 3896,
      "ooaeaeaaaieeeto": 3897,
      "erdaotohaieaieae": 3898,
      "teatoeaieeaeoouoo": 3899,
      "eatoeeeaef": 3900,
      "eatoooheerto": 3901,
      "ohaoea": 3902,
      "aeeeaeeeeaieeea": 3903,
      "tooieemoeaeeadeaeetc": 3904,
      "aseaaar": 3905,
      "llooootootgte": 3906,
      "oohaieegte": 3907,
      "aieeeiemeu": 3908,
      "ostaieae": 3909,
      "eaeaieeea": 3910,
      "aiaaeaeaieeea": 3911,
      "emetaieeeto": 3912,
      "thaieaeoooooeaierto": 3913,
      "tteao": 3914,
      "eaaoodaieaieaieeatn": 3915,
      "afaeahn": 3916,
      "eaatnoieetaie": 3917,
      "ooaieemtn": 3918,
      "eetno": 3919,
      "tseeeahn": 3920,
      "ietrhtn": 3921,
      "erdetnaieec": 3922,
      "eote": 3923,
      "ooaeaieaie": 3924,
      "tooieemoot": 3925,
      "tooieemooteeta": 3926,
      "oodoeaiehre": 3927,
      "taaietaie": 3928,
      "taieeoesttetn": 3929,
      "eafs": 3930,
      "oeeeaieoshtn": 3931,
      "teadteeae": 3932,
      "eatoetoeaier": 3933,
      "erdoeaierto": 3934,
      "oohtoo": 3935,
      "ooaa": 3936,
      "teoteoaseaie": 3937,
      "llooootaieeoesttetn": 3938,
      "ohaoaeaieeeto": 3939,
      "aieeaaieeetstt": 3940,
      "erdoeaieasaie": 3941,
      "oodeaeaieotdttt": 3942,
      "aehtecefe": 3943,
      "aieethaietc0": 3944,
      "rod": 3945,
      "oeeeaietnlo": 3946,
      "ooatnaietc": 3947,
      "ooaaieeeaieeetaoeeeae": 3948,
      "teatoteetn": 3949,
      "gteeae": 3950,
      "oetodtmostaieae": 3951,
      "toloetaieeeto": 3952,
      "eer1": 3953,
      "thtseeastteeaaieaeo": 3954,
      "oodoetn": 3955,
      "eatoheaaeedtetn": 3956,
      "taetaie0": 3957,
      "aeaitoooooetn": 3958,
      "aeaitoooooetneaieaietoto": 3959,
      "eaieaftn": 3960,
      "gteeaexxeae": 3961,
      "ieboello": 3962,
      "aeoh": 3963,
      "aeohetotn": 3964,
      "aeho": 3965,
      "ieteertoer": 3966,
      "ooheetcaeho": 3967,
      "thaieaeoooooteatnthoela": 3968,
      "oietasee": 3969,
      "eatoeaieee": 3970,
      "llooootaieeasa": 3971,
      "oeaietmtn": 3972,
      "oodotellollo": 3973,
      "ooaeaaeaiee": 3974,
      "elrttaieeesoooo": 3975,
      "tktttmon": 3976,
      "teetoteatn": 3977,
      "teetoteatngte": 3978,
      "aieeaieatoar": 3979,
      "afaeteaeeae": 3980,
      "afaeteaeeae1": 3981,
      "tnohaieeeto": 3982,
      "taeaeoteea": 3983,
      "tseeeea": 3984,
      "eeadtneaseear": 3985,
      "tmeuaiee": 3986,
      "eatoeaieaeaieeetof": 3987,
      "eatoeatntvo": 3988,
      "toeeaotdaiaaeeaeoteea": 3989,
      "ohaottea": 3990,
      "eaeeasoooolotothn": 3991,
      "aieerd": 3992,
      "etotefatthtn": 3993,
      "tseeeaiaaegte": 3994,
      "etaieoteatnthoela": 3995,
      "ieteertoeroouoo": 3996,
      "afaetottn": 3997,
      "taeuoaieeeto": 3998,
      "oetiaaeemtceae": 3999,
      "tseet": 4000,
      "tseeteaieeeae": 4001,
      "erdatot": 4002,
      "oetoeeaeaduo": 4003,
      "hohrta": 4004,
      "erdiaee": 4005,
      "ieeaaseeietaieoeoteea": 4006,
      "oodoietetno": 4007,
      "eaaouoo": 4008,
      "erdtv": 4009,
      "erdtvst1": 4010,
      "ohaoaiiasaie": 4011,
      "aeohetotnaieee": 4012,
      "tseeaeeeaeee": 4013,
      "llooooma": 4014,
      "tntotototo": 4015,
      "tntotototoea": 4016,
      "ooteeafa": 4017,
      "oeeeaiethooteeafa": 4018,
      "eaaoeoteaie": 4019,
      "aieerdoeote": 4020,
      "totmtn": 4021,
      "eteaaeaiee": 4022,
      "lloooooello": 4023,
      "iecouoo": 4024,
      "eaaeeetothtn": 4025,
      "teoteoaieeeetn": 4026,
      "atothtn": 4027,
      "oteieeaatothtn": 4028,
      "ottoeasto": 4029,
      "oiettetnieeeea": 4030,
      "ttaafaeeeaetetnouoo": 4031,
      "oetodtvtaieaeo": 4032,
      "eatotototho": 4033,
      "teeviebta": 4034,
      "eatototothoeafs": 4035,
      "aieaeadeutoeuto": 4036,
      "odeaieeatn": 4037,
      "teeaeasee": 4038,
      "tkteeaeasee": 4039,
      "etuto": 4040,
      "eaied": 4041,
      "eadeaeaaaieeeto": 4042,
      "atotst": 4043,
      "ottoeaioteatn": 4044,
      "taotiisoooo": 4045,
      "eoteaie": 4046,
      "aieeetooeoteaie": 4047,
      "aieaeemtc0": 4048,
      "tootkttieemtn": 4049,
      "eadaieea": 4050,
      "taeuoaioteaeeoooo": 4051,
      "aieaieetstof": 4052,
      "hohohohn": 4053,
      "eeeaeasee": 4054,
      "oietsodsod": 4055,
      "ohatoaieetstof": 4056,
      "oeteaaeooooown": 4057,
      "asaaeaie": 4058,
      "oetemtc": 4059,
      "tooieemoaieaeo": 4060,
      "tkttaieteetn": 4061,
      "ietttateaieethn": 4062,
      "aieelrt": 4063,
      "aieaeadteetn": 4064,
      "tnoetofaaslo": 4065,
      "aieaeasee": 4066,
      "oeaieaethn": 4067,
      "oeeeaieemtctaiee": 4068,
      "oodaeaeattetaieeeto": 4069,
      "eaitfeea": 4070,
      "eaitfeeaseaie": 4071,
      "eatoeasto": 4072,
      "oeeeaieeaaefeatn": 4073,
      "llooooatot": 4074,
      "eatnaie": 4075,
      "eaeuto": 4076,
      "eatoeaieaaeaiee": 4077,
      "odthtnemvo": 4078,
      "erdaieaetn": 4079,
      "oeotdlotothn": 4080,
      "oodaiiasaie": 4081,
      "ohatoaieeeatn": 4082,
      "ohaoeaeaieoteaie": 4083,
      "stjhn": 4084,
      "ieestjhn": 4085,
      "eadeaieee": 4086,
      "ottothtaeiee": 4087,
      "ttieestjhn": 4088,
      "teaeeouoo": 4089,
      "lloooooeotohasa": 4090,
      "eatotmostaieae": 4091,
      "tatoottiisoooo": 4092,
      "eatotvtaieaeo": 4093,
      "eaaeeetofst": 4094,
      "oodeaiaaeeerto": 4095,
      "ttaniaec": 4096,
      "eaaoelloaieae": 4097,
      "eatoottn": 4098,
      "eatocllorto": 4099,
      "oteaitfeeetn": 4100,
      "eaaeaetothn": 4101,
      "stoaie": 4102,
      "aietnoh": 4103,
      "eaaeaieeaeaeeae": 4104,
      "toeeaotdaiiasaie": 4105,
      "aieeoheaieeea": 4106,
      "erdteaewn": 4107,
      "tneaseearown": 4108,
      "eaaeedhngte": 4109,
      "eteemtnero": 4110,
      "aieeaaaieetstof": 4111,
      "aieeeeeaeasee": 4112,
      "tjhot": 4113,
      "aeeeaeeeoetmtn": 4114,
      "eaaoesttnoo": 4115,
      "lloooothneeeaown": 4116,
      "eaitfeeoetotoea": 4117,
      "gteeaieatotetn": 4118,
      "hohrtastoaie": 4119,
      "eteaaaieeasado": 4120,
      "eatoeaasoteea": 4121,
      "oohtoteaee": 4122,
      "oohtoaiiasaie": 4123,
      "aieaeadaieetstt": 4124,
      "eaeeasooootsaie": 4125,
      "ottoieeaaseeeaioteato": 4126,
      "aehtecaieaest": 4127,
      "eteemtnasee": 4128,
      "eaiedutoouoo": 4129,
      "erodto": 4130,
      "lherodto": 4131,
      "lherodtoar": 4132,
      "toeai": 4133,
      "eaitfeetc": 4134,
      "eaitfeetcaiee": 4135,
      "ettea": 4136,
      "lloooooest": 4137,
      "aieaeaiaae": 4138,
      "eohaooooeatoeatn": 4139,
      "ottotaieeeeae": 4140,
      "eaaaieetsee": 4141,
      "eaeohet": 4142,
      "oodaehtecaieaeouoo": 4143,
      "hettooeeeaie": 4144,
      "lotac": 4145,
      "teadoteeaeteatoebuto": 4146,
      "aieeoeto": 4147,
      "saiee": 4148,
      "oteatooteeaeoooo": 4149,
      "eaastaie1": 4150,
      "aiaaeeto": 4151,
      "aiaaeetouto": 4152,
      "taetnotaieerto": 4153,
      "eadtaieesoooo": 4154,
      "eaito": 4155,
      "aeeeaeeesodsod": 4156,
      "etteaf": 4157,
      "aietktttn": 4158,
      "eatothaietktttn": 4159,
      "erdoohthoohneerto": 4160,
      "toeeaotdoeaieaieeeaaetmtn": 4161,
      "eatooeoteea": 4162,
      "eaaeethtn": 4163,
      "afaeaaeethtn": 4164,
      "tneaieaiaae": 4165,
      "aieaeoeaeeae": 4166,
      "erdhrhtne": 4167,
      "eaitfeetaieetclo": 4168,
      "eaieeeaieeeto": 4169,
      "taeeeaieeeaieeeto": 4170,
      "teevottootto": 4171,
      "eadaieesodsod": 4172,
      "thoscouoo": 4173,
      "eaatoteatnaieae": 4174,
      "oefaieee": 4175,
      "eatoeatottt": 4176,
      "ottooe": 4177,
      "oodaieellollooooo": 4178,
      "aieaehn": 4179,
      "oeaieasaieaehn": 4180,
      "eaaaiaaeetouto": 4181,
      "eeeaaeeeafaeaieotd": 4182,
      "oetodieemtn": 4183,
      "aieaeoieaeeiehn": 4184,
      "eaaieaie": 4185,
      "eaaieaieeaieaiee": 4186,
      "toeeaotdtsod": 4187,
      "toeeaotdtso": 4188,
      "ieeaaseeaieaieaie": 4189,
      "otaietc": 4190,
      "tottea": 4191,
      "aieaeoeatottea": 4192,
      "faetthooerorhtn": 4193,
      "oeeeaieteaee": 4194,
      "ethototoeaeeeaeeeduto": 4195,
      "toeeaotdoeotohoest": 4196,
      "oeeeaieaieaeaieieown": 4197,
      "ieeaaseeeaeeasoooo": 4198,
      "eeadtetn": 4199,
      "oetrtoetn": 4200,
      "eatototoeatoetnteer": 4201,
      "etaeerto": 4202,
      "seetsee": 4203,
      "eatotseetsee": 4204,
      "eaeaetntnttt": 4205,
      "eatohohrtastoaie": 4206,
      "oeeeaieoteatoown": 4207,
      "oeeeaietvtaieaeo": 4208,
      "eatotjhn": 4209,
      "aieaeotn": 4210,
      "eaeoheteatotjhn": 4211,
      "ohaieeoeto": 4212,
      "ottoetaieeeto": 4213,
      "etaoe": 4214,
      "eeaelo": 4215,
      "eeadtaieetclo": 4216,
      "ottoottoohaieaeo": 4217,
      "oeoteaieeeathn": 4218,
      "eaieafhnasee": 4219,
      "tslo": 4220,
      "eatoeatoottn": 4221,
      "etaeertouto": 4222,
      "toeeaotdeeaetmtn": 4223,
      "oodtmosttoeeaotdar": 4224,
      "eaeeeaeeef": 4225,
      "ooaaeaieeea": 4226,
      "teatotaoeeeae": 4227,
      "taeaet": 4228,
      "aieeeeaaaieae": 4229,
      "eeadeaaietsee": 4230,
      "totoaiethtnouoo": 4231,
      "oodeaieafteoaiaae": 4232,
      "eteuto": 4233,
      "oodtotnaie": 4234,
      "eadtaieieea": 4235,
      "otoh": 4236,
      "teaieatn": 4237,
      "oeoteeteaieatn": 4238,
      "tktoohero": 4239,
      "eadietfaafa": 4240,
      "taoetieeaseea": 4241,
      "toeeaotdeaioteatn": 4242,
      "thaieaeooooaehtecaieaeaiaae": 4243,
      "eaitfeeoeaieaieeeaaetmtn": 4244,
      "taseeettjeatn": 4245,
      "eaieetaieeeto": 4246,
      "taeae": 4247,
      "eaaelrt": 4248,
      "erdoeotaseaaie": 4249,
      "aieeetoto": 4250,
      "aieeetotohn": 4251,
      "aieeetoetasee": 4252,
      "eeadthooteeafa": 4253,
      "teoteoeaeeasoooo": 4254,
      "oeoteaieeeathneaeaieeeto": 4255,
      "ooteatn": 4256,
      "asaoeoteaieeuto": 4257,
      "teieeatn": 4258,
      "aethohooteatn": 4259,
      "eaaeaieeaoohgte": 4260,
      "ooaeaiaaeeatn": 4261,
      "aeaito": 4262,
      "aietneaseear": 4263,
      "aieeeea1": 4264,
      "loteea": 4265,
      "aslo": 4266,
      "aieaeooietaseaa": 4267,
      "oteatoaeaito": 4268,
      "oohtototeatoaeaito": 4269,
      "oohtototeatoaeaitoaslo": 4270,
      "oetodtneaseearouoo": 4271,
      "aieaeadethno": 4272,
      "aotohaieelrt": 4273,
      "erdaotohaieelrt": 4274,
      "eatotnrodto": 4275,
      "oodeatotnrodto": 4276,
      "eaaeaieeeae": 4277,
      "aieoteetn": 4278,
      "toeeaotdaieaie": 4279,
      "oodeatn": 4280,
      "oeeeaielloooollooooaieaeo": 4281,
      "aietaieteetn": 4282,
      "ottoooh": 4283,
      "qe": 4284,
      "aeaqe": 4285,
      "tootkttieemtneae": 4286,
      "teoteoaieae": 4287,
      "taeeaesttetn": 4288,
      "oodafa": 4289,
      "erdoeotasttmntaee": 4290,
      "ooaot": 4291,
      "eatohottneaieote": 4292,
      "oodoeoteaieeea": 4293,
      "eaaegggeae": 4294,
      "toeeaotdtjaie": 4295,
      "oeeeaieeaaeaieeeae": 4296,
      "eatolotothn": 4297,
      "ietaieeaieagte": 4298,
      "aehtecaieeetn": 4299,
      "tooieemoseaie": 4300,
      "oodatotthaieaeoooo": 4301,
      "eatoeea": 4302,
      "llooooaieea": 4303,
      "thaieaeooooeaaieaieeaieaiee": 4304,
      "ootaiee": 4305,
      "gtegtegte": 4306,
      "eaaeaieaeto": 4307,
      "aieeaetrto": 4308,
      "eroeasa": 4309,
      "asaaieeaotetc": 4310,
      "eeaeaeeaeroeasa": 4311,
      "aieeaetrtoeaetrto": 4312,
      "oteatoeaaietsee": 4313,
      "afaaieeemtc": 4314,
      "taieetcloeeatn": 4315,
      "do": 4316,
      "ieeaaseethtaeiee": 4317,
      "aieasado": 4318,
      "taieasado": 4319,
      "taeaeo": 4320,
      "ieeaaseetaeuto": 4321,
      "eaaetotefatthtn": 4322,
      "oodiebeaeeemtn": 4323,
      "teeafaeae": 4324,
      "toeeaotdasto": 4325,
      "etnst": 4326,
      "detaieeeto": 4327,
      "eeadoeoteaieeea": 4328,
      "faetgte": 4329,
      "toeeaotdtaoeeeae": 4330,
      "paa": 4331,
      "ooheaieaeto": 4332,
      "eadetoeaier": 4333,
      "eaieeaf": 4334,
      "aiaaeooataoeeeae": 4335,
      "eatoaeertohn": 4336,
      "thaieaeooootnohouoo": 4337,
      "llooooeaetothn": 4338,
      "lloooohohohohn": 4339,
      "etaieaotasee": 4340,
      "afaaieeemtc1": 4341,
      "gteoeaieoher": 4342,
      "llolloeaieae": 4343,
      "llolloeaieaeuto": 4344,
      "tktaieee": 4345,
      "tktaieee0": 4346,
      "oodeasa": 4347,
      "faetthooeroeaitfee": 4348,
      "eadtvo": 4349,
      "tseeeaeeemtn": 4350,
      "eaaoodeotea": 4351,
      "tohthoela": 4352,
      "eadoeote": 4353,
      "afatvtaieaeo": 4354,
      "ehtecaieaeaiaae": 4355,
      "odthtnouoo": 4356,
      "oetaehtecaieaeaiaae": 4357,
      "teoteoood": 4358,
      "eaapatnoheelo": 4359,
      "eaieegte": 4360,
      "eaieegtef": 4361,
      "llooooeaieafteoaiaaeaieeetc": 4362,
      "aieaieee1": 4363,
      "aieeetootohthoela": 4364,
      "eadtvoeaaeaieea": 4365,
      "teoteoaieeeetnllorto": 4366,
      "teaeai": 4367,
      "oetetnaieec": 4368,
      "ottooohtotnaie": 4369,
      "tmeuopa": 4370,
      "tsfattsfatpa": 4371,
      "aieaeadoetotn": 4372,
      "af": 4373,
      "erdieeaaseeeaioteato": 4374,
      "eadtwn": 4375,
      "eaeb": 4376,
      "aeaeaetn": 4377,
      "tneaieaieaieaseaa": 4378,
      "ttaaeaeaetn": 4379,
      "eaieeasa": 4380,
      "aotohaieeatn": 4381,
      "aeaieeasa": 4382,
      "ttaiaeaieeasa": 4383,
      "ttaiaeaieeasaeer": 4384,
      "eaieeaooe": 4385,
      "erdoteaitfeeetopa": 4386,
      "eaaeaitfe": 4387,
      "oeeeaieotaietc": 4388,
      "eaieeaooesttetn": 4389,
      "toeeaotdtneaieaieaieaseaa": 4390,
      "gteoohthosc": 4391,
      "eaaoohtotnaie": 4392,
      "teoteotsee": 4393,
      "totneeaote": 4394,
      "eadeaetaiee": 4395,
      "oeeeaietneaseear": 4396,
      "etta": 4397,
      "eaeaieuto": 4398,
      "tooieemotsiec": 4399,
      "eaeeasoooosac": 4400,
      "aieaeasee1": 4401,
      "eaaiet": 4402,
      "teatoto": 4403,
      "gteoeotaseaaie": 4404,
      "ooaeaateaieeaee": 4405,
      "paeteaeaseeeae": 4406,
      "oodeasa0": 4407,
      "haetnasee": 4408,
      "ottothaitoetn": 4409,
      "eatoeatnoetiaaeemtc": 4410,
      "eetoaie": 4411,
      "eutoar": 4412,
      "oohtooteeaeoooo": 4413,
      "llooooaeaieeea": 4414,
      "eaitfeeteaetc": 4415,
      "ohaoeaeheaeeaieero": 4416,
      "toeeaotdtsaie": 4417,
      "oeeeaieetn": 4418,
      "oeeeaieetneeb": 4419,
      "oodoeotaseaaie": 4420,
      "ooaeaie": 4421,
      "rodooaeaie": 4422,
      "teatotorodooaeaie": 4423,
      "eatoooheattaieeeto": 4424,
      "eeadgggtaitoe": 4425,
      "eaeoheaieotd": 4426,
      "eaeoheaieotdodthtnouoo": 4427,
      "oodtnoieetaie": 4428,
      "aieeteaieuto": 4429,
      "teoteooeote": 4430,
      "ut": 4431,
      "toeatoo": 4432,
      "odloaie": 4433,
      "oodtaeieetsoooo": 4434,
      "etototot": 4435,
      "etototototn": 4436,
      "aieaeoteetoaie": 4437,
      "totneeaote0": 4438,
      "tkteaeai": 4439,
      "tkteaeaietmtn": 4440,
      "oohetaiee": 4441,
      "oohetaieeetnst": 4442,
      "uotaieeesoooo": 4443,
      "ieeaaseeoeto": 4444,
      "teoteotseest": 4445,
      "oodeatoeatn": 4446,
      "taeloeae": 4447,
      "aieaieai": 4448,
      "ottoottooheeaeo": 4449,
      "oeoteaieestaie": 4450,
      "oetaieea": 4451,
      "oetaieeaeeto": 4452,
      "ajaie": 4453,
      "oetaieeaeetoeae": 4454,
      "eaaeedtmtsa": 4455,
      "ethotsaiee": 4456,
      "llooooiodiodtnttt": 4457,
      "teeaet": 4458,
      "oodeaaetcohasa": 4459,
      "teevtnst": 4460,
      "teeaeterduto": 4461,
      "oodea": 4462,
      "oodeaaeeetof": 4463,
      "aieaeeae": 4464,
      "aieaeeaeheaeeaieero": 4465,
      "llooooaieeaaeee": 4466,
      "eaetr": 4467,
      "etaieoeotohoest": 4468,
      "eaetrtotetn": 4469,
      "ettataoeeeae": 4470,
      "eaitfeeotoaoa": 4471,
      "hto": 4472,
      "eeaaetaief": 4473,
      "eaaieteerto": 4474,
      "eaaieteertoero": 4475,
      "lloooooetaieeaeetoeae": 4476,
      "eeuto": 4477,
      "iebttmon": 4478,
      "aieeaedhohreae": 4479,
      "aexxeae": 4480,
      "eaeohaexxeae": 4481,
      "afatnoh": 4482,
      "oodaieeeaaetnrodto": 4483,
      "oodoheaieeea": 4484,
      "paoeoteaseeexeceee": 4485,
      "aieaeooteeaeterduto": 4486,
      "erdtneaie": 4487,
      "aieaieaieaieeatn": 4488,
      "ohatoeaaaiaaeetouto": 4489,
      "tevown": 4490,
      "thaietcst": 4491,
      "etaiethtn": 4492,
      "aieeetoeaeeemtn": 4493,
      "oohtoietfaafa": 4494,
      "caiee": 4495,
      "aieeaeeae": 4496,
      "aieaeogggaitoemoomoou": 4497,
      "otcaiee": 4498,
      "etcotcaiee": 4499,
      "teatoetcotcaiee": 4500,
      "oohaotasee": 4501,
      "aiaaeeaeeasoooo": 4502,
      "eaohhre": 4503,
      "afatnoh0": 4504,
      "afaeaieote": 4505,
      "aiiohaseeoeltto": 4506,
      "mon": 4507,
      "tttmon": 4508,
      "oeoteetttmon": 4509,
      "oeoteetttmonoeoteea": 4510,
      "oohtoeaeaiaaeaieeeto": 4511,
      "eaeoheaieote": 4512,
      "oodtoott": 4513,
      "aieaeoterduto": 4514,
      "oodtootteae": 4515,
      "eaaststst": 4516,
      "oodaiaaetsaieaeo": 4517,
      "ootaieeeaeuto": 4518,
      "rhto": 4519,
      "etaiet": 4520,
      "eeadetoeaier": 4521,
      "eaiaaeead": 4522,
      "oohaeertohn": 4523,
      "eaaoodaieeetstt": 4524,
      "gggaieeeato": 4525,
      "aieaieeaee": 4526,
      "oodeaaef": 4527,
      "eaeeeloieeeea": 4528,
      "eaaeedottn": 4529,
      "oodouoto": 4530,
      "eaaststst1": 4531,
      "eaaeaieeataeaieetn": 4532,
      "llooooeloeadtetn": 4533,
      "ottoottoohtaieeesoooo": 4534,
      "ooatefsoeo": 4535,
      "oodeeetneeto": 4536,
      "aeiee": 4537,
      "ottoaethohooteatn": 4538,
      "oodieeaaseeeaioteato": 4539,
      "eaeeasooooeaaeedhotatttn": 4540,
      "oeoteaiear": 4541,
      "toeeaotdaiaaellooootaoeeeae": 4542,
      "etaieeetoar": 4543,
      "gggaieeeatoar": 4544,
      "eaitfeetn": 4545,
      "eaitfeetnst": 4546,
      "oeotdaieetstof": 4547,
      "oteatollorto": 4548,
      "oetaieeetoar": 4549,
      "teoteooodeaieeaoero": 4550,
      "aeadaeae": 4551,
      "stosto": 4552,
      "stostoaeadaeae": 4553,
      "eatotneaseear": 4554,
      "oodstostoaeadaeae": 4555,
      "oteatollortoeta": 4556,
      "eaaooheetc": 4557,
      "teoteotaa": 4558,
      "oodetnaieec": 4559,
      "aieeeaetaiee": 4560,
      "eohaoooooetn": 4561,
      "tseeoeotohoest": 4562,
      "gteterduto": 4563,
      "aieeeaetaiee1": 4564,
      "tataeieetc": 4565,
      "lheoteatollortoeta": 4566,
      "oeaiaiee": 4567,
      "oeaiaieeteatn": 4568,
      "gtetoo": 4569,
      "oodtneaseaa": 4570,
      "ottotaeiee": 4571,
      "ottotaeieeeadtjhn": 4572,
      "oelttost": 4573,
      "eaetaieeoooo": 4574,
      "eaieaieaieeea": 4575,
      "ttsoeotaiee": 4576,
      "toeeaotdeief": 4577,
      "eaaetnrodto": 4578,
      "aieeaieeeaaetnrodto": 4579,
      "aieoteatn": 4580,
      "eteaieeea": 4581,
      "afalotothn": 4582,
      "oodlololotnttt": 4583,
      "tktaieeaee": 4584,
      "aieeasadoouoo": 4585,
      "eaieafhneaieote": 4586,
      "eadoeaiehrdtetn": 4587,
      "ieteaaetotjhnasee": 4588,
      "eaaeaieeeto": 4589,
      "eaaotasatotetn": 4590,
      "teadeae": 4591,
      "asaoeoteaieeaee": 4592,
      "eaaeaieeetoieemtn": 4593,
      "aieeoheaieeea1": 4594,
      "eatohoaseea": 4595,
      "ohatoo": 4596,
      "eaiaaeeademvo": 4597,
      "oeoteaseeexeceeeeaaeto": 4598,
      "eaiaaeoteatn": 4599,
      "oteatoaeaie": 4600,
      "tktaiee": 4601,
      "oodaieeetsttaiaae": 4602,
      "llooooaiaaeeaeoteea": 4603,
      "erdiodiodtaiee": 4604,
      "tktaieeteeae": 4605,
      "erdaiiasaieown": 4606,
      "toeeaotdieteaaie": 4607,
      "gteooheattaieeeto": 4608,
      "aieoetotn": 4609,
      "tseeeaeaieotdttt": 4610,
      "toaieerto": 4611,
      "paatoaieerto": 4612,
      "aehtecaieaeaiaa": 4613,
      "etaieai": 4614,
      "aehtectvttt": 4615,
      "eatoetn1": 4616,
      "toeaieetaieeeto": 4617,
      "aieeatotmtn": 4618,
      "oetaaieeatotmtn": 4619,
      "teoteoeaaeaieaeto": 4620,
      "aehtecaaote": 4621,
      "eaaetno": 4622,
      "eadaehtecaaote": 4623,
      "ottoeaeteb": 4624,
      "gtetaieeesoooo": 4625,
      "eaagteaie": 4626,
      "ohatooeteaieeea": 4627,
      "eaaetnoeta": 4628,
      "aieeeeaaetaief": 4629,
      "oeftac": 4630,
      "oeeeaieeaaoeftac": 4631,
      "eatopaeteaeasee": 4632,
      "taieeesoooo0": 4633,
      "teeafaeaaaieaietaoeeeae": 4634,
      "etaieaieaaeto": 4635,
      "aieeetoaieeetogtetaieeesoooo": 4636,
      "toeeaotdeaeb": 4637,
      "aieoeteatoeatn": 4638,
      "gteeahn": 4639,
      "gtetooteethn": 4640,
      "oodhottniebtjho": 4641,
      "tootohthoela": 4642,
      "taetn": 4643,
      "etaieeaeeae": 4644,
      "erdtneeaaie": 4645,
      "taieeeetno": 4646,
      "eatnaiee": 4647,
      "eaaeelo": 4648,
      "ietaodtoteea": 4649,
      "ottoaieaieaieeatn": 4650,
      "gggaieae": 4651,
      "llooooeetuto": 4652,
      "aieaotasee": 4653,
      "ieeaaseeaieaieaieeea": 4654,
      "aieeaotetc0": 4655,
      "eohaooooeatoaieee": 4656,
      "aietec": 4657,
      "eaiaaeeer": 4658,
      "totvtaieaeo": 4659,
      "eaiaaeeertotvtaieaeo": 4660,
      "ooatneaseear": 4661,
      "oeotegte": 4662,
      "etof": 4663,
      "gtetetnaieasaie": 4664,
      "eaiaieeaieee": 4665,
      "aieero": 4666,
      "teatoarteea": 4667,
      "teoteoaieaaiee": 4668,
      "eatoeaaeeaaeea": 4669,
      "afaoeaieas": 4670,
      "afaoeaieasaie0": 4671,
      "etottnaiaae": 4672,
      "eaieaest": 4673,
      "taoohetktttn": 4674,
      "oeaiehrdtvo": 4675,
      "oodoeoteaseeexeceee": 4676,
      "eatooeaiaieeaieee": 4677,
      "llooooieeataeeifaea": 4678,
      "eaaeeaeasee": 4679,
      "aielhetktttn": 4680,
      "eaateeaaaaeoooo": 4681,
      "toeeaotder": 4682,
      "aieeaieaeo": 4683,
      "aieeaieaeoaieaeo": 4684,
      "teieeaatn": 4685,
      "aieiettc": 4686,
      "ooheaieaf": 4687,
      "oteeetc": 4688,
      "oeooe": 4689,
      "tefsoeooe": 4690,
      "tefsoeooelotac": 4691,
      "oodeaaieeeeto": 4692,
      "oodieteaaetotjhn": 4693,
      "taeie": 4694,
      "eatnthoela": 4695,
      "tooieemoterduto": 4696,
      "oteetnaieee": 4697,
      "aoot": 4698,
      "ohaotmeu": 4699,
      "aieeetooteieeaatn": 4700,
      "oetodthnoo": 4701,
      "taeieeaieaest": 4702,
      "aieaeoee": 4703,
      "etaieeeouoo": 4704,
      "oodouoo": 4705,
      "otasatotetneta": 4706,
      "eaeiaettjhot": 4707,
      "eaeiaettjhoteatnaiee": 4708,
      "oeeeaieoeaierto": 4709,
      "toeeaotdaoot": 4710,
      "oohfaet": 4711,
      "aieeiodiodtaoeeeae": 4712,
      "aieeetoeaeaiaaeaieeeto": 4713,
      "eaitfeeeaet": 4714,
      "eaitfeeeaethre": 4715,
      "aieeeaieaie": 4716,
      "eaetrtopa": 4717,
      "erdeaaeaieeetotaoeeeae": 4718,
      "tseeetktttn": 4719,
      "taseaie": 4720,
      "faetthooeroeatn": 4721,
      "eaaaiaaeeaetaiee": 4722,
      "asatoteatnaieae": 4723,
      "oeeeaietneeae": 4724,
      "eaeoteeatvoeae": 4725,
      "aieaeoeaaietsee": 4726,
      "etooetoo": 4727,
      "toeeaaieeaseeao": 4728,
      "taeaeafa": 4729,
      "aehtecaieaeaiaadetaieeeto": 4730,
      "oeaieatmtn": 4731,
      "eaaaieeaiaaehn": 4732,
      "aseaiee": 4733,
      "ttaaseaiee": 4734,
      "ttaaseaieeer": 4735,
      "etaieeieb": 4736,
      "iebetaieeieb": 4737,
      "ottoatot": 4738,
      "teoteotaieieeasa": 4739,
      "ttaeaaietsee": 4740,
      "ttaeaaietseeeer": 4741,
      "erdeeatn0": 4742,
      "ohtc": 4743,
      "oodtho": 4744,
      "ty": 4745,
      "eatooeoteaieeea": 4746,
      "aieaeoaieaieaieeea": 4747,
      "oeotetteeae": 4748,
      "eaahaeadoelotac": 4749,
      "otaiatotetnethotc": 4750,
      "aeeetof": 4751,
      "eatoeaeaieoheloeae": 4752,
      "oodtneaseear": 4753,
      "eatoeaieaie": 4754,
      "aieieeataeeifaea": 4755,
      "toeeaotdiaee": 4756,
      "tsfattsfattaoeeeae": 4757,
      "eaataieetclo": 4758,
      "oetodtc": 4759,
      "oetodtcteetohohaetn": 4760,
      "aieea0": 4761,
      "toeeaotdtaiee": 4762,
      "taieeooheetc": 4763,
      "eohaooooteaewn": 4764,
      "eaataoeeeaeoooo": 4765,
      "oeaiehroooo": 4766,
      "llooooaitoeaiaae": 4767,
      "ohaopa": 4768,
      "oeeeaieeaioteatn": 4769,
      "erdiodiodtaoeeeae": 4770,
      "oodtnst": 4771,
      "aieaeotneaie": 4772,
      "oeoteaseeexeceeeeae": 4773,
      "thaieaeooootseaeaie": 4774,
      "hrdtsiec": 4775,
      "eaeeasooooaiaaeeaeoteea": 4776,
      "eaeeasoooothnaie": 4777,
      "eaallooooaitoeaiaae": 4778,
      "eaieeeateetn": 4779,
      "aietnohouoo": 4780,
      "eaiehrd": 4781,
      "eaiehrdpa": 4782,
      "eaateeatn": 4783,
      "aehtectaoee": 4784,
      "eaeeeb": 4785,
      "aehtectaoeeeaeeeb": 4786,
      "aietfaafa": 4787,
      "ohatoieetaie": 4788,
      "aioteaedooootnoh": 4789,
      "aieetaiee": 4790,
      "etaieoohthosc": 4791,
      "oteeetiaee": 4792,
      "aiepaeaier": 4793,
      "eaateaioteaeeoooo": 4794,
      "eaeeelottttttetaieeeto": 4795,
      "aietc1": 4796,
      "oeotet": 4797,
      "teetoown": 4798,
      "toeeaotdaieea0": 4799,
      "aieaeadaeae": 4800,
      "oeeeaieteeatn": 4801,
      "eeaeaduotaieeesoooo": 4802,
      "oeutoeuto": 4803,
      "taieeteaeaie": 4804,
      "eaieeeatetnaieasaie": 4805,
      "eetapa": 4806,
      "eaieaeouoo": 4807,
      "oetiaaeememeaaeeeto": 4808,
      "oodaieaeasee": 4809,
      "oeeeaiehoaseea": 4810,
      "toeatooar": 4811,
      "oefaietsee": 4812,
      "aieeeoeoteaieeaee": 4813,
      "ttsoeotjhnetaie": 4814,
      "tseeoohthosc": 4815,
      "gteaiea": 4816,
      "eatoeaieetn": 4817,
      "gteaieasee": 4818,
      "aieetaieeeeuto": 4819,
      "etoeae": 4820,
      "aieeeeaetoeae": 4821,
      "aieeeatottea": 4822,
      "eetm": 4823,
      "tseeoteea": 4824,
      "aieteote": 4825,
      "oeatotoe": 4826,
      "aieteoteoeatotoe": 4827,
      "ooaeaieatn": 4828,
      "eetmetaieeeto": 4829,
      "oodotetoaiaae": 4830,
      "oeao": 4831,
      "aieeeaetntc": 4832,
      "aieaseetaieeesoooo": 4833,
      "eaieatoetaieeeto": 4834,
      "tseee": 4835,
      "llooooetoeaier": 4836,
      "tseethetsc": 4837,
      "aeaitoooooe": 4838,
      "eaieaieaieftjhn": 4839,
      "oohfaetieeohhn": 4840,
      "tseeoest": 4841,
      "mst": 4842,
      "etaieemst": 4843,
      "oeaiehrdtvoeae": 4844,
      "ttaeaieaiee": 4845,
      "ttaeaieaieeer": 4846,
      "rtoouoo": 4847,
      "taeuoafa": 4848,
      "gtetvo": 4849,
      "oefaietseegtetvo": 4850,
      "taeeaeasee": 4851,
      "eaaeedouoo": 4852,
      "eaaetaieouoo": 4853,
      "eaeeboooo": 4854,
      "oteeetegggeae": 4855,
      "eeafa": 4856,
      "erdeaaaieeetn": 4857,
      "gteeeta": 4858,
      "afataieeesoooo0": 4859,
      "oeaieeea": 4860,
      "oeaieeeatotmtn": 4861,
      "oodttea": 4862,
      "aiiohaseethnaie": 4863,
      "eeadeaaaietn": 4864,
      "gteeeta1": 4865,
      "tseeeae0": 4866,
      "oetodhtahn": 4867,
      "eeeaaeeeafaeaieotdeaeloaiaae": 4868,
      "tathrtoouoo": 4869,
      "oefgte": 4870,
      "ttsoeooe": 4871,
      "oteaedoooo": 4872,
      "ohthaietco": 4873,
      "eaioteaedoooo": 4874,
      "ttaafaeaioteaedoooo": 4875,
      "ttaafaeaioteaedooootetn": 4876,
      "aieeoeote": 4877,
      "eohaooooietaieoeoteea": 4878,
      "ohaoeaaeeeto": 4879,
      "eaitfeeeaatneeae": 4880,
      "eaeaeeboooo": 4881,
      "afaietfaafa": 4882,
      "afaietfaafa0": 4883,
      "eaaietcar": 4884,
      "eohaooooetteatoteatnaeae": 4885,
      "eteaeaseeown": 4886,
      "aiiohaseeeteaeaseeown": 4887,
      "ohatotsiec": 4888,
      "erdtnoetofaaslo": 4889,
      "ooaoteatnthoela": 4890,
      "oodtaieeeetno": 4891,
      "afaaieea": 4892,
      "toeeaotdoteieeaatn": 4893,
      "oodeaohhrdst": 4894,
      "eeadiaeaieela": 4895,
      "ooagggtaitoe": 4896,
      "oodaieetstof": 4897,
      "oetoeaiehrdpa": 4898,
      "afaeaeero": 4899,
      "tllo": 4900,
      "aseec": 4901,
      "tseeeatotn": 4902,
      "rodoo": 4903,
      "tlloaseec": 4904,
      "tseeeatotnrodoo": 4905,
      "tsee0": 4906,
      "ieeaaseeaieaie": 4907,
      "oodeeatn0": 4908,
      "oeeeaieaieee1": 4909,
      "eatoeaetothn": 4910,
      "eatoemtctaiee": 4911,
      "tateatngte": 4912,
      "iec2": 4913,
      "aieaeoaieaieeecefe": 4914,
      "taoeotohoest": 4915,
      "gteeea": 4916,
      "ieeaaseeeato": 4917,
      "aieeeatsee": 4918,
      "etaieeaa": 4919,
      "aieeaaieeeatsee": 4920,
      "oodeaieeaoero": 4921,
      "eaeeasoooooohtc": 4922,
      "odeaeeae": 4923,
      "oohtooodeaeeae": 4924,
      "erdtotoeae": 4925,
      "eatooohtotnaie": 4926,
      "eaaeatotoeaiaiee": 4927,
      "erdloaie": 4928,
      "oodtmostaieae": 4929,
      "eoietaseaa": 4930,
      "eoietaseaaf": 4931,
      "erdtthn": 4932,
      "thnerto": 4933,
      "aieaeadoeotohasa": 4934,
      "eaattea": 4935,
      "ottoaieae": 4936,
      "oodtoetasee": 4937,
      "erdieeaaseethnaie": 4938,
      "eaieoteown": 4939,
      "aieetc": 4940,
      "teoteotaathnerto": 4941,
      "eatooohaieie": 4942,
      "etaieeaaeeetof": 4943,
      "aieeaaeaieeetn": 4944,
      "gtehaetnasee": 4945,
      "etaieeaaeeetofst": 4946,
      "eatothettooeeeaie": 4947,
      "oodaitfe": 4948,
      "eaeeelotttea": 4949,
      "eaeeelottteaaietsee": 4950,
      "toeeaotdaieae0": 4951,
      "eeaotd": 4952,
      "eatoaseaa": 4953,
      "thaieaeooooaieeaiaaehn": 4954,
      "oodegggeae": 4955,
      "tytaieeesoooo": 4956,
      "taoettaero": 4957,
      "eaataithoeouoo": 4958,
      "eadeaieegtef": 4959,
      "ottoegggeae": 4960,
      "oodeatnaieee": 4961,
      "ottooietsodsod": 4962,
      "etfeteaieafuto": 4963,
      "taieeodto": 4964,
      "neeaote": 4965,
      "erdthaietc": 4966,
      "ettt": 4967,
      "teatoeaataoeeeaehn": 4968,
      "eaeeasooootetnaieasaie": 4969,
      "oeaieohaieasee": 4970,
      "eaaoohaieie": 4971,
      "eaalololotnttt": 4972,
      "eaexx": 4973,
      "oodeaieatoetaieeeto": 4974,
      "hottneetc": 4975,
      "eaexxeaeeae": 4976,
      "erdottoottoohst": 4977,
      "eaaeepa": 4978,
      "llooootootohhn": 4979,
      "taeieetjhot": 4980,
      "aaoteoteeataeieetjhot": 4981,
      "aaoteoteeataeieetjhotneeaote": 4982,
      "oteeettnoho": 4983,
      "eeeaaeeeafaeaieotdthiaec": 4984,
      "eaaeaaee": 4985,
      "otohaieeae": 4986,
      "taeasatoto": 4987,
      "ooaeaaoeftac": 4988,
      "tothn": 4989,
      "oteatoeaieaaeaiee": 4990,
      "tatea": 4991,
      "eaaieoeoteea": 4992,
      "eaatefsoeo": 4993,
      "eatoao": 4994,
      "aieta": 4995,
      "eeadoieemtn": 4996,
      "eatoeaaie": 4997,
      "tnsta": 4998,
      "tnstafa": 4999
    },
    "merges": [
      "e a",
      "e e",
      "a i",
      "o o",
      "e t",
      "ea i",
      "o t",
      "ai ee",
      "e ea",
      "t n",
      "t o",
      "t a",
      "ea e",
      "eai e",
      "ea a",
      "et n",
      "o e",
      "eai ee",
      "t s",
      "oo oo",
      "l l",
      "ai e",
      "t t",
      "et o",
      "h n",
      "a s",
      "o h",
      "t ea",
      "t aiee",
      "e r",
      "o ee",
      "t ot",
      "a a",
      "ee r",
      "ea d",
      "oo d",
      "t e",
      "w n",
      "s t",
      "u to",
      "t eea",
      "ot e",
      "oo h",
      "l o",
      "t h",
      "i e",
      "s a",
      "ts o",
      "taiee tso",
      "ll oooo",
      "t c",
      "t oo",
      "ai ea",
      "i ee",
      "er d",
      "oe ot",
      "ll o",
      "ea tn",
      "ea to",
      "o wn",
      "p a",
      "et a",
      "f a",
      "h r",
      "eaa ee",
      "t ta",
      "et aiee",
      "as ee",
      "ee e",
      "eaiee ea",
      "eai ea",
      "o et",
      "eea e",
      "ot o",
      "teea ea",
      "ai eae",
      "eea d",
      "ai aa",
      "m tn",
      "u oo",
      "aiee ea",
      "a e",
      "et c",
      "oh a",
      "o d",
      "r to",
      "s oooo",
      "oee eaie",
      "ts ee",
      "ai eea",
      "o uoo",
      "a ot",
      "et s",
      "a r",
      "g te",
      "oee eae",
      "eer o",
      "hr e",
      "aiee eto",
      "aiee e",
      "eai eea",
      "t hn",
      "ie b",
      "ea s",
      "d uto",
      "ai eaie",
      "i eea",
      "ot eea",
      "er o",
      "sa c",
      "h o",
      "ie c",
      "ai eai",
      "tea to",
      "te ote",
      "oe st",
      "t etn",
      "tn 1",
      "tot o",
      "duto e",
      "aieaie dutoe",
      "eaa e",
      "i et",
      "teea e",
      "ot d",
      "k tt",
      "i i",
      "ii soooo",
      "etn 1",
      "eta eae",
      "et ot",
      "ta oeeeae",
      "aieeea etn",
      "eaie r",
      "e lo",
      "ot ea",
      "as a",
      "eaiee eto",
      "o ea",
      "et ktt",
      "ee tn",
      "oe ote",
      "llo llo",
      "eai aa",
      "t v",
      "l ot",
      "t j",
      "eai eai",
      "ea eaie",
      "to eea",
      "ee ea",
      "aiee 0",
      "toeea otd",
      "ta e",
      "th o",
      "tsee 1",
      "ta ee",
      "te c",
      "oee eai",
      "aot eaiee",
      "etktt tn",
      "eaaee d",
      "g g",
      "h tec",
      "etaiee eto",
      "ae htec",
      "t f",
      "iee m",
      "aiaa e",
      "teote o",
      "oto a",
      "tn oo",
      "oest tnoo",
      "tt t",
      "et asee",
      "eea a",
      "h ot",
      "ai et",
      "ee to",
      "ieea asee",
      "iee oh",
      "u o",
      "a fa",
      "ee ta",
      "teato aie",
      "eee x",
      "aiee etc",
      "ea et",
      "eaaee etot",
      "ets uto",
      "h tn",
      "oha oooo",
      "ea eea",
      "eer to",
      "th tn",
      "e ohaoooo",
      "eai tf",
      "taee toto",
      "taeetoto ieeoh",
      "o eeae",
      "tn eai",
      "th oo",
      "tea d",
      "elo eae",
      "oh eaieeea",
      "too tt",
      "ai etc",
      "taeetotoieeoh hre",
      "oeot eaiee",
      "tea tot",
      "ot iisoooo",
      "llo rto",
      "m e",
      "oha o",
      "thn aie",
      "eaiee ead",
      "tneai aoteaiee",
      "tta eer",
      "etaiee e",
      "tea tn",
      "eaieai eaie",
      "oe r",
      "tn eaie",
      "taiee e",
      "s tt",
      "m oto",
      "as e",
      "ot hn",
      "ea etn",
      "s ee",
      "aot oh",
      "oe o",
      "ead sac",
      "ea sa",
      "oeot eaie",
      "et aiaa",
      "aieae o",
      "eaieaieaie f",
      "ts eea",
      "to h",
      "ea tot",
      "f s",
      "ta eeex",
      "ai i",
      "etn o",
      "a ee",
      "aieeea eero",
      "ieb a",
      "eas ee",
      "ee tc",
      "fa et",
      "aie 0",
      "ll othn",
      "tta llothn",
      "ea aiee",
      "fs oeo",
      "oeoteaie pa",
      "eer tot",
      "ea eero",
      "o eto",
      "ot etaieee",
      "aa ote",
      "ta hn",
      "ea etaiee",
      "s aie",
      "od tn",
      "aaote ot",
      "f aa",
      "eaiaa e",
      "eaiee eae",
      "et as",
      "g t",
      "toott iisoooo",
      "ot eato",
      "oe stt",
      "faa fa",
      "ieba t",
      "o eaie",
      "ea eee",
      "eaieea ee",
      "ta aiea",
      "eta o",
      "oo a",
      "tj ho",
      "ai eaieeeto",
      "eaaeeetot tea",
      "eaiea eto",
      "tn lo",
      "tn st",
      "ta t",
      "ead tetn",
      "t wn",
      "aieea ee",
      "taaiea aiee",
      "ood eae",
      "tea ee",
      "e m",
      "eaeea soooo",
      "et mtn",
      "ea too",
      "ta teaee",
      "me u",
      "a tot",
      "eaeee mtn",
      "aiea ead",
      "etas aa",
      "taeeex aieeeto",
      "teoteo iebat",
      "eas eea",
      "i eer",
      "r htn",
      "od thtn",
      "tot ot",
      "teeae 1",
      "eato eatn",
      "o etn",
      "t aie",
      "totot oto",
      "erd uto",
      "hot tn",
      "t ai",
      "eaaee eto",
      "aieaieeeto 0",
      "tt ea",
      "eto asa",
      "etoasa totototo",
      "o hn",
      "oeeeai et",
      "a eaie",
      "t eaieeead",
      "er odtn",
      "t ee",
      "oee eaieea",
      "oer o",
      "tho aie",
      "oea sa",
      "ieb tjho",
      "hottn iebtjho",
      "ta sac",
      "tj hn",
      "ooh etktttn",
      "erd oeote",
      "too wn",
      "gg g",
      "ets tt",
      "too oea",
      "lo lo",
      "lot n",
      "lolo lotn",
      "teaieeead st",
      "lololotn ttt",
      "eaieea tn",
      "ot eaa",
      "ae c",
      "hr d",
      "otetaieee own",
      "i aec",
      "ea eaetn",
      "eatn e",
      "ta ea",
      "d tc",
      "ta oee",
      "lo asee",
      "eaitf e",
      "oe l",
      "et otoa",
      "etotoa tn",
      "tt hn",
      "et aie",
      "ts tt",
      "eaaeed hn",
      "ot n",
      "ai etn",
      "eaiea f",
      "ea eadtetn",
      "ieea ase",
      "te fsoeo",
      "h oh",
      "ieem o",
      "ie meu",
      "aiee etstt",
      "lloooo taoeeeae",
      "thoo ero",
      "faet thooero",
      "aotoh aieai",
      "eaa eto",
      "a ead",
      "aieee 2",
      "hre 0",
      "oodeae lo",
      "od to",
      "aieae 1",
      "aiee c",
      "et oo",
      "ot eeea",
      "o a",
      "otoa oa",
      "eaie ote",
      "eea easee",
      "tead eaeero",
      "j hn",
      "etaiaa ee",
      "etaiaaee ouoo",
      "eohaoooo aieec",
      "elo ead",
      "eloead ar",
      "ea o",
      "aead tc",
      "as eaie",
      "iee ea",
      "ae dtc",
      "easeea r",
      "eaa s",
      "eead ero",
      "oh eloeae",
      "eaeaie oheloeae",
      "hoh r",
      "iee eea",
      "ta eai",
      "a o",
      "eaas oteea",
      "lo aie",
      "erodtn o",
      "ea aietc",
      "aie ie",
      "eeaa etn",
      "ooh eeaaetn",
      "ta oeote",
      "oha toh",
      "ohatoh tahn",
      "eto uto",
      "oeot eertot",
      "oeoteertot tea",
      "oe lot",
      "x x",
      "oteea eetn",
      "xx eae",
      "teato ar",
      "et ho",
      "ta tc",
      "ggg eae",
      "oteea et",
      "eae xxeae",
      "aieea asee",
      "t eer",
      "eae 1",
      "oeot d",
      "oteeaet erduto",
      "ood eaa",
      "e b",
      "aiet oe",
      "th ot",
      "eetn 0",
      "o eaiea",
      "llollo etouto",
      "oeaie rto",
      "t k",
      "aieae oooo",
      "tho ao",
      "th aieaeoooo",
      "eaae f",
      "aaoteot eeadero",
      "tead tstt",
      "etho ar",
      "tta etaiaaeeouoo",
      "oeaiea saie",
      "eaitf ee",
      "aieaead thnaie",
      "ieeaasee eeta",
      "oteaa ote",
      "tat eae",
      "tn oh",
      "tae uo",
      "st aie0",
      "oet mtn",
      "ieeaase eaiee",
      "tae i",
      "ta a",
      "tc tc",
      "t to",
      "ooh eetc",
      "aii oh",
      "thot ho",
      "et asa",
      "oet ta",
      "ea aie",
      "ood tefsoeo",
      "taiee rto",
      "et taieerto",
      "ieeeea wn",
      "as aie",
      "eaiee tn",
      "eaet eb",
      "afa 1",
      "eaae eaieote",
      "eeea eee",
      "ot easeear",
      "e gggeae",
      "aiee teeae",
      "aieeteeae 0",
      "loasee tctc",
      "aiee eaaeedhn",
      "e otea",
      "eaie ieer",
      "em tc",
      "hrd tetn",
      "oheaieeea own",
      "tta aiee",
      "oeeeaie lloooo",
      "oeeeaielloooo lloooo",
      "ttaaiee eero",
      "eead erodtno",
      "gt et",
      "llollo f",
      "t ts",
      "o iet",
      "aiet etn",
      "ot ai",
      "oeeeaie own",
      "i a",
      "oeotd aeaie",
      "too t",
      "tt iet",
      "ttiet tea",
      "eea etmtn",
      "ooh to",
      "too toh",
      "er to",
      "oet eaae",
      "e c",
      "ooheeaaetn aieeeto",
      "eato llolloetouto",
      "tea toooea",
      "aie eaiea",
      "ood ooh",
      "eaieeeae uto",
      "aieai eaieeeaeuto",
      "a ea",
      "st aie",
      "aiee etn",
      "oeteaae hn",
      "eead aieeaee",
      "as tn",
      "taiee rhtn",
      "iee mtn",
      "eaaiee eeto",
      "s eaie",
      "tot n",
      "oel tto",
      "a oeeeae",
      "oeot as",
      "aii asaie",
      "eaet hrdtetn",
      "ea eto",
      "ea eae",
      "otai aoteaiee",
      "ooh gte",
      "ets aieaeo",
      "aiaa etsaieaeo",
      "aiioh ase",
      "lloooo egggeae",
      "etaiaa eee",
      "aiaae llooootaoeeeae",
      "eai eaaeeaieote",
      "aiiohase eaieaaeeaieote",
      "aieee 1",
      "ee eatn",
      "eea own",
      "eead aieeetc",
      "eaiee l",
      "teote oea",
      "ead tv",
      "taoeeeae own",
      "eae 2",
      "eeae oero",
      "aotohaieai eae",
      "aa r",
      "oet eaa",
      "teoteoea eero",
      "easa toto",
      "aieea sa",
      "ho as",
      "et hn",
      "eaiaae gte",
      "atot aieee",
      "aiiasaie own",
      "eai eaie",
      "aiea etn",
      "oeeeai etn",
      "pa ot",
      "s aar",
      "teea saar",
      "ot eatn",
      "tn 2",
      "otea ee",
      "a etn",
      "e uto",
      "too ieem",
      "tn eeae",
      "oteaee oooo",
      "eaaeeetot see",
      "eae d",
      "tot tt",
      "ead aieeetstt",
      "lloooo taieerhtn",
      "etoo wn",
      "aaoteot eeeatn",
      "paot etktttn",
      "ea 1",
      "aiee eae",
      "oodooh eaieaeto",
      "aiee eertot",
      "hoas eeaown",
      "tot eato",
      "h tahn",
      "et teeae",
      "eaie duto",
      "ooh eaetn",
      "eta oeeeae",
      "th tseea",
      "lloooo as",
      "oooo o",
      "eaie otd",
      "taoeeeae hn",
      "easa ee",
      "oo oh",
      "aieeeertot llorto",
      "oh asa",
      "aieea tn",
      "a eeeaeee",
      "oet otn",
      "taeai etn",
      "gtet etn",
      "tn eea",
      "pa ooheetc",
      "aehtec tv",
      "t eaieeaee",
      "oeeeaiet jhn",
      "odthtn aieeeto",
      "e l",
      "ooa teeae",
      "i od",
      "lloooo aieee",
      "aiee o",
      "eaier tottt",
      "aieeo eaiertottt",
      "th oe",
      "to e",
      "tk t",
      "oooh aieie",
      "teatot oo",
      "oestt e",
      "t eeto",
      "eaaee etn",
      "ohao aieeetc",
      "eaaeeetn eae",
      "aieeaiea gtetetn",
      "aiee tsee",
      "ooh o",
      "eas eaa",
      "ea hn",
      "llollo eatn",
      "oeeeaie oeltto",
      "eeaa eea",
      "taiee llolloeatn",
      "thoe ouoo",
      "tai thoeouoo",
      "eaa eeaaeea",
      "st 1",
      "eaieaf te",
      "eaieafte o",
      "eaaeed llollo",
      "ta ae",
      "m taae",
      "eaaeedllollo mtaae",
      "iet tc",
      "ta aieee1",
      "tea aie",
      "a eaieel",
      "as eaa",
      "ieemo sa",
      "taoee eaeea",
      "eead uo",
      "aieeeto ar",
      "oohto eae",
      "eaaiee ee",
      "eaieeea own",
      "eaa aieai",
      "eai oteato",
      "lloooo taithoeouoo",
      "iee taie",
      "teatot eaieeeae",
      "aieai eaieeea",
      "ea aieeea",
      "ta see",
      "tneea ote",
      "aiee b",
      "aieeb aehtectv",
      "ieeaasee llollof",
      "ieeaaseellollof taea",
      "oe f",
      "eaiaa eaieeeto",
      "s od",
      "ee etn",
      "aieeaee 1",
      "iec iec",
      "oelot c",
      "ead etsuto",
      "t llorto",
      "oeoteaiee uto",
      "teatotoo ta",
      "sa ee",
      "teatotoota saee",
      "teea aa",
      "eato aieee2",
      "a eae",
      "ood loaie",
      "eaa aietn",
      "sa hn",
      "etn iec",
      "oeto d",
      "a eea",
      "tasee et",
      "ouoo thn",
      "i eta",
      "t m",
      "thoo hn",
      "thoohn eerto",
      "eea eaieeeto",
      "aieeasa d",
      "oeteaa eaieaeto",
      "ea aieeaasee",
      "lloooo eaeaie",
      "eaaieeaasee eaioteato",
      "erdoeote gte",
      "oodeaa etniec",
      "eaa etoown",
      "ieciec eaaetoown",
      "tea eaie",
      "eaa eaiee",
      "hn aie",
      "eaetaiee pa",
      "ai etn1",
      "oo uoo",
      "ta aieeatn",
      "eatot hnaie",
      "tot v",
      "eaiea s",
      "eaieafteo aiaae",
      "ts iec",
      "ieemo pa",
      "tootoh hn",
      "eaaieeea tsee",
      "tae iee",
      "ieta odto",
      "ietaodto aiaaetsaieaeo",
      "toeeaotd eaaieeeeto",
      "r odto",
      "oetta ero",
      "to ar",
      "eae oteea",
      "oeoteaiee ouoo",
      "tc aiee",
      "oteeea own",
      "eae oteeeaown",
      "lloooo oelotc",
      "toto aetn",
      "tta totoaetn",
      "pa eaier",
      "et oto",
      "eaiea eaier",
      "taa thn",
      "ea tt",
      "tot eatn",
      "tf e",
      "ai tfe",
      "eaeto eadtv",
      "eaieai eae",
      "eaaee e",
      "tetn 0",
      "tai toteato",
      "etot n",
      "eaieas otea",
      "toeeaotd ea",
      "aiaae eai",
      "oeeeaie eaieaie",
      "eaeaetn iec",
      "et m",
      "oeeeaie oteeaeterduto",
      "hohr tthn",
      "hohrtthn st",
      "ae oooo",
      "lloooo tso",
      "teeaaa aeoooo",
      "otea toooea",
      "ai ot",
      "eaieai etoto",
      "oha to",
      "teatn gte",
      "toteatn aieae",
      "eatoo etotn",
      "ieeea eaiee",
      "eetc 0",
      "o st",
      "gt eaie",
      "eaiaa ee",
      "ot ee",
      "ot toott",
      "ttea own",
      "ottoott ooh",
      "taitoteato etn",
      "tee v",
      "eeta ar",
      "eaiaaee erto",
      "f ia",
      "fia eaieeeto",
      "eas eeex",
      "easeeex ec",
      "aiea sa",
      "th ai",
      "ai eaae",
      "o eai",
      "oeeeaielloooolloooo ieb",
      "lloooo twn",
      "ood thnaie",
      "oiet aseaa",
      "etno 0",
      "teatn aiee",
      "oeto etteeae",
      "taoee ea",
      "oeeeaieea a",
      "easeeexec eee",
      "ie m",
      "iem tetn0",
      "ood oeeeaielloooollooooieb",
      "eaa eaieea",
      "aieee 0",
      "aotoh aieasa",
      "a c",
      "oer oe",
      "eead oeroe",
      "aieai eeadoeroe",
      "t me",
      "erd aieeeaetn",
      "ohao eae",
      "aiee eaieeaee",
      "aieaetn ta",
      "eaieeead uto",
      "toeeaotdea eaieeeaduto",
      "oelot ac",
      "aehtec etktt",
      "eaed oooo",
      "aieaetnta 0",
      "aehtecetktt toar",
      "taoeeeaeea tn",
      "oeot easeeexeceee",
      "teatot eatn",
      "et teatoteatn",
      "aeaieel a",
      "oee eaiee",
      "aiot eaedoooo",
      "aieai eaie",
      "aeea o",
      "t aieeaasee",
      "etc o",
      "th iaec",
      "hot tneaie",
      "ot eetn",
      "aieeasad o",
      "hottneaie ote",
      "o s",
      "tts oeot",
      "ieea sa",
      "ooh fiaeaieeeto",
      "etn ooooo",
      "l h",
      "eeae oteea",
      "aotohaieai oteaeeoooo",
      "aieae 0",
      "ta saie",
      "eaiee e",
      "teato aieeeae",
      "g teea",
      "tt m",
      "eaa taoeeeaehn",
      "to ieemopa",
      "ll toieemopa",
      "ood eaier",
      "ai eaiee",
      "t aieaeo",
      "tkt eaataoeeeaehn",
      "ooh aieie",
      "eetaar eae",
      "erd tcaiee",
      "taeai eeaeoero",
      "etaiee eta",
      "eai eta",
      "taie ieeasa",
      "taeeex aieeetn",
      "otetaieeeown ero",
      "etteatoteatn aeae",
      "m tc",
      "teote ooohaieie",
      "faetthooero etno",
      "faet eae",
      "oestte hre",
      "thn tv",
      "aehtec thntv",
      "eaieasotea etno",
      "thoo etnooooo",
      "o eta",
      "aehtec eaieasoteaetno",
      "eaa ts",
      "aiee mtn",
      "eaieetn o",
      "tnoh o",
      "teea 1",
      "lot aoeeeae",
      "eea tn",
      "easeea o",
      "eaiea ee",
      "oeeeaietn aietc",
      "ai ets",
      "ea eead",
      "ood oelotac",
      "eaa aieeetn",
      "os htn",
      "tv taieaeo",
      "t ooho",
      "gte loaie",
      "ot to",
      "tooho etaieeeto",
      "oestt etn",
      "ai eeae",
      "oeaierto etco",
      "etoo etaieeeto",
      "oteato etooetaieeeto",
      "oet eatoeatn",
      "aioteaedoooo aeaie",
      "ai aiee",
      "eeaa easaee",
      "totn aie",
      "ee tn1",
      "eto eaier",
      "s c",
      "i aa",
      "eatot n",
      "to aie",
      "oe loasee",
      "lloooo iec",
      "st oouoo",
      "eai eeaeoero",
      "oeot ohasa",
      "tea etc",
      "ooa eeaeasee",
      "ohao aieea",
      "aot asee",
      "lloooo oietaseaa",
      "eaieeea fa",
      "eaieeeafa tjhn",
      "eeta ttt",
      "i ets",
      "sa fa",
      "taieee safa",
      "oeaie oh",
      "taei tthn",
      "eaa aieeasado",
      "ooh totv",
      "oo et",
      "eaae mtn",
      "iec 1",
      "t aiea",
      "ot eaiee",
      "eae lo",
      "iet eaaemtn",
      "oodeae 0",
      "el r",
      "oetta taoeeeae",
      "oettataoeeeae ouoo",
      "eae 0",
      "ttm n",
      "eato ero",
      "oeotas ttmn",
      "tc lo",
      "oteaa oteaiee",
      "thai etktttn",
      "iets aie",
      "t pa",
      "tta eatoo",
      "ttaeatoo eer",
      "ood otoaoa",
      "aea eatt",
      "eaeoteea sahn",
      "oe ll",
      "ieb eaeeemtn",
      "oel a",
      "eaieaeaier thtn",
      "aiee eatn",
      "erd eaeero",
      "et aieea",
      "oeeeaie stoouoo",
      "ood teaaie",
      "tm ost",
      "o ieem",
      "oesttehre own",
      "eea ead",
      "eaieeeafatjhn teer",
      "aieeetc 1",
      "ta eaa",
      "lh erodtn",
      "aieae st",
      "taeeexaieeetn eea",
      "ieeea eaieaee",
      "m a",
      "s ta",
      "ooh hre",
      "eeaead uo",
      "ote oef",
      "et eetn",
      "teoteo ieemosa",
      "teeasaar oetmtn",
      "r 0",
      "aie sta",
      "p t",
      "aiesta r0",
      "aiaa eea",
      "oeeeaielloooolloooo tetn",
      "oeeeaie iec",
      "llooooas oteoef",
      "oestt eteetn",
      "eaa eaetaiee",
      "et ea",
      "ooh eerto",
      "aot etc",
      "etn 0",
      "aiaa eeaeoteea",
      "et hot",
      "see tpa",
      "t mtn",
      "thaieaeoooo teatn",
      "erd aehtec",
      "teatn hre",
      "pa tn",
      "llooooas to",
      "eta oee",
      "aiets ee",
      "erdaehtec etktttn",
      "taiee t",
      "thtseea stt",
      "ta etasa",
      "etc ohasa",
      "eaaaieai etaoee",
      "thtseeastt eea",
      "ai aieea",
      "ai aieee",
      "aiaieea aiaieee",
      "ood htahn",
      "eaiee thn",
      "ood eeaeasee",
      "teaeaie own",
      "tneaie sa",
      "eaa etcohasa",
      "teea fa",
      "toot ieer",
      "ta teea1",
      "llo ll",
      "ta oeeeaie",
      "aeadtc ee",
      "eaa thaieaeooooteatn",
      "et e",
      "ts ts",
      "to wn",
      "ts eaeaie",
      "ethot c",
      "ooh eeea",
      "ood i",
      "eato eaiaaeeerto",
      "pa thoohneerto",
      "eaiee etc",
      "toto eae",
      "oodi etn0",
      "etaie 1",
      "iod iod",
      "ea aietsee",
      "to eatn",
      "v o",
      "ood ts",
      "ieb ta",
      "taathn erto",
      "eaaaieai etaoeeeae",
      "aiaaeeai etm",
      "aiaaeeaietm toown",
      "o eaieeaee",
      "oeaieeaee tmtn",
      "aie eaiaae",
      "ieb lo",
      "oeotasttmn taee",
      "eaiee eatn",
      "aiee ts",
      "eaiee etn",
      "aiee eaa",
      "aieeaiaae hn",
      "teeto aie",
      "eaae eaieaeto",
      "teev oteato",
      "eaaeed oeoteaieeuto",
      "ea eaiaaeaieeeto",
      "teato eeaeaieeeto",
      "eeatn 0",
      "tootoh ouoothn",
      "fa as",
      "aiea saie",
      "eatn hre",
      "eaieotd etaieeeto",
      "eaats aietetn",
      "ieeea eai",
      "eaed ar",
      "ieeeaeai eaedar",
      "oeto faas",
      "eaa tneaie",
      "oeeeai ets",
      "ea oh",
      "oeoteaiee tc",
      "ee eaie",
      "oeotas toaie",
      "oeot ee",
      "oeeeaietn easeaa",
      "ma tetn",
      "ai eaieetno",
      "sod sod",
      "ooheeea aie",
      "ttt mtn",
      "tot etn",
      "ohao eaieaieae",
      "tee c",
      "gte sac",
      "thn oo",
      "eaieea oero",
      "oodts hn",
      "eaeto eae",
      "ea aietetn",
      "erd toteatnaieae",
      "eaet rto",
      "pa oeot",
      "et eaie",
      "ooh tc",
      "pa eaetoeae",
      "eato eaaaieaietaoeeeae",
      "eai eead",
      "eaieead oero",
      "taiee tea",
      "eaieeea eaieeadoero",
      "u oto",
      "aieaieetno aieaie",
      "er tot",
      "lloll oe",
      "llolloe llollof",
      "ot tn",
      "tta afa",
      "aiee eeto",
      "aiea eaieta",
      "aieaeaieta toe",
      "r o",
      "eaieotd euto",
      "aehtec eaieotdeuto",
      "erd teaaie",
      "er t",
      "tsee oteetn",
      "too iee",
      "taiea r",
      "tooiee taiear",
      "etaiee ethn",
      "eaa etmtn",
      "ood to",
      "tsts t",
      "eato ieemtn",
      "et too",
      "ettoo eeeaie",
      "th aietc",
      "ieblo aieaeo",
      "taiee tclo",
      "e fa",
      "erd er",
      "aieeeaetn etaieeeto",
      "ot eeta",
      "ai to",
      "oet totoeae",
      "aiee tstt",
      "t eae",
      "oeeeaiets eaeaie",
      "ai oteaeeoooo",
      "tta oeeae",
      "pa thn",
      "ohato st",
      "ood atot",
      "ta ethoar",
      "tooieem ooohaieie",
      "st 0",
      "taea eto",
      "ooh thnaie",
      "eato eeaaeasaee",
      "t ktt",
      "eas tstst",
      "ts toe",
      "oeotee tstoe",
      "oeoteetstoe oteea",
      "ot eeae",
      "oeoteetstoeoteea 0",
      "oetofaas lotaoeeeae",
      "aieeeatn 2",
      "eaiee eaaetmtn",
      "aiee eea",
      "oh toeatn",
      "tv 0",
      "oeai eaieeeaaetmtn",
      "eaa etotoatn",
      "thn eeea",
      "etea easee",
      "eaaeed aieeeae",
      "tooieem otea",
      "tooieemotea sa",
      "eato aieee",
      "iaa ee",
      "th ettooeeeaie",
      "gte uto",
      "ete gteuto",
      "ead etaieeeto",
      "afa etasaa",
      "ta eaier",
      "toeeaotd lherodtn",
      "eaoh llorto",
      "d tjhn",
      "ood ettaieerto",
      "too e",
      "faeteae oetmtn",
      "taee dtjhn",
      "o eatn",
      "eas to",
      "pa eteaeasee",
      "taiee eto",
      "ottoottooh aieaie",
      "tn easeaa",
      "eaa tatc",
      "ea r",
      "eaiea ear",
      "pa aieeetstt",
      "eatn aieee0",
      "eai eaieaear",
      "ead eaatneaie",
      "oet rto",
      "em vo",
      "taei taieetea",
      "ai eto",
      "u otoa",
      "uotoa fa",
      "ooho uotoafa",
      "tt ai",
      "tsee sahn",
      "ot eaie",
      "eerto aieeetc",
      "oeot eertoaieeetc",
      "oet ot",
      "tn 3",
      "ie f",
      "iet eaaie",
      "oodeaa eaieeetn",
      "eaeaetn staie",
      "oeeeaieeaa taoeeeaehn",
      "eaaaieaietaoee ea",
      "eohaoooo aieae",
      "ieer odtn",
      "eaaaieaietaoeeea eaieeetc",
      "ttai aeaieela",
      "ttaiaeaieela eer",
      "e ief",
      "ood tttmtn",
      "patn eerto",
      "eea soooo",
      "t erduto",
      "eaieaieaief thtn",
      "paoeot etteeae",
      "eaa paoeotetteeae",
      "ta etaiee",
      "tv o",
      "erd too",
      "oee lo",
      "eaa eaetoeadtv",
      "eaaeaetoeadtv oeelo",
      "ta tnst",
      "ieba 1",
      "tta oeeeae",
      "eead oteeae",
      "too uoo",
      "ooh eaieee",
      "lloooo eaeaiaaeaieeeto",
      "ead eaieduto",
      "to etasa",
      "taeiee tc",
      "aiee ee",
      "t meu",
      "ead st",
      "ooh gteea",
      "oohgteea tn",
      "oeeeaie 0",
      "aietn eaie",
      "ee lo",
      "eeto aieeetc",
      "eaiea toown",
      "eeto f",
      "et eetof",
      "tjho eaitfee",
      "eteetof tjhoeaitfee",
      "ea eaieeaoero",
      "elr t",
      "aea ee",
      "tts oe",
      "taathn ttt",
      "toot tn",
      "pa eaieeatn",
      "gte hre",
      "eae fa",
      "iet eaefa",
      "aiaaeea aieeee",
      "h oe",
      "oeot eea",
      "tt uto",
      "tea ttuto",
      "aeaee teattuto",
      "oeeeaiet eea",
      "erd eahn",
      "paeteaeasee own",
      "lloooo tneaie",
      "oeeeaieeaa etaie",
      "ot tot",
      "ieeaase eaie",
      "ta tneaseaa",
      "oieem to",
      "m etaieeeto",
      "eaitfee iec",
      "o ieetaie",
      "lloooo thnoo",
      "eeaa ee",
      "aiet aie",
      "eaaeaieea st",
      "ttea aieeeto",
      "ttea tteaaieeeto",
      "h aetn",
      "d st",
      "d c",
      "s town",
      "ooet v",
      "ttsoe ooetv",
      "t eaieethn",
      "erd tjhn",
      "aieea a",
      "iaaee mtc",
      "ooh tooe",
      "aiee dst",
      "oohtooe stown",
      "taieee oohtooestown",
      "eae ia",
      "eaeia et",
      "oodto ea",
      "oo wn",
      "ta th",
      "oell oodtoea",
      "eta hre",
      "a tn",
      "iec 0",
      "erd taoeeeae",
      "oeot eaieeea",
      "etas eea",
      "eaa oodthnaie",
      "ote ieea",
      "taeaa etaseea",
      "eaeaie otd",
      "as otea",
      "taiee eeae",
      "ta taiee",
      "eai eae",
      "aiaaeeai etmtn",
      "oh eetc",
      "ea ee",
      "tme sa",
      "thaieaeoooo aiee",
      "erd thettooeeeaie",
      "oeot eaieeaee",
      "oetod easto",
      "tktt tn",
      "oh ee",
      "ohee tktttn",
      "eead aiaaeeaietmtn",
      "eaeiaet tjhn",
      "eaeiaettjhn eaaeee",
      "ead oeoteaieetc",
      "ead otaiaoteaiee",
      "aiee staie",
      "ood oeotasttmntaee",
      "etn rodto",
      "eaa oheetktttn",
      "u toouoo",
      "erd ttea",
      "oeeeaiee otea",
      "tme uo",
      "ood eaaietsee",
      "eatn eatoeatn",
      "aiee oeaierto",
      "erd aeeeaeee",
      "ieea aie",
      "ooh eloeae",
      "tae eaieaie",
      "totn 2",
      "oeeeaiet eaaie",
      "lloooo eae",
      "oteieea atn",
      "teae wn",
      "ooh totnaie",
      "teoteo eadtv",
      "aiet eetn",
      "taeeaieaie iee",
      "taeeaieaieiee eto",
      "ta ero",
      "tot a",
      "eatoo teeae",
      "eatooteeae oshtn",
      "v totv",
      "vtotv tota",
      "ta eaaeto",
      "tso d",
      "tta eaeead",
      "ttaeaeead eer",
      "aieeoeaierto 0",
      "etaoeeeae hn",
      "aieeeaa etnrodto",
      "tt aieemtn",
      "oeaieoh er",
      "aiaa eta",
      "taoeeea etaoeeeaehn",
      "teoteoeadtv oeatn",
      "eaiea totetn",
      "eaatsaietetn oeeeaie",
      "oheetc ero",
      "eeaa eto",
      "eteaie utoouoo",
      "aieeaa eee",
      "aie st0",
      "oeteaa easa",
      "ee mtn",
      "ooheeaaetn eae",
      "eaieeea ooheeeaaie",
      "p aieemtn",
      "eato eaaaieeetn",
      "oestte sac",
      "lloooo oeoteaieeuto",
      "elo eadtetn",
      "eaa et",
      "ttsoeot jhn",
      "aietn 3",
      "to ertot",
      "toertot jhn",
      "ooh thoohneerto",
      "eaieeea oetotn",
      "aotoh aieeae",
      "aiea eeaaeto",
      "oee eaieeead",
      "oeeeaieeead uo",
      "t eta",
      "ot etn",
      "pa oest",
      "eadtetn 1",
      "em uto",
      "aieaie eaiee",
      "tta teaieethn",
      "aieeea 0",
      "eaet tc",
      "eaeaetn emuto",
      "ead tsod",
      "aietoe ouoo",
      "eaieeea aieeaaeee",
      "aieeaiea gte",
      "taiee soooo",
      "t eetn0",
      "aieae ouoo",
      "ee ead",
      "eaaee eeead",
      "eaaeeeeead etaiaaeeouoo",
      "tee mtn",
      "eaetoeadtv ooooo",
      "oteeea 0",
      "ieetaie oteeea0",
      "eaaee teemtn",
      "eaieatotetn eaeae",
      "oet oto",
      "et eemtn",
      "ai eaaeeteemtn",
      "ot aiee",
      "lltoieemopa oeoteaiee",
      "tkt aiaaetsaieaeo",
      "aii aeaieel",
      "aiiaeaieel ae",
      "o ieemtn",
      "e eaiaae",
      "aieets eeaiaae",
      "oeeeaie seaie",
      "ta thaietktttn",
      "tat erduto",
      "th aieeeto",
      "etn aieasaie",
      "eatot etnaieasaie",
      "oet v",
      "aieetstt 1",
      "tmost aieae",
      "aieea 2",
      "oh ouoothn",
      "tn oieemto",
      "ieeoh asa",
      "ot eaitfee",
      "eaa tn",
      "toeeaotd ar",
      "aie hoe",
      "hr aiehoe",
      "tts oeo",
      "eato hraiehoe",
      "oeeeaie hottneaieote",
      "eatt aieeeto",
      "d hohr",
      "toeeaotd ieemtn",
      "gte fsoeo",
      "taseeet ero",
      "aieeae dhohr",
      "ts oooo",
      "taeiee tsoooo",
      "aehtec aiea",
      "e ieea",
      "h oela",
      "ood ohtoeatn",
      "iebta aieeeto",
      "etot aoeeeae",
      "ood taoeeeaeea",
      "afa thneeea",
      "afathneeea 0",
      "aie sa",
      "hot ho",
      "eatoaieee ouoo",
      "tmost toeeaotdar",
      "taieee soooo",
      "e iee",
      "toto aiesa",
      "lloooo llolloellollof",
      "eaieaf hn",
      "faet etno",
      "eeetn rodto",
      "to hn",
      "lot eetn",
      "eato aieeaieagte",
      "et eae",
      "eohaoooo etasaa",
      "eai aeaieela",
      "eaaiee eaiaeaieela",
      "o uoto",
      "ood oteeea",
      "eaaef eatn",
      "oeeeaie oeaieaieeeaaetmtn",
      "oet ieeaaie",
      "eaaiee eatn",
      "f wn",
      "ta oeeae",
      "iet otaiaoteaiee",
      "aea easee",
      "efa metaieeeto",
      "ooh taeieetsoooo",
      "to dc",
      "lot othn",
      "ai eaaeto",
      "eai eaaeaiee",
      "tt aieeeea",
      "teea tn",
      "aiee etot",
      "ead loteetn",
      "ta oeaieoher",
      "tseeoteetn st",
      "oet eaieeea",
      "iee ouoo",
      "oet ieerodtn",
      "emtc taiee",
      "a eae1",
      "ie own",
      "eohaoooo eelo",
      "ia eaieel",
      "eaieaf uto",
      "aieae own",
      "ooh aietaie",
      "oteato etn",
      "ouoo aiaa",
      "ouooaiaa eer",
      "f et",
      "fet eaieafuto",
      "ttsoeo eaieafteoaiaae",
      "eead afaetasaa",
      "tai oteatoetn",
      "oestt etmtn",
      "oeot eai",
      "ood aotasee",
      "iaeaieel a",
      "tnoh ouoo",
      "ood taioteatoetn",
      "aehtecaiea eaiaae",
      "ee et",
      "eeet pa",
      "eato eaaeaiee",
      "erd tootohhn",
      "teoteo eaieeea",
      "teoteoeaieeea sc",
      "erd oohtoeae",
      "aee eatn",
      "teote oo",
      "erdtoo teatn",
      "taea eeae",
      "tt tn",
      "tn eaieaietoto",
      "ooh ouooaiaaeer",
      "oeai ooet",
      "x etn",
      "th eaaeed",
      "aieaiee theaaeed",
      "etc f",
      "eaaet feteaieafuto",
      "oh taoeeeae",
      "tee taieee",
      "etaie ohtaoeeeae",
      "eai oeaiooet",
      "etn otaiee",
      "oeeeaieea eaiaaeaieeeto",
      "ta eaieetn",
      "ood aieeetoar",
      "asotea fa",
      "a et",
      "eaioeaiooet iaaeemtc",
      "eai oteatn",
      "tt ie",
      "oh oest",
      "oetot otetn",
      "ieb aieaieaieeea",
      "oha etn",
      "h ohaetn",
      "teeto hohaetn",
      "teatot hotho",
      "me uo",
      "aito eaiaae",
      "etaieee soooo",
      "b ta",
      "ethn o",
      "etktt toown",
      "oiet oest",
      "teoteo ieeaaseeaiee",
      "od tot",
      "loaseetctc ouoo",
      "eae ouoo",
      "ooh ero",
      "erd emtc",
      "taie bta",
      "teoteo aiee",
      "tat meuo",
      "aeea tohn",
      "aeeatohn aieee",
      "ta pt",
      "aiioh asee",
      "euto euto",
      "ot toottn",
      "ooh eaieaieae",
      "oeta eaie",
      "ea eeeaeee",
      "etaieea eeasoooo",
      "ood aitoeaiaae",
      "j aie",
      "ea eetc",
      "el a",
      "to etn",
      "aieeetot etn",
      "ieem toown",
      "hohr etaieeeto",
      "eaeoteea tvo",
      "eeae llorto",
      "hr eee",
      "hreee htn",
      "oteato eeaeasee",
      "ooh eead",
      "et lotaoeeeae",
      "pathn ela",
      "lloooo o",
      "teeafa aieeeto",
      "ooheead teeafaaieeeto",
      "llo llooooo",
      "aiee llollooooo",
      "eea eaeea",
      "eae eaieeea",
      "eaeeaieeea uto",
      "taetaiee ohouoothn",
      "pa taero",
      "eatotn lo",
      "iodiod taiee",
      "ot see",
      "ta aeaie",
      "oet tmeuo",
      "ee b",
      "taeaa eaieeeae",
      "eatot e",
      "ohao aieee",
      "oha oo",
      "ttt etaieeeto",
      "ea eaieta",
      "eaeaieta toown",
      "eaeaie ote",
      "eaeaieote staie",
      "eaa eaaefeatn",
      "et eer",
      "tneai eteer",
      "ieeaasee eaaeee",
      "ttsoeot jaie",
      "teoteoaiee eeta",
      "aieestaie oooo",
      "taieee ouoo",
      "erd iaec",
      "toteato aiaaeeaeoteea",
      "eatote fsoeo",
      "oodeaa easatoto",
      "tat llorto",
      "ieetaie pa",
      "eta eiee",
      "ta eaiaaeaieeeto",
      "tee thn",
      "eeetn eea",
      "oo aietn",
      "eeetn aiee",
      "eatoo own",
      "eaiee etstt",
      "tho n",
      "oeta thon",
      "ts oe",
      "to f",
      "taoeeea etaeiee",
      "eaa taoeeeaetaeiee",
      "ggg own",
      "tae fwn",
      "tseaeaie own",
      "taaieeatn eae",
      "t eaae",
      "teaae dtc",
      "oe m",
      "tsee eeae",
      "oem tseeeeae",
      "taie i",
      "eeaeaeea er",
      "ead aieee1",
      "oieem otsee",
      "et y",
      "oee eaieeea",
      "oeeeaieeea easee",
      "aieellollooooo etaieeeto",
      "m oo",
      "oo moo",
      "oomoo u",
      "oeteatoeatn taieetclo",
      "h eae",
      "heae eaiee",
      "etaieea see",
      "ta aieteetn",
      "etot otn",
      "ood aietc",
      "iet aie",
      "eaa faeteae",
      "etaieeasee etno",
      "t eaieaieaie",
      "eaieaf teaieaieaie",
      "heaeeaiee ro",
      "otee etaieee",
      "et eeae",
      "e h",
      "oet iaa",
      "eh ouoothn",
      "oetiaa ehouoothn",
      "aeaeatt etaieeeto",
      "ai eaaeeaieote",
      "tot oe",
      "erd oetv",
      "ea eeadero",
      "etot tn",
      "otn eerto",
      "eaaeaiee etotaoeeeae",
      "i aee",
      "pathn eteeae",
      "et eae1",
      "taea aietetn",
      "staie 1",
      "tooieem otneerto",
      "toeeaotd eaieeeaown",
      "oet eaaeeeeeadetaiaaeeouoo",
      "ie hn",
      "ta oetmtn",
      "et aie0",
      "etaie htahn",
      "easee tetn",
      "eaa easeetetn",
      "ohao aieaaeeaieote",
      "v ea",
      "eaeeasoooo tneaieaietoto",
      "oh o",
      "aiee etn1",
      "eeea et",
      "asa taiee",
      "eaa aieeetn1",
      "th r",
      "oela eatn",
      "oell ttaoeeeae",
      "taie ieown",
      "iet eloeae",
      "teote oee",
      "tath oelaeatn",
      "aieee mtc",
      "ot iebat",
      "oohto etno",
      "oo e",
      "eaiee 0",
      "eatotnlo 0",
      "ea odtot",
      "eaiaa eaodtot",
      "eaiaaeaodtot mtn",
      "o eaiaaeaodtotmtn",
      "aiaaeta totn",
      "oel tc",
      "eaieeeatn easeaa",
      "eaaeed pa",
      "tn ta",
      "ottoottooh eatn",
      "eaa oeotohasa",
      "tc teetohohaetn",
      "eaeaie oteaie",
      "eatot otn",
      "eatototn tho",
      "llo r",
      "aieai eaieea",
      "eohaoooo aieaieaieea",
      "eohaooooaieaieaieea totoe",
      "ets c",
      "as aietetn",
      "aieets tof",
      "o ieemopa",
      "etot hn",
      "eeeaet etn",
      "tat eaieeetstt",
      "teoteoee eatoeaaeaiee",
      "aedtc asee",
      "ttaafa eeeaetetn",
      "tta tjhn",
      "eaeaieotd ero",
      "ieem oeltc",
      "eatotn oieetaie",
      "ood aiaaeeaeoteea",
      "etaieeaseeetno eae",
      "oeeeaie oeoteaieeuto",
      "teatn pt",
      "eaaeeeto f",
      "ot asaietetn",
      "tnoh aie",
      "oeta otasaietetn",
      "oeeeaiet ec",
      "lloooo eaioteatn",
      "ta aieeetoar",
      "st aieeatn",
      "eieea gte",
      "toeeaotd t",
      "aiea eaieeeto",
      "eaeeasoooo oeeae",
      "as l",
      "too tho",
      "tootho asl",
      "ta moto",
      "ood oeeae",
      "eeaaee d",
      "eaaee eeaaeed",
      "eaetoeadtv ost",
      "gte hn",
      "eaaeeeeaaeed eaaeee",
      "aiea eaiee",
      "ea etothn",
      "aiee thaietc",
      "eaa aieeea",
      "thn 0",
      "ta eaaieeee",
      "aot asaie",
      "aiaaeea etaiee",
      "oteeta r",
      "aie xetn",
      "ooh tho",
      "eato aieeetstt",
      "iet teec",
      "eeae o",
      "fa ea",
      "ea ead",
      "tm sa",
      "aieai eae",
      "aieaeaiee etoown",
      "eai eatn",
      "teeto eaieote",
      "em st",
      "teote otn",
      "aieeasad oown",
      "llolloellollof ttea",
      "thai toetn",
      "oet teaewn",
      "elr ttaoeeeae",
      "lloooo aieae1",
      "taiei eaead",
      "taieieaead ieeohasa",
      "taoee eaeaie",
      "ot aoeeeae",
      "aieaieae otaoeeeae",
      "teaaedtc tn",
      "oeteatoeatn teer",
      "eaa aeeeaeee",
      "et eea",
      "tetn aieasaie",
      "ety tetn",
      "ttaafa etytetn",
      "eaa aieae",
      "eaetrto eaetrto",
      "afa eteea",
      "erd oellttaoeeeae",
      "hrd tllorto",
      "eead eaeeasoooo",
      "ood eaitfee",
      "ea fa",
      "otee toown",
      "st iaec",
      "lloooo stiaec",
      "etnotaiee rto",
      "aieaieetheaaeed tetn",
      "eai etn",
      "eaa taieellolloeatn",
      "erd thaitoetn",
      "t aiaae",
      "aie eaieee",
      "ta oteeta",
      "aiee et",
      "toot llo",
      "eeaaee eto",
      "taa etaieeeto",
      "oestt eeaaeeeto",
      "ood ieeeea",
      "eaieeeae gggeae",
      "teote ot",
      "aieeeaa eea",
      "eato eaaieeee",
      "teote oeasa",
      "teoteoeasa tn",
      "eato eaeaieotdero",
      "eaieeeatn easeear",
      "aieaeo aieaeo",
      "erd eaaeeeeaaeedeaaeee",
      "eaieaaeaiee own",
      "teeaaa aet",
      "teeaaaaet hoela",
      "oeeeaie oeeae",
      "eaa etaie",
      "erd ethno",
      "eaaee eafa",
      "ee eaaeeeafa",
      "eae heaeeaieero",
      "eaa llollo",
      "ottoottooh st",
      "oteeea oteaie",
      "oteetn sc",
      "oeloasee tetn",
      "aieethaietc 1",
      "e ot",
      "ood taiee",
      "todc to",
      "ooh eattaieeeto",
      "ood aieae0",
      "eatotn eaieaietoto",
      "el tto",
      "eatoo eltto",
      "tn aeae",
      "oeeeaieea etaiee",
      "eaiaa eeaeoteea",
      "oeeeai eaiaaeeaeoteea",
      "tj aie",
      "tsee tjhn",
      "ooh taetaiee",
      "eaeead eaeetc",
      "ohaoo uoto",
      "aieeet oer",
      "aieeetoer t",
      "eea tn1",
      "aiaa eaeeeaeee",
      "lo eaiee",
      "elo loeaiee",
      "oeotd afaetasaa",
      "i faea",
      "tot aoeeeae",
      "ea eeae",
      "ee iehn",
      "ood aieeaiaaehn",
      "toeeaotd aotasee",
      "em oomoou",
      "aito emoomoou",
      "ggg aitoemoomoou",
      "oeeeaieea eero",
      "taiea eeiehn",
      "od too",
      "eato ert",
      "oet hohr",
      "teeto aieaiee",
      "et oe",
      "ooh eatn",
      "oeotas eaaie",
      "eer 0",
      "lloooo iaee",
      "aiea eer0",
      "te fs",
      "eea r",
      "eaa ood",
      "patn eaieaietoto",
      "aieai eaieeatn",
      "afa eaieotd",
      "eeeaaeeeafa eaieote",
      "oer totaoeeeae",
      "oetot oertotaoeeeae",
      "tk to",
      "eeaeo 0",
      "ieeaasee to",
      "e f",
      "meu aiee",
      "gtet meuaiee",
      "er odtoo",
      "afaeaieotd tv",
      "ote fa",
      "st oo",
      "ood tetn",
      "ai toe",
      "erd oeteaaeaieaeto",
      "i etn1",
      "pa eaieeea",
      "otto aieeeaaetnrodto",
      "erodtoo tetn",
      "oeeeaie vea",
      "gteea aeeeatn",
      "aieeeto eeaaeasaee",
      "stoo eatn",
      "pa emtctaiee",
      "eeae fsoeo",
      "ooh toteatnaieae",
      "thaieaeoooo oteeea",
      "ood tjaie",
      "eaelo aiaae",
      "eto pa",
      "oteaitfee etopa",
      "tooieem ot",
      "ooh eer",
      "eteaie uto",
      "tn rodto",
      "st tnrodto",
      "aiea ethn",
      "teatot sttnrodto",
      "ertot htn",
      "eaee ertothtn",
      "aieaethn aie0",
      "oeaie hrdtetn",
      "oeot etn",
      "eaieeea tv",
      "tath rto",
      "ieem to",
      "etno ieemto",
      "eaaee eatn",
      "tefs oeotetn",
      "iet aseaa",
      "ead sa",
      "teea eadsa",
      "aieaead eief",
      "toeeaotdt aieeasa",
      "oooo aiaae",
      "erd taiee",
      "ohato aieeaee",
      "too thr",
      "tta egggeae",
      "eeae ooooaiaae",
      "aie eaietn",
      "tn aietc",
      "otee etnoieemto",
      "eai eeae",
      "oeeeai eeae",
      "eohaoooo iee",
      "eaieeae oouoo",
      "ieb od",
      "ta oeoteaieeouoo",
      "eaet htn",
      "eaaaieaietaoee eaethtn",
      "toot ktt",
      "eaieeea ttea",
      "oeaie hrd",
      "ethoar oooo",
      "tseeoteetn rodto",
      "ohato easeeao",
      "oeeeaieeae ouoo",
      "eaa teatoar",
      "tn eerto",
      "oeeeaiet aa",
      "iec own",
      "eaiaa eeto",
      "eaiaaeeto iecown",
      "otee eteae",
      "eaa eaeloaiaae",
      "eaeeasoooo etoeaier",
      "eato eae0",
      "ieea hn",
      "et ero",
      "er etaieeeto",
      "ta eteae",
      "eatoo eot",
      "eaaieeeatn eea",
      "oet hottniebtjho",
      "eai t",
      "aie eaiee0",
      "erd ohtoeatn",
      "eeta 1",
      "etot oetoto",
      "oeeeai etasee",
      "oeeeaietasee etero",
      "tatc aieeeto",
      "eaa taeaier",
      "gte seetpa",
      "eatot thn",
      "erdtoo teethn",
      "ead aiee",
      "o n",
      "oeeeaie oest",
      "eto aiaae",
      "od rhtn",
      "efa c",
      "erd oheaieeea",
      "taee ifaea",
      "etotoetoto fa",
      "eaitfee lotothn",
      "p town",
      "teatn ptown",
      "eaaieeeatn sodsod",
      "ood eteaieuto",
      "gtet eeae",
      "teaetc aieeeto",
      "tea toottn",
      "ieem oero",
      "eaieeea easatoto",
      "s iec",
      "otai atot",
      "otaiatot etn",
      "teoteoo ietaseaa",
      "etao aiaae",
      "aea etotoetotofa",
      "eaa eaieafteoaiaae",
      "easa oooo",
      "ot etoaiaae",
      "gg gt",
      "gggt aitoe",
      "aiaae ieemoero",
      "toot aiaaeieemoero",
      "ta oteeaeterduto",
      "h e",
      "el he",
      "eaa easaee",
      "oeeeaiee eaaeasaee",
      "eead eetc",
      "ietaie oeoteea",
      "etm oeoteai",
      "oeoteai etmoeoteai",
      "oeoteaietmoeoteai etc",
      "etsuto aiaae",
      "tta teaieeead",
      "ttateaieeead eer",
      "th ieeouoo",
      "erd oohgte",
      "eatooeot ohoest",
      "tootllo etn",
      "taeetotoieeoh aieeetc",
      "eea wn",
      "taiee eeawn",
      "t aiaaeta",
      "taiaaeta tttn",
      "lloooo llorto",
      "oeaie hre",
      "eea ar",
      "etn taoee",
      "etntaoee eaeero",
      "tn easeear",
      "ts c",
      "ai etaoeeeae",
      "tk tsc",
      "aieee ieemtn",
      "eatoeatn eerto",
      "oiet aietetn",
      "etn eerto",
      "oetoto ea",
      "teea 0",
      "eaaeed hot",
      "eaaeedhot a",
      "eaaeedhota tttn",
      "eaa etot",
      "iet eaaetot",
      "ieteaaetot jhn",
      "tn eer",
      "tneer toown",
      "to eaieaietoto",
      "toeeaotd oeoteaieeaee",
      "oetod etnotaieerto",
      "toeaieaietoto ar",
      "otea tot",
      "te v",
      "eohaoooo aieaeadthnaie",
      "oeotas eaaietetn",
      "aiee taieeeto",
      "tee eea",
      "tee teeeea",
      "ood tootlloetn",
      "ead aeae",
      "ai eaiea",
      "to uto",
      "tn oieetaie",
      "aieaead ieemtn",
      "teoteotn eaieaietoto",
      "oohtho aieetaieeeto",
      "ood aieeemtc",
      "t er",
      "tea ter",
      "tta teeaeadsa",
      "tta eaeaetn",
      "ead htahn",
      "oeoteaseeexeceee oetmtn",
      "oe llo",
      "erd tec",
      "erdtec 0",
      "eato ieemoeltc",
      "ai aieaiee",
      "aiaieaiee etoe",
      "eaieafteo aiaa",
      "aot etm",
      "eadaiee ro",
      "otaiatotetn asa",
      "toeeaotd oeoteaieetc",
      "eaieeea thtn",
      "eaaaieeetn asa",
      "aiaae oh",
      "eaa aiaaeoh",
      "iee eadaieero",
      "eaa tseeoteetnrodto",
      "oestte haetn",
      "tsee tsee",
      "lloooo eeaeaieeeto",
      "eaiea tot",
      "teato lo",
      "otea toown",
      "eaeead er",
      "ot aieeasa",
      "eaeeader otaieeasa",
      "ood stooeatn",
      "oha tot",
      "ee eae",
      "oteatot hoela",
      "easa toar",
      "ta eatn",
      "ooh aieee",
      "erd aieaieaieeatn",
      "oeot ohoest",
      "tt h",
      "h aieeeto",
      "eaieatot haieeeto",
      "eohaoooo taoeeeae",
      "eato eeetneea",
      "tk tot",
      "eaeaetn aotasee",
      "iodiod taoeeeae",
      "hot saie",
      "thot hotsaie",
      "ts aie",
      "eaieafteoaiaa eaieeetc",
      "oeotaseaaie own",
      "eaaaiaaeoh tho",
      "ood oh",
      "eaa odthtn",
      "a eaieeea",
      "eeta uto",
      "eato eerto",
      "eatoeerto ieerodtn",
      "oteatothoela pa",
      "oeto et",
      "aieea tottt",
      "teatot aieeatottt",
      "erd oeloaseetetn",
      "oeltto ar",
      "ieeaaseeto aietc",
      "tv easa",
      "lloooo thnaie",
      "oeeeaiee ro",
      "otea too",
      "aiea aiee",
      "erd eaaaieae",
      "eatot aiee",
      "oet eaaieeeatsee",
      "toteato aieae",
      "aotoh aieaieeeto",
      "a ero",
      "teoteot aero",
      "eeetn eeto",
      "aiet wn",
      "eaa aieeetc",
      "tth oown",
      "as toto",
      "ood tv",
      "r oo",
      "roo o",
      "oodtv eatn",
      "hoh oh",
      "to fa",
      "ta tveasa",
      "tkto ee",
      "tktoee eaieetno",
      "gt eeeatn",
      "ta afa",
      "ooh eaaaieeetc",
      "eeto eetn",
      "tsee gggtaitoe",
      "gteeeatn 0",
      "etea eeae",
      "taoeeea ee",
      "toothoasl oho",
      "toothoasloho c",
      "hrd oeltto",
      "ottot siec",
      "aietc 0",
      "erd easeeao",
      "eaa teaieeaee",
      "ood eaaeto",
      "ea eai",
      "eetoeetn aiee",
      "aiea f",
      "eaiea eeeaeee",
      "eaeee lot",
      "lloooo lherodtn",
      "oodooh eattaieeeto",
      "oiet taoeeeaee",
      "oiettaoeeeaee taieeeto",
      "oeeeai eaieeeatn",
      "st etn",
      "ooheaaaieeetc o",
      "ea eaieeeto",
      "eaexxeae ouoo",
      "erd euto",
      "oeaieoh etktttn",
      "aiea ouoo",
      "oeeeaie ottoottn",
      "d pa",
      "th etsc",
      "toteatoaieae sodsod",
      "tea eaae",
      "teaeaae dpa",
      "eea eeea",
      "tea o",
      "oohto elrt",
      "ooa oeaiaaeaodtotmtn",
      "gt etaiee",
      "ohatot eaieethn",
      "ood eaieeeattea",
      "todc toown",
      "lloooo staie",
      "tea eaieaeeeaeee",
      "ooh eea",
      "od eaeeasoooo",
      "eaiaae ouoo",
      "ooheea eaiaaeouoo",
      "oeeeaieea aeeeatn",
      "oeeeaiet teao",
      "aieea st",
      "ho aieeast",
      "aieae llorto",
      "ea eaiea",
      "eeaa etouto",
      "eaeaiea eeaaetouto",
      "ai etot",
      "t eetn",
      "aietot er",
      "etao aie",
      "ttsoeotjhn aiaae",
      "tta eaeero",
      "taeeexaieeetn oeeeaie",
      "ttm on",
      "toeeaotd aseaie",
      "eato eaaeeaieaeto",
      "erd aiaaeeaeoteea",
      "gtetaiee tclo",
      "otto uto",
      "ete ottouto",
      "teato gtetaieetclo",
      "ood eteottouto",
      "ood taoeeeae",
      "tta tneerto",
      "ood teev",
      "oet iaaeemtc",
      "eaieafhn eae",
      "th oela",
      "tsee totoaiesa",
      "teea f",
      "teeaf aietn",
      "oodtaiee oesttetn",
      "eaieee 1",
      "as toaie",
      "oetod eaeae",
      "aieea 3",
      "ettaieerto etaieeeto",
      "toeeaotd eutoeuto",
      "eaa tnst",
      "erd tteaown",
      "etn oh",
      "tt eaie",
      "eeaeeea etnoh",
      "odto fa",
      "hr odtofa",
      "ood erdttea",
      "oiet tetn",
      "m touto",
      "eae oet",
      "eaeoet mtouto",
      "faa r",
      "asotea faar",
      "lloooo ooheerto",
      "aioteaedoooo etno",
      "ottot eaee",
      "oeteatoeatn llo",
      "eai oteaeeoooo",
      "tot er",
      "ead oeoteaie",
      "eaeeelot tt",
      "ood sac",
      "eohaoooo eteemtn",
      "eae wn",
      "oetmtn astoaie",
      "ead tjhn",
      "aiee etoo",
      "oeotasttmn ta",
      "t eaioteaeeoooo",
      "eaaieeea tev",
      "erdttea aie",
      "tsee tsiec",
      "taiee oh",
      "taieeoh hn",
      "oeeeaiee r",
      "tnoh eelo",
      "pa tnoheelo",
      "eieea etn",
      "erd eieeaetn",
      "ttsoeot eaewn",
      "tsee tnaietc",
      "tneea aie",
      "eaieasotea aieaeo",
      "lh etktttn",
      "oeeeaielloooolloooo ouoo",
      "ooh tot",
      "hrd c",
      "too teatn",
      "toeeaotd asoteafa",
      "i odtn",
      "iodtn ttt",
      "erd aieaieeeto",
      "erd tmeuo",
      "eerto hn",
      "hohoh oeatn",
      "ood oesttehre",
      "oet oteieeaatn",
      "etaoeeeae uto",
      "iodiod aieaeeaaeto",
      "ea etaoeeeaeuto",
      "oetod tjhn",
      "eaieeea easeeao",
      "a eertohn",
      "teoteo eaieafteoaiaae",
      "aiee eato",
      "eead teeatn",
      "eaeee lo",
      "iod iodtnttt",
      "pa eaieasotea",
      "oeai aieeaieee",
      "toothr e",
      "eaieeea tt",
      "eaieeeatt eaaiee",
      "oteea tn",
      "to st",
      "ood aeaeatt",
      "too teatot",
      "tooteatot tt",
      "taiee own",
      "eae oh",
      "tae uto",
      "ead oeaiaaeaodtotmtn",
      "tost etaieeeto",
      "ood eteaeeae",
      "eadtv oouoo",
      "eaieeea eaieeea",
      "tea etm",
      "ead oeaieaieeeaaetmtn",
      "tme f",
      "ef tmef",
      "tv etaieeesoooo",
      "teaetm teaetcaieeeto",
      "ta eaie",
      "ood oeteaaehn",
      "pa eaetothn",
      "ta aieeeeto",
      "etn eeb",
      "oeaieoh teec",
      "aioteaeeoooo eae",
      "taaieeeeto 0",
      "ood eaaieeeatsee",
      "gtehn st",
      "ood easeeao",
      "aiaa eaieeeto",
      "teaioteaeeoooo st",
      "ts a",
      "eea eeeae",
      "eai ooe",
      "eaaaieeetn eae",
      "aiee oeoteaiee",
      "oeeeai eaieeetn",
      "ottot h",
      "taeiee eadtjhn",
      "taeieeeadtjhn 0",
      "ood aiiohasee",
      "eaa oodatot",
      "erd staie1",
      "oeaieoh tv",
      "odtn oho",
      "eeaeasee tootieer",
      "ta aieeasado",
      "eatot tea",
      "ieeaasee thnaie",
      "aieaead ttatotoaetn",
      "uto euto",
      "aaoteot eeetn",
      "ooa eaiooe",
      "llo st",
      "tsee gggaitoemoomoou",
      "t aieteetn",
      "ts tofa",
      "oodto hn",
      "erd aieeetstt",
      "lloooo oohtaetaiee",
      "toeeaotd aieetstt",
      "ood eftmef",
      "eaeaieotd ttt",
      "oodeftmef tcaiee",
      "aie iaec",
      "tn ttt",
      "ietaie oeot",
      "ietaieoeot eeaown",
      "ttea aieee",
      "eaieafhn llorto",
      "astoto 1",
      "ta aieea",
      "aiot eetn",
      "ieeaasee ert",
      "etteatoteatn aiee",
      "llo s",
      "eeaeeeae ouoto",
      "aa fa",
      "eeetn teato",
      "eatot od",
      "aieeeato etaieeeto",
      "oiettetn aie",
      "sc e",
      "aioteetn sce",
      "thoo teeafa",
      "et aiea",
      "pa aieee",
      "eohaoooo eaaeaieea",
      "eohaooooeaaeaieea tsee",
      "etn eaeeelo",
      "eaieae eaieaee",
      "tmsa own",
      "ead taieetclo",
      "etaieea toeatn",
      "etaieeatoeatn haetn",
      "hn eae",
      "afa etoeaier",
      "gt eaieee1",
      "c to",
      "tai aeaieela",
      "tsee tttmtn",
      "aiet htn",
      "eato aotohaieaieae",
      "eaeeasoooo aietn1",
      "ood aieeetstt",
      "aieaeoaieaeo aieaeo",
      "lloooo tneaiaoteaiee",
      "oe lo",
      "eatotod cto",
      "gte ieeohasa",
      "eaa oef",
      "aieea eeasoooo",
      "ai etaiee",
      "etaie oeteaaeaieaeto",
      "tm os",
      "tmos taieeeto",
      "e llor",
      "ood oieemtn",
      "th taeiee",
      "oteaitfee ero",
      "ttaafa ellor",
      "ttaafaellor totetn",
      "ta eloeadar",
      "aet hoh",
      "hoas eea",
      "eaa eeatn",
      "oelo eaaeeatn",
      "otefa t",
      "otefat tsee",
      "taoeeea etaieeesoooo",
      "eaa aieeeto",
      "ead oetv",
      "oeaiehrd pa",
      "ood aiee",
      "aieaead etneeb",
      "lloooo lhetktttn",
      "etho eaaieeee",
      "ooa hneae",
      "oetod teetn",
      "tae ieeahn",
      "ood aseaie",
      "tai eeaeooooaiaae",
      "paoeot eaieeea",
      "et hoe",
      "ethoe utoeuto",
      "eohaoooo tnoho",
      "otea fa",
      "llooooas oteafa",
      "eaiaa et",
      "tat eaieethn",
      "eaiaaet tateaieethn",
      "afa ooheerto",
      "eai aiee",
      "aiaiee own",
      "tktot eaitfee",
      "aieeeatn 0",
      "ggg ottn",
      "teoteo ieeeea",
      "aafa ee",
      "oeaie hr",
      "teato e",
      "ai teatoe",
      "ooe oteea",
      "oh ooeoteea",
      "toothoasl ohooeoteea",
      "eaa tooteatn",
      "eaa aiteatoe",
      "teev oteeea",
      "afa aieaieetheaaeed",
      "afaaieaieetheaaeed tetn0",
      "ood oshtn",
      "ta oietaseaa",
      "ts teeafa",
      "eaeeasoooo eaieaieaief",
      "eaa thoohneerto",
      "ooa etottn",
      "ea toto",
      "tea eait",
      "eaieaf teaeait",
      "ooooo eaiaae",
      "eaieafteaeait oooooeaiaae",
      "toeeaotd eaaeaiee",
      "eatoto eaiaiee",
      "eaats easeeao",
      "erd eteemtn",
      "aehtec aafaee",
      "too teethn",
      "totn st",
      "aieaiea ouoo",
      "aieeeae 0",
      "otea totnst",
      "haetn aieaeo",
      "ot too",
      "t llor",
      "eatot m",
      "lloooo tmeu",
      "eead eaeetc",
      "iet faafa",
      "thneeea own",
      "eato eieeagte",
      "eato eaier",
      "eatot etn1",
      "pa tsteeafa",
      "aieai eaieae",
      "aieaieaieae eaieetno",
      "tta htahn",
      "r toown",
      "etnotaiee rtoown",
      "thaietc o",
      "aieeeto aieeeto",
      "aie ma",
      "ieea taeeifaea",
      "aiee tmsa",
      "lloooo eaetaiee",
      "et h",
      "thtseea aiaaetsaieaeo",
      "ieeaasee eaioteato",
      "hrd tllor",
      "hrdtllor toown",
      "aotetm oheaieeea",
      "ta oteea",
      "et v",
      "eaa eaieeeaown",
      "aiea eaiea",
      "eatot tt",
      "eato eato",
      "e eaiee",
      "oodaiee eae1",
      "erd tcteetohohaetn",
      "pa toot",
      "oeotasttmnta eear",
      "erd c",
      "eato eetauto",
      "teatot n",
      "eaieafhn aieeeto",
      "lloooo efac",
      "ead eaieaeeaieaee",
      "ieb eadeaieaeeaieaee",
      "eaeaieotd eahn",
      "gte iettc",
      "iebod iebod",
      "eae ieeouoo",
      "patoot eaeieeouoo",
      "aietaiee tea",
      "oteatn thoela",
      "ta hre",
      "aehtec aieaeouoo",
      "etaie eaieetn",
      "taea aie",
      "oeeeaietn ttt",
      "erd taeieeahn",
      "erd eaatneaie",
      "tefsoeotetn llorto",
      "eeea ee",
      "ote llollo",
      "teato aieee",
      "aiea toe",
      "eaiaa eaieeea",
      "aiee eeae",
      "aiet eer",
      "aotoh aieteer",
      "taiee oestt",
      "taieeoestt etoown",
      "lloooo eutoeuto",
      "a eaieeeto",
      "tead tetn",
      "eatoeato haetn",
      "erd eief",
      "e oodtaoeeeae",
      "eoodtaoeeeae f",
      "gteaie xetn",
      "oet iaaee",
      "ta totnaie",
      "otto hottneaieote",
      "st aieaieeeto",
      "eato eaaeeeto",
      "aieee soooo",
      "ead easeeao",
      "afa taoeeeae",
      "eth oteeatn",
      "teae ieeouoo",
      "teatotoo teaeieeouoo",
      "aeaetotoetotofa tnoho",
      "ood oetathon",
      "ta eae0",
      "teatotn aietc",
      "oef aiets",
      "etot vo",
      "eeaiee etotvo",
      "oefaiets eeaieeetotvo",
      "oodoh tv",
      "eaie ieown",
      "otn oieemto",
      "aethoh otnoieemto",
      "hr eaiaae",
      "ta eaeero",
      "eeeaee eaiee",
      "aieaead todcto",
      "pa thtaeiee",
      "eaa ethotc",
      "ooa oeoteaieeouoo",
      "eaaethotc eta",
      "toeeaotd thneeea",
      "hr htn",
      "hrhtn e",
      "ooh tec",
      "afa toohoetaieeeto",
      "eatoo eeae",
      "eatoo t",
      "aeadtc llorto",
      "faet eatotoeaiaiee",
      "ethoar oetmtn",
      "ea aieaf",
      "eaet hre",
      "aieaead tsiec",
      "st aieeaeeasoooo",
      "oet etaieeethn",
      "eaa eaieeead",
      "ta lotothn",
      "eead tnttt",
      "i eeaeooooaiaae",
      "oetoet tttetaieeeto",
      "t eeea",
      "ohaoo teeea",
      "eaats teeafa",
      "loaseetctc oooo",
      "ote lloll",
      "ottoottn 0",
      "iet eerto",
      "eaet tcaiee",
      "etaiee ohouoothn",
      "eaeeeaeee duto",
      "lot c",
      "iaeaieela own",
      "tea s",
      "aieeetoaieeeto gte",
      "eaaee eatoeaaeaiee",
      "taaiea etn",
      "eaa aieeasadoown",
      "tta eiee",
      "erd todcto",
      "taiee tc",
      "otelloll oouoo",
      "tta n",
      "eaieotd pa",
      "aiea eeto",
      "eead eatoeatn",
      "lloooo eaeeadeaeetc",
      "hot to",
      "hotto eaieotdpa",
      "erdttea o",
      "eaatn erto",
      "aie eaie",
      "oteatoo et",
      "aieeaie eaiee0",
      "ood eea",
      "eait oooo",
      "a eaitoooo",
      "teas eear",
      "teoteoo teaseear",
      "oohtho sc",
      "od sod",
      "otto eaeeadeaeetc",
      "ea aieea",
      "eaaieea taeeifaea",
      "toeeaotd ieeeeawn",
      "hn o",
      "tootktt eaaaieae",
      "lloooo ttatotoaetn",
      "pa etototn",
      "et lo",
      "paetototn 1",
      "ef e",
      "oo etnooooo",
      "ottoth ooetnooooo",
      "ae ieeahn",
      "oteatooet ieeaaie",
      "eaieae dtc",
      "eaieaedtc oooo",
      "ttsoeot aeieeahn",
      "ood ottoottn",
      "eaa aieetstof",
      "iec oooo",
      "eaeeelottt ethno",
      "eaaieaf iecoooo",
      "ead oeaiaieeaieee",
      "teoteotn eaie",
      "eaaieafiecoooo 1",
      "th aieaeeto",
      "tta thaieaeeto",
      "ttathaieaeeto eer",
      "aiea see",
      "ts uto",
      "oeeeaiee tsuto",
      "ietaieoeoteea eae",
      "eaa faetthooero",
      "et aietaieetea",
      "od taoeeeae",
      "teoteo eaeheaeeaieero",
      "eatotm tsa",
      "oeeeai eaiea",
      "s eea",
      "eaa eaieaedtcoooo",
      "asa eaieaieae",
      "tvo 1",
      "ts eaeai",
      "erd tea",
      "eaa oest",
      "tkt gggaitoemoomoou",
      "ot ot",
      "aie ieeasa",
      "ta c",
      "ta oeeeaieeaetaiee",
      "thaieaeoooo eaettcaiee",
      "oeotd eeaeasee",
      "eaa aieae1",
      "eaaeaieeead st",
      "eead taiee",
      "ta oeoteaie",
      "eaieeea aieae",
      "iet oteeta",
      "erdtea taeiee",
      "erdteataeiee 0",
      "oteetn teer",
      "afa etototn",
      "pa tthn",
      "aieeeea stetn",
      "eaiea r",
      "ood toteatnaieae",
      "tho sc",
      "e ggg",
      "elo asee",
      "aiaa eloasee",
      "aiaaeloasee tctc",
      "ieem oomoou",
      "otee tt",
      "oteett thn",
      "etaiee hre",
      "erd oeoteaieeaee",
      "oeeeaie oteaaoteaiee",
      "hohr teatn",
      "aeadtc eatn",
      "toeeaotd eer",
      "tta toeeaotdeer",
      "eertot etn",
      "ead oetieeaaie",
      "eatoo oh",
      "eeeaeeeaiee ouoo",
      "to eertotetn",
      "oeeeaie oteeea",
      "ooh aieae",
      "eaeead ao",
      "eato eaeeae",
      "tai aoteaiee",
      "oooh tc",
      "aieeetoo taiaoteaiee",
      "ood thtn",
      "eaa ohn",
      "tooieemot htn",
      "ooh etlo",
      "aot aieeeto",
      "a toetn",
      "ood eeaaeasaee",
      "ta etno",
      "ood teaeaie",
      "tae ieemoomoou",
      "oetofaas lo",
      "too ieemo",
      "eaatsaietetn eaeeasoooo",
      "tseaeai etaoeeeae",
      "eaaaieeetn rooo",
      "taa eaieeeto",
      "teote otetn",
      "etn aieec",
      "erd eaaeaseetetn",
      "oee eaieas",
      "oeeeaieas to",
      "aiea eaieieown",
      "aieeea eeadeaeetc",
      "taoeeeae oooo",
      "aiee mtc",
      "eaaeed ho",
      "eaeaetn eaaeedho",
      "ooa aieeaiaaehn",
      "m sa",
      "tat msa",
      "oeeeai eta",
      "oietaseaa own",
      "lloooo oetn",
      "aiee eteemtn",
      "tv ooooo",
      "oeaiehrd tvooooo",
      "etaie otellollo",
      "eaeaetn ao",
      "fa tts",
      "fatts fa",
      "totot n",
      "eaoh hrd",
      "ts fattsfa",
      "od eaetothn",
      "eaohhrd st",
      "eeea stetn",
      "toothr dc",
      "ta eaaeaiee",
      "teato atot",
      "ead thtn",
      "toeeaotd aotaieeeto",
      "eaaet uto",
      "erd etaie",
      "eaa eaaie",
      "paot etktttoown",
      "oodthtn aiaae",
      "e htec",
      "h eaaeed",
      "oetoet ttt",
      "ead taa",
      "i eaee",
      "t ieemosa",
      "tm tieemosa",
      "e fwn",
      "oeteaae oooo",
      "taitoteato eeb",
      "oeeeaieta efwn",
      "aieaeo aieaellorto",
      "lloooo tooteethn",
      "aiee eetn",
      "erd aeaieeea",
      "ead oest",
      "afa taeeexaieeeto",
      "eatoo etv",
      "heaaeed tetn",
      "etaiee taieeeto",
      "aieae ooohtc",
      "eaieeea eaieaieae",
      "aieaead oetrto",
      "eaie uto",
      "tktt aieieeasa",
      "ieb tn",
      "erd teeaaaaeoooo",
      "tototn aie",
      "oha tototnaie",
      "aotetm iodiodtaoeeeae",
      "gteea eeasoooo",
      "eaaoef tac",
      "ooh teea",
      "ai etaieeesoooo",
      "ood toothre",
      "lloooo etaiaaeee",
      "hottn eeto",
      "eaiaa eeae",
      "ieaee iehn",
      "oh toeea",
      "stt etn",
      "eaaood toteatnaieae",
      "afa etaie",
      "vea own",
      "aieeaieee 0",
      "aieaeo eaaefeatn",
      "etktt to",
      "erd eaeeadao",
      "oetod hoaseea",
      "toeeaotd eaieafteoaiaae",
      "t eaieuto",
      "tooieemot thn",
      "oee eaiear",
      "aiaae oeeeaiear",
      "eatot otot",
      "t uto",
      "erd eaaeaiee",
      "tsee iodiodtnttt",
      "oodoh tc",
      "et aiets",
      "hohr t",
      "eaeai etmtn",
      "tta oeloaseetetn",
      "ohao lherodtn",
      "tk teeae",
      "ee lot",
      "ieteerto ero",
      "ee tuto",
      "ot etktttoown",
      "gte iec",
      "aiee tclo",
      "eelot aieetclo",
      "etkttto eaetaiee",
      "otto eaiaaeeae",
      "eaieeeaeaieeea eaieeea",
      "eatoot iebat",
      "ieciec eaaeto",
      "aieaead eeaeaieeeto",
      "oeoteaieeea ttt",
      "oetta taoeeeaetaieeesoooo",
      "eaieeeafatjhn llorto",
      "et eaa",
      "aieemtc thaietco",
      "odeaeeasoooo ouoo",
      "h aead",
      "aieeasad ost",
      "toeea aie",
      "haead oelotac",
      "otefattsee eae",
      "ieta odtot",
      "ieb etoasatotototo",
      "eteaa aieeasadost",
      "aiee fa",
      "aieefa metaieeeto",
      "aieaiee eb",
      "ohato aieae",
      "eaieae o",
      "aiet mtn",
      "oeto aietmtn",
      "ood teaetc",
      "tta eaeae",
      "ohao aietc",
      "ood aiea",
      "tae metaieeeto",
      "otea tooe",
      "oteatooe ote",
      "ead tthn",
      "th aieemtcthaietco",
      "aieeea tot",
      "ieeaasee eeae",
      "tvo 0",
      "gteea aieaf",
      "ae f",
      "oeeeaieaiea easee",
      "aef eatn",
      "ood iettc",
      "tootllo etotaoeeeae",
      "toeeaaie hohr",
      "lloooo thaieemtcthaietco",
      "aieaeaiea eaiea",
      "fa etottn",
      "eaatsaietetn teer",
      "otaiee rto",
      "eato c",
      "ta etototn",
      "etaiets iec",
      "aieaeaieaeaiea eeae",
      "toeeaotdt eaieeeae",
      "lloooo iaeaieela",
      "aieaead iodiodtaoeeeae",
      "ead eb",
      "aiea r",
      "faet eatn",
      "aie eaiee",
      "aieetstof thtn",
      "ttea thtn",
      "ts aieae",
      "oteetn st0",
      "toeeaotd tnoho",
      "ea aieaiee",
      "eaaieaiee mtn",
      "ood eutoeuto",
      "aieae oea",
      "ood eer",
      "oet asa",
      "oeeeaiets aiee",
      "eeea st",
      "eeeast llorto",
      "aie oohthnaie",
      "aieae oo",
      "m teaetcaieeeto",
      "eaet mteaetcaieeeto",
      "oeeeaiet eaetmteaetcaieeeto",
      "ead taieeesoooo",
      "erd tnst",
      "ood eadtaieeesoooo",
      "ood eeeastllorto",
      "ooh etoeaier",
      "oo t",
      "tta tteaaieee",
      "tea too",
      "et aietc",
      "etaietc teetohohaetn",
      "teoteo eatoaieee",
      "erd iecieceaaeto",
      "aieeeetn otaieerto",
      "toto aiethtn",
      "erd etaieeohouoothn",
      "afa tktoeeeaieetno",
      "ood oiet",
      "s tsts",
      "ststs tasee",
      "stststasee 0",
      "ood oetoaietmtn",
      "s to",
      "erd thooteeafa",
      "etaiea faetottn",
      "tk tts",
      "tvtaieaeo loaie",
      "tsee teaieethn",
      "tnlo sodsod",
      "ec efe",
      "b a",
      "to aiee",
      "ba t",
      "m pa",
      "eead htahn",
      "iodiod oetotoea",
      "iet ethotc",
      "tea eaaee",
      "ea eaaaieeeto",
      "eato aieeetoaieeetogte",
      "gtet bat",
      "aieae ot",
      "aieeeertot llor",
      "aieeeertotllor toouoo",
      "ooa etasa",
      "eato eahn",
      "efa mpa",
      "tsee iaec",
      "ood thaieaeoooo",
      "ooa taoeeeae",
      "eaiea saie",
      "tseeoteetn eaeeasoooo",
      "etno 1",
      "lloooo tnst",
      "eato eaieaieaief",
      "ood aieaaeeteemtn",
      "ttateeaeadsa eerto",
      "erd aieasee",
      "b oooo",
      "ooheeea aiear",
      "ohaoooo etasaa",
      "hrd ttmon",
      "oto eaeeeaeeeduto",
      "aieea eaaaieeeto",
      "tktot tn",
      "r t",
      "ety tjhn",
      "eaeoh etytjhn",
      "aieeeto aieetstt",
      "tta oodeer",
      "etaie llolloetouto",
      "teatoo eaieasaie",
      "eaiea fa",
      "oetiaaee me",
      "taiei easa",
      "ta eaieeaoero",
      "tsee loaie",
      "aieeeto aeaie",
      "ead eaaieeeeto",
      "pa eetc",
      "tootktt taieetc",
      "etoto ea",
      "tsts e",
      "ood eeb",
      "eai eato",
      "lh e",
      "aieae oteea",
      "teaaedtc toar",
      "eead oeto",
      "eeadoeto eeae",
      "oo ea",
      "oetiaaeeme m",
      "gtehn ouoo",
      "eead tstse",
      "oodeeb 1",
      "erd aieae",
      "eato etao",
      "tta ehtec",
      "thaieaeoooo tsiec",
      "erd ttsoeotjhn",
      "ood ieeaaseeeeae",
      "eaiee tmtn",
      "tkto ieemtn",
      "aieai eaieafa",
      "oetoto pa",
      "tktts aie",
      "o eaieetmtn",
      "afa asoteafa",
      "ttaehtec tv",
      "toeeaotd thtn",
      "oetod aieaieaieafa",
      "etktt otn",
      "gte oieemtn",
      "oohtot ai",
      "ttaehtectv own",
      "oohtotai thoe",
      "oell oohteea",
      "erd seetpa",
      "e iebtn",
      "eaitfe eaiee",
      "otefa town",
      "oeto ieemopa",
      "eaiee etotaoeeeae",
      "oodeaa eaieeetotaoeeeae",
      "aaote oteea",
      "ee c",
      "oteatoo etotoea",
      "dc to",
      "toeeaotd thoaie",
      "erd tnoieetaie",
      "eaa aietoe",
      "ta oest",
      "erd aieetstof",
      "gte oteieeaatn",
      "eeae sttetn",
      "ead eaaeeetof",
      "eaa thosc",
      "eaitfeeaiee teeae",
      "ot asee",
      "ietaodtot eeaown",
      "ts aiee",
      "eaae ohaoooo",
      "aead eahn",
      "ood eatoaieee",
      "aiea eeb",
      "oodooh totnaie",
      "tn s",
      "tns taieeeto",
      "tsee tcaiee",
      "aieaiee ecefe",
      "oeot eeto",
      "eeeaie oeoteea",
      "oeoteeto eeeaieoeoteea",
      "atot aoeeeae",
      "eea totetn",
      "eeatotetn et",
      "oee teaieuto",
      "aeaitoooo oeeteaieuto",
      "aito etn",
      "ta otaiaoteaiee",
      "teev egggeae",
      "ets odsod",
      "otee etsodsod",
      "oh taoeeeaetaieeesoooo",
      "eaieai eaieas",
      "eaieaieaieas eaa",
      "eaaeed aieaeeb",
      "eaaeohaoooo aieae",
      "tj eatn",
      "tead sac",
      "to eer",
      "toeer toooea",
      "oodhtahn gte",
      "tsee easa",
      "eggg eadst",
      "othn eeea",
      "oodts teeafa",
      "aieeeatot hotho",
      "aietc aiee",
      "pa oohtc",
      "too ttaeiee",
      "to ec",
      "iee iee",
      "aieai toec",
      "aieaitoec ieeiee",
      "ta tneaseear",
      "toot gte",
      "ta tv0",
      "ead eotea",
      "tae ohaooooetasaa",
      "otto eaaeeeatn",
      "etaie oetotoea",
      "t aieaitoecieeiee",
      "gteea eeae",
      "eeatotetnet aieeaee",
      "oteato aieeeaieeaee",
      "aiea s",
      "ooheeaaetn erto",
      "eead oetofaaslo",
      "eaeaetn aieeeea",
      "etn ea",
      "ood eaiaaeaieeea",
      "tvtaieaeo aieeeeto",
      "ta oiet",
      "taoiet taoeeeae",
      "erd aieea",
      "oet oeoteaseeexeceee",
      "eaiaa eeatn",
      "ieea seea",
      "oet ieeaseea",
      "tsee eaaaieeetn",
      "ieeaase eaieaeo",
      "oteato aieee",
      "eeadtaiee etaie",
      "ood oeaierto",
      "ooh etnotaieerto",
      "ood eeae",
      "toeeaotd easeeao",
      "etn eaeeae",
      "iet eaetaiee",
      "ood tootieer",
      "erd ieteloeae",
      "oeteatoeatn etaie",
      "erd oeaiaieeaieee",
      "eead oelotac",
      "aotoh aietcaiee",
      "ee eato",
      "taie ieea",
      "oh etkttotn",
      "eato ieeaaseeeaioteato",
      "as aar",
      "iet asaar",
      "aiaaellooootaoeeeae own",
      "ooa fiaeaieeeto",
      "aieeae 1",
      "ooheeaaetn oo",
      "oeeeaie eaiaaeaieeea",
      "gte pt",
      "v taieaeo",
      "toteatn ouoo",
      "gt eai",
      "ie oeoteea",
      "taie ieoeoteea",
      "eaa taieieoeoteea",
      "eatoo od",
      "aiee eeaa",
      "g teatot",
      "eatot eeatn",
      "aieiaec 0",
      "eeea tot",
      "eeeatot eec",
      "eai eaieeeto",
      "oeoteaie eaieaieeeto",
      "erd eetn",
      "l rt",
      "ta toothre",
      "erdaieea 1",
      "oetiaaee boooo",
      "eatoood stooeatn",
      "ieer od",
      "thai toaiee",
      "thaitoaiee ethn",
      "tt htn",
      "otefa tthtn",
      "eaa oetiaaeeboooo",
      "gteea aie",
      "ead eohaooooeaaeaieeatsee",
      "eead thaitoaieeethn",
      "oello aieae",
      "tsee tstofa",
      "eaaood eaieeaoero",
      "a llollo",
      "allollo fa",
      "aieeeto eeaeaduo",
      "eaas eaie",
      "aieas eaaseaie",
      "aieaeo eae",
      "eaiea eeta",
      "gte oohetktttn",
      "er oown",
      "oteaitfee eroown",
      "afa taoeeea",
      "eas toaie",
      "teatoar eatn",
      "eetn rooo",
      "tsee eaaetfeteaieafuto",
      "tm tsa",
      "afataoeeea eastoaie",
      "t ooh",
      "eto dcto",
      "gt etodcto",
      "eato aaoteoteeetn",
      "ood eetnrooo",
      "taiee eaieaeeta",
      "eeeae f",
      "ohao iec",
      "eead tnoho",
      "elr tpa",
      "gteai etoe",
      "tee tn1",
      "erd tsiec",
      "ta aaoteoteeetn",
      "eato eb",
      "ieeoh hn",
      "tk thr",
      "ieerod toown",
      "ood etno0",
      "eatot oe",
      "aieai etaoeeeae",
      "oha ot",
      "ta tetnaieasaie",
      "teatotoo ttaeiee",
      "erd ieeohasa",
      "tkthr eaiaae",
      "tsee tneaieaietoto",
      "oodeaa aieaietaoeeeae",
      "oteaseear st",
      "ood hrodtofa",
      "ieemoeltc aieee",
      "pa aieaieeeto",
[...]
