{
  "version": "1.0",
  "truncation": null,
  "padding": null,
  "added_tokens": [
    {
      "id": 0,
      "content": "[UNK]",
      "single_word": false,
      "lstrip": false,
      "rstrip": false,
      "normalized": false,
      "special": true
    },
    {
      "id": 1,
      "content": "[CLS]",
      "single_word": false,
      "lstrip": false,
      "rstrip": false,
      "normalized": false,
      "special": true
    },
    {
      "id": 2,
      "content": "[SEP]",
      "single_word": false,
      "lstrip": false,
      "rstrip": false,
      "normalized": false,
      "special": true
    },
    {
      "id": 3,
      "content": "[PAD]",
      "single_word": false,
      "lstrip": false,
      "rstrip": false,
      "normalized": false,
      "special": true
    },
    {
      "id": 4,
      "content": "[MASK]",
      "single_word": false,
      "lstrip": false,
      "rstrip": false,
      "normalized": false,
      "special": true
    }
  ],
  "normalizer": null,
  "pre_tokenizer": {
    "type": "Whitespace"
  },
  "post_processor": null,
  "decoder": null,
  "model": {
    "type": "BPE",
    "dropout": null,
    "unk_token": "[UNK]",
    "continuing_subword_prefix": null,
    "end_of_word_suffix": null,
    "fuse_unk": false,
    "byte_fallback": false,
    "vocab": {
      "[UNK]": 0,
      "[CLS]": 1,
      "[SEP]": 2,
      "[PAD]": 3,
      "[MASK]": 4,
      "!": 5,
      "\"": 6,
      "#": 7,
      "$": 8,
      "%": 9,
      "&": 10,
      "'": 11,
      "(": 12,
      ")": 13,
      "*": 14,
      "+": 15,
      ",": 16,
      "-": 17,
      ".": 18,
      "/": 19,
      "0": 20,
      "1": 21,
      "2": 22,
      "3": 23,
      "4": 24,
      "5": 25,
      "6": 26,
      "7": 27,
      "8": 28,
      "9": 29,
      ":": 30,
      ";": 31,
      "<": 32,
      "=": 33,
      ">": 34,
      "?": 35,
      "@": 36,
      "A": 37,
      "B": 38,
      "C": 39,
      "D": 40,
      "E": 41,
      "F": 42,
      "G": 43,
      "H": 44,
      "I": 45,
      "J": 46,
      "K": 47,
      "L": 48,
      "M": 49,
      "N": 50,
      "O": 51,
      "P": 52,
      "Q": 53,
      "R": 54,
      "S": 55,
      "T": 56,
      "U": 57,
      "V": 58,
      "W": 59,
      "X": 60,
      "Y": 61,
      "Z": 62,
      "[": 63,
      "]": 64,
      "^": 65,
      "_": 66,
      "`": 67,
      "a": 68,
      "b": 69,
      "c": 70,
      "d": 71,
      "e": 72,
      "f": 73,
      "g": 74,
      "h": 75,
      "i": 76,
      "j": 77,
      "k": 78,
      "l": 79,
      "m": 80,
      "n": 81,
      "o": 82,
      "p": 83,
      "q": 84,
      "r": 85,
      "s": 86,
      "t": 87,
      "u": 88,
      "v": 89,
      "w": 90,
      "x": 91,
      "y": 92,
      "z": 93,
      "{": 94,
      "~": 95,
      "£": 96,
      "¥": 97,
      "©": 98,
      "«": 99,
      "®": 100,
      "°": 101,
      "²": 102,
      "¶": 103,
      "»": 104,
      "¼": 105,
      "½": 106,
      "¾": 107,
      "Á": 108,
      "Å": 109,
      "×": 110,
      "à": 111,
      "á": 112,
      "ã": 113,
      "ä": 114,
      "ç": 115,
      "è": 116,
      "é": 117,
      "ê": 118,
      "ì": 119,
      "í": 120,
      "ï": 121,
      "ñ": 122,
      "ó": 123,
      "ö": 124,
      "÷": 125,
      "ø": 126,
      "ü": 127,
      "ā": 128,
      "ē": 129,
      "ě": 130,
      "š": 131,
      "ˎ": 132,
      "˙": 133,
      "·": 134,
      "Σ": 135,
      "α": 136,
      "β": 137,
      "γ": 138,
      "θ": 139,
      "φ": 140,
      "ω": 141,
      "а": 142,
      "к": 143,
      "л": 144,
      "ย": 145,
      "ร": 146,
      "อ": 147,
      "่": 148,
      "–": 149,
      "—": 150,
      "―": 151,
      "•": 152,
      "…": 153,
      "‧": 154,
      "€": 155,
      "℃": 156,
      "™": 157,
      "Ⅱ": 158,
      "−": 159,
      "∙": 160,
      "⋯": 161,
      "─": 162,
      "▪": 163,
      "♡": 164,
      "♪": 165,
      "♫": 166,
      "✔": 167,
      "〈": 168,
      "〉": 169,
      "「": 170,
      "」": 171,
      "『": 172,
      "』": 173,
      "【": 174,
      "】": 175,
      "〔": 176,
      "〕": 177,
      "ム": 178,
      "・": 179,
      "ㄧ": 180,
      "﹐": 181,
      "﹔": 182,
      "﹕": 183,
      "﹖": 184,
      "﹣": 185,
      "﻿": 186,
      "！": 187,
      "＂": 188,
      "％": 189,
      "（": 190,
      "）": 191,
      "＋": 192,
      "－": 193,
      "．": 194,
      "／": 195,
      "０": 196,
      "１": 197,
      "２": 198,
      "３": 199,
      "５": 200,
      "６": 201,
      "７": 202,
      "８": 203,
      "９": 204,
      "＝": 205,
      "＠": 206,
      "Ｃ": 207,
      "Ｍ": 208,
      "Ｕ": 209,
      "［": 210,
      "］": 211,
      "｀": 212,
      "｛": 213,
      "｝": 214,
      "～": 215,
      "｡": 216,
      "｢": 217,
      "｣": 218,
      "･": 219,
      "￥": 220,
      "￼": 221,
      "ee": 222,
      "ea": 223,
      "ai": 224,
      "et": 225,
      "oo": 226,
      "aiee": 227,
      "eai": 228,
      "to": 229,
      "ta": 230,
      "tn": 231,
      "eea": 232,
      "ot": 233,
      "taiee": 234,
      "eaie": 235,
      "etn": 236,
      "as": 237,
      "ts": 238,
      "eae": 239,
      "er": 240,
      "oee": 241,
      "asee": 242,
      "eto": 243,
      "tso": 244,
      "lo": 245,
      "taieetso": 246,
      "eaiee": 247,
      "erd": 248,
      "uto": 249,
      "eaa": 250,
      "oooo": 251,
      "th": 252,
      "aie": 253,
      "wn": 254,
      "tt": 255,
      "oe": 256,
      "aa": 257,
      "eato": 258,
      "tc": 259,
      "ead": 260,
      "aieeea": 261,
      "own": 262,
      "eta": 263,
      "erduto": 264,
      "too": 265,
      "aiea": 266,
      "oeeeaie": 267,
      "sa": 268,
      "terduto": 269,
      "oh": 270,
      "rto": 271,
      "te": 272,
      "ooh": 273,
      "aieeeaetn": 274,
      "ll": 275,
      "hr": 276,
      "hn": 277,
      "etc": 278,
      "llo": 279,
      "taieea": 280,
      "etaiee": 281,
      "taieeaasee": 282,
      "eer": 283,
      "ood": 284,
      "st": 285,
      "teea": 286,
      "ote": 287,
      "uoo": 288,
      "lloooo": 289,
      "ie": 290,
      "tea": 291,
      "mtn": 292,
      "oeeeaieown": 293,
      "sac": 294,
      "ouoo": 295,
      "iee": 296,
      "pa": 297,
      "eaaee": 298,
      "oto": 299,
      "tta": 300,
      "gte": 301,
      "aieee": 302,
      "eead": 303,
      "etaeae": 304,
      "oeeeai": 305,
      "aieaaiee": 306,
      "taaieaaiee": 307,
      "oteaiee": 308,
      "see": 309,
      "eatn": 310,
      "etasee": 311,
      "teato": 312,
      "ar": 313,
      "aiet": 314,
      "ero": 315,
      "teeae": 316,
      "toto": 317,
      "ho": 318,
      "aiaa": 319,
      "oet": 320,
      "eero": 321,
      "aee": 322,
      "tti": 323,
      "ieea": 324,
      "tath": 325,
      "hre": 326,
      "fa": 327,
      "etao": 328,
      "soooo": 329,
      "ae": 330,
      "tn1": 331,
      "elo": 332,
      "oeeeae": 333,
      "eaieea": 334,
      "tee": 335,
      "eee": 336,
      "ieeaasee": 337,
      "oha": 338,
      "etoto": 339,
      "aieae": 340,
      "otee": 341,
      "tathrto": 342,
      "eaier": 343,
      "taieee": 344,
      "tasac": 345,
      "aieai": 346,
      "thn": 347,
      "oeaie": 348,
      "taoeeeae": 349,
      "eaiaa": 350,
      "tetn": 351,
      "gg": 352,
      "iec": 353,
      "eloead": 354,
      "etaieeeto": 355,
      "taea": 356,
      "atn": 357,
      "eloeadar": 358,
      "tttn": 359,
      "tneai": 360,
      "llollo": 361,
      "aead": 362,
      "etas": 363,
      "moto": 364,
      "aeadtc": 365,
      "oeaierto": 366,
      "ieb": 367,
      "aieeetc": 368,
      "tsee": 369,
      "aoteaiee": 370,
      "ktttn": 371,
      "eaieeeto": 372,
      "gt": 373,
      "eeae": 374,
      "eatoo": 375,
      "isoooo": 376,
      "tootti": 377,
      "toottiisoooo": 378,
      "eaieeaee": 379,
      "htn": 380,
      "etotoatn": 381,
      "eas": 382,
      "aietc": 383,
      "oest": 384,
      "tj": 385,
      "loasee": 386,
      "teaiee": 387,
      "eaea": 388,
      "ets": 389,
      "otoh": 390,
      "etco": 391,
      "tctc": 392,
      "oeaiertoetco": 393,
      "oeoteaiee": 394,
      "teote": 395,
      "loaseetctc": 396,
      "aii": 397,
      "tneaiaoteaiee": 398,
      "oteea": 399,
      "etn1": 400,
      "aeadtcee": 401,
      "aotoh": 402,
      "eaetaiee": 403,
      "tseea": 404,
      "oeto": 405,
      "etaieee": 406,
      "aieeeto": 407,
      "eaiaae": 408,
      "tv": 409,
      "tpa": 410,
      "seetpa": 411,
      "eatoaieee": 412,
      "taee": 413,
      "eaieeea": 414,
      "hot": 415,
      "eetn": 416,
      "ooa": 417,
      "etasaa": 418,
      "od": 419,
      "ettea": 420,
      "eatoeatn": 421,
      "aieto": 422,
      "eaiaaegte": 423,
      "eaaeed": 424,
      "oeeeaietn": 425,
      "easa": 426,
      "aieeeaeero": 427,
      "oohtc": 428,
      "thoo": 429,
      "eaelo": 430,
      "otd": 431,
      "eaeee": 432,
      "thot": 433,
      "aieeee": 434,
      "teatoaie": 435,
      "teoteo": 436,
      "teeae1": 437,
      "eeadero": 438,
      "eaae": 439,
      "duto": 440,
      "aaote": 441,
      "stt": 442,
      "ttiettea": 443,
      "oeteatoeatn": 444,
      "etktttn": 445,
      "eaieduto": 446,
      "asa": 447,
      "tneaie": 448,
      "aietetn": 449,
      "tae": 450,
      "ieeoh": 451,
      "eaeaetn": 452,
      "aiaaee": 453,
      "oeo": 454,
      "ttea": 455,
      "iet": 456,
      "aec": 457,
      "oel": 458,
      "iaec": 459,
      "oeteatoeatnllo": 460,
      "gteaie": 461,
      "totoieeoh": 462,
      "taeetotoieeoh": 463,
      "thotho": 464,
      "eeta": 465,
      "os": 466,
      "ieer": 467,
      "ttaiee": 468,
      "eaiea": 469,
      "tn2": 470,
      "tjho": 471,
      "oeeeaietnaietc": 472,
      "uo": 473,
      "toh": 474,
      "teetaieee": 475,
      "teaee": 476,
      "oshtn": 477,
      "eatoaieeeouoo": 478,
      "tmtn": 479,
      "eeadaieeetc": 480,
      "aieown": 481,
      "aieee1": 482,
      "oeai": 483,
      "ieem": 484,
      "eatooteeae": 485,
      "ia": 486,
      "ttaieemtn": 487,
      "tead": 488,
      "toown": 489,
      "eatooteeaeoshtn": 490,
      "aiias": 491,
      "oteeadero": 492,
      "aaoteoteeadero": 493,
      "ohaoooo": 494,
      "aietoe": 495,
      "eohaoooo": 496,
      "faet": 497,
      "aiiasaieown": 498,
      "eadsac": 499,
      "taaieee1": 500,
      "ooooo": 501,
      "etsuto": 502,
      "etmtn": 503,
      "eaieetn": 504,
      "faa": 505,
      "oeote": 506,
      "eaieieer": 507,
      "oeeeaiet": 508,
      "eaetaieepa": 509,
      "eaeaie": 510,
      "tf": 511,
      "othn": 512,
      "hottn": 513,
      "iebtjho": 514,
      "hottniebtjho": 515,
      "easee": 516,
      "eeasoooo": 517,
      "em": 518,
      "fs": 519,
      "oohetktttn": 520,
      "aieaieae": 521,
      "teaieeeae": 522,
      "otetaieee": 523,
      "tnoo": 524,
      "oesttnoo": 525,
      "oeaieeaee": 526,
      "oeaieeaeetmtn": 527,
      "oohto": 528,
      "ttt": 529,
      "ggg": 530,
      "aieeeero": 531,
      "ttaaieeeero": 532,
      "toouoo": 533,
      "tec": 534,
      "oteato": 535,
      "teatoteaieeeae": 536,
      "llothn": 537,
      "ttallothn": 538,
      "taeaaietetn": 539,
      "teeaea": 540,
      "aetn": 541,
      "aotohaieaieae": 542,
      "htec": 543,
      "fsoeo": 544,
      "aieea": 545,
      "fia": 546,
      "fiaeaieeeto": 547,
      "oeeeaiee": 548,
      "taeetotoieeohhre": 549,
      "hre0": 550,
      "aehtec": 551,
      "faafa": 552,
      "eaaeedhn": 553,
      "oeot": 554,
      "tnst": 555,
      "toeea": 556,
      "etnooooo": 557,
      "thooetnooooo": 558,
      "etouto": 559,
      "eaitf": 560,
      "oohfiaeaieeeto": 561,
      "gggeae": 562,
      "tateaee": 563,
      "aiaaeeaiet": 564,
      "aieaeo": 565,
      "llolloetouto": 566,
      "oetod": 567,
      "toeeaotd": 568,
      "eaeero": 569,
      "eaet": 570,
      "eaeae": 571,
      "otetaieeeown": 572,
      "eaaieeee": 573,
      "tstt": 574,
      "aiaae": 575,
      "eeaeasee": 576,
      "eaaeeeto": 577,
      "thnaie": 578,
      "teeto": 579,
      "tahn": 580,
      "aieeeatn2": 581,
      "thtn": 582,
      "eadst": 583,
      "eao": 584,
      "gtehre": 585,
      "oodts": 586,
      "egggeae": 587,
      "aseaie": 588,
      "tho": 589,
      "llorto": 590,
      "oeoteaieeouoo": 591,
      "oodtshn": 592,
      "ieeaaseeeeta": 593,
      "aietktttn": 594,
      "ao": 595,
      "tto": 596,
      "ohao": 597,
      "ohn": 598,
      "eerto": 599,
      "oeeeaieea": 600,
      "easeea": 601,
      "aeeeaeee": 602,
      "tjhn": 603,
      "llooooegggeae": 604,
      "aieeeaaeedhn": 605,
      "aieaieduto": 606,
      "aieaiedutoe": 607,
      "oestt": 608,
      "hrd": 609,
      "oteaa": 610,
      "staie": 611,
      "me": 612,
      "teadtstt": 613,
      "oteeetaieee": 614,
      "aiaaeeaietm": 615,
      "aiaaeeaietmtoown": 616,
      "oeotee": 617,
      "etno": 618,
      "llollof": 619,
      "ieeaaseeaiee": 620,
      "etot": 621,
      "otea": 622,
      "ttatoto": 623,
      "ttatotoaetn": 624,
      "aeaie": 625,
      "etaie": 626,
      "oeeae": 627,
      "oeeea": 628,
      "aieeaee": 629,
      "eetc": 630,
      "tasee": 631,
      "tefsoeo": 632,
      "easaee": 633,
      "etoo": 634,
      "teetoaie": 635,
      "ttaeer": 636,
      "tno": 637,
      "aieaead": 638,
      "oeltto": 639,
      "teaieeeadst": 640,
      "easeear": 641,
      "thtseea": 642,
      "ieeaaseeaie": 643,
      "eaieeeaa": 644,
      "eaieeeaaetmtn": 645,
      "tatc": 646,
      "oeeeaielloooo": 647,
      "oeeeaielloooolloooo": 648,
      "oeaieaieeeaaetmtn": 649,
      "eaeeasoooo": 650,
      "aieasa": 651,
      "oteaaote": 652,
      "aotohaieasa": 653,
      "eaed": 654,
      "teaeaie": 655,
      "ohasee": 656,
      "aiiohasee": 657,
      "oeeeaieoeaieaieeeaaetmtn": 658,
      "euto": 659,
      "erto": 660,
      "oodeaelo": 661,
      "aieaetn": 662,
      "eaaaiee": 663,
      "tnoh": 664,
      "aieaaee": 665,
      "aieaie": 666,
      "loaie": 667,
      "etaiaa": 668,
      "etaiaaeee": 669,
      "saie": 670,
      "eaieai": 671,
      "eaeaetniec": 672,
      "st1": 673,
      "oeeeaielloooollooootetn": 674,
      "eaaie": 675,
      "ooateeae": 676,
      "oeoteerto": 677,
      "eatollolloetouto": 678,
      "gtet": 679,
      "eaaeeetot": 680,
      "eaaeaiee": 681,
      "erdiaec": 682,
      "eaaef": 683,
      "emtc": 684,
      "thooero": 685,
      "faetthooero": 686,
      "oero": 687,
      "aieeaiea": 688,
      "eteaie": 689,
      "ohatoh": 690,
      "ohatohtahn": 691,
      "oteeea": 692,
      "aieote": 693,
      "aieaaeeaieote": 694,
      "eaaaieai": 695,
      "eaaaieaieta": 696,
      "ieemtn": 697,
      "oteaed": 698,
      "aieeeaetnetaieeeto": 699,
      "oteaedoooo": 700,
      "oteaseear": 701,
      "tk": 702,
      "aioteaedoooo": 703,
      "eetn0": 704,
      "odthtn": 705,
      "eaeeemtn": 706,
      "rhtn": 707,
      "aito": 708,
      "teatn": 709,
      "ieeaaseellollof": 710,
      "ieeaaseellolloftaea": 711,
      "erdoeote": 712,
      "oeoteaie": 713,
      "ooaeeaeasee": 714,
      "eae2": 715,
      "gtetetn": 716,
      "aiiohaseeaieaaeeaieote": 717,
      "aieeaieagtetetn": 718,
      "eloeae": 719,
      "teaieeaee": 720,
      "aieee0": 721,
      "taoeeeaeown": 722,
      "eeadaieeaee": 723,
      "aioteaedooooaeaie": 724,
      "tathaietktttn": 725,
      "ieba": 726,
      "oetta": 727,
      "taeee": 728,
      "taeeex": 729,
      "utoouoo": 730,
      "taieerto": 731,
      "gtesac": 732,
      "ettaieerto": 733,
      "tot": 734,
      "eteaieutoouoo": 735,
      "tootoh": 736,
      "aietn": 737,
      "eaaieeeeto": 738,
      "ta0": 739,
      "aieaetnta0": 740,
      "tat": 741,
      "oeeeaies": 742,
      "tneeae": 743,
      "oteeaeetn": 744,
      "ieemo": 745,
      "toot": 746,
      "taeiee": 747,
      "eahn": 748,
      "taeaier": 749,
      "teeaaa": 750,
      "eatoaieee2": 751,
      "stteea": 752,
      "thtseeastteea": 753,
      "teer": 754,
      "eaetn": 755,
      "hoh": 756,
      "eaitfee": 757,
      "aseea": 758,
      "llooootneaie": 759,
      "ieet": 760,
      "teaaie": 761,
      "eeawn": 762,
      "oeoteertottea": 763,
      "tn0": 764,
      "oea": 765,
      "hoaseea": 766,
      "ooheaetn": 767,
      "aieteetn": 768,
      "taoeeeaie": 769,
      "eohaooooetasaa": 770,
      "oeoteaiepa": 771,
      "taseeet": 772,
      "jhn": 773,
      "eatne": 774,
      "etstt": 775,
      "eaitfe": 776,
      "oef": 777,
      "taoeeea": 778,
      "aieae1": 779,
      "eadtv": 780,
      "easatoto": 781,
      "oetmtn": 782,
      "eaieaf": 783,
      "oeteaae": 784,
      "gteloaie": 785,
      "etaiaaee": 786,
      "etaiaaeeouoo": 787,
      "eaieeatn": 788,
      "taaieteetn": 789,
      "eaietn": 790,
      "taeaietn": 791,
      "iec0": 792,
      "dtno": 793,
      "oeteaaehn": 794,
      "aieec": 795,
      "taeeexaieeeto": 796,
      "aeoooo": 797,
      "teeaaaaeoooo": 798,
      "tthn": 799,
      "el": 800,
      "eaieaieaie": 801,
      "eeto": 802,
      "easeaa": 803,
      "iettc": 804,
      "eohaooooaieec": 805,
      "oeeeaiestoouoo": 806,
      "eaietoto": 807,
      "tneaieaietoto": 808,
      "hohr": 809,
      "eaee": 810,
      "iod": 811,
      "asad": 812,
      "oeoteaieeuto": 813,
      "taoeeeaeouoo": 814,
      "oettataoeeeaeouoo": 815,
      "oesttetn": 816,
      "iebat": 817,
      "eaiaaeaieeeto": 818,
      "oodteaaie": 819,
      "eterduto": 820,
      "afa": 821,
      "tnlo": 822,
      "otaiee": 823,
      "aieetsee": 824,
      "iec1": 825,
      "aieeeae": 826,
      "hoaseeaown": 827,
      "tme": 828,
      "otc": 829,
      "oteatoetoo": 830,
      "oteatoetooetaieeeto": 831,
      "oeota": 832,
      "aieeeaieeaee": 833,
      "aieie": 834,
      "atot": 835,
      "ieeea": 836,
      "ieeeeawn": 837,
      "otai": 838,
      "ooheetc": 839,
      "etho": 840,
      "twn": 841,
      "aieeetstt": 842,
      "taei": 843,
      "staie0": 844,
      "oeaieas": 845,
      "saa": 846,
      "uoto": 847,
      "teeasaa": 848,
      "teeasaar": 849,
      "teaeaieown": 850,
      "teadeaeero": 851,
      "eaieeeaown": 852,
      "oteeaeterduto": 853,
      "ma": 854,
      "eaeasee": 855,
      "eeaduo": 856,
      "oeaieasaie": 857,
      "teoteoiebat": 858,
      "eeaa": 859,
      "eaaeeetottea": 860,
      "otaiaoteaiee": 861,
      "etasa": 862,
      "oelotc": 863,
      "teea1": 864,
      "ethoar": 865,
      "eaieaieaief": 866,
      "teatoar": 867,
      "taeetotoieeohaieeetc": 868,
      "oeeeaietjhn": 869,
      "erdoeotegte": 870,
      "teev": 871,
      "eaieaeto": 872,
      "llooooeaeaie": 873,
      "eaieetno": 874,
      "ouoto": 875,
      "eaaeee": 876,
      "aeae": 877,
      "etteeae": 878,
      "etneae": 879,
      "aieaeouoo": 880,
      "hrdoeltto": 881,
      "aiaiee": 882,
      "eaieotd": 883,
      "taeuo": 884,
      "tootohhn": 885,
      "eaaeeetneae": 886,
      "tsiec": 887,
      "oohtoeae": 888,
      "eaaeto": 889,
      "aieeoeaierto": 890,
      "teatoaieeeae": 891,
      "asado": 892,
      "teatoo": 893,
      "ttaeatoo": 894,
      "ttaeatooeer": 895,
      "eeaetmtn": 896,
      "etero": 897,
      "oeeeaietasee": 898,
      "oeeeaietaseeetero": 899,
      "llolloeatn": 900,
      "eaieeae": 901,
      "taieellolloeatn": 902,
      "oeeeaietneaseaa": 903,
      "llooooas": 904,
      "oeeeaieteea": 905,
      "otto": 906,
      "oeeeaieteaaie": 907,
      "hrdtetn": 908,
      "teatoooea": 909,
      "eeaderodtno": 910,
      "eaduo": 911,
      "tateea1": 912,
      "taoeeeaehn": 913,
      "aieeetoar": 914,
      "eaaemtn": 915,
      "eaieeaeoero": 916,
      "ieteaaemtn": 917,
      "easto": 918,
      "sto": 919,
      "aieee2": 920,
      "eaieeetc": 921,
      "taoeote": 922,
      "aitoe": 923,
      "erdaieeeaetn": 924,
      "tasaie": 925,
      "tar": 926,
      "etn0": 927,
      "aieaieetno": 928,
      "eaeto": 929,
      "eaaaieeetn": 930,
      "gteea": 931,
      "neerto": 932,
      "thooh": 933,
      "thoohneerto": 934,
      "tai": 935,
      "thoao": 936,
      "aiaieee": 937,
      "aiaieea": 938,
      "aiaieeaaiaieee": 939,
      "eaeead": 940,
      "eaethrdtetn": 941,
      "taeaaeaiee": 942,
      "oetoetteeae": 943,
      "gggt": 944,
      "gggtaitoe": 945,
      "aiear": 946,
      "aaoteotee": 947,
      "eaieeeae": 948,
      "eaaaieeasado": 949,
      "aieaieetnoaieaie": 950,
      "oetoto": 951,
      "ietn0": 952,
      "taaiee": 953,
      "oetotn": 954,
      "tseegggtaitoe": 955,
      "tateae": 956,
      "oetodeasto": 957,
      "aaoteoteeeatn": 958,
      "tetn0": 959,
      "taa": 960,
      "oodietn0": 961,
      "tllorto": 962,
      "ouoothn": 963,
      "lloooooelotc": 964,
      "taeaaeaieeeae": 965,
      "oi": 966,
      "tooieet": 967,
      "tooieetaiear": 968,
      "mtetn0": 969,
      "iemtetn0": 970,
      "odto": 971,
      "oooh": 972,
      "erdeahn": 973,
      "aieaieaieeea": 974,
      "astn": 975,
      "eaaaieaietaoeeea": 976,
      "eaaaieaietaoeeeaeaieeetc": 977,
      "lolo": 978,
      "taeieetc": 979,
      "eaaetc": 980,
      "ohasa": 981,
      "eaaetcohasa": 982,
      "aieiettc": 983,
      "etaieeeta": 984,
      "etaoeeeae": 985,
      "eaetoeadtv": 986,
      "oohtotv": 987,
      "ert": 988,
      "ohtaoeeeae": 989,
      "etaieohtaoeeeae": 990,
      "ooohaieie": 991,
      "eaaeaieeeto": 992,
      "ieemto": 993,
      "oeeeaieeeaduo": 994,
      "hotsaie": 995,
      "thothotsaie": 996,
      "meu": 997,
      "star": 998,
      "aieaieeeto": 999,
      "ea1": 1000,
      "aiestar": 1001,
      "aiestar0": 1002,
      "aieaiee": 1003,
      "aieeteeae": 1004,
      "taaieeatn": 1005,
      "eadaieeetstt": 1006,
      "toeatn": 1007,
      "thntv": 1008,
      "aehtecthntv": 1009,
      "teaeeouoo": 1010,
      "htahn": 1011,
      "eeead": 1012,
      "eaaeeeeead": 1013,
      "ohaoeae": 1014,
      "eaaeeeeeadetaiaaeeouoo": 1015,
      "taoeeeaeea": 1016,
      "aeaea": 1017,
      "aeaeatt": 1018,
      "thaietktttn": 1019,
      "teaetc": 1020,
      "oteatoo": 1021,
      "aieaeoooo": 1022,
      "thaieaeoooo": 1023,
      "etoown": 1024,
      "totototo": 1025,
      "eaead": 1026,
      "mtsee": 1027,
      "oemtsee": 1028,
      "oemtseeeeae": 1029,
      "etno0": 1030,
      "erdeuto": 1031,
      "oheaieeeaown": 1032,
      "oetn": 1033,
      "thoaie": 1034,
      "eaaeaieeetotaoeeeae": 1035,
      "eeerto": 1036,
      "eaiaaeeerto": 1037,
      "tkt": 1038,
      "ieemosa": 1039,
      "sahn": 1040,
      "aeaiee": 1041,
      "aieaieaie": 1042,
      "oohgte": 1043,
      "etoasa": 1044,
      "etoasatotototo": 1045,
      "eaeoteea": 1046,
      "aieeoeaiertottt": 1047,
      "eotea": 1048,
      "oeeeaieoeoteaieeuto": 1049,
      "oteoef": 1050,
      "llooooasoteoef": 1051,
      "tac": 1052,
      "oeeeaieoeltto": 1053,
      "oteaie": 1054,
      "eaaietc": 1055,
      "erdaehtec": 1056,
      "erdaehtecetktttn": 1057,
      "thiaec": 1058,
      "dtn": 1059,
      "oeoteaieetc": 1060,
      "oeasa": 1061,
      "tneea": 1062,
      "mtc": 1063,
      "tsoe": 1064,
      "oelo": 1065,
      "eeaeoteea": 1066,
      "oodtefsoeo": 1067,
      "oteeeaown": 1068,
      "llooooaieee": 1069,
      "oell": 1070,
      "ethn": 1071,
      "eaieato": 1072,
      "st0": 1073,
      "aieeetc1": 1074,
      "xx": 1075,
      "eaeoteeeaown": 1076,
      "llooootaoeeeae": 1077,
      "xxeae": 1078,
      "ro": 1079,
      "ohaoaieeetc": 1080,
      "thoe": 1081,
      "taithoe": 1082,
      "thaietc": 1083,
      "eaaeasaee": 1084,
      "oeeeaieeeaaeasaee": 1085,
      "otoao": 1086,
      "otoaoa": 1087,
      "eb": 1088,
      "iemeu": 1089,
      "eaieotdetaieeeto": 1090,
      "tm": 1091,
      "aieeaeeasoooo": 1092,
      "etahre": 1093,
      "aieeteeae0": 1094,
      "taathn": 1095,
      "otaieerto": 1096,
      "aiest0": 1097,
      "aslo": 1098,
      "tneaiesa": 1099,
      "eaeeasooootneaieaietoto": 1100,
      "eaeadtetn": 1101,
      "eaieta": 1102,
      "teoteoeaeero": 1103,
      "aeaieel": 1104,
      "teaieethn": 1105,
      "hottneaie": 1106,
      "tnoho": 1107,
      "hottneaieote": 1108,
      "ohato": 1109,
      "eaexxeae": 1110,
      "tcaiee": 1111,
      "taie": 1112,
      "eaaeeetotsee": 1113,
      "teevoteato": 1114,
      "taieeeouoo": 1115,
      "eetattt": 1116,
      "ttsoe": 1117,
      "aiaaeeaeoteea": 1118,
      "eaaietetn": 1119,
      "oeeeaiettea": 1120,
      "oeeeaietteao": 1121,
      "aotasee": 1122,
      "aot": 1123,
      "oestte": 1124,
      "ohtoeatn": 1125,
      "taithoeouoo": 1126,
      "eaieaee": 1127,
      "teoteooohaieie": 1128,
      "oeeeaieiec": 1129,
      "eatoeaaaieeetn": 1130,
      "oodooh": 1131,
      "ohaoaieea": 1132,
      "taethoar": 1133,
      "etoeaier": 1134,
      "iodiod": 1135,
      "taeaieeaeoero": 1136,
      "eaaeedho": 1137,
      "erder": 1138,
      "eae1": 1139,
      "oodooheaieaeto": 1140,
      "tetneaeae": 1141,
      "eaieatotetneaeae": 1142,
      "eaeaetnem": 1143,
      "eaeaetnemuto": 1144,
      "tooe": 1145,
      "eeaaeasaee": 1146,
      "eadetaieeeto": 1147,
      "aieed": 1148,
      "ottn": 1149,
      "oelotac": 1150,
      "taieerhtn": 1151,
      "pathoohneerto": 1152,
      "erdeaeero": 1153,
      "aiaaets": 1154,
      "aiaaetsaieaeo": 1155,
      "eaats": 1156,
      "toetasa": 1157,
      "aieedst": 1158,
      "tsto": 1159,
      "ottoot": 1160,
      "aie0": 1161,
      "ieciec": 1162,
      "tnaie": 1163,
      "oohtooe": 1164,
      "taieeeoohtooe": 1165,
      "stown": 1166,
      "taieeeoohtooestown": 1167,
      "oeaieoh": 1168,
      "ieetaie": 1169,
      "odthtnaieeeto": 1170,
      "aieestaie": 1171,
      "tnoieemto": 1172,
      "eteeto": 1173,
      "eteetof": 1174,
      "tjhoeaitfee": 1175,
      "eteetoftjhoeaitfee": 1176,
      "aieestaieoooo": 1177,
      "eaaetoown": 1178,
      "iecieceaaetoown": 1179,
      "aieaeadthnaie": 1180,
      "ieemopa": 1181,
      "ellollof": 1182,
      "llolloellollof": 1183,
      "oohhre": 1184,
      "llooooaieae1": 1185,
      "aotetc": 1186,
      "aieiaec": 1187,
      "tttetaieeeto": 1188,
      "aieiaec0": 1189,
      "eaeaiaaeaieeeto": 1190,
      "aieaieaieeeae": 1191,
      "aieaieaieeeaeuto": 1192,
      "tootieer": 1193,
      "hoe": 1194,
      "ethot": 1195,
      "ethotc": 1196,
      "aieeeeta": 1197,
      "teoteoaieeeeta": 1198,
      "eetaar": 1199,
      "oeeeaieeaa": 1200,
      "sod": 1201,
      "oteatn": 1202,
      "aieaieeeto0": 1203,
      "oodoelotac": 1204,
      "ottoottn": 1205,
      "eeatn0": 1206,
      "ttaetaiaaeeouoo": 1207,
      "tootohouoothn": 1208,
      "aieeeeto": 1209,
      "aiesa": 1210,
      "totoaiesa": 1211,
      "etaseaa": 1212,
      "eaeia": 1213,
      "eaeiaet": 1214,
      "tjhneaaeee": 1215,
      "eaeiaettjhneaaeee": 1216,
      "tteaaieeeto": 1217,
      "tteatteaaieeeto": 1218,
      "lh": 1219,
      "llooootso": 1220,
      "eatoeaiaaeeerto": 1221,
      "tnttt": 1222,
      "mta": 1223,
      "llollomta": 1224,
      "eaaeedllollomta": 1225,
      "eaaeedllollomtaae": 1226,
      "dc": 1227,
      "llooootaithoeouoo": 1228,
      "oodettaieerto": 1229,
      "aiema": 1230,
      "ooaietn": 1231,
      "oodaieeetoar": 1232,
      "llooootaieerhtn": 1233,
      "teeasaaroetmtn": 1234,
      "ec": 1235,
      "tneeaote": 1236,
      "etteato": 1237,
      "etteatoteatn": 1238,
      "eaaaietn": 1239,
      "oeotd": 1240,
      "iebeaeeemtn": 1241,
      "paeaier": 1242,
      "aieaeadieemtn": 1243,
      "faaslo": 1244,
      "taathnerto": 1245,
      "teo": 1246,
      "eaieafteo": 1247,
      "totoeae": 1248,
      "oetofaaslo": 1249,
      "ieeasa": 1250,
      "eaatsaietetn": 1251,
      "toieemopa": 1252,
      "lltoieemopa": 1253,
      "oeeeaieottoottn": 1254,
      "eaeaieoteaie": 1255,
      "matetn": 1256,
      "mn": 1257,
      "eetaareae": 1258,
      "sttmn": 1259,
      "oeotasttmn": 1260,
      "eaettc": 1261,
      "asotea": 1262,
      "etteatoteatnaeae": 1263,
      "oodloaie": 1264,
      "eaatatc": 1265,
      "eaaeeeatn": 1266,
      "eaeaieta": 1267,
      "eaeaietatoown": 1268,
      "oeeeaie0": 1269,
      "emst": 1270,
      "erotaiee": 1271,
      "eaeeaderotaiee": 1272,
      "eaeeaderotaieeasa": 1273,
      "rt": 1274,
      "aieeaee1": 1275,
      "oetaieeeto": 1276,
      "etneea": 1277,
      "eaeteb": 1278,
      "ost": 1279,
      "teoteoieeaaseeaiee": 1280,
      "taieaeo": 1281,
      "oeoteaieeaee": 1282,
      "oteaee": 1283,
      "eeaeaieeeto": 1284,
      "aiaaeeaietmtn": 1285,
      "eeadaiaaeeaietmtn": 1286,
      "oteaeeoooo": 1287,
      "dtc": 1288,
      "oodoeeae": 1289,
      "teetn0": 1290,
      "ttaa": 1291,
      "taieieeasa": 1292,
      "oeeeaieeaieaie": 1293,
      "iebta": 1294,
      "aiehoe": 1295,
      "hraiehoe": 1296,
      "ief": 1297,
      "eief": 1298,
      "eatohraiehoe": 1299,
      "eaieead": 1300,
      "eaieeeaeaieead": 1301,
      "eaieeeaeaieeadoero": 1302,
      "haetn": 1303,
      "hoetaieeeto": 1304,
      "ieeeaeaiee": 1305,
      "tooieem": 1306,
      "eaieaieae": 1307,
      "fatjhn": 1308,
      "eaieeeafatjhn": 1309,
      "tteaown": 1310,
      "aieello": 1311,
      "lloooooetaieeeto": 1312,
      "aieellolloooooetaieeeto": 1313,
      "eaaaieaietaoee": 1314,
      "eaethtn": 1315,
      "eaaaieaietaoeeeaethtn": 1316,
      "tvtaieaeo": 1317,
      "ottoo": 1318,
      "aiee0": 1319,
      "oetofaaslotaoeeeae": 1320,
      "seaie": 1321,
      "toohoetaieeeto": 1322,
      "ttsoeot": 1323,
      "otetaieeeownero": 1324,
      "eatoeeaaeasaee": 1325,
      "oodotoaoa": 1326,
      "etoe": 1327,
      "oohgteea": 1328,
      "oohgteeatn": 1329,
      "oeteaa": 1330,
      "oeltc": 1331,
      "dtjhn": 1332,
      "tsee1": 1333,
      "taeedtjhn": 1334,
      "oeloasee": 1335,
      "vto": 1336,
      "tota": 1337,
      "aieaee": 1338,
      "tvtota": 1339,
      "vtotvtota": 1340,
      "taieetc": 1341,
      "pt": 1342,
      "eaeaieotd": 1343,
      "eaaieeea": 1344,
      "oietaseaa": 1345,
      "eaaaieaietaoeeeae": 1346,
      "lltoieemopaoeoteaiee": 1347,
      "todc": 1348,
      "eaaeeetof": 1349,
      "taiaa": 1350,
      "etatttn": 1351,
      "taiaaetatttn": 1352,
      "oodaotasee": 1353,
      "taoeeae": 1354,
      "ieblo": 1355,
      "iebloaieaeo": 1356,
      "oodaietc": 1357,
      "eetc0": 1358,
      "ieemoeltc": 1359,
      "eaieeeatn": 1360,
      "oodto": 1361,
      "oeotasttmntaee": 1362,
      "tsoooo": 1363,
      "eaeaetneaaeedho": 1364,
      "taeieetsoooo": 1365,
      "lhero": 1366,
      "faeteae": 1367,
      "thnoo": 1368,
      "iodiodtaiee": 1369,
      "eadoeoteaieetc": 1370,
      "oteatoooea": 1371,
      "oohtaeieetsoooo": 1372,
      "faar": 1373,
      "asoteafaar": 1374,
      "taieeeto": 1375,
      "eadetsuto": 1376,
      "ttaoeeeae": 1377,
      "rodto": 1378,
      "tasa": 1379,
      "aiaaehn": 1380,
      "eaieafteoaiaae": 1381,
      "he": 1382,
      "eutoeuto": 1383,
      "aieero": 1384,
      "eatoieemtn": 1385,
      "erdtcaiee": 1386,
      "toeeaotdeaaeaiee": 1387,
      "eaieae": 1388,
      "aieaest": 1389,
      "aietn1": 1390,
      "tseesahn": 1391,
      "aieseetpa": 1392,
      "llooooeaeaiaaeaieeeto": 1393,
      "oeotoh": 1394,
      "aitf": 1395,
      "aitfe": 1396,
      "ttooh": 1397,
      "lotnttt": 1398,
      "oeoteertoaieeetc": 1399,
      "lololotnttt": 1400,
      "oetototetn": 1401,
      "taieetclo": 1402,
      "taoeeeaeeatn": 1403,
      "eaaeaieea": 1404,
      "lherodtn": 1405,
      "ieeeaeaieaee": 1406,
      "eteaeasee": 1407,
      "ottoottooh": 1408,
      "tneerto": 1409,
      "teec": 1410,
      "oohtotnaie": 1411,
      "aieeaiaaehn": 1412,
      "oeteaaeaieaeto": 1413,
      "eaieaeaier": 1414,
      "aieeeaa": 1415,
      "oouoo": 1416,
      "tseaeaie": 1417,
      "tmeuo": 1418,
      "aiaaeea": 1419,
      "eatothnaie": 1420,
      "iebtaaieeeto": 1421,
      "eoteea": 1422,
      "teetoh": 1423,
      "ohaetn": 1424,
      "oela": 1425,
      "teetohohaetn": 1426,
      "oeoteea": 1427,
      "oesttehre": 1428,
      "toteato": 1429,
      "aioteaeeoooo": 1430,
      "oeeeaiets": 1431,
      "erdth": 1432,
      "aeaee": 1433,
      "ttuto": 1434,
      "teattuto": 1435,
      "eteaeaseeown": 1436,
      "aeaeeteattuto": 1437,
      "teatotoo": 1438,
      "aieeeea": 1439,
      "oeeeaieoteeaeterduto": 1440,
      "ooheloeae": 1441,
      "elhe": 1442,
      "tmesa": 1443,
      "eaeaetnstaie": 1444,
      "faetetno": 1445,
      "etnotaieerto": 1446,
      "ieba1": 1447,
      "oeeeaiehottneaieote": 1448,
      "tasaee": 1449,
      "teatotootasaee": 1450,
      "aieaeoaieaeo": 1451,
      "eaaood": 1452,
      "taeaa": 1453,
      "etaseea": 1454,
      "taeaaetaseea": 1455,
      "aieetstt": 1456,
      "eatoeaaaieaietaoeeeae": 1457,
      "todcto": 1458,
      "taeeaieaie": 1459,
      "oodohtoeatn": 1460,
      "taeaieetn": 1461,
      "oodoeotasttmntaee": 1462,
      "erodtno": 1463,
      "ieeeto": 1464,
      "taeeaieaieieeeto": 1465,
      "oteeea0": 1466,
      "ieetaieoteeea0": 1467,
      "oteatoeeaeasee": 1468,
      "lloooothnoo": 1469,
      "oettaero": 1470,
      "eadeaieduto": 1471,
      "eaieatoo": 1472,
      "eaieatoown": 1473,
      "erdoell": 1474,
      "ef": 1475,
      "oeti": 1476,
      "taeaaieeee": 1477,
      "taeaaeto": 1478,
      "tthnst": 1479,
      "hohrtthnst": 1480,
      "oodtaoeeeaeea": 1481,
      "oetodetnotaieerto": 1482,
      "taeaiaaeaieeeto": 1483,
      "ietotaiaoteaiee": 1484,
      "aedtc": 1485,
      "elrt": 1486,
      "oohouoto": 1487,
      "lloooooeoteaieeuto": 1488,
      "etnrodto": 1489,
      "toar": 1490,
      "eatoieemoeltc": 1491,
      "tamoto": 1492,
      "llolloellollofttea": 1493,
      "oodeaa": 1494,
      "eeea": 1495,
      "aeaieela": 1496,
      "loaseetctcouoo": 1497,
      "oiet": 1498,
      "paeteaeaseeown": 1499,
      "oeeeaietseaeaie": 1500,
      "toeeaotdeutoeuto": 1501,
      "eoooo": 1502,
      "toter": 1503,
      "aieeeieemtn": 1504,
      "erdoellttaoeeeae": 1505,
      "eetoaieeetc": 1506,
      "oodtaiee": 1507,
      "oeotas": 1508,
      "etaoaie": 1509,
      "oeotdaeaie": 1510,
      "oeeeaieeeaeasee": 1511,
      "aiaaeeaaieeee": 1512,
      "teeafa": 1513,
      "oodeeaeasee": 1514,
      "oodtoea": 1515,
      "faeteaeoetmtn": 1516,
      "teoteotneaie": 1517,
      "oeeeaieeaataoeeeaehn": 1518,
      "paot": 1519,
      "eadotaiaoteaiee": 1520,
      "erdaiaaeeaeoteea": 1521,
      "erdoohtoeae": 1522,
      "etaieea": 1523,
      "oeta": 1524,
      "tseetsee": 1525,
      "teoteoieemosa": 1526,
      "oteetn": 1527,
      "aieetstt1": 1528,
      "oettmeuo": 1529,
      "erdtjhn": 1530,
      "ytetn": 1531,
      "faetytetn": 1532,
      "ttaafaetytetn": 1533,
      "teoteot": 1534,
      "eaewn": 1535,
      "aieeeatn0": 1536,
      "eaoh": 1537,
      "iehn": 1538,
      "ertotaoeeeae": 1539,
      "hohretaieeeto": 1540,
      "oetotoertotaoeeeae": 1541,
      "etk": 1542,
      "oeaiaa": 1543,
      "eaodto": 1544,
      "oeaiaaeaodto": 1545,
      "oeaiaaeaodtotmtn": 1546,
      "taero": 1547,
      "oodtaieeoesttetn": 1548,
      "eaeoteeasahn": 1549,
      "tnohouoo": 1550,
      "paotetktttn": 1551,
      "aeea": 1552,
      "oietoe": 1553,
      "oietoest": 1554,
      "stoaie": 1555,
      "oetodeaeae": 1556,
      "oesttehreown": 1557,
      "eaieafhn": 1558,
      "etktt": 1559,
      "ohatoteaieethn": 1560,
      "eooooaiaae": 1561,
      "oheloeae": 1562,
      "eaeaieoheloeae": 1563,
      "fat": 1564,
      "aehtectv": 1565,
      "oodeaaeasatoto": 1566,
      "eaioteato": 1567,
      "oelloodtoea": 1568,
      "oeoteetsto": 1569,
      "eoteea0": 1570,
      "oeoteetstoeoteea0": 1571,
      "oeelo": 1572,
      "eaaeaetoeadtv": 1573,
      "eaaeaetoeadtvoeelo": 1574,
      "eaieas": 1575,
      "eaieeaoero": 1576,
      "taoeoteaieeouoo": 1577,
      "ete": 1578,
      "oteeet": 1579,
      "eloeadtetn": 1580,
      "teatnaieae": 1581,
      "eaataoeeeaehn": 1582,
      "aiaaellooootaoeeeae": 1583,
      "eteer": 1584,
      "tneaieteer": 1585,
      "eaieote": 1586,
      "tseetsiec": 1587,
      "tcteetohohaetn": 1588,
      "tmost": 1589,
      "eeeaie": 1590,
      "eaetoeadtvooooo": 1591,
      "oeotastoaie": 1592,
      "oeatn": 1593,
      "aiiaeaieel": 1594,
      "aiiaeaieelae": 1595,
      "teaewn": 1596,
      "stiaec": 1597,
      "lloooostiaec": 1598,
      "ooheea": 1599,
      "eerodtn": 1600,
      "taieaee": 1601,
      "eeadeetc": 1602,
      "taieaeeiehn": 1603,
      "aieeeaaetnrodto": 1604,
      "etotn": 1605,
      "eatnaieee0": 1606,
      "etsc": 1607,
      "aeae1": 1608,
      "eae0": 1609,
      "oelttoar": 1610,
      "oteaaoteaiee": 1611,
      "teoteotetn": 1612,
      "metaieeeto": 1613,
      "ttaoeeae": 1614,
      "ooet": 1615,
      "eatooetotn": 1616,
      "oohthoohneerto": 1617,
      "oheaieeea": 1618,
      "eaieasotea": 1619,
      "eaataieellolloeatn": 1620,
      "eroe": 1621,
      "eaieeeaegggeae": 1622,
      "taeeexaiee": 1623,
      "aieeeetn": 1624,
      "eeado": 1625,
      "ieeouoo": 1626,
      "aieaieeado": 1627,
      "aieaieeadoeroe": 1628,
      "teatothotho": 1629,
      "tkteaataoeeeaehn": 1630,
      "aieeae": 1631,
      "eeaellorto": 1632,
      "llooooiec": 1633,
      "ttaeaeero": 1634,
      "ooheaieaieae": 1635,
      "eaatsaietetneaeeasoooo": 1636,
      "oohouotoafa": 1637,
      "ooheeaaetn": 1638,
      "erdeaa": 1639,
      "tsaie": 1640,
      "patneaieaietoto": 1641,
      "aieeeetnotaieerto": 1642,
      "patneerto": 1643,
      "easeeao": 1644,
      "oeaiehre": 1645,
      "meuo": 1646,
      "baehtectv": 1647,
      "aieebaehtectv": 1648,
      "ttsoeotjhn": 1649,
      "aieato": 1650,
      "aet": 1651,
      "eeeaaie": 1652,
      "ooheeeaaie": 1653,
      "etaie1": 1654,
      "tatmeuo": 1655,
      "aieeea0": 1656,
      "teetn": 1657,
      "ettaieertoetaieeeto": 1658,
      "aeeao": 1659,
      "oown": 1660,
      "erdtaoeeeae": 1661,
      "tooteatn": 1662,
      "toeeaotdlherodtn": 1663,
      "eeaaee": 1664,
      "thaietco": 1665,
      "ieeead": 1666,
      "lloooothnaie": 1667,
      "eaohllorto": 1668,
      "totn2": 1669,
      "ieeeadaieero": 1670,
      "tmostaieae": 1671,
      "oeeeaieeaeaiaaeaieeeto": 1672,
      "taetaiee": 1673,
      "aeaeattetaieeeto": 1674,
      "stetn": 1675,
      "paooheetc": 1676,
      "tsts": 1677,
      "thetsc": 1678,
      "eaieeeafatjhnteer": 1679,
      "eaieaed": 1680,
      "taeeexaieeetneea": 1681,
      "gtehn": 1682,
      "oeaieoher": 1683,
      "aietsee": 1684,
      "oteeeteae": 1685,
      "aieeaasee": 1686,
      "aieae0": 1687,
      "eaaeedtetn": 1688,
      "ieeohasa": 1689,
      "aiaaeaieeeto": 1690,
      "eeaefsoeo": 1691,
      "oetieerodtn": 1692,
      "pathn": 1693,
      "aieemtc": 1694,
      "teoteoeadtv": 1695,
      "teoteoeadtvoeatn": 1696,
      "aieemtcthaietco": 1697,
      "thaieemtcthaietco": 1698,
      "lloooothaieemtcthaietco": 1699,
      "thaieeeto": 1700,
      "oohtoetno": 1701,
      "ieeeaeaieaed": 1702,
      "ieeeaeaieaedar": 1703,
      "totn": 1704,
      "taieeeeawn": 1705,
      "aaee": 1706,
      "taoeaieoher": 1707,
      "erdohtoeatn": 1708,
      "aehteceaieotd": 1709,
      "aehteceaieotdeuto": 1710,
      "ex": 1711,
      "eaaieeaasee": 1712,
      "erdaeeeaeee": 1713,
      "eaaieeaaseeeaioteato": 1714,
      "ohouoothn": 1715,
      "toteatoaiaaeeaeoteea": 1716,
      "tooieemot": 1717,
      "oohthnaie": 1718,
      "aieeeeastetn": 1719,
      "etaieeasee": 1720,
      "sodsod": 1721,
      "aieemtn": 1722,
      "tatllorto": 1723,
      "etaieeaseeetno": 1724,
      "aieoeoteea": 1725,
      "oeeeaieseaie": 1726,
      "iaee": 1727,
      "eadtvoouoo": 1728,
      "ettoo": 1729,
      "ettooeeeaie": 1730,
      "oettotoeae": 1731,
      "afaetasaa": 1732,
      "oetodteetn": 1733,
      "eatoee": 1734,
      "oeeeaietaoeeeae": 1735,
      "ietaieoeoteea": 1736,
      "llooootwn": 1737,
      "eeaaeto": 1738,
      "aieaeeaaeto": 1739,
      "ato": 1740,
      "aieeetot": 1741,
      "easeeex": 1742,
      "easeeexec": 1743,
      "eaaieown": 1744,
      "oeotaseaaieown": 1745,
      "tktaiaaetsaieaeo": 1746,
      "eaeaieeaoero": 1747,
      "erdtaiee": 1748,
      "asadoown": 1749,
      "tmeu": 1750,
      "aitoetn": 1751,
      "aieatoe": 1752,
      "eaaoodthnaie": 1753,
      "eemtn": 1754,
      "eteemtn": 1755,
      "vo": 1756,
      "thr": 1757,
      "oeaieaieae": 1758,
      "tatnst": 1759,
      "efa": 1760,
      "eatooown": 1761,
      "oeeeaieero": 1762,
      "easeeexeceee": 1763,
      "oeotohasa": 1764,
      "afa1": 1765,
      "faee": 1766,
      "aeaieeea": 1767,
      "oodaieae0": 1768,
      "aietwn": 1769,
      "toeeaotdoeoteaieeaee": 1770,
      "aieaeoo": 1771,
      "oteeetno": 1772,
      "oteeetnoieemto": 1773,
      "eaaeeeeaaee": 1774,
      "eaaeeeeaaeed": 1775,
      "aieeoeaierto0": 1776,
      "eaieeeaoetotn": 1777,
      "eaeaieotdero": 1778,
      "eaaet": 1779,
      "fet": 1780,
      "eaieaeaierthtn": 1781,
      "eaaeeeeaaeedeaaeee": 1782,
      "toteatnaieae": 1783,
      "ela": 1784,
      "eaieafuto": 1785,
      "feteaieafuto": 1786,
      "teetoaieaiee": 1787,
      "eaeeeaeee": 1788,
      "eaaetfeteaieafuto": 1789,
      "eatoeaaieeee": 1790,
      "pathnela": 1791,
      "erdeaaeeeeaaeedeaaeee": 1792,
      "llooooasto": 1793,
      "ooheer": 1794,
      "iebod": 1795,
      "ttaieeeea": 1796,
      "tstof": 1797,
      "oom": 1798,
      "taieet": 1799,
      "eadtaieetclo": 1800,
      "aaeemtc": 1801,
      "staieea": 1802,
      "oou": 1803,
      "oomoou": 1804,
      "eaas": 1805,
      "aietcaiee": 1806,
      "paieemtn": 1807,
      "oohtoelrt": 1808,
      "oeoteaieeea": 1809,
      "eaieaaeaiee": 1810,
      "thn0": 1811,
      "oetteaewn": 1812,
      "gteeaeeasoooo": 1813,
      "ieteloeae": 1814,
      "tatn": 1815,
      "aitoeaiaae": 1816,
      "thon": 1817,
      "tateaiee": 1818,
      "tateaieeetstt": 1819,
      "eteaieuto": 1820,
      "eaeieeouoo": 1821,
      "oodoteeea": 1822,
      "tooteaeieeouoo": 1823,
      "ohaoeaieaieae": 1824,
      "oetathon": 1825,
      "toerto": 1826,
      "toertotjhn": 1827,
      "oieemtn": 1828,
      "aehtecaieaeouoo": 1829,
      "oodeteaieuto": 1830,
      "on": 1831,
      "tapt": 1832,
      "aieaieeth": 1833,
      "lloooollolloellollof": 1834,
      "taseeetero": 1835,
      "paaieeetstt": 1836,
      "eaasoteea": 1837,
      "teaieaieaie": 1838,
      "ttateaieethn": 1839,
      "eaieafteaieaieaie": 1840,
      "erdaeaieeea": 1841,
      "ieteaaie": 1842,
      "etm": 1843,
      "taieeesoooo": 1844,
      "eetn1": 1845,
      "aotohaietcaiee": 1846,
      "taiaae": 1847,
      "tsc": 1848,
      "eaeetc": 1849,
      "aiepaeaier": 1850,
      "teemtn": 1851,
      "aieaaeeteemtn": 1852,
      "taoetmtn": 1853,
      "oohaieae": 1854,
      "oeoteai": 1855,
      "erdtoteatnaieae": 1856,
      "aieethaietc": 1857,
      "gteuto": 1858,
      "eeetn": 1859,
      "etegteuto": 1860,
      "aieethaietc1": 1861,
      "erdtooteatn": 1862,
      "teetoeaieote": 1863,
      "eeb": 1864,
      "erdthaitoetn": 1865,
      "oodaitoeaiaae": 1866,
      "oodtv": 1867,
      "oodtveatn": 1868,
      "teethn": 1869,
      "ieemtoown": 1870,
      "tktt": 1871,
      "eatoeeetneea": 1872,
      "aeeeatn": 1873,
      "etaiehtahn": 1874,
      "etaieeaseeetnoeae": 1875,
      "aieaieetheaaeedtetn": 1876,
      "teatoeeaeaieeeto": 1877,
      "aieaiea": 1878,
      "tooteethn": 1879,
      "dtoo": 1880,
      "erodtoo": 1881,
      "erodtootetn": 1882,
      "eadoeaiaaeaodtotmtn": 1883,
      "oethohr": 1884,
      "erdtodcto": 1885,
      "llooootmeu": 1886,
      "eaieeeafatjhnllorto": 1887,
      "oodhtahn": 1888,
      "aieteer": 1889,
      "aotohaieteer": 1890,
      "etoaiaae": 1891,
      "aiaeaieela": 1892,
      "oetv": 1893,
      "eatneatoeatn": 1894,
      "eaatn": 1895,
      "ttaiaeaieela": 1896,
      "taieeaeooooaiaae": 1897,
      "oodatot": 1898,
      "ttaiaeaieelaeer": 1899,
      "easatn": 1900,
      "tvo": 1901,
      "aietneaie": 1902,
      "otetoaiaae": 1903,
      "aietaoeeeae": 1904,
      "eaioteatn": 1905,
      "aieeasadoown": 1906,
      "oteeeaoteaie": 1907,
      "eatoeaeaieotdero": 1908,
      "toeeaotdea": 1909,
      "tktsc": 1910,
      "eaieeetn": 1911,
      "ietao": 1912,
      "dto": 1913,
      "eaeaieotdeahn": 1914,
      "erdthettooeeeaie": 1915,
      "teta": 1916,
      "eaieatn": 1917,
      "eaeeadeaeetc": 1918,
      "oodteev": 1919,
      "ooataiee": 1920,
      "gtehnst": 1921,
      "tatttn": 1922,
      "eaaeedhotatttn": 1923,
      "aedtcasee": 1924,
      "oeeeaieaieeeatn": 1925,
      "oohaieie": 1926,
      "eatooel": 1927,
      "eatooeltto": 1928,
      "ietaodto": 1929,
      "aeaeasee": 1930,
      "otefat": 1931,
      "tmsa": 1932,
      "oeeeaieaieeetn": 1933,
      "eatoert": 1934,
      "eaieeeattea": 1935,
      "erdteaaie": 1936,
      "tseaeaieown": 1937,
      "eaaietsee": 1938,
      "astoto": 1939,
      "ooaaieeaiaaehn": 1940,
      "eaetoeadtvost": 1941,
      "teoteoeasatn": 1942,
      "thtseeaaiaaetsaieaeo": 1943,
      "aieaieaiea": 1944,
      "oetodaieaieaiea": 1945,
      "oetodaieaieaieafa": 1946,
      "toe": 1947,
      "aieeemtc": 1948,
      "otefattsee": 1949,
      "iaaeemtc": 1950,
      "eteae1": 1951,
      "eaioeai": 1952,
      "ooetiaaeemtc": 1953,
      "eaioeaiooetiaaeemtc": 1954,
      "oeoteaseeexeceee": 1955,
      "oeotohoest": 1956,
      "tooieemo": 1957,
      "taetasa": 1958,
      "hreee": 1959,
      "teaeaieaee": 1960,
      "erdeaaaieae": 1961,
      "hreeehtn": 1962,
      "teaeaieaeeeaeee": 1963,
      "ED": 1964,
      "an": 1965,
      "eteetn": 1966,
      "aieaieaouoo": 1967,
      "sc": 1968,
      "efametaieeeto": 1969,
      "toeeaotdoeoteaieetc": 1970,
      "etaieeaeeasoooo": 1971,
      "ottoottoohaieaie": 1972,
      "tnoieetaie": 1973,
      "etaie0": 1974,
      "tooieemooohaieie": 1975,
      "oestteteetn": 1976,
      "oteetoown": 1977,
      "erdoetv": 1978,
      "tttmtn": 1979,
      "oesttetmtn": 1980,
      "ooheerto": 1981,
      "eatotthn": 1982,
      "llooooeae": 1983,
      "oesttesac": 1984,
      "aieeeato": 1985,
      "eaieee": 1986,
      "aieaieaieeatn": 1987,
      "totoe": 1988,
      "taoeoteaie": 1989,
      "aehtecetktt": 1990,
      "eaieaieaiefthtn": 1991,
      "aehtecetktttoar": 1992,
      "eaieeatotoe": 1993,
      "aieaieaieeatotoe": 1994,
      "eohaooooaieaieaieeatotoe": 1995,
      "eiee": 1996,
      "in": 1997,
      "eretaieeeto": 1998,
      "aieaeoaieaeoaieaeo": 1999,
      "tnaietc": 2000,
      "eaaieeeatneea": 2001,
      "erdttea": 2002,
      "eaieeeas": 2003,
      "teoteoeaieeeas": 2004,
      "easeetetn": 2005,
      "teoteoeaieeeasc": 2006,
      "lot": 2007,
      "hneae": 2008,
      "odrhtn": 2009,
      "eaieafhnllorto": 2010,
      "oteeta": 2011,
      "ooahneae": 2012,
      "eaeeelot": 2013,
      "ieeeea": 2014,
      "ttaeaeead": 2015,
      "ttaeaeeadeer": 2016,
      "eadaieee1": 2017,
      "TED": 2018,
      "aieaeaieta": 2019,
      "aieaeaietatoe": 2020,
      "tv0": 2021,
      "emtctaiee": 2022,
      "taetaieeohouoothn": 2023,
      "hoela": 2024,
      "teeaaaaet": 2025,
      "teeaaaaethoela": 2026,
      "taito": 2027,
      "teatoetn": 2028,
      "tatneaseaa": 2029,
      "taitoteatoetn": 2030,
      "ftcaiee": 2031,
      "tmeftcaiee": 2032,
      "eftmeftcaiee": 2033,
      "aiteato": 2034,
      "eaaaiteato": 2035,
      "eaaaiteatoe": 2036,
      "eteaaaieeasado": 2037,
      "taieie": 2038,
      "llooooiaee": 2039,
      "oteetnsc": 2040,
      "aieaae": 2041,
      "oteatoown": 2042,
      "tnta": 2043,
      "toeeaotdieeeeawn": 2044,
      "teoteoo": 2045,
      "ttie": 2046,
      "oodeftmeftcaiee": 2047,
      "ohatost": 2048,
      "taieieown": 2049,
      "oetodhoaseea": 2050,
      "ottohottneaieote": 2051,
      "toothr": 2052,
      "aieaeaieeeto": 2053,
      "gteeaaeeeatn": 2054,
      "etaoeeeaehn": 2055,
      "ietaodtoaiaaetsaieaeo": 2056,
      "taathnttt": 2057,
      "jaie": 2058,
      "tns": 2059,
      "taoeeeaetaoeeeaehn": 2060,
      "oeeeaieeaetaiee": 2061,
      "otellollo": 2062,
      "paoest": 2063,
      "tataiee": 2064,
      "aieaieaeo": 2065,
      "ttsoeotjaie": 2066,
      "aieaieaeotaoeeeae": 2067,
      "llooooeaioteatn": 2068,
      "eadeer": 2069,
      "ttateaiee": 2070,
      "ttateaieeeadeer": 2071,
      "tnstaieeeto": 2072,
      "taeitthn": 2073,
      "oeotdafaetasaa": 2074,
      "lloooooietaseaa": 2075,
      "tnohaie": 2076,
      "otefattseeeae": 2077,
      "aieeetotetn": 2078,
      "aieasaie": 2079,
      "thoela": 2080,
      "eaieeeathtn": 2081,
      "iets": 2082,
      "eaaaiaae": 2083,
      "eaaaiaaeoh": 2084,
      "taoee": 2085,
      "ooheeaaetnaieeeto": 2086,
      "tetnaieasaie": 2087,
      "eaaaiaaeohtho": 2088,
      "eaatsaietetnoeeeaie": 2089,
      "town": 2090,
      "staieeatn": 2091,
      "aieeetoo": 2092,
      "tnaeae": 2093,
      "ttan": 2094,
      "iebaieaieaieeea": 2095,
      "ietsaie": 2096,
      "eaeeelottt": 2097,
      "eaeeae": 2098,
      "tefs": 2099,
      "oeotetn": 2100,
      "tefsoeotetn": 2101,
      "eeatn": 2102,
      "eaaeedoeoteaieeuto": 2103,
      "eaitfeeiec": 2104,
      "eaieeeatneaseear": 2105,
      "aieetstof": 2106,
      "tn3": 2107,
      "eaeloaiaae": 2108,
      "oeeeaieeotea": 2109,
      "ooatn": 2110,
      "erdoohgte": 2111,
      "eear": 2112,
      "eeaeaduo": 2113,
      "afaet": 2114,
      "toeatnhaetn": 2115,
      "oeeeaieeaaetaie": 2116,
      "etaieeatoeatnhaetn": 2117,
      "safa": 2118,
      "taieeesafa": 2119,
      "oeeeaietaa": 2120,
      "eaaeedaieeeae": 2121,
      "eaetetn": 2122,
      "ttaafaee": 2123,
      "ttaafaeeeaetetn": 2124,
      "oteaitfee": 2125,
      "eatoeato": 2126,
      "oeaieohtv": 2127,
      "patooteaeieeouoo": 2128,
      "eeaaeea": 2129,
      "ietn1": 2130,
      "eatoeatohaetn": 2131,
      "tsfat": 2132,
      "aieaeadtodcto": 2133,
      "heaee": 2134,
      "heaeeaieero": 2135,
      "eaaeeaaeea": 2136,
      "aiaaeaeeeaeee": 2137,
      "oietaseaaown": 2138,
      "eaaeaeloaiaae": 2139,
      "eteaaaieeasadost": 2140,
      "aieaaeto": 2141,
      "aieaeto": 2142,
      "paemtctaiee": 2143,
      "eaaeeaieaeto": 2144,
      "eatotneaieaietoto": 2145,
      "ieeaaseeeaaeee": 2146,
      "aehtecaiea": 2147,
      "aieaeadtsiec": 2148,
      "loteetn": 2149,
      "faietn": 2150,
      "teeafaietn": 2151,
      "tkto": 2152,
      "eaststs": 2153,
      "eaststst": 2154,
      "tootho": 2155,
      "toothoaslo": 2156,
      "totnaie": 2157,
      "taiaeaieela": 2158,
      "eaaeaaie": 2159,
      "taoeeeaee": 2160,
      "oteeae": 2161,
      "aieaethn": 2162,
      "aieeet": 2163,
      "aieaethnaie0": 2164,
      "easaoooo": 2165,
      "aieeoeoteaiee": 2166,
      "tsod": 2167,
      "eadtsod": 2168,
      "ooaoeaiaaeaodtotmtn": 2169,
      "taseeetieb": 2170,
      "gteato": 2171,
      "oiettetn": 2172,
      "gteatot": 2173,
      "eaatneaie": 2174,
      "toteatoaieae": 2175,
      "oodeaier": 2176,
      "oodaseaie": 2177,
      "oiettaoeeeaee": 2178,
      "oiettaoeeeaeetaieeeto": 2179,
      "eadeaatneaie": 2180,
      "oiettetnaie": 2181,
      "toteatoaieaesodsod": 2182,
      "tootktt": 2183,
      "oohtotaseeetieb": 2184,
      "oter": 2185,
      "aietoter": 2186,
      "eaieafhneae": 2187,
      "eelo": 2188,
      "ieeaeooooaiaae": 2189,
      "eaieasoteaaieaeo": 2190,
      "lrt": 2191,
      "NA": 2192,
      "eaaeaieafteoaiaae": 2193,
      "teaae": 2194,
      "eaaieeeatsee": 2195,
      "teaaedtc": 2196,
      "oodeaitfee": 2197,
      "eeadoteeae": 2198,
      "rtoouoo": 2199,
      "eaapa": 2200,
      "aethoh": 2201,
      "ieeaatn": 2202,
      "oteatoeaieaaeaiee": 2203,
      "erdeaseeao": 2204,
      "ietaieoeoteeaown": 2205,
      "astoto1": 2206,
      "etntaoeeea": 2207,
      "etntaoeeeaeaieae": 2208,
      "oeotetteeae": 2209,
      "efe": 2210,
      "eeetneeto": 2211,
      "taeloeadar": 2212,
      "ieeaaseeto": 2213,
      "toeai": 2214,
      "tas": 2215,
      "othneeea": 2216,
      "aea": 2217,
      "oodaieeemtc": 2218,
      "etlo": 2219,
      "lloooolherodtn": 2220,
      "eadloteetn": 2221,
      "etottn": 2222,
      "eaapaoeotetteeae": 2223,
      "otnoieemto": 2224,
      "asaeaieaieae": 2225,
      "tteaaieee": 2226,
      "aethohotnoieemto": 2227,
      "aotohaieeae": 2228,
      "teoteoieeeea": 2229,
      "eaetrto": 2230,
      "oetaeaie": 2231,
      "taieetea": 2232,
      "etaiea": 2233,
      "eatoero": 2234,
      "ieeahn": 2235,
      "eatottea": 2236,
      "eaieeetoown": 2237,
      "aieaeaieeetoown": 2238,
      "eaeeelo": 2239,
      "taeieeahn": 2240,
      "eaexxeaeouoo": 2241,
      "eaeea": 2242,
      "ttsoeooet": 2243,
      "ttsoeooetv": 2244,
      "eaataoeeea": 2245,
      "etaeiee": 2246,
      "eaataoeeeaetaeiee": 2247,
      "faetottn": 2248,
      "taaetaieeeto": 2249,
      "etaieafaetottn": 2250,
      "etotoetoto": 2251,
      "oodtttmtn": 2252,
      "teatolo": 2253,
      "aieaeadeief": 2254,
      "aieeaieagte": 2255,
      "oodeaieeeattea": 2256,
      "oeeeaieeaeero": 2257,
      "tkteeae": 2258,
      "etotoetotofa": 2259,
      "eieea": 2260,
      "llos": 2261,
      "tev": 2262,
      "gtefsoeo": 2263,
      "oeaiehrd": 2264,
      "ottoottoohst": 2265,
      "ohaoo": 2266,
      "oeftac": 2267,
      "faetthooeroetno": 2268,
      "oohtaetaiee": 2269,
      "tseetotoaiesa": 2270,
      "haetnaieaeo": 2271,
      "aeaetotoetotofa": 2272,
      "oodthnaie": 2273,
      "odtnoho": 2274,
      "gteieeohasa": 2275,
      "satoto": 2276,
      "aieeetoert": 2277,
      "taeieem": 2278,
      "taeieemoomoou": 2279,
      "eaeaaee": 2280,
      "eeaeaeea": 2281,
      "oteeatn": 2282,
      "eohaooootnoho": 2283,
      "eadeb": 2284,
      "oteetar": 2285,
      "tvooooo": 2286,
      "oeaiehrdtvooooo": 2287,
      "ptown": 2288,
      "eaaeaetaiee": 2289,
      "thneeea": 2290,
      "teatnptown": 2291,
      "ooheeaaetneae": 2292,
      "iebodiebod": 2293,
      "etktttoown": 2294,
      "eaaeeatn": 2295,
      "oeloeaaeeatn": 2296,
      "hoc": 2297,
      "erdtcteetohohaetn": 2298,
      "ooaeaa": 2299,
      "toothoaslohoc": 2300,
      "aieeaa": 2301,
      "aieaeeto": 2302,
      "toeeaotdieemtn": 2303,
      "aieeeteaeaaee": 2304,
      "ethno": 2305,
      "etneaeeelo": 2306,
      "aieaeown": 2307,
      "tktaiee": 2308,
      "ohaoouoto": 2309,
      "etta": 2310,
      "eadoeoteaie": 2311,
      "eatoaieeaieagte": 2312,
      "eaitfeeaieeteeae": 2313,
      "teevoteeea": 2314,
      "tseetneaieaietoto": 2315,
      "oeeeaietnttt": 2316,
      "eaaaieeea": 2317,
      "paaieee": 2318,
      "aieaeothneeea": 2319,
      "eaaaieeeto": 2320,
      "eatototn": 2321,
      "aiethtn": 2322,
      "emoomoou": 2323,
      "gggaito": 2324,
      "ertothtn": 2325,
      "eaeeertothtn": 2326,
      "eatototntho": 2327,
      "gggaitoemoomoou": 2328,
      "thaieaeeto": 2329,
      "oodete": 2330,
      "ttathaieaeeto": 2331,
      "teatoatot": 2332,
      "ottouto": 2333,
      "oodeteottouto": 2334,
      "ttathaieaeetoeer": 2335,
      "eeeato": 2336,
      "eaaetotoatn": 2337,
      "gtetmeu": 2338,
      "gtetmeuaiee": 2339,
      "eaiaaetta": 2340,
      "eaiaaettateaieethn": 2341,
      "erdaieaieaieeatn": 2342,
      "oeeeaieoest": 2343,
      "ooaoeoteaieeouoo": 2344,
      "oetotoea": 2345,
      "tktaieeteeae": 2346,
      "eaaeaseetetn": 2347,
      "eatotoeai": 2348,
      "eatotoeaiaiee": 2349,
      "eeaeeta": 2350,
      "oeaieohteec": 2351,
      "tneer": 2352,
      "oodaieeaiaaehn": 2353,
      "tneertoown": 2354,
      "vea": 2355,
      "oeeeaieeae": 2356,
      "mon": 2357,
      "tseetnaietc": 2358,
      "taoteea": 2359,
      "oeeeaieeaeouoo": 2360,
      "faeteatotoeaiaiee": 2361,
      "thaieaeooooaiee": 2362,
      "aieeeatn": 2363,
      "teaetcaieeeto": 2364,
      "ohaoaieee": 2365,
      "eaieeeatneaseaa": 2366,
      "erdtootohhn": 2367,
      "ooheead": 2368,
      "teeafaaieeeto": 2369,
      "ooheeadteeafaaieeeto": 2370,
      "ieeaaie": 2371,
      "eeeaieetno": 2372,
      "ottoteaee": 2373,
      "ottothooetnooooo": 2374,
      "eaaaieeetnasa": 2375,
      "tktoeeeaieetno": 2376,
      "eaeoteeatvo": 2377,
      "totniaec": 2378,
      "ieeaaseeert": 2379,
      "eaeheaeeaieero": 2380,
      "taaeaie": 2381,
      "taoietaseaa": 2382,
      "lloooollorto": 2383,
      "aieaieeaiee": 2384,
      "ic": 2385,
      "oodoieemtn": 2386,
      "oetodtjhn": 2387,
      "ietaseaa": 2388,
      "oodoetathon": 2389,
      "ooheaieee": 2390,
      "aieeeaiee": 2391,
      "taeitaieetea": 2392,
      "etmoeoteai": 2393,
      "oeoteaietmoeoteai": 2394,
      "oeoteaietmoeoteaietc": 2395,
      "dhohr": 2396,
      "erdoeteaaeaieaeto": 2397,
      "faeteatn": 2398,
      "aieeaedhohr": 2399,
      "ohtv": 2400,
      "teeaeasee": 2401,
      "paeaeto": 2402,
      "eohaooooeteemtn": 2403,
      "tkteeaeasee": 2404,
      "paeaetoeae": 2405,
      "DNA": 2406,
      "eaieatothaieeeto": 2407,
      "ooaaieeeaiee": 2408,
      "ooaaieeeaieeetaoeeeae": 2409,
      "eaaeaieeast": 2410,
      "easatoar": 2411,
      "taieesoooo": 2412,
      "tohn": 2413,
      "tseeeaaetfeteaieafuto": 2414,
      "tkttsaie": 2415,
      "aioteetnsc": 2416,
      "aioteetnsce": 2417,
      "taeaaie": 2418,
      "taemetaieeeto": 2419,
      "en": 2420,
      "oodohtv": 2421,
      "emvo": 2422,
      "tasaietetn": 2423,
      "oetrto": 2424,
      "ottoaieeeaaetnrodto": 2425,
      "toeeaotdaotasee": 2426,
      "etaieeohouoothn": 2427,
      "aieterduto": 2428,
      "aietoeouoo": 2429,
      "oteatoetn": 2430,
      "aiaaeaieeetc": 2431,
      "aieeeeeaeasee": 2432,
      "oefouoo": 2433,
      "eaieafteoaiaaeaieeetc": 2434,
      "fwn": 2435,
      "taefwn": 2436,
      "oteatotnst": 2437,
      "oteatooteeae": 2438,
      "etlotaoeeeae": 2439,
      "oteatooteeaeoooo": 2440,
      "etneeb": 2441,
      "eeaeaseetootieer": 2442,
      "paoeoteaieeea": 2443,
      "eeadafaetasaa": 2444,
      "lloooooohtaetaiee": 2445,
      "oteetnst": 2446,
      "ttsoeotjhnaiaae": 2447,
      "erdoeaieasaie": 2448,
      "eieeagte": 2449,
      "taoteeaeterduto": 2450,
      "eaaeedtaithoeouoo": 2451,
      "ooaeaateaieeaee": 2452,
      "eaaoeotohasa": 2453,
      "oetodtvtaieaeo": 2454,
      "la": 2455,
      "ast": 2456,
      "ttaegggeae": 2457,
      "tooteato": 2458,
      "ooaeai": 2459,
      "tooteatottt": 2460,
      "eaaieeeatev": 2461,
      "teeaeterduto": 2462,
      "taiei": 2463,
      "aieaeooteeaeterduto": 2464,
      "tefsoeotetnllorto": 2465,
      "tllo": 2466,
      "aafaee": 2467,
      "ietoteeta": 2468,
      "aeeeaeeeouoo": 2469,
      "aieeeaaeea": 2470,
      "eeeaee": 2471,
      "tathrtoouoo": 2472,
      "aieaietoe": 2473,
      "eeaeaeeaer": 2474,
      "eaieeeaea": 2475,
      "eatototo": 2476,
      "ieemot": 2477,
      "eaieeeaeasatoto": 2478,
      "erdaieaieeeto": 2479,
      "thooteeafa": 2480,
      "eeeaeeeaiee": 2481,
      "oieemot": 2482,
      "eohaooooaieae": 2483,
      "oieemotsee": 2484,
      "eeaee": 2485,
      "taieeown": 2486,
      "llooooeaeeadeaeetc": 2487,
      "aieaioteaeeoooo": 2488,
      "aieaietoeouoo": 2489,
      "aieetaieeeto": 2490,
      "oohtho": 2491,
      "eeeatoteec": 2492,
      "oohthoaieetaieeeto": 2493,
      "etpa": 2494,
      "eadtaoeeeae": 2495,
      "oeteaieeea": 2496,
      "thaieaeooooteatn": 2497,
      "eet": 2498,
      "eeetpa": 2499,
      "eatoeaaeaiee": 2500,
      "aseetctc": 2501,
      "uooetmtn": 2502,
      "aiaaelo": 2503,
      "teoteotaero": 2504,
      "taeuooetmtn": 2505,
      "aiaaeloaseetctc": 2506,
      "aehteceaieasotea": 2507,
      "aehteceaieasoteaetno": 2508,
      "tsa": 2509,
      "eatotnoieetaie": 2510,
      "oodotellollo": 2511,
      "tmtsa": 2512,
      "aioteaedooooetno": 2513,
      "ttahtahn": 2514,
      "ttmon": 2515,
      "oodeaiaaeeerto": 2516,
      "erdtsiec": 2517,
      "eaeadieeohasa": 2518,
      "taieieaeadieeohasa": 2519,
      "eatoeatneerto": 2520,
      "or": 2521,
      "oetao": 2522,
      "aieeast": 2523,
      "hoaieeast": 2524,
      "elr": 2525,
      "toothrdc": 2526,
      "oetaotasaietetn": 2527,
      "ethoaroooo": 2528,
      "bta": 2529,
      "tseeieemtoown": 2530,
      "aehtecaafaee": 2531,
      "aieeaaeee": 2532,
      "ohaoaieaaeeaieote": 2533,
      "ooatneaie": 2534,
      "tstto": 2535,
      "oeeeaieai": 2536,
      "oeloaseetetn": 2537,
      "eote": 2538,
      "eaaeedtmtsa": 2539,
      "eaeeadero": 2540,
      "pataero": 2541,
      "eohaooooaieaeadthnaie": 2542,
      "erdoheaieeea": 2543,
      "erdtaeieeahn": 2544,
      "taoohetktttn": 2545,
      "tatcaieeeto": 2546,
      "eaieeeaaieeaaeee": 2547,
      "eaieaaeaieeown": 2548,
      "oeeeaieaieaeasee": 2549,
      "eaieeead": 2550,
      "aieeeauto": 2551,
      "tseeoteetnst": 2552,
      "eaeeaieeeauto": 2553,
      "oteatooet": 2554,
      "toeeaotdeaeaieeead": 2555,
      "toeeaotdeaeaieeeaduto": 2556,
      "thieeouoo": 2557,
      "hrhtn": 2558,
      "ttatteaaieee": 2559,
      "ooaetasa": 2560,
      "tathoela": 2561,
      "tathoelaeatn": 2562,
      "eatotnlo": 2563,
      "oodtsiec": 2564,
      "oteatooetieeaaie": 2565,
      "taoeeeaieeaetaiee": 2566,
      "gtee": 2567,
      "le": 2568,
      "tooooo": 2569,
      "erdieteloeae": 2570,
      "etaieoteaaote": 2571,
      "lloooostaie": 2572,
      "eadtjhn": 2573,
      "aieeetoaieeeto": 2574,
      "taeieeeadtjhn": 2575,
      "oetoet": 2576,
      "asoteafa": 2577,
      "lotc": 2578,
      "oetoettttetaieeeto": 2579,
      "eaeeelotttethno": 2580,
      "aeaetotoetotofatnoho": 2581,
      "taottn": 2582,
      "llooooeaetaiee": 2583,
      "paeaieasotea": 2584,
      "eaeeeaeeeduto": 2585,
      "aieaeadetneeb": 2586,
      "oteaitfeeero": 2587,
      "tothn": 2588,
      "aieeetoeeaaeasaee": 2589,
      "teoteooietaseaa": 2590,
      "eth": 2591,
      "lotothn": 2592,
      "teoteoeatoaieee": 2593,
      "oohtoteatnaieae": 2594,
      "oodaiiohasee": 2595,
      "tetn1": 2596,
      "oodteaetc": 2597,
      "etaietc": 2598,
      "etaietcteetohohaetn": 2599,
      "llooootneaiaoteaiee": 2600,
      "thtaeiee": 2601,
      "ieeaaseetoaietc": 2602,
      "oheet": 2603,
      "oheetktttn": 2604,
      "aieaellorto": 2605,
      "eaathaieaeooooteatn": 2606,
      "otiebat": 2607,
      "erdtooteethn": 2608,
      "aieeetoaieeetogte": 2609,
      "eetoeetn": 2610,
      "iodiodtaoeeeae": 2611,
      "oello": 2612,
      "eetoeetnaiee": 2613,
      "oodsac": 2614,
      "erdemtc": 2615,
      "ietteec": 2616,
      "oodeeb": 2617,
      "aeaieeeatn": 2618,
      "tsttouoo": 2619,
      "oodeeb1": 2620,
      "dpa": 2621,
      "teaeaae": 2622,
      "teaeaaedpa": 2623,
      "gggottn": 2624,
      "oeotasttmnta": 2625,
      "taoeeeaeaie": 2626,
      "erdoeoteaieeaee": 2627,
      "hoeuto": 2628,
      "aiiasaie": 2629,
      "aieeeatoetaieeeto": 2630,
      "eaaieaiee": 2631,
      "oeeeaielloooollooooouoo": 2632,
      "oteatooeote": 2633,
      "staie1": 2634,
      "eeetnaiee": 2635,
      "ifa": 2636,
      "etaieeethn": 2637,
      "ethoaroetmtn": 2638,
      "ethoeuto": 2639,
      "ooe": 2640,
      "staieeaeeasoooo": 2641,
      "ethoeutoeuto": 2642,
      "msa": 2643,
      "teatotooteaeieeouoo": 2644,
      "tatmsa": 2645,
      "ifaea": 2646,
      "eeeaeeeaieeouoo": 2647,
      "heaaeedtetn": 2648,
      "teatoaotasee": 2649,
      "eaeeasooooaietn1": 2650,
      "erdttan": 2651,
      "oohaieee": 2652,
      "teaetm": 2653,
      "teaetmteaetcaieeeto": 2654,
      "ethoteeatn": 2655,
      "aieeetoaeaie": 2656,
      "eaeeasooooeaieaieaief": 2657,
      "oefaietsee": 2658,
      "oesttehaetn": 2659,
      "taaieaetn": 2660,
      "oteieeaatn": 2661,
      "oeeeaielloooollooooieb": 2662,
      "eaitfeeteaeaie": 2663,
      "taeatn": 2664,
      "oeotasttmntaeear": 2665,
      "iaeaiee": 2666,
      "aieeetotvo": 2667,
      "oefaietseeaieeetotvo": 2668,
      "eatoetoeaier": 2669,
      "taeaeto": 2670,
      "oeteatoeatnteer": 2671,
      "atotaieee": 2672,
      "taeieeeadtjhn0": 2673,
      "tjaie": 2674,
      "oohero": 2675,
      "oeteatoeatntaieetclo": 2676,
      "ooafiaeaieeeto": 2677,
      "ooaeaiooe": 2678,
      "taieeoh": 2679,
      "erdaiaaeloaseetctc": 2680,
      "tseeiaec": 2681,
      "taieeohhn": 2682,
      "taterduto": 2683,
      "gtept": 2684,
      "taoeeeaeoooo": 2685,
      "eaaefeatn": 2686,
      "aieeaieee0": 2687,
      "ottoottooheatn": 2688,
      "ststs": 2689,
      "tasee0": 2690,
      "aieaeadttatotoaetn": 2691,
      "stststasee0": 2692,
      "is": 2693,
      "eafa": 2694,
      "eaaetaie": 2695,
      "oethottniebtjho": 2696,
      "pathtaeiee": 2697,
      "toeeaotdeaieeeaown": 2698,
      "aieasee": 2699,
      "eaaeedpa": 2700,
      "tahre": 2701,
      "erdteaewn": 2702,
      "eaaoheetktttn": 2703,
      "eeadeaeeasoooo": 2704,
      "tmsaown": 2705,
      "erdtec": 2706,
      "erdtec0": 2707,
      "toothre": 2708,
      "ietfaafa": 2709,
      "iodiodtnttt": 2710,
      "aiaieaieeeto": 2711,
      "erdieeohasa": 2712,
      "teea0": 2713,
      "aiaieaieeetoe": 2714,
      "eafs": 2715,
      "thoeafs": 2716,
      "thaieaeoooooteeea": 2717,
      "eatototothoeafs": 2718,
      "erdaieae": 2719,
      "tstse": 2720,
      "eetauto": 2721,
      "ethoeaaieeee": 2722,
      "todctoown": 2723,
      "tseeeahn": 2724,
      "tjeatn": 2725,
      "eaear": 2726,
      "eaieaieaear": 2727,
      "afaeteea": 2728,
      "aieetn": 2729,
      "aieeaieee": 2730,
      "taieeoestt": 2731,
      "oodeea": 2732,
      "oeeeaieaiaa": 2733,
      "taieeoesttetoown": 2734,
      "oeeeaieaiaaeeaeoteea": 2735,
      "aieaeadoetrto": 2736,
      "eeeaaee": 2737,
      "taeeifaea": 2738,
      "tooieemotneerto": 2739,
      "eeeaaeeeafa": 2740,
      "etaieoetotoea": 2741,
      "tnoheelo": 2742,
      "eeadtstse": 2743,
      "oeteaaeeeeeadetaiaaeeouoo": 2744,
      "taiebta": 2745,
      "elrttaoeeeae": 2746,
      "eadtetn1": 2747,
      "tseetjhn": 2748,
      "aieaieetstof": 2749,
      "teeatn": 2750,
      "tootllo": 2751,
      "aehtecaieaeasee": 2752,
      "etototn": 2753,
      "teatnaiee": 2754,
      "oodoesttehre": 2755,
      "teatngte": 2756,
      "tottt": 2757,
      "taieeatottt": 2758,
      "etaieeaieetn": 2759,
      "oodeeaaeasaee": 2760,
      "teatotaieeatottt": 2761,
      "teatnouoo": 2762,
      "ottoetaieeeto": 2763,
      "rd": 2764,
      "erdtmsa": 2765,
      "lloouoo": 2766,
      "llolloouoo": 2767,
      "otellolloouoo": 2768,
      "ttaoeloaseetetn": 2769,
      "ecefe": 2770,
      "lhetktttn": 2771,
      "eaeouoo": 2772,
      "aotasaie": 2773,
      "oodtoothre": 2774,
      "teatnpt": 2775,
      "htectv": 2776,
      "eaatooteatn": 2777,
      "aioteaeeooooeae": 2778,
      "taaieeasado": 2779,
      "taaieea": 2780,
      "tneaseear": 2781,
      "aieeatn": 2782,
      "patnoheelo": 2783,
      "eohaooooiee": 2784,
      "ttae": 2785,
      "erdafa": 2786,
      "oohouotoaieaeo": 2787,
      "eaieee1": 2788,
      "toteatnouoo": 2789,
      "oeeeaieta": 2790,
      "asataiee": 2791,
      "tst": 2792,
      "lloooolhetktttn": 2793,
      "teaaedtctoar": 2794,
      "teeeea": 2795,
      "teeteeeea": 2796,
      "toeeeaie": 2797,
      "thos": 2798,
      "oodaeaeatt": 2799,
      "oeoteetoeeeaie": 2800,
      "ottoeaeeadeaeetc": 2801,
      "ohatoeaseeao": 2802,
      "efac": 2803,
      "oeoteetoeeeaieoeoteea": 2804,
      "etaieotellollo": 2805,
      "htectvown": 2806,
      "ttaehtectvown": 2807,
      "eaaaieae1": 2808,
      "ttaniaec": 2809,
      "aehtecaieaeaiaae": 2810,
      "mvo": 2811,
      "ou": 2812,
      "aieaieeecefe": 2813,
      "oeaiee": 2814,
      "oteetae": 2815,
      "oeteatoeatnetaie": 2816,
      "oteetaemvo": 2817,
      "eeatn1": 2818,
      "oodtetn": 2819,
      "ooaoef": 2820,
      "etsutoaiaae": 2821,
      "eeeaaeeeafaeaieote": 2822,
      "thosc": 2823,
      "eaaeaaefeatn": 2824,
      "afathneeea": 2825,
      "efwn": 2826,
      "oeeeaietaefwn": 2827,
      "afathneeea0": 2828,
      "ra": 2829,
      "aieaeaiea": 2830,
      "eaieeeatv": 2831,
      "teaaedtctn": 2832,
      "taoest": 2833,
      "oteatothoela": 2834,
      "ieeaaseeeaioteato": 2835,
      "eeadeaaietsee": 2836,
      "oohtotaithoe": 2837,
      "oteatothoelapa": 2838,
      "fatc": 2839,
      "oodtjaie": 2840,
      "gteaieee1": 2841,
      "aotohaieaioteaeeoooo": 2842,
      "hrdttmon": 2843,
      "iaeaieela": 2844,
      "tktgggaitoemoomoou": 2845,
      "tsfattsfat": 2846,
      "eaaaieae": 2847,
      "erdeaaeaseetetn": 2848,
      "aieetooteethn": 2849,
      "ttsoeo": 2850,
      "eaeaiea": 2851,
      "aieelrt": 2852,
      "eaataeaier": 2853,
      "eeaaetouto": 2854,
      "eaaeaieeaeaeeae": 2855,
      "eaeaieaeeaaetouto": 2856,
      "oeeeaieelrt": 2857,
      "erdaieasee": 2858,
      "aehtecefe": 2859,
      "eot": 2860,
      "eaaaeeeaeee": 2861,
      "eaeaetntsfattsfat": 2862,
      "tootktteaaaieae": 2863,
      "eoteaseeexeceee": 2864,
      "rtoown": 2865,
      "eadoeote": 2866,
      "eadtwn": 2867,
      "llooootooteethn": 2868,
      "tseeteaieeeae": 2869,
      "eaeaieeeto": 2870,
      "tvo1": 2871,
      "eatn0": 2872,
      "ieeataeeifaea": 2873,
      "tooieemothtn": 2874,
      "gteeeatn0": 2875,
      "tsuto": 2876,
      "oeeeaieoteaaoteaiee": 2877,
      "oeeeaieetsuto": 2878,
      "aieerd": 2879,
      "erdetaieeohouoothn": 2880,
      "eohaooooeelo": 2881,
      "erdhrhtn": 2882,
      "thettooeeeaie": 2883,
      "erdhrhtne": 2884,
      "tktot": 2885,
      "erdtmeuo": 2886,
      "oeaiehrdtetn": 2887,
      "aieeeae0": 2888,
      "ooaetottn": 2889,
      "aieaeadiodiodtaoeeeae": 2890,
      "tnrodto": 2891,
      "oetodtmostaieae": 2892,
      "taoiet": 2893,
      "eaeoh": 2894,
      "eatotetnaieasaie": 2895,
      "llooooefac": 2896,
      "taoiettaoeeeae": 2897,
      "eaeai": 2898,
      "ttaeaeaetn": 2899,
      "hrdtllo": 2900,
      "atoetn": 2901,
      "hrdtllortoown": 2902,
      "eaetnoh": 2903,
      "eeaeeeaetnoh": 2904,
      "eaeaaaieeeto": 2905,
      "eaaaieeetc": 2906,
      "ooheaaaieeetc": 2907,
      "ooheaaaieeetco": 2908,
      "aieaeoeaeeasoooo": 2909,
      "erdeaatneaie": 2910,
      "oodtohn": 2911,
      "eaaeaieeetoieemtn": 2912,
      "aieerdoeote": 2913,
      "touto": 2914,
      "tseetaieerhtn": 2915,
      "aieeetoeeaeaduo": 2916,
      "tnsodsod": 2917,
      "aotohaieaieeeto": 2918,
      "eaaieeeatnsodsod": 2919,
      "tooieemotthn": 2920,
      "aietc0": 2921,
      "eaaieaieemtn": 2922,
      "stoouoo": 2923,
      "tatneaseear": 2924,
      "aietaie": 2925,
      "aioteatoetn": 2926,
      "tseetttmtn": 2927,
      "totetn": 2928,
      "aietaioteatoetn": 2929,
      "eaaaieeetn1": 2930,
      "tnasee": 2931,
      "oeeeaievea": 2932,
      "tneaieaiaae": 2933,
      "toeeaotdeaaieeeeto": 2934,
      "odtotnasee": 2935,
      "erdc": 2936,
      "teoteoto": 2937,
      "erdeteemtn": 2938,
      "ha": 2939,
      "etotaoeeeae": 2940,
      "oodeeea": 2941,
      "stllorto": 2942,
      "tootlloetotaoeeeae": 2943,
      "oodeeeastllorto": 2944,
      "aiehohr": 2945,
      "oodeaaieeeatsee": 2946,
      "totoaiethtn": 2947,
      "toeeaaiehohr": 2948,
      "toeeaotdasoteafa": 2949,
      "tseaeai": 2950,
      "aieaeooetn": 2951,
      "eaeeelottteatotnlo": 2952,
      "oodeaaaieeetn": 2953,
      "hohoh": 2954,
      "erdeief": 2955,
      "teieeaatn": 2956,
      "oettaeroastoto": 2957,
      "aieeetooteieeaatn": 2958,
      "tseaeaietaoeeeae": 2959,
      "thre": 2960,
      "oeoteaseeexeceeeoetmtn": 2961,
      "eatooh": 2962,
      "eaaaieeasadoown": 2963,
      "aieaeeeaeee": 2964,
      "ietaieoeoteeaasee": 2965,
      "aiestaie": 2966,
      "eaaeeeatoeaaeaiee": 2967,
      "rtohn": 2968,
      "aeertohn": 2969,
      "tseetv0": 2970,
      "aieeaeaaaieeeto": 2971,
      "aieaeemtn": 2972,
      "aieeeatothotho": 2973,
      "eaallollo": 2974,
      "oohteea": 2975,
      "tneaseearouoo": 2976,
      "otaiato": 2977,
      "otaiatotetn": 2978,
      "etaieoeteaaeaieaeto": 2979,
      "oeotaseaaietetn": 2980,
      "erdttsoeotjhn": 2981,
      "taeaeeae": 2982,
      "oohetoeaier": 2983,
      "eatoeetauto": 2984,
      "ne": 2985,
      "etaieeesoooo": 2986,
      "eaitfeelotothn": 2987,
      "oodatotthaieaeoooo": 2988,
      "eeaelo": 2989,
      "teatnhre": 2990,
      "gtehnouoo": 2991,
      "aieaeaieaeaieae": 2992,
      "aietaiee": 2993,
      "oeeeaieeaaoeftac": 2994,
      "erdtteaaie": 2995,
      "llost": 2996,
      "thaieaeoooooeaierto": 2997,
      "oeteaaeasa": 2998,
      "veaown": 2999,
      "eeetnrodto": 3000,
      "aseaa": 3001,
      "eaaoeftac": 3002,
      "ttaeiee": 3003,
      "toaie": 3004,
      "erdeaaeaiee": 3005,
      "aieeaet": 3006,
      "taaieeatneae": 3007,
      "oeotaseaaie": 3008,
      "ohaieee": 3009,
      "oodaieetstof": 3010,
      "eeadhtahn": 3011,
      "totoeoteea": 3012,
      "etasaaero": 3013,
      "oeeeaietec": 3014,
      "oeoteetotoeoteea": 3015,
      "aieaeaieaeaieaeohaieee": 3016,
      "CA": 3017,
      "erdthooteeafa": 3018,
      "eohaooootaoeeeae": 3019,
      "eatoetao": 3020,
      "tseeeasa": 3021,
      "pthre": 3022,
      "eaeaetnaieeeea": 3023,
      "oodiet": 3024,
      "tseeiodiodtnttt": 3025,
      "hrdc": 3026,
      "afatseetsee": 3027,
      "aieeaietn": 3028,
      "tseethetsc": 3029,
      "aieea2": 3030,
      "ietasaa": 3031,
      "erdstaie1": 3032,
      "aieetseeaiaae": 3033,
      "ietasaar": 3034,
      "eatottt": 3035,
      "eatoteeafa": 3036,
      "tooooofatc": 3037,
      "eatoohtooooofatc": 3038,
      "eatoteeafaeatoohtooooofatc": 3039,
      "eatoteeafaeatoohtooooofatcttt": 3040,
      "otaiatotetnasa": 3041,
      "oheetc": 3042,
      "gteseetpa": 3043,
      "aieeeiemeu": 3044,
      "etasaagte": 3045,
      "tktoteaitfee": 3046,
      "aieetmsa": 3047,
      "eaafaeteae": 3048,
      "oeaieetmtn": 3049,
      "oestteeaaee": 3050,
      "taieeesoooo0": 3051,
      "oestteeaaeeeto": 3052,
      "terdutotaieeesoooo0": 3053,
      "hohrt": 3054,
      "taaieeetoar": 3055,
      "aieeeerto": 3056,
      "eaeeasoooooietaseaa": 3057,
      "tkttaieteetn": 3058,
      "eaatnst": 3059,
      "eaieeeaaieae": 3060,
      "erdeaaaieeetn": 3061,
      "oodtootieer": 3062,
      "oeaieohetktttn": 3063,
      "ooaeaeaaaieeeto": 3064,
      "ac": 3065,
      "seear": 3066,
      "eatoeaaeeaieaeto": 3067,
      "teaseear": 3068,
      "oetiaaeemtc": 3069,
      "teoteooteaseear": 3070,
      "al": 3071,
      "eatotaiee": 3072,
      "ietaieoeoteeaeae": 3073,
      "dutoouoo": 3074,
      "eattaiee": 3075,
      "eaiedutoouoo": 3076,
      "erdtea": 3077,
      "oohtn": 3078,
      "eaeohet": 3079,
      "eattaieeeto": 3080,
      "etcf": 3081,
      "eaieeeatteaaiee": 3082,
      "erdpt": 3083,
      "tcthtseea": 3084,
      "oeaiaieeaieee": 3085,
      "aieaeadtcthtseea": 3086,
      "eatoot": 3087,
      "eaetaoeeeae": 3088,
      "eeadtnttt": 3089,
      "eaetaoeeeaeuto": 3090,
      "eaetothn": 3091,
      "aieeeteemtn": 3092,
      "eaef": 3093,
      "eatoeeeaef": 3094,
      "tohthoela": 3095,
      "eaaoodatot": 3096,
      "aieeetootohthoela": 3097,
      "eteeae": 3098,
      "oteatnthoela": 3099,
      "pathneteeae": 3100,
      "taaieeeeto": 3101,
      "oefaieee": 3102,
      "ohatoaieae": 3103,
      "taaieeeeto0": 3104,
      "thooteeafaown": 3105,
      "oodeaaeaiee": 3106,
      "teatotst": 3107,
      "ohaoaietc": 3108,
      "oodeaaeaieeetn": 3109,
      "teatotsttnrodto": 3110,
      "eadeaaieeeeto": 3111,
      "otasa": 3112,
      "hno": 3113,
      "oodoeeeaielloooollooooieb": 3114,
      "otasatotetn": 3115,
      "re": 3116,
      "llooooooheerto": 3117,
      "odsod": 3118,
      "taioteatoetn": 3119,
      "aiaaeeaetaiee": 3120,
      "etkttto": 3121,
      "oeeeaieoeeae": 3122,
      "llooootaoeeeaeown": 3123,
      "teatotnaietc": 3124,
      "aiaaellooootaoeeeaeown": 3125,
      "oelloaieae": 3126,
      "rod": 3127,
      "erdtnst": 3128,
      "oodaieeetstt": 3129,
      "tteathtn": 3130,
      "erdiodiodtaiee": 3131,
      "oetoeoteaseeexeceee": 3132,
      "taeiee0": 3133,
      "hohohoeatn": 3134,
      "erdteataeiee0": 3135,
      "eaateatoar": 3136,
      "toottaeiee": 3137,
      "afaetaie": 3138,
      "roo": 3139,
      "oeeeaieeaaeeeatn": 3140,
      "ooheeea": 3141,
      "eatotefsoeo": 3142,
      "eaaaeaeattetaieeeto": 3143,
      "aieaeadeutoeuto": 3144,
      "taoeeeaeasto": 3145,
      "erdafataoeeeaeasto": 3146,
      "erdafataoeeeaeastoaie": 3147,
      "toeaeeeaeeeduto": 3148,
      "teaeai": 3149,
      "eaeeadao": 3150,
      "eggg": 3151,
      "ear": 3152,
      "tseeloaie": 3153,
      "aotaieeeto": 3154,
      "oodoeto": 3155,
      "aietmtn": 3156,
      "aeeatohn": 3157,
      "oodoetoaietmtn": 3158,
      "aeeatohnaieee": 3159,
      "erdoteeta": 3160,
      "oodtaioteatoetn": 3161,
      "eeadoetofaaslo": 3162,
      "iebtn": 3163,
      "taafa": 3164,
      "loaseetctcoooo": 3165,
      "oeeeaieteatn": 3166,
      "eaaieeeetoetaieeeto": 3167,
      "ooheeeaaiear": 3168,
      "eh": 3169,
      "afaeaieotd": 3170,
      "teoteototoeaeeeaeeeduto": 3171,
      "rooo": 3172,
      "oeeeaieteatnpt": 3173,
      "om": 3174,
      "etnaieec": 3175,
      "erdtv": 3176,
      "aieaeadeeaeaieeeto": 3177,
      "erdtvst1": 3178,
      "oodtneerto": 3179,
      "totoeaeeeaeeeduto": 3180,
      "etntaoee": 3181,
      "etntaoeeeaeero": 3182,
      "hi": 3183,
      "erdte": 3184,
      "erdtootieer": 3185,
      "taeuto": 3186,
      "tooieemoaieaeaieeeto": 3187,
      "erdtesac": 3188,
      "otsa": 3189,
      "oodiettc": 3190,
      "lloooottatotoaetn": 3191,
      "oeaiehr": 3192,
      "tmotsa": 3193,
      "afaeaieotdtv": 3194,
      "taeuoaieeeto": 3195,
      "oodieteasaoooo": 3196,
      "aieaeoteeatn": 3197,
      "eaiaaeeto": 3198,
      "iecown": 3199,
      "aieea3": 3200,
      "eaeeasooooetoeaier": 3201,
      "oeeeaietsaiee": 3202,
      "oodtneertoeae": 3203,
      "eaiaaeetoiecown": 3204,
      "eaaethotc": 3205,
      "tstofa": 3206,
      "eaaethotceta": 3207,
      "lloooototoeaeeeaeeeduto": 3208,
      "oteeetiaee": 3209,
      "eaieuto": 3210,
      "aaeh": 3211,
      "teoteoee": 3212,
      "eaaeeetothtn": 3213,
      "lhe": 3214,
      "oetiaaeh": 3215,
      "thneeeaown": 3216,
      "oetiaaehouoothn": 3217,
      "am": 3218,
      "ieerodtn": 3219,
      "mtouto": 3220,
      "eaeoet": 3221,
      "ohaieeeatn": 3222,
      "llooooeeaeaieeeto": 3223,
      "tseetcaiee": 3224,
      "eaieaeeta": 3225,
      "lheohaieeeatn": 3226,
      "eaeoetmtouto": 3227,
      "otasee": 3228,
      "taieeeaieaeeta": 3229,
      "aieeaeeae": 3230,
      "hrdst": 3231,
      "eaohhrdst": 3232,
      "ed": 3233,
      "toeerto": 3234,
      "gtegte": 3235,
      "eaaoodeaieeaoero": 3236,
      "teoteoeeeatoeaaeaiee": 3237,
      "toeertotetn": 3238,
      "aieaeadtoottaeiee": 3239,
      "aiaieeown": 3240,
      "erdeaeeadao": 3241,
      "oodottoottn": 3242,
      "tseeoteea": 3243,
      "toeeaotdteaetmteaetcaieeeto": 3244,
      "etktttoeaetaiee": 3245,
      "aieoeteatoeatn": 3246,
      "aieeaetrto": 3247,
      "eatootiebat": 3248,
      "eroown": 3249,
      "eatoaotohaieaieae": 3250,
      "oeteaeaieotdero": 3251,
      "tooieemoterduto": 3252,
      "oteaitfeeeroown": 3253,
      "erdaieetstof": 3254,
      "oohaiee": 3255,
      "paeaieeea": 3256,
      "etaieoeotohoest": 3257,
      "oodthaieaeoooo": 3258,
      "aiiohaseeeteaeaseeown": 3259,
      "aietneaseear": 3260,
      "etaieehre": 3261,
      "teadtetn": 3262,
      "oeeeaiear": 3263,
      "gteai": 3264,
      "eeaestt": 3265,
      "aiaaeoeeeaiear": 3266,
      "ing": 3267,
      "aieeaetrtoeaetrto": 3268,
      "paetaiee": 3269,
      "eeetnaieeaieaeoaieaeo": 3270,
      "aieeteaee": 3271,
      "asaeaeeemtn": 3272,
      "oetodthnoo": 3273,
      "gteaietoe": 3274,
      "Al": 3275,
      "es": 3276,
      "teaieuto": 3277,
      "tclo": 3278,
      "toeeaotdar": 3279,
      "tmosttoeeaotdar": 3280,
      "erdoohto": 3281,
      "oodthtn": 3282,
      "paeaieeatn": 3283,
      "ieeaaseetsee": 3284,
      "ostaieeeto": 3285,
      "oietasee": 3286,
      "tmostaieeeto": 3287,
      "erdoohtov": 3288,
      "teoteoeaeheaeeaieero": 3289,
      "totoaiethtnouoo": 3290,
      "etniec": 3291,
      "tseeeaaaieeetn": 3292,
      "aieeeatottea": 3293,
      "tllortoouoo": 3294,
      "aieeeertotllortoouoo": 3295,
      "ter": 3296,
      "erdaieeetstt": 3297,
      "tmotsao": 3298,
      "etsodsod": 3299,
      "oteatoeaaietsee": 3300,
      "taieeeeae": 3301,
      "ooheattaieeeto": 3302,
      "aeadeahn": 3303,
      "oetodaehtecefe": 3304,
      "erdietfaafa": 3305,
      "oodeaaef": 3306,
      "ohtoeea": 3307,
      "oodoeotaseaaie": 3308,
      "lloooooetn": 3309,
      "eatooeeae": 3310,
      "aieaeoaieaieeecefe": 3311,
      "eeaeeeae": 3312,
      "ub": 3313,
      "otefa": 3314,
      "odeaeeasoooo": 3315,
      "hrdtllorto": 3316,
      "iaeaieelaown": 3317,
      "otefatown": 3318,
      "tthoo": 3319,
      "erdaieaetn": 3320,
      "etaiellolloetouto": 3321,
      "eeaesttetn": 3322,
      "eeaeeeaeouoto": 3323,
      "tthoown": 3324,
      "ill": 3325,
      "tseeetktttn": 3326,
      "ietrhtn": 3327,
      "tooieemoteasa": 3328,
      "aietaieetea": 3329,
      "oeaiea": 3330,
      "seea": 3331,
      "ooaieemtn": 3332,
      "eaaoesttnoo": 3333,
      "otaieetclo": 3334,
      "us": 3335,
      "ytjhn": 3336,
      "eaatsteeafa": 3337,
      "eaatseaseeao": 3338,
      "ottootto": 3339,
      "eaeohetytjhn": 3340,
      "iP": 3341,
      "taiet": 3342,
      "eeaieeea": 3343,
      "aieeasad": 3344,
      "aeeeaee": 3345,
      "tootktttaieetc": 3346,
      "aieeasadoouoo": 3347,
      "aeai": 3348,
      "oog": 3349,
      "etaieeaee": 3350,
      "tseetstofa": 3351,
      "eaieeeaeaieeea": 3352,
      "gteeaaie": 3353,
      "hoo": 3354,
      "nd": 3355,
      "oohthosc": 3356,
      "oetodtneaseearouoo": 3357,
      "rhtnaiee": 3358,
      "aotetm": 3359,
      "ottoottn0": 3360,
      "aeeeaeeeeaieeea": 3361,
      "oteatoaieee": 3362,
      "erdoeaiaieeaieee": 3363,
      "oodeaaietsee": 3364,
      "oetieea": 3365,
      "oodthtnaiaae": 3366,
      "oetieeaseea": 3367,
      "eel": 3368,
      "oodeaaaieaietaoeeeae": 3369,
      "tseeoeotohoest": 3370,
      "eatoooh": 3371,
      "toeeaotdaotaieeeto": 3372,
      "aietn3": 3373,
      "etaietaoeeeae": 3374,
      "taeaie": 3375,
      "etaietaoeeeaeoooo": 3376,
      "id": 3377,
      "eatohoaseea": 3378,
      "teoteotneaieaietoto": 3379,
      "ur": 3380,
      "eatoeb": 3381,
      "oohaietaie": 3382,
      "aieaeadrhtnaiee": 3383,
      "oheetcero": 3384,
      "eelotaieetclo": 3385,
      "teatoaieee": 3386,
      "oetoteieeaatn": 3387,
      "oteaseearst": 3388,
      "ottoeaaeeeatn": 3389,
      "eaetrtoeaetrto": 3390,
      "oteieea": 3391,
      "teevegggeae": 3392,
      "atothtn": 3393,
      "oteieeaatothtn": 3394,
      "haead": 3395,
      "aieeaseea": 3396,
      "oodoshtn": 3397,
      "ouooaiaa": 3398,
      "ooalololotnttt": 3399,
      "haeadoelotac": 3400,
      "aieeaseeao": 3401,
      "ouooaiaaeer": 3402,
      "eaaohn": 3403,
      "oodaehtecaieaeouoo": 3404,
      "oodeaaeaieeetotaoeeeae": 3405,
      "oodaiaaeeaeoteea": 3406,
      "tseegggaitoemoomoou": 3407,
      "eaatsaietetnteer": 3408,
      "ooatneaseear": 3409,
      "mteaetcaieeeto": 3410,
      "oodoeteaaehn": 3411,
      "eaiaaeeae": 3412,
      "oeeeaieteaet": 3413,
      "oeeeaieer": 3414,
      "taafataoeeeae": 3415,
      "oogle": 3416,
      "oeeeaieteaetmteaetcaieeeto": 3417,
      "aieetno": 3418,
      "aieeaiee0": 3419,
      "eaaodthtn": 3420,
      "aieieeasa": 3421,
      "eatoeerto": 3422,
      "eadoeaieaieeeaaetmtn": 3423,
      "oteatoaeaie": 3424,
      "eaieaietoto": 3425,
      "eatoeertoieerodtn": 3426,
      "oodhoaieeast": 3427,
      "xetn": 3428,
      "oodaieaeaieeeto": 3429,
      "odeaieeatn": 3430,
      "teadteeae": 3431,
      "eaeeasooooeaaeedhotatttn": 3432,
      "ottoeaiaaeeae": 3433,
      "eood": 3434,
      "it": 3435,
      "oodtmosttoeeaotdar": 3436,
      "taoeeeaef": 3437,
      "eoodtaoeeeaef": 3438,
      "ay": 3439,
      "aieefa": 3440,
      "aieeaaee": 3441,
      "oodieeeea": 3442,
      "teaeaaee": 3443,
      "gteaiexetn": 3444,
      "eatotnlo0": 3445,
      "aieefametaieeeto": 3446,
      "Google": 3447,
      "oodaieaaeeteemtn": 3448,
      "teatotoetasa": 3449,
      "taoteeta": 3450,
      "eatoeieeagte": 3451,
      "oeeeaieoteeea": 3452,
      "eaaouoo": 3453,
      "aeadem": 3454,
      "aieeetoeaeeemtn": 3455,
      "odeaetothn": 3456,
      "eaitfeeoetotoea": 3457,
      "erdtteao": 3458,
      "aeademtaoeeeae": 3459,
      "ik": 3460,
      "eteaeeae": 3461,
      "aieeteaieuto": 3462,
      "aieaieaieaee": 3463,
      "odtcteetohohaetn": 3464,
      "eteemtnero": 3465,
      "aieaieaieaeeaieetno": 3466,
      "SA": 3467,
      "eeadeatoeatn": 3468,
      "tseethettooeeeaie": 3469,
      "eetno": 3470,
      "oodaieee0": 3471,
      "ohaoaiiasaie": 3472,
      "ietaodtoteea": 3473,
      "ieteaetaiee": 3474,
      "ieteerto": 3475,
      "hohrteatn": 3476,
      "iodiodaieaeeaaeto": 3477,
      "aieeaieeaiee0": 3478,
      "erdoeotasttmntaee": 3479,
      "tooieemoo": 3480,
      "odeaeeasooooouoo": 3481,
      "erdiaee": 3482,
      "eaaoeoteertottea": 3483,
      "Mar": 3484,
      "erdoteetnsc": 3485,
      "oodieeaasee": 3486,
      "oodotefattsee": 3487,
      "llooooaieaieeecefe": 3488,
      "teeta": 3489,
      "tooieemooteeta": 3490,
      "eeaar": 3491,
      "eadhtahn": 3492,
      "oodieeaaseeeeae": 3493,
      "ad": 3494,
      "tseeoteetn": 3495,
      "etothtn": 3496,
      "eaaeaieeetothtn": 3497,
      "aieeeeaetaiee": 3498,
      "eaatnerto": 3499,
      "hrodto": 3500,
      "tseeaieeetstt": 3501,
      "taieetcloeeatn": 3502,
      "eaaoodaieaieaieeatn": 3503,
      "oodeaaetniec": 3504,
      "ooatnaietc": 3505,
      "hrodtofa": 3506,
      "eaieaieeatn": 3507,
      "aieaieaieaieeatn": 3508,
      "oteatoaieeeaieeaee": 3509,
      "oetaieeetoar": 3510,
      "thoscouoo": 3511,
      "ttsoeotaeieeahn": 3512,
      "tatv": 3513,
      "erdtnoieetaie": 3514,
      "eaaoelloaieae": 3515,
      "eatoeaieeatn": 3516,
      "oodeaieafteoaiaae": 3517,
      "teaaieeaaee": 3518,
      "etaotasaie": 3519,
      "taseeetaotasaie": 3520,
      "elrttaieeesoooo": 3521,
      "tatveasa": 3522,
      "eadaieeaee": 3523,
      "ottoeaeteb": 3524,
      "tooieemotv": 3525,
      "eaieeeaeaseeao": 3526,
      "aaoteoteea": 3527,
      "ieemoero": 3528,
      "ohaoeaeheaeeaieero": 3529,
      "oohouooaiaaeer": 3530,
      "oeotdaieetstof": 3531,
      "ieteertoer": 3532,
      "allollo": 3533,
      "oetodpatooteaeieeouoo": 3534,
      "taietsaie": 3535,
      "allollofa": 3536,
      "tteaie": 3537,
      "gteiettc": 3538,
      "eaieeeaeaieaieae": 3539,
      "oetodtcteetohohaetn": 3540,
      "taseeettjeatn": 3541,
      "eaeaieotdttt": 3542,
      "aietaieeesoooo": 3543,
      "erdaotohaieaieae": 3544,
      "eatoaieeeatn": 3545,
      "oohetlo": 3546,
      "toeeaotdeaseeao": 3547,
      "eaieafteaeai": 3548,
      "ooheeaaetnoo": 3549,
      "toooooeaiaae": 3550,
      "eaieafteaeaitoooooeaiaae": 3551,
      "son": 3552,
      "eaeta": 3553,
      "aeadtcllorto": 3554,
      "tseeeea": 3555,
      "and": 3556,
      "oetiaaeemtceae": 3557,
      "ieaee": 3558,
      "ob": 3559,
      "lloooothneeeaown": 3560,
      "eeadteeatn": 3561,
      "aieaeoaieaellorto": 3562,
      "tktoieemtn": 3563,
      "oohaieeasado": 3564,
      "etothn": 3565,
      "eadeaetaiee": 3566,
      "ohaot": 3567,
      "aitoetothn": 3568,
      "tataitoetothn": 3569,
      "egggeadst": 3570,
      "ellollo": 3571,
      "aieeeai": 3572,
      "aieeeeaa": 3573,
      "erdethno": 3574,
      "oodellollo": 3575,
      "etotoea": 3576,
      "tkthr": 3577,
      "ieaeeiehn": 3578,
      "oodellolloeae": 3579,
      "tkthreaiaae": 3580,
      "Chr": 3581,
      "aiiohaseethnaie": 3582,
      "ohaottea": 3583,
      "vtaieaeo": 3584,
      "erdseetpa": 3585,
      "odthtngte": 3586,
      "ttaafaeeeaetetnouoo": 3587,
      "ab": 3588,
      "dtoar": 3589,
      "tatotnaie": 3590,
      "etneaeta": 3591,
      "astoaie": 3592,
      "oeeeaieetn": 3593,
      "eaaetot": 3594,
      "eaahrhtn": 3595,
      "eatoieeaaseeeaioteato": 3596,
      "eadsa": 3597,
      "eadeaaeeetof": 3598,
      "teeaeadsa": 3599,
      "aieth": 3600,
      "oetoieemopa": 3601,
      "ooohtc": 3602,
      "lherodtoar": 3603,
      "ieteertoeroouoo": 3604,
      "oeeeaieetneeb": 3605,
      "eaaetotjhn": 3606,
      "eaahrhtneoooo": 3607,
      "siec": 3608,
      "erdaotoh": 3609,
      "llooooeeetpa": 3610,
      "oetmtnastoaie": 3611,
      "teeafaeaaaieaietaoeeeae": 3612,
      "erdaotohaieelrt": 3613,
      "tntotototo": 3614,
      "ooaoteatnthoela": 3615,
      "ieeohhn": 3616,
      "oeeeaietvtaieaeo": 3617,
      "aotas": 3618,
      "faetthooeroeaitfee": 3619,
      "tntotototoea": 3620,
      "aotaseear": 3621,
      "ol": 3622,
      "erdtteaown": 3623,
      "aieeetoeaetaiee": 3624,
      "ottoieeaaseeeaioteato": 3625,
      "ottoottoohottn": 3626,
      "aieetstofthtn": 3627,
      "im": 3628,
      "tseeeaeeemtn": 3629,
      "etaief": 3630,
      "oetotopa": 3631,
      "toothoaslohoo": 3632,
      "toothoaslohooeoteea": 3633,
      "eotoh": 3634,
      "il": 3635,
      "eteatoeb": 3636,
      "taetno": 3637,
      "aietstt": 3638,
      "oteeaeteatoeb": 3639,
      "eaieeaeoouoo": 3640,
      "eotohoest": 3641,
      "oteeaeteatoebuto": 3642,
      "You": 3643,
      "etnoeeeaie": 3644,
      "hreaiaae": 3645,
      "aieaeotee": 3646,
      "taiaoteaiee": 3647,
      "taeeexaieeetnoeeeaie": 3648,
      "tooieemoaieaeemtn": 3649,
      "aieeetootaiaoteaiee": 3650,
      "aieaeoteetoaie": 3651,
      "eeetneea": 3652,
      "ook": 3653,
      "eaaeedouoo": 3654,
      "ul": 3655,
      "oodeteaeeae": 3656,
      "teadoteeaeteatoebuto": 3657,
      "toeeaotdeaieafteoaiaae": 3658,
      "ietaodtoteeaown": 3659,
      "taeeaeaieeeto": 3660,
      "erdaie": 3661,
      "eatoeae0": 3662,
      "eeadoeto": 3663,
      "ietethotc": 3664,
      "oteatnaieaeeaaeto": 3665,
      "aieaeooieemopa": 3666,
      "eeadoetoeeae": 3667,
      "tieer": 3668,
      "ick": 3669,
      "oeaieatmtn": 3670,
      "aiethaitoetn": 3671,
      "otetc": 3672,
      "aieaeoeaieaieae": 3673,
      "aier": 3674,
      "oodieeohhn": 3675,
      "ieeaaseeaieaieaieeea": 3676,
      "eeaeo": 3677,
      "tooieemotsiec": 3678,
      "aieeetotthn": 3679,
      "ooaa": 3680,
      "ttaoest": 3681,
      "gggaieeeatn": 3682,
      "toeeaotdiaee": 3683,
      "ch": 3684,
      "etaiethtn": 3685,
      "taeeaesttetn": 3686,
      "taaieeaiee": 3687,
      "totneaaeedpa": 3688,
      "ube": 3689,
      "eeaeo0": 3690,
      "DP": 3691,
      "av": 3692,
      "ard": 3693,
      "ooaeaaeaiee": 3694,
      "eohaoooohohrtthnst": 3695,
      "etaieeaeeae": 3696,
      "un": 3697,
      "ooea": 3698,
      "aieeeeae": 3699,
      "taaietaie": 3700,
      "eadaeae": 3701,
      "oodeetn": 3702,
      "eaieeetof": 3703,
      "teoteoeaieafteoaiaae": 3704,
      "eaieaeaieeetof": 3705,
      "oteatooetotoea": 3706,
      "aieaeooietaseaa": 3707,
      "tootktttso": 3708,
      "erdafataoeeeae": 3709,
      "oodeetnrooo": 3710,
      "at": 3711,
      "aieaieeeaaetmtn": 3712,
      "eteaieeea": 3713,
      "taoetieeaseea": 3714,
      "tooeteaieeea": 3715,
      "ohaieaieeeaaetmtn": 3716,
      "llooootnst": 3717,
      "ohatooeteaieeea": 3718,
      "aieaehn": 3719,
      "tteao": 3720,
      "oeaieasaieaehn": 3721,
      "aieatot": 3722,
      "itt": 3723,
      "eaaieeeai": 3724,
      "aieeetaoeeeae": 3725,
      "tnrod": 3726,
      "eatoetn": 3727,
      "eatotnrod": 3728,
      "oeeeaieoteatoown": 3729,
      "ttatjhn": 3730,
      "tseeeatotnrod": 3731,
      "eaieaohaieaieeeaaetmtn": 3732,
      "oietetno": 3733,
      "eatototoeatoetn": 3734,
      "eaaieeeaiaeaieela": 3735,
      "aieeetaoeeeaeoooo": 3736,
      "tseeeatotnrodoo": 3737,
      "erdloaie": 3738,
      "eadtaieesoooo": 3739,
      "oodoietetno": 3740,
      "taeasatoto": 3741,
      "ian": 3742,
      "thaieaeooootsiec": 3743,
      "tneeaaie": 3744,
      "tastaie0": 3745,
      "aieaeooohtc": 3746,
      "Chris": 3747,
      "erdeieea": 3748,
      "oetieeaaie": 3749,
      "aieeaaieeetstt": 3750,
      "aieaeoeaeeae": 3751,
      "erdeieeaetn": 3752,
      "tseeeaeaieotdttt": 3753,
      "asaaieeaieee": 3754,
      "eeta1": 3755,
      "aiiohaseeeaaethotceta": 3756,
      "eaaaieeetneae": 3757,
      "afaooheerto": 3758,
      "man": 3759,
      "mtctaiee": 3760,
      "toeer": 3761,
      "erdoohthoohneerto": 3762,
      "toooea": 3763,
      "tseeteaieethn": 3764,
      "aaoteoteeaeaaeedhn": 3765,
      "toeertoooea": 3766,
      "PS": 3767,
      "ey": 3768,
      "ooaeteaieutoouoo": 3769,
      "oeeeaieemtctaiee": 3770,
      "eeaaetaief": 3771,
      "ooaeaieaie": 3772,
      "eroeasa": 3773,
      "eeaeaeeaeroeasa": 3774,
      "eaaieaieeaieaiee": 3775,
      "eatotaieeasa": 3776,
      "eatototoeatoetnteer": 3777,
      "ttaafa": 3778,
      "oelloohteea": 3779,
      "GDP": 3780,
      "ry": 3781,
      "eer1": 3782,
      "ieeaaseeoodteaaie": 3783,
      "tseeoest": 3784,
      "oetodieemtn": 3785,
      "ebook": 3786,
      "tkttaieieeasa": 3787,
      "afaetottn": 3788,
      "ptho": 3789,
      "eaieaieaeown": 3790,
      "pthoaiaae": 3791,
      "toeaieaietoto": 3792,
      "aieaouoo": 3793,
      "oohtoietfaafa": 3794,
      "oeteaaeoooo": 3795,
      "oodtotnaie": 3796,
      "erdetaie": 3797,
      "eaatnoieetaie": 3798,
      "hone": 3799,
      "eetnaie": 3800,
      "aiaaeieemoero": 3801,
      "tootaiaaeieemoero": 3802,
      "atotst": 3803,
      "aotetmiodiodtaoeeeae": 3804,
      "torod": 3805,
      "taeaeoteea": 3806,
      "taeae0": 3807,
      "oodeer": 3808,
      "teatotorod": 3809,
      "ooaeaie": 3810,
      "aieaeoieaeeiehn": 3811,
      "oietsodsod": 3812,
      "eaieaeeaieaee": 3813,
      "aieeeea1": 3814,
      "eeeastetn": 3815,
      "ich": 3816,
      "elrtpa": 3817,
      "teatotorodooaeaie": 3818,
      "Br": 3819,
      "aieeeer1": 3820,
      "eatothaietktttn": 3821,
      "llooooma": 3822,
      "ttaoodeer": 3823,
      "teatoeaataoeeeaehn": 3824,
      "teatooeaieas": 3825,
      "aaoteoteeetn": 3826,
      "teatooeaieasaie": 3827,
      "Fac": 3828,
      "ow": 3829,
      "erdhottniebtjho": 3830,
      "aiebta": 3831,
      "ttaiebta": 3832,
      "eatoeahn": 3833,
      "afaetototn": 3834,
      "oeeeaieeaaeaieeeae": 3835,
      "ip": 3836,
      "ud": 3837,
      "taieeeetno": 3838,
      "tsteeafa": 3839,
      "paoeoteaie": 3840,
      "aiaaea": 3841,
      "ieeaaseeaieaieaie": 3842,
      "eatooeotohoest": 3843,
      "eaeeelotttea": 3844,
      "etaieeaieeae": 3845,
      "oetodhtahn": 3846,
      "afaasoteafa": 3847,
      "erdoelloodtoea": 3848,
      "aiaaeaeaieeea": 3849,
      "etaieeaieeaeoero": 3850,
      "oodhrodtofa": 3851,
      "eahnsodsod": 3852,
      "toeaieaietotoar": 3853,
      "Facebook": 3854,
      "eaeeelottteaaietsee": 3855,
      "oodiebeaeeemtn": 3856,
      "tseeoohtoeae": 3857,
      "teoteoeatne": 3858,
      "tseeoteetneaeeasoooo": 3859,
      "las": 3860,
      "oetodeaaeaieeetotaoeeeae": 3861,
      "ttsoeoteaewn": 3862,
      "gtegtegte": 3863,
      "And": 3864,
      "ap": 3865,
      "erdthaietc": 3866,
      "eeadeaeetc": 3867,
      "aieeeae1": 3868,
      "eaaaieeetnst": 3869,
      "teecottootto": 3870,
      "af": 3871,
      "ieero": 3872,
      "tneaseaa": 3873,
      "toottn": 3874,
      "tootgte": 3875,
      "eaitfeetaieetclo": 3876,
      "aieeaexxeae": 3877,
      "ag": 3878,
      "ottooe": 3879,
      "tsfa": 3880,
      "erdteeaaaaeoooo": 3881,
      "oodeutoeuto": 3882,
      "tsfattsfa": 3883,
      "toeeaotdeeaetmtn": 3884,
      "oeaiehroooo": 3885,
      "eatoooheerto": 3886,
      "erdetnaieec": 3887,
      "thaitoetn": 3888,
      "aieoodtefsoeo": 3889,
      "aieeeatsee": 3890,
      "aieeaaieeeatsee": 3891,
      "iPhone": 3892,
      "RI": 3893,
      "taieeasa": 3894,
      "ttateeaeadsa": 3895,
      "eaaeedtnoho": 3896,
      "gteteeae": 3897,
      "eaieaftn": 3898,
      "stoo": 3899,
      "aieaeasee": 3900,
      "oeeeaieodthtn": 3901,
      "etceaieafteoaiaae": 3902,
      "etctnta": 3903,
      "oodeatoeatn": 3904,
      "tototnaie": 3905,
      "ohatototnaie": 3906,
      "ooatefsoeo": 3907,
      "oeeeaieodthtnaie": 3908,
      "etceaieafteoaiaae1": 3909,
      "GPS": 3910,
      "ttaeaeae": 3911,
      "eaaaieeaiaaehn": 3912,
      "eaaeaieeeadst": 3913,
      "gteeaeeae": 3914,
      "etteatoteatnaiee": 3915,
      "aiaec": 3916,
      "tatoottiisoooo": 3917,
      "eatoeaieaeaieeetof": 3918,
      "teoteooeoteaseeexeceee": 3919,
      "esoooo": 3920,
      "oodaeaeattetaieeeto": 3921,
      "eaetaieeesoooo": 3922,
      "teoteoaieaaiee": 3923,
      "eaiear": 3924,
      "oeoteaiear": 3925,
      "aieeae1": 3926,
      "org": 3927,
      "itter": 3928,
      "oeteaaeooooown": 3929,
      "ir": 3930,
      "ettc": 3931,
      "eatoaieeeea": 3932,
      "oodea": 3933,
      "eaaeohaoooo": 3934,
      "taoeeeaetaieeesoooo": 3935,
      "eaaeohaooooaieae": 3936,
      "Tw": 3937,
      "ig": 3938,
      "um": 3939,
      "erdottoottoohst": 3940,
      "eatoeea": 3941,
      "eatoeaier": 3942,
      "oodhtahngte": 3943,
      "ttateeaeadsaeerto": 3944,
      "aieeoeto": 3945,
      "aieesodsod": 3946,
      "aieaotasee": 3947,
      "ohaieeoeto": 3948,
      "iecouoo": 3949,
      "iebetoasatotototo": 3950,
      "odtaoeeeae": 3951,
      "aieaeadteetn": 3952,
      "eaeeasooootetnaieasaie": 3953,
      "tooieemoaieaeo": 3954,
      "eeeatoeeta": 3955,
      "otasatotetneta": 3956,
      "stooeatn": 3957,
      "aieaeasee1": 3958,
      "ell": 3959,
      "ut": 3960,
      "eaioteaedoooo": 3961,
      "tolo": 3962,
      "eaahaeadoelotac": 3963,
      "aieeeaeeadeaeetc": 3964,
      "eaeoteeatvoeae": 3965,
      "ttaafaeaioteaedoooo": 3966,
      "toloetaieeeto": 3967,
      "ttaafaeaioteaedooootetn": 3968,
      "iv": 3969,
      "eeaaie": 3970,
      "tseee": 3971,
      "erdaieea": 3972,
      "ieteaaetotjhn": 3973,
      "oeaiaiee": 3974,
      "aietneeaaie": 3975,
      "ottoeaioteatn": 3976,
      "toeaietaieeesoooo": 3977,
      "ttsoeotnoieetaie": 3978,
      "eaieeeaeaieeeaeaieeea": 3979,
      "tseeeiebtn": 3980,
      "CE": 3981,
      "ck": 3982,
      "aieaeeta": 3983,
      "teatoottn": 3984,
      "ooagggtaitoe": 3985,
      "oetodaieaeeta": 3986,
      "teetoeief": 3987,
      "ottoaieaieaieeatn": 3988,
      "tktetototn": 3989,
      "ooaeaaoeftac": 3990,
      "erdaieea1": 3991,
      "com": 3992,
      "moeltc": 3993,
      "ooaiee": 3994,
      "aieetsc": 3995,
      "etneerto": 3996,
      "erdeaaeeetottea": 3997,
      "oohoeoteea": 3998,
      "eatnhre": 3999,
      "tnohaieeeto": 4000,
      "ooaieemoeltc": 4001,
      "ttthn": 4002,
      "oohtec": 4003,
      "oteettthn": 4004,
      "ieboello": 4005,
      "toeeaotdeief": 4006,
      "ohatoaieeeatn": 4007,
      "eaieie": 4008,
      "erdeteaieutoouoo": 4009,
      "oodaiea": 4010,
      "oodeief": 4011,
      "eaelost1": 4012,
      "etaieoteatnthoela": 4013,
      "tooieemoteae": 4014,
      "NASA": 4015,
      "eaieieown": 4016,
      "oodeiefeatn": 4017,
      "etototo": 4018,
      "aieoetotn": 4019,
      "eatolotothn": 4020,
      "gteoieemtn": 4021,
      "eatoood": 4022,
      "ietemtc": 4023,
      "oettataoeeeaetaieeesoooo": 4024,
      "ottoooheetc": 4025,
      "ottoottoohaieaeo": 4026,
      "aieeaexxeaeouoo": 4027,
      "eatooodstooeatn": 4028,
      "Ma": 4029,
      "Tube": 4030,
      "aieaotoh": 4031,
      "eaaeethtn": 4032,
      "teoteothneeea": 4033,
      "ooaeaaieeeeto": 4034,
      "aieeaotetc": 4035,
      "aieaeogggaitoemoomoou": 4036,
      "eaeeasoooooohtc": 4037,
      "afaeaaeethtn": 4038,
      "eaohhre": 4039,
      "tmeuaiee": 4040,
      "teoteothneeeaown": 4041,
      "IT": 4042,
      "ce": 4043,
      "the": 4044,
      "eatotmtn": 4045,
      "eatotoe": 4046,
      "etaieeoesttetn": 4047,
      "llooooeloeadtetn": 4048,
      "eaiaaetaieeoesttetn": 4049,
      "eatoaieeemtc": 4050,
      "eaaeedtetn0": 4051,
      "eohaooooeaaeaieea": 4052,
      "afaaieaieeth": 4053,
      "eaieafhnasee": 4054,
      "oeaieeeatotmtn": 4055,
      "egggeadetaieeeto": 4056,
      "eohaooooeaaeaieeatsee": 4057,
      "afaaieaieetheaaeedtetn0": 4058,
      "eiebtn": 4059,
      "etv": 4060,
      "eaagteeaaie": 4061,
      "tseeoohgte": 4062,
      "oetodthaitoetn": 4063,
      "toeeaotder": 4064,
      "aieeetootieer": 4065,
      "Twitter": 4066,
      "Dav": 4067,
      "ev": 4068,
      "qu": 4069,
      "etneaetaiee": 4070,
      "erdooea": 4071,
      "aieieteloeae": 4072,
      "oeeeaieiodiodtnttt": 4073,
      "oohtoto": 4074,
      "oodeeatn0": 4075,
      "oodlololotnttt": 4076,
      "teatoteetn": 4077,
      "etteaf": 4078,
      "toeeaotdeaioteatn": 4079,
      "tkteaeai": 4080,
      "hnoaieaeo": 4081,
      "oeaiaieeaieed": 4082,
      "tkteaeaietmtn": 4083,
      "toaslo": 4084,
      "taaotohaieaieeeto": 4085,
      "eatoeaeaieoheloeae": 4086,
      "eadaieesodsod": 4087,
      "teatoaeai": 4088,
      "oteeetsodsod": 4089,
      "etaieoelotac": 4090,
      "oodaieeetsttaiaae": 4091,
      "oohtototeatoaeai": 4092,
      "oohtototeatoaeaitoaslo": 4093,
      "\",": 4094,
      "Fr": 4095,
      "dtoown": 4096,
      "hta": 4097,
      "etaietaieetea": 4098,
      "aieeaieato": 4099,
      "tastoaie": 4100,
      "tseeeae0": 4101,
      "teoteoaseaie": 4102,
      "ieerodtoown": 4103,
      "ieerodtoown0": 4104,
      "c0": 4105,
      "ion": 4106,
      "eatoteeatn": 4107,
      "oodeaaeto": 4108,
      "oodeeetneeto": 4109,
      "taieeec0": 4110,
      "asaf": 4111,
      "iaetaieee": 4112,
      "teevottootto": 4113,
      "In": 4114,
      "ber": 4115,
      "eaieaseaa": 4116,
      "toeasatn": 4117,
      "erdaedtcasee": 4118,
      "eaaoeteatoeatnetaie": 4119,
      "eatotnrodto": 4120,
      "etaieeasaf": 4121,
      "oodeatotnrodto": 4122,
      "eeadtaiee": 4123,
      "easatoeasatn": 4124,
      "toeeaotdaseaie": 4125,
      "aieaeadaieetstt": 4126,
      "eaieaieaieaseaa": 4127,
      "gteeaettc": 4128,
      "teoteotoeaieaieaieaseaa": 4129,
      "teoteotoeaieaieaieaseaaetaieeeto": 4130,
      "HI": 4131,
      "ug": 4132,
      "aieieeataeeifaea": 4133,
      "eatoeaaie": 4134,
      "eadoetv": 4135,
      "faetasaa": 4136,
      "eaiaaeouoo": 4137,
      "toeeaotdtnaietc": 4138,
      "ooheeaeaiaaeouoo": 4139,
      "YouTube": 4140,
      "Dan": 4141,
      "eaalloooo": 4142,
      "aieas": 4143,
      "oeeeaielloooollooooaieaeo": 4144,
      "eaallooooaitoeaiaae": 4145,
      "eaaiaec": 4146,
      "taieeetc": 4147,
      "erdoeaierto": 4148,
      "eaataieetclo": 4149,
      "tootaieeetc": 4150,
      "oodstaie0": 4151,
      "oetetaieeethn": 4152,
      "teoteoaieae": 4153,
      "oeeeaieteaee": 4154,
      "tvtaieaeoaieeeeto": 4155,
      "htahoetaieeeto": 4156,
      "PA": 4157,
      "yn": 4158,
      "tofatc": 4159,
      "erdaeae": 4160,
      "eatotaoeeeae": 4161,
      "eaeeeb": 4162,
      "aehtectaoee": 4163,
      "eaethre": 4164,
      "eaitfeeoeaiehre": 4165,
      "paotetktttneae": 4166,
      "ooaaotasee": 4167,
      "aehtectaoeeeaeeeb": 4168,
      "aieeethn": 4169,
      "tslo": 4170,
      "thaito": 4171,
      "eatoeaaeeeto": 4172,
      "llooooeaieafteoaiaaeaieeetc": 4173,
      "teater": 4174,
      "eeadthaito": 4175,
      "teetoteatngte": 4176,
      "eaeeasoooohnoaieaeo": 4177,
      "eaitfeetefsoeo": 4178,
      "aieaotohaietcaiee": 4179,
      "aieeaotetc0": 4180,
      "oeaiaieeaieedetaieeeto": 4181,
      "eeadthaitoaieeethn": 4182,
      "John": 4183,
      "Rob": 4184,
      "pp": 4185,
      "aieaeot": 4186,
      "oohtoaiiasaie": 4187,
      "toeeaotdthneeea": 4188,
      "eaeeasoooooeeae": 4189,
      "aieaeeb": 4190,
      "ica": 4191,
      "iaeaieelas": 4192,
      "tootlloetn": 4193,
      "iaeaieelasto": 4194,
      "Car": 4195,
      "erdtneaie": 4196,
      "aieafaetasaa": 4197,
      "oodeaaetcohasa": 4198,
      "llooootaieeasa": 4199,
      "paeteaeasee": 4200,
      "seest": 4201,
      "tneaieaieai": 4202,
      "ooaoetieerodtn": 4203,
      "gggown": 4204,
      "toeeaotdtneaieaieai": 4205,
      "oetiaaee": 4206,
      "teoteotseest": 4207,
      "aieastn": 4208,
      "toeeaotdtneaieaieaieaseaa": 4209,
      "oetaieeaee": 4210,
      "toeae": 4211,
      "ers": 4212,
      "erdoeotaseaaie": 4213,
      "toott": 4214,
      "oodoohtotnaie": 4215,
      "lloooooetaieeaee": 4216,
      "patsteeafa": 4217,
      "oeeeaietnlo": 4218,
      "etaieoohthosc": 4219,
      "taatetn": 4220,
      "thaieaeooooeaaieaieeaieaiee": 4221,
      "etototototn": 4222,
      "lloooooetaieeaeetoeae": 4223,
      "Ch": 4224,
      "ak": 4225,
      "taieai": 4226,
      "toec": 4227,
      "erdhtahn": 4228,
      "erdeeatn0": 4229,
      "eatotetn1": 4230,
      "eadoeaiaieeaieee": 4231,
      "lloooooello": 4232,
      "ieeiee": 4233,
      "eaaeedaieaeeb": 4234,
      "aieeataieeesoooo": 4235,
      "toeeaotdtjaie": 4236,
      "eaitfeethnaie": 4237,
      "eaitfeeotoaoa": 4238,
      "ind": 4239,
      "taieaitoec": 4240,
      "taieaitoecieeiee": 4241,
      "oot": 4242,
      "eaieoteaie": 4243,
      "erdoeloaseetetn": 4244,
      "aieeeaetntc": 4245,
      "ooataieetclo": 4246,
      "oteatoteaeaieown": 4247,
      "afaeaieeeattea": 4248,
      "eaiaaeeertotvtaieaeo": 4249,
      "oteetnst0": 4250,
      "afaeaieeeattea1": 4251,
      "boooo": 4252,
      "paa": 4253,
      "tsaieae": 4254,
      "eaaoetiaaee": 4255,
      "oohoeoteaseeexeceee": 4256,
      "oohaeertohn": 4257,
      "oodaiiasaie": 4258,
      "oodtoott": 4259,
      "gteoest": 4260,
      "ieeaaseethnaie": 4261,
      "aieeetoetasee": 4262,
      "ohaooooetasaa": 4263,
      "aieaeoaiiasaie": 4264,
      "ottoaehtecaieaeaiaae": 4265,
      "eaaetaieouoo": 4266,
      "CEO": 4267,
      "eaaoetiaaeeboooo": 4268,
      "oodtootteae": 4269,
      "An": 4270,
      "taoteetnsc": 4271,
      "taieeoesttetn": 4272,
      "etnst": 4273,
      "erdtotoeae": 4274,
      "aieoohthnaie": 4275,
      "eatotjhn": 4276,
      "oodetnaieec": 4277,
      "tseeoohthosc": 4278,
      "oseaie": 4279,
      "eaettcaiee": 4280,
      "aieaeadaeae": 4281,
      "tooieemoseaie": 4282,
      "oteetnteer": 4283,
      "eaeoheteatotjhn": 4284,
      "amp": 4285,
      "aotetmoheaieeea": 4286,
      "eoteaiee": 4287,
      "ff": 4288,
      "gteeae": 4289,
      "tatv0": 4290,
      "eatoeaieafteoaiaaeaieeetc": 4291,
      "eatoheaaeedtetn": 4292,
      "aietfaafa": 4293,
      "tttmon": 4294,
      "aieaeadtooteatn": 4295,
      "afaietfaafa": 4296,
      "eoteaieeea": 4297,
      "gteeaexxeae": 4298,
      "afaietfaafa0": 4299,
      "aieerto": 4300,
      "toaieerto": 4301,
      "eeatotetn": 4302,
      "etopa": 4303,
      "eaaaiaaeeaetaiee": 4304,
      "oodtmostaieae": 4305,
      "aieaeoet": 4306,
      "taseeeteaieaieaief": 4307,
      "teevtnst": 4308,
      "iecieceaaeto": 4309,
      "eaeeae1": 4310,
      "afaeteaeeae1": 4311,
      "oteaitfeeetopa": 4312,
      "David": 4313,
      "paatoaieerto": 4314,
      "BM": 4315,
      "di": 4316,
      "eatohottneaieote": 4317,
      "oeeeaieoteieeaatn": 4318,
      "aeadtceatn": 4319,
      "eaaegggeae": 4320,
      "toeeaotdoeotohoest": 4321,
      "aieaieeeb": 4322,
      "aieatotetn": 4323,
      "ine": 4324,
      "gteeaieatotetn": 4325,
      "aseaaar": 4326,
      "aieeaieatoar": 4327,
      "IM": 4328,
      "Sc": 4329,
      "erson": 4330,
      "erdeetn": 4331,
      "erdiecieceaaeto": 4332,
      "eaalololotnttt": 4333,
      "oodoeaierto": 4334,
      "aexxeae": 4335,
      "eaaaieetstof": 4336,
      "thaieaeooooeaettcaiee": 4337,
      "eaeohaexxeae": 4338,
      "Ar": 4339,
      "ooaieeaasee": 4340,
      "taetnotaieerto": 4341,
      "erdfsoeo": 4342,
      "erdaaoteoteeetn": 4343,
      "eadtaieeesoooo": 4344,
      "eadetneeb": 4345,
      "oeeeaieoeaierto": 4346,
      "oodoeote": 4347,
      "oodtootlloetn": 4348,
      "oodeadtaieeesoooo": 4349,
      "llooooeaieeaoero": 4350,
      "asatvo": 4351,
      "odthtnemvo": 4352,
      "afataeeexaieeeto": 4353,
      "tnlosodsod": 4354,
      "taaeaieeeto": 4355,
      "ohatottt": 4356,
      "aiaaeeaeeasoooo": 4357,
      "eaaoodaieeetstt": 4358,
      "aieaeooeoteaieeea": 4359,
      "aieeeertotllorto": 4360,
      "ooaieeaaseeoeto": 4361,
      "erdietn0": 4362,
      "thtahn": 4363,
      "ooder": 4364,
      "tseeeaiaaegte": 4365,
      "tnstaiaae": 4366,
      "toeeaotdtsaie": 4367,
      "eaeeasoooothnaie": 4368,
      "aieeaeoteeeaown": 4369,
      "tvo0": 4370,
      "tktottn": 4371,
      "hohohohn": 4372,
      "aieeeeaaaieae": 4373,
      "--": 4374,
      ".\"": 4375,
      "BC": 4376,
      "CO": 4377,
      "Pa": 4378,
      "The": 4379,
      "oeeeaietneeae": 4380,
      "eaieaeeae": 4381,
      "aietnoh": 4382,
      "aieaeaieaeaieaeeae": 4383,
      "HIV": 4384,
      "eeatotetnetaieeaee": 4385,
      "KB": 4386,
      "tnoetofaaslo": 4387,
      "eaaaiaaee": 4388,
      "eaaotasatotetn": 4389,
      "oeeeaieietn0": 4390,
      "tseeeaieeaoero": 4391,
      "toeeaotdtaeedtjhn": 4392,
      "aotasaietetn": 4393,
      "ttotn": 4394,
      "eaitfeeeaethre": 4395,
      "ley": 4396,
      "oohaieegte": 4397,
      "taatetnouoo": 4398,
      "eaaaiaaeetouto": 4399,
      "Ge": 4400,
      "MIT": 4401,
      "ah": 4402,
      "etaieatot": 4403,
      "eatotodcto": 4404,
      "oetemtc": 4405,
      "oeteaaieeeatsee": 4406,
      "tseethnaie": 4407,
      "etno1": 4408,
      "DH": 4409,
      "taeaieaeeaieaee": 4410,
      "erdloteetn": 4411,
      "eaateaieeaee": 4412,
      "eaaoef": 4413,
      "etaieetaieeeto": 4414,
      "oodouoto": 4415,
      "aieaietv": 4416,
      "asaoeoteaieeuto": 4417,
      "teadsac": 4418,
      "atotaoeeeae": 4419,
      "ang": 4420,
      "eaeeeloieeeea": 4421,
      "BG": 4422,
      "DA": 4423,
      "Mc": 4424,
      "etaier": 4425,
      "taoettaero": 4426,
      "erdeaieeaoero": 4427,
      "eadeaeaaaieeeto": 4428,
      "oodeaeeadeaeetc": 4429,
      "oodaieaieaieeatn": 4430,
      "ieeaaseeouoo": 4431,
      "htn0": 4432,
      "eaieetnteeae": 4433,
      "eaaieoeoteea": 4434,
      "ohatoieetaie": 4435,
      "tsfattsfathtahn": 4436,
      "etaierhtn0": 4437,
      "Ab": 4438,
      "CD": 4439,
      "SP": 4440,
      "Sh": 4441,
      "Su": 4442,
      "op": 4443,
      "aieetc": 4444,
      "aieeaier": 4445,
      "erdtneaieaietoto": 4446,
      "erdtsaie": 4447,
      "eaataoeeeaeoooo": 4448,
      "tcteato": 4449,
      "rtoaieetc": 4450,
      "oodeatn": 4451,
      "ohatooe": 4452,
      "oteertoaieetc": 4453,
      "eaaelrt": 4454,
      "oohtoteaee": 4455,
      "aieaeoeaaefeatn": 4456,
      "ottoaiaaetsaieaeo": 4457,
      "eaaoodoef": 4458,
      "tcteatoetaieeeto": 4459,
      "ohatooeoteertoaieetc": 4460,
      "ky": 4461,
      "ld": 4462,
      "tost": 4463,
      "etneaieaietoto": 4464,
      "oodeaioeaiooetiaaeemtc": 4465,
      "paeasto": 4466,
      "toeeaotdteaieeeae": 4467,
      "toeeaotdtnoho": 4468,
      "tooieemollolloetouto": 4469,
      "tostetaieeeto": 4470,
      "paeastof": 4471,
      "PM": 4472,
      "go": 4473,
      "ni": 4474,
      "aietaieee": 4475,
      "toeatoo": 4476,
      "llooooatot": 4477,
      "gteoohetktttn": 4478,
      "oodtsteeafa": 4479,
      "thtseeastteeaaieaeo": 4480,
      "eaaaieeetnrooo": 4481,
      "paotetktttoown": 4482,
      "——": 4483,
      "taetototn": 4484,
      "erdaieeeae1": 4485,
      "eaeaetnaotasaie": 4486,
      "faetthooeroeatn": 4487,
      "teoteotaieieeasa": 4488,
      "ietaieoeoteeaoeeeaie": 4489,
      "erdtteaoeeeaie": 4490,
      "ent": 4491,
      "oeaieaethn": 4492,
      "ID": 4493,
      "aieeoheaieeea": 4494,
      "eatoeaeaieeeto": 4495,
      "toeeaotdeaeheaeeaieero": 4496,
      "toeeaotdaiiasaie": 4497,
      "aeeeaeeeoetn": 4498,
      "toeatooar": 4499,
      "RNA": 4500,
      "SE": 4501,
      "St": 4502,
      "eaaieea": 4503,
      "aieaeaieieown": 4504,
      "etaieeaa": 4505,
      "oeoteaieeaieaieeeto": 4506,
      "toeeaotdthoaie": 4507,
      "aieaeadaieaieaieeatn": 4508,
      "tootktteaaaieeetn": 4509,
      "ord": 4510,
      "aieeoheaieeea0": 4511,
      "eaaieeataeeifaea": 4512,
      "\".": 4513,
      "Am": 4514,
      "Lin": 4515,
      "MA": 4516,
      "erdtaeetotoieeohaieeetc": 4517,
      "eaathneeeaown": 4518,
      "etaeerto": 4519,
      "etaieeotea": 4520,
      "ttatoeeaotd": 4521,
      "aieaieaee": 4522,
      "ottotsiec": 4523,
      "tmetaieeeto": 4524,
      "oeaieohaieasee": 4525,
      "toooooetneaieaietoto": 4526,
      "aietaieeeetno": 4527,
      "aeaitoooooetneaieaietoto": 4528,
      "ttatoeeaotdeer": 4529,
      "aieaieaeemtn": 4530,
      "Ste": 4531,
      "aw": 4532,
      "cy": 4533,
      "ith": 4534,
      "ri": 4535,
      "aieeeaioeaiooetiaaeemtc": 4536,
      "eaateatngte": 4537,
      "eatoc": 4538,
      "eatotseetsee": 4539,
      "etaoe": 4540,
      "oodaeaie": 4541,
      "oodaieeeae1": 4542,
      "etaoaiaae": 4543,
      "oeaietmtn": 4544,
      "teevoohgte": 4545,
      "gteeahn": 4546,
      "iPod": 4547,
      "BF": 4548,
      "LED": 4549,
      "aoot": 4550,
      "toooo": 4551,
      "eetmetaieeeto": 4552,
      "asaa": 4553,
      "eaaeasatoto": 4554,
      "eatoeaieaieaief": 4555,
      "eadthtn": 4556,
      "oodteaeaie": 4557,
      "eeadaotaieeeto": 4558,
      "toeeaotdaoot": 4559,
      "afalotothn": 4560,
      "tktieemtn": 4561,
      "ttaaeaeaetn": 4562,
      "tevown": 4563,
      "ram": 4564,
      "oodieteaaetotjhn": 4565,
      "aeaitoooo": 4566,
      "Anderson": 4567,
      "BA": 4568,
      "Bar": 4569,
      "Ed": 4570,
      "Ro": 4571,
      "Rich": 4572,
      "Sp": 4573,
      "oeatotoe": 4574,
      "ux": 4575,
      "aieoteatn": 4576,
      "aieaeeae": 4577,
      "ttar": 4578,
      "aieteote": 4579,
      "teeetc": 4580,
      "ooataiaae": 4581,
      "oeoteaseeexec": 4582,
      "aiaae0": 4583,
      "oeoteetttmon": 4584,
      "oodtoteatnaieae": 4585,
      "eaieafhneaieote": 4586,
      "aieaeooteeetc": 4587,
      "etottnaiaae": 4588,
      "aieeaethre": 4589,
      "aieaeeaeheaeeaieero": 4590,
      "aieteoteoeatotoe": 4591,
      "oeoteaseeexecee": 4592,
      "oeoteetttmonoeoteea": 4593,
      "Jos": 4594,
      "Jim": 4595,
      "ootieer": 4596,
      "eaefa": 4597,
      "erdetsc": 4598,
      "eaaeaieaeto": 4599,
      "eaaaiaaellooootaoeeeae": 4600,
      "eadaehtec": 4601,
      "oodoheaieeea": 4602,
      "lloooooest": 4603,
      "gteoetodteetn": 4604,
      "tseeetaoe": 4605,
      "aieeetoaieetstt": 4606,
      "ooaeaieatothaieeeto": 4607,
      "ieteaefa": 4608,
      "eaeeasoooototn": 4609,
      "ottotaeieeeadtjhn": 4610,
      "efeatn": 4611,
      "paeteaeaseeeae": 4612,
      "etaeertouto": 4613,
      "eadaehtecaaote": 4614,
      "Bill": 4615,
      "Cr": 4616,
      "Har": 4617,
      "Stev": 4618,
      "ath": 4619,
      "de": 4620,
      "ph": 4621,
      "erdeaeeadeaeetc": 4622,
      "eaatefsoeo": 4623,
      "tcoooo": 4624,
      "oeeeaieoohaieee": 4625,
      "aieeetohn": 4626,
      "eaieaedtcoooo": 4627,
      "eetuto": 4628,
      "edia": 4629,
      "tseeoteetnrodto": 4630,
      "eatocllorto": 4631,
      "ata": 4632,
      "all": 4633,
      "detaieeeto": 4634,
      "ric": 4635,
      "tuto": 4636,
      "otho": 4637,
      "oeetuto": 4638,
      "eaaeatne": 4639,
      "tooh": 4640,
      "otestaie": 4641,
      "aiethn": 4642,
      "tathotho": 4643,
      "eaiaadetaieeeto": 4644,
      "eaetaieeoooo": 4645,
      "eaeaieotestaie": 4646,
      "oetodtaeieeahn": 4647,
      "eutoar": 4648,
      "tktooh": 4649,
      "totnttea": 4650,
      "tooieemoeaeeadeaeetc": 4651,
      "aehtecaieaeaiaadetaieeeto": 4652,
      "aieeetoeetuto": 4653,
      "gteeiebtn": 4654,
      "Cor": 4655,
      "Em": 4656,
      "Han": 4657,
      "ny": 4658,
      "otastoaie": 4659,
      "pe": 4660,
      "qe": 4661,
      "aieeut": 4662,
      "erdotasatotetn": 4663,
      "erdoteaitfeeetopa": 4664,
      "etcotc": 4665,
      "llooooeetuto": 4666,
      "teatoetcotc": 4667,
      "aieaehtec": 4668,
      "teoteoeaaeaieaeto": 4669,
      "oohtotaieeoesttetn": 4670,
      "aiiohaseeoeltto": 4671,
      "teoteotootieer": 4672,
      "etkttotn": 4673,
      "aeaqe": 4674,
      "erdaiest": 4675,
      "ottooeotastoaie": 4676,
      "tsfattsfattaoeeeae": 4677,
      "teatoetcotcaiee": 4678,
      "Ad": 4679,
      "IBM": 4680,
      "Tom": 4681,
      "li": 4682,
      "per": 4683,
      "teae": 4684,
      "ver": 4685,
      "aieaieeaee": 4686,
      "aieets": 4687,
      "art": 4688,
      "aieeetoeaeaiaaeaieeeto": 4689,
      "ooaeaohhre": 4690,
      "faetgte": 4691,
      "oetodthn": 4692,
      "oetodeaaieeeetoetaieeeto": 4693,
      "ottoatot": 4694,
      "gteeaeaieoteaie": 4695,
      "ins": 4696,
      "aieetsttar": 4697,
      "20": 4698,
      "DV": 4699,
      "Gr": 4700,
      "My": 4701,
      "Ne": 4702,
      "eteae": 4703,
      "taeloeae": 4704,
      "taeteae": 4705,
      "erdatot": 4706,
      "staieaieeeto": 4707,
      "llooooetaiaaeee": 4708,
      "lloooooetotn": 4709,
      "oeeeaieth": 4710,
      "toeeaotdaieetstt": 4711,
      "taie1": 4712,
      "teatotoottaeiee": 4713,
      "teeafaeae": 4714,
      "ooheeaaetnerto": 4715,
      "eaastaie1": 4716,
      "oetrtoeta": 4717,
      "Richard": 4718,
      "tktoohero": 4719,
      "DVD": 4720,
      "MT": 4721,
      "nt": 4722,
      "sha": 4723,
      "eeeaeee": 4724,
      "tofa": 4725,
      "taetaie0": 4726,
      "etnrooo": 4727,
      "erdtneeaaie": 4728,
      "eaaetniec": 4729,
      "eatoeaaeedpa": 4730,
      "ohtotnaie": 4731,
      "eaieeeahohohohn": 4732,
      "ooaotaiaoteaiee": 4733,
      "oeotet": 4734,
      "aieaeoeeaeasee": 4735,
      "aieaeoeaaeasatoto": 4736,
      "oetodteatoar": 4737,
      "toeeaotdtso": 4738,
      "ottothtaeiee": 4739,
      "ottooohtotnaie": 4740,
      "eteemtnasee": 4741,
      "ank": 4742,
      "eeaesttetnoooo": 4743,
      "aieaeoteaewn": 4744,
      "etaieeaaefeatn": 4745,
      "oeeeaiethetsc": 4746,
      "AA": 4747,
      "PC": 4748,
      "RM": 4749,
      "ame": 4750,
      "aieta": 4751,
      "eaiehrd": 4752,
      "erdaieatoe": 4753,
      "eatoaseaa": 4754,
      "tch": 4755,
      "eadoetieeaaie": 4756,
      "oodieemoeltc": 4757,
      "oodaieeeaaetnrodto": 4758,
      "oodotetoaiaae": 4759,
      "oodteae": 4760,
      "eeadetkttotn": 4761,
      "oetoeaiehrd": 4762,
      "ietttateaieethn": 4763,
      "toeeaotdieteaaie": 4764,
      "ttatotoaetneaaeee": 4765,
      "faetthooerorhtn": 4766,
      "ottotaieeeeae": 4767,
      "eatoottn": 4768,
      "Paul": 4769,
      "oodteaeifaea": 4770,
      "oetoeaiehrdpa": 4771,
      "Co": 4772,
      "Ted": 4773,
      "Wik": 4774,
      "bo": 4775,
      "ge": 4776,
      "se": 4777,
      "ve": 4778,
      "erdeaaeaieeetotaoeeeae": 4779,
      "tseeeaohhre": 4780,
      "etaieieerodtn": 4781,
      "aiiohaseeooheaaaieeetco": 4782,
      "ron": 4783,
      "aieeeatot": 4784,
      "ice": 4785,
      "hir": 4786,
      "ike": 4787,
      "Georg": 4788,
      "TK": 4789,
      "io": 4790,
      "tube": 4791,
      "een": 4792,
      "aieeteta": 4793,
      "tatefsoeo": 4794,
      "eatoeaieaaeaiee": 4795,
      "paeaetothn": 4796,
      "tseec": 4797,
      "asaoeoteaieeaee": 4798,
      "eaeeeaeeef": 4799,
      "aieeaaeaieeetn": 4800,
      "nes": 4801,
      "CM": 4802,
      "CRI": 4803,
      "if": 4804,
      "ke": 4805,
      "of": 4806,
      "aieeetnst": 4807,
      "eaioteaeeoooo": 4808,
      "oteer": 4809,
      "ottoto": 4810,
      "eatoieeaasee": 4811,
      "eadeotea": 4812,
      "taieeaee": 4813,
      "oodaieeeatot": 4814,
      "gteoiet": 4815,
      "aietoo": 4816,
      "aietaieteetn": 4817,
      "eatoeatngte": 4818,
      "aehtecoetn": 4819,
      "oetodoteeetnoieemto": 4820,
      "oetodieeaaseetsee": 4821,
      "eaeeasoooosac": 4822,
      "thaietcst": 4823,
      "ohatoeaaaiaaeetouto": 4824,
      "eaaeaieeatatc": 4825,
      "tootkttieemtn": 4826,
      "eaeeatouto": 4827,
      "aieeeeaaoheetktttn": 4828,
      "Linux": 4829,
      "ottotoetasa": 4830,
      "eatoieeaaseeaieaie": 4831,
      "Mich": 4832,
      "Uber": 4833,
      "teaieatn": 4834,
      "ett": 4835,
      "oeeteaieuto": 4836,
      "erdtsteeafa": 4837,
      "eaatseeoteetnrodto": 4838,
      "oeohaooooetasaa": 4839,
      "eatoeaetothn": 4840,
      "eadoest": 4841,
      "paeeta": 4842,
      "ael": 4843,
      "aieaeoeohaooooetasaa": 4844,
      "tvoteer": 4845,
      "emetaieeeto": 4846,
      "oteatoaieaieeadoeroe": 4847,
      "eaaeedhngte": 4848,
      "toeeaotdaieaie": 4849,
      "men": 4850,
      "oeoteeteaieatn": 4851,
      "eaeeasooootaa": 4852,
      "eaeoteeatvoteer": 4853,
      "oodooheattaieeeto": 4854,
      "taiaaeieemoero": 4855,
      "ink": 4856,
      "ottooello": 4857,
      "SPR": 4858,
      "oodeatnaieee": 4859,
      "aeaitoooooeeteaieuto": 4860,
      "aieaehtecaafaee": 4861,
      "aietootaiaaeieemoero": 4862,
      "FO": 4863,
      "Jac": 4864,
      "ht": 4865,
      "ust": 4866,
      "etneaeeae": 4867,
      "eaeb": 4868,
      "erdieeaaseeeaioteato": 4869,
      "eatoeatoottn": 4870,
      "oodiebta": 4871,
      "teaeeasoooo": 4872,
      "oohtoeetoaieeetc": 4873,
      "tkteaeeasoooo": 4874,
      "teatntc": 4875,
      "hohrthaietktttn": 4876,
      "ottotaieellolloeatn": 4877,
      "eaieoteown": 4878,
      "ino": 4879,
      "Steve": 4880,
      "CRISPR": 4881,
      "BI": 4882,
      "CP": 4883,
      "Ev": 4884,
      "Jon": 4885,
      "Le": 4886,
      "Pet": 4887,
      "az": 4888,
      "iz": 4889,
      "aieeetoto": 4890,
      "taetn": 4891,
      "taotaiaoteaiee": 4892,
      "ttoo": 4893,
      "eatotneeae": 4894,
      "eadeaseeao": 4895,
      "san": 4896,
      "ohtc": 4897,
      "oodiebodiebod": 4898,
      "iel": 4899,
      "eeadtetn": 4900,
      "ieeaaseeeaeeasoooo": 4901,
      "teoteoaieeeetn": 4902,
      "taeieeaieaest": 4903,
      "eaitfeeoeaieaieeeaaetmtn": 4904,
      "hohrtastoaie": 4905,
      "teevoeltto": 4906,
      "eaieotdeaeloaiaae": 4907,
      "ottoeaaeto": 4908,
      "lltoieemopatasaie": 4909,
      "eaaeeetofst": 4910,
      "teoteoood": 4911,
      "eeeaaeeeafaeaieotdeaeloaiaae": 4912,
      "ttsoeoeaieafteoaiaae": 4913,
      "ipedia": 4914,
      "eeadtaieeetaie": 4915,
      "aieaeoeteaaaieeasado": 4916,
      "Wikipedia": 4917,
      "aieeetotohn": 4918,
      "Ben": 4919,
      "Net": 4920,
      "pha": 4921,
      "sh": 4922,
      "ull": 4923,
      "aieaaeaiee": 4924,
      "aieeaieaaeaiee": 4925,
      "ott": 4926,
      "erdaieeut": 4927,
      "eatohohrtastoaie": 4928,
      "eadeohaooooeaaeaieeatsee": 4929,
      "llooooiaeaieela": 4930,
      "gteoeaieoher": 4931,
      "oeeeaieaiea": 4932,
      "tseeero": 4933,
      "ooathtseeastteea": 4934,
      "eaitfeetc": 4935,
      "aieaeoeae": 4936,
      "oetodiaec": 4937,
      "etooetoo": 4938,
      "tkteaaaieaietaoeeeae": 4939,
      "tooieemoth": 4940,
      "tkteeaeown": 4941,
      "Abed": 4942,
      "oeeeaieaieaeaieieown": 4943,
      "eaitfeetcaiee": 4944,
      "App": 4945,
      "Pete": 4946,
      "Sha": 4947,
      "ria": 4948,
      "ean": 4949,
      "ton": 4950,
      "tott": 4951,
      "teuto": 4952,
      "teaaiear": 4953,
      "paeaeaetn": 4954,
      "aieeetoeutoeuto": 4955,
      "gteaieouoo": 4956,
      "toeeaotdteaeaaee": 4957,
      "aiiohaseeoetv": 4958,
      "eaieaieaieftjhn": 4959,
      "taeuoaioteaeeoooo": 4960,
      "thaietcoown": 4961,
      "iodiodtott": 4962,
      "eaatseaieaieae": 4963,
      "eaaaieaietaoeeeaest": 4964,
      "eaieafhnaieeeto": 4965,
      "eatoeeetn": 4966,
      "les": 4967,
      "George": 4968,
      "iodiodtottteuto": 4969,
      "Fl": 4970,
      "IP": 4971,
      "Par": 4972,
      "RA": 4973,
      "Ros": 4974,
      "ST": 4975,
      "Sky": 4976,
      "up": 4977,
      "wa": 4978,
      "erdietoteeta": 4979,
      "eatoaeertohn": 4980,
      "aieeeooheeeaaie": 4981,
      "teadeae": 4982,
      "tktaieeaee": 4983,
      "aietn0": 4984,
      "oodoohtaeieetsoooo": 4985,
      "erdtteathtn": 4986,
      "aieeaatn": 4987,
      "our": 4988,
      "Alex": 4989,
      "taietaieoeoteea": 4990,
      "tooieemothtaeiee": 4991,
      "eatoeeetntaeiee": 4992,
      "EC": 4993,
      "El": 4994,
      "La": 4995,
      "OL": 4996,
      "Pan": 4997,
      "TI": 4998,
      "Will": 4999
    },
    "merges": [
      "e e",
      "e a",
      "a i",
      "e t",
      "o o",
      "ai ee",
      "ea i",
      "t o",
      "t a",
      "t n",
      "ee a",
      "o t",
      "t aiee",
      "eai e",
      "et n",
      "a s",
      "t s",
      "ea e",
      "e r",
      "o ee",
      "as ee",
      "et o",
      "ts o",
      "l o",
      "taiee tso",
      "eai ee",
      "er d",
      "u to",
      "ea a",
      "oo oo",
      "t h",
      "ai e",
      "w n",
      "t t",
      "o e",
      "a a",
      "ea to",
      "t c",
      "ea d",
      "aiee ea",
      "o wn",
      "et a",
      "erd uto",
      "t oo",
      "ai ea",
      "oee eaie",
      "s a",
      "t erduto",
      "o h",
      "r to",
      "t e",
      "oo h",
      "aieeea etn",
      "l l",
      "h r",
      "h n",
      "et c",
      "l lo",
      "taiee a",
      "et aiee",
      "taieea asee",
      "ee r",
      "oo d",
      "s t",
      "t eea",
      "ot e",
      "u oo",
      "ll oooo",
      "i e",
      "t ea",
      "m tn",
      "oeeeaie own",
      "sa c",
      "o uoo",
      "i ee",
      "p a",
      "eaa ee",
      "o to",
      "t ta",
      "g te",
      "aiee e",
      "eea d",
      "eta eae",
      "oee eai",
      "aiea aiee",
      "ta aieaaiee",
      "ot eaiee",
      "s ee",
      "ea tn",
      "et asee",
      "t eato",
      "a r",
      "ai et",
      "er o",
      "teea e",
      "to to",
      "h o",
      "ai aa",
      "o et",
      "eer o",
      "a ee",
      "tt i",
      "i eea",
      "ta th",
      "hr e",
      "f a",
      "eta o",
      "s oooo",
      "a e",
      "tn 1",
      "e lo",
      "oee eae",
      "eai eea",
      "t ee",
      "ee e",
      "ieea asee",
      "oh a",
      "eto to",
      "ai eae",
      "ot ee",
      "tath rto",
      "eaie r",
      "taiee e",
      "ta sac",
      "ai eai",
      "th n",
      "o eaie",
      "ta oeeeae",
      "eai aa",
      "t etn",
      "g g",
      "ie c",
      "elo ead",
      "etaiee eto",
      "ta ea",
      "a tn",
      "eloead ar",
      "tt tn",
      "tn eai",
      "llo llo",
      "a ead",
      "et as",
      "m oto",
      "aead tc",
      "oeaie rto",
      "ie b",
      "aiee etc",
      "ts ee",
      "a oteaiee",
      "k tttn",
      "eaiee eto",
      "g t",
      "eea e",
      "ea too",
      "i soooo",
      "too tti",
      "tootti isoooo",
      "eaieea ee",
      "h tn",
      "etoto atn",
      "ea s",
      "ai etc",
      "oe st",
      "t j",
      "lo asee",
      "t eaiee",
      "ea ea",
      "et s",
      "oto h",
      "etc o",
      "tc tc",
      "oeaierto etco",
      "oe oteaiee",
      "te ote",
      "loasee tctc",
      "ai i",
      "tneai aoteaiee",
      "ot eea",
      "etn 1",
      "aeadtc ee",
      "a otoh",
      "ea etaiee",
      "ts eea",
      "o eto",
      "etaiee e",
      "aiee eto",
      "eaiaa e",
      "t v",
      "t pa",
      "see tpa",
      "eato aieee",
      "ta ee",
      "eaiee ea",
      "h ot",
      "ee tn",
      "oo a",
      "etas aa",
      "o d",
      "et tea",
      "eato eatn",
      "ai eto",
      "eaiaae gte",
      "eaaee d",
      "oeeeai etn",
      "ea sa",
      "aieeea eero",
      "ooh tc",
      "th oo",
      "eae lo",
      "ot d",
      "ea eee",
      "th ot",
      "aiee ee",
      "teato aie",
      "teote o",
      "teeae 1",
      "eead ero",
      "eaa e",
      "d uto",
      "aa ote",
      "s tt",
      "tti ettea",
      "oet eatoeatn",
      "et ktttn",
      "eaie duto",
      "as a",
      "tn eaie",
      "aiet etn",
      "ta e",
      "iee oh",
      "eaea etn",
      "aiaa ee",
      "oe o",
      "tt ea",
      "i et",
      "ae c",
      "oe l",
      "i aec",
      "oeteatoeatn llo",
      "gt eaie",
      "toto ieeoh",
      "taee totoieeoh",
      "thot ho",
      "ee ta",
      "o s",
      "i eer",
      "t taiee",
      "eai ea",
      "tn 2",
      "tj ho",
      "oeeeaietn aietc",
      "u o",
      "to h",
      "tee taieee",
      "tea ee",
      "os htn",
      "eatoaieee ouoo",
      "t mtn",
      "eead aieeetc",
      "aie own",
      "aieee 1",
      "o eai",
      "iee m",
      "eatoo teeae",
      "i a",
      "ttaiee mtn",
      "t ead",
      "too wn",
      "eatooteeae oshtn",
      "aii as",
      "ot eeadero",
      "aaote oteeadero",
      "oha oooo",
      "aieto e",
      "e ohaoooo",
      "fa et",
      "aiias aieown",
      "ead sac",
      "ta aieee1",
      "oooo o",
      "ets uto",
      "et mtn",
      "eaiee tn",
      "f aa",
      "oe ote",
      "eaie ieer",
      "oeeeai et",
      "eaetaiee pa",
      "ea eaie",
      "t f",
      "ot hn",
      "hot tn",
      "ieb tjho",
      "hottn iebtjho",
      "ea see",
      "eea soooo",
      "e m",
      "f s",
      "ooh etktttn",
      "aieai eae",
      "teaiee eae",
      "ot etaieee",
      "tn oo",
      "oest tnoo",
      "o eaieeaee",
      "oeaieeaee tmtn",
      "ooh to",
      "tt t",
      "gg g",
      "aiee eero",
      "tta aieeeero",
      "too uoo",
      "te c",
      "ot eato",
      "teato teaieeeae",
      "ll othn",
      "tta llothn",
      "taea aietetn",
      "teea ea",
      "a etn",
      "aotoh aieaieae",
      "h tec",
      "fs oeo",
      "aiee a",
      "f ia",
      "fia eaieeeto",
      "oee eaiee",
      "taeetotoieeoh hre",
      "hre 0",
      "ae htec",
      "faa fa",
      "eaaeed hn",
      "oe ot",
      "tn st",
      "to eea",
      "etn ooooo",
      "thoo etnooooo",
      "eto uto",
      "eai tf",
      "ooh fiaeaieeeto",
      "ggg eae",
      "ta teaee",
      "aiaaee aiet",
      "aieae o",
      "llollo etouto",
      "oeto d",
      "toeea otd",
      "ea eero",
      "ea et",
      "ea eae",
      "otetaieee own",
      "ea aieeee",
      "ts tt",
      "aiaa e",
      "eea easee",
      "eaaee eto",
      "thn aie",
      "tee to",
      "ta hn",
      "aieeea tn2",
      "th tn",
      "ead st",
      "ea o",
      "gte hre",
      "ood ts",
      "e gggeae",
      "as eaie",
      "th o",
      "llo rto",
      "oeoteaiee ouoo",
      "oodts hn",
      "ieeaasee eeta",
      "aiet ktttn",
      "a o",
      "t to",
      "oha o",
      "oh n",
      "ee rto",
      "oeeeai eea",
      "eas eea",
      "aee eaeee",
      "tj hn",
      "lloooo egggeae",
      "aiee eaaeedhn",
      "ai eaieduto",
      "aieaieduto e",
      "oe stt",
      "hr d",
      "ot eaa",
      "st aie",
      "m e",
      "tead tstt",
      "otee etaieee",
      "aiaaeeaiet m",
      "aiaaeeaietm toown",
      "oe otee",
      "etn o",
      "llollo f",
      "ieeaasee aiee",
      "et ot",
      "ot ea",
      "tta toto",
      "ttatoto aetn",
      "a eaie",
      "et aie",
      "o eeae",
      "oee ea",
      "aiee aee",
      "ee tc",
      "ta see",
      "te fsoeo",
      "easa ee",
      "et oo",
      "teeto aie",
      "tta eer",
      "tn o",
      "aiea ead",
      "oel tto",
      "teaiee eadst",
      "easeea r",
      "th tseea",
      "ieeaasee aie",
      "eaiee eaa",
      "eaieeeaa etmtn",
      "ta tc",
      "oeeeaie lloooo",
      "oeeeaielloooo lloooo",
      "oeai eaieeeaaetmtn",
      "ea eeasoooo",
      "aiea sa",
      "oteaa ote",
      "aotoh aieasa",
      "eae d",
      "tea eaie",
      "oh asee",
      "aii ohasee",
      "oeeeaie oeaieaieeeaaetmtn",
      "e uto",
      "er to",
      "ood eaelo",
      "aiea etn",
      "eaa aiee",
      "tn oh",
      "ai eaaee",
      "ai eaie",
      "lo aie",
      "et aiaa",
      "etaiaa eee",
      "s aie",
      "eai eai",
      "eaeaetn iec",
      "st 1",
      "oeeeaielloooolloooo tetn",
      "ea aie",
      "ooa teeae",
      "oeotee rto",
      "eato llolloetouto",
      "gt et",
      "eaaee etot",
      "eaa eaiee",
      "erd iaec",
      "eaae f",
      "em tc",
      "thoo ero",
      "faet thooero",
      "o ero",
      "aiee aiea",
      "et eaie",
      "oha toh",
      "ohatoh tahn",
      "otee ea",
      "aie ote",
      "aieaaee aieote",
      "eaa aieai",
      "eaaaieai eta",
      "iee mtn",
      "ot eaed",
      "aieeeaetn etaieeeto",
      "oteaed oooo",
      "ot easeear",
      "t k",
      "ai oteaedoooo",
      "eetn 0",
      "od thtn",
      "eaeee mtn",
      "r htn",
      "ai to",
      "tea tn",
      "ieeaasee llollof",
      "ieeaaseellollof taea",
      "erd oeote",
      "oeot eaie",
      "ooa eeaeasee",
      "eae 2",
      "gtet etn",
      "aiiohasee aieaaeeaieote",
      "aieeaiea gtetetn",
      "elo eae",
      "t eaieeaee",
      "aieee 0",
      "taoeeeae own",
      "eead aieeaee",
      "aioteaedoooo aeaie",
      "tath aietktttn",
      "ieb a",
      "oet ta",
      "ta eee",
      "taeee x",
      "u toouoo",
      "taiee rto",
      "gte sac",
      "et taieerto",
      "to t",
      "eteaie utoouoo",
      "too toh",
      "ai etn",
      "eaaieeee to",
      "ta 0",
      "aieaetn ta0",
      "ta t",
      "oeeeaie s",
      "tn eeae",
      "oteea eetn",
      "ieem o",
      "too t",
      "tae iee",
      "ea hn",
      "ta eaier",
      "teea aa",
      "eatoaieee 2",
      "stt eea",
      "thtseea stteea",
      "t eer",
      "ea etn",
      "h oh",
      "eaitf ee",
      "as eea",
      "lloooo tneaie",
      "iee t",
      "tea aie",
      "eea wn",
      "oeoteerto ttea",
      "tn 0",
      "o ea",
      "ho aseea",
      "ooh eaetn",
      "aiet eetn",
      "ta oeeeaie",
      "eohaoooo etasaa",
      "oeoteaie pa",
      "tasee et",
      "j hn",
      "eatn e",
      "ets tt",
      "eaitf e",
      "oe f",
      "ta oeeea",
      "aieae 1",
      "ead tv",
      "easa toto",
      "oet mtn",
      "eaiea f",
      "oet eaae",
      "gte loaie",
      "et aiaaee",
      "etaiaaee ouoo",
      "eaieea tn",
      "ta aieteetn",
      "eai etn",
      "ta eaietn",
      "iec 0",
      "d tno",
      "oeteaae hn",
      "aiee c",
      "taeeex aieeeto",
      "ae oooo",
      "teeaaa aeoooo",
      "t thn",
      "e l",
      "eaieai eaie",
      "ee to",
      "eas eaa",
      "iet tc",
      "eohaoooo aieec",
      "oeeeaies toouoo",
      "eai etoto",
      "tneai eaietoto",
      "hoh r",
      "ea ee",
      "i od",
      "asa d",
      "oeoteaiee uto",
      "taoeeeae ouoo",
      "oetta taoeeeaeouoo",
      "oestt etn",
      "ieba t",
      "eaiaa eaieeeto",
      "ood teaaie",
      "et erduto",
      "a fa",
      "tn lo",
      "ot aiee",
      "aiee tsee",
      "iec 1",
      "aiee eae",
      "hoaseea own",
      "t me",
      "ot c",
      "oteato etoo",
      "oteatoetoo etaieeeto",
      "oeo ta",
      "aiee eaieeaee",
      "aie ie",
      "a tot",
      "iee ea",
      "iee eeawn",
      "ot ai",
      "ooh eetc",
      "et ho",
      "t wn",
      "aiee etstt",
      "tae i",
      "staie 0",
      "oeai eas",
      "s aa",
      "u oto",
      "teea saa",
      "teeasaa r",
      "teaeaie own",
      "tead eaeero",
      "eaieeea own",
      "oteea eterduto",
      "m a",
      "eaea see",
      "eead uo",
      "oeaieas aie",
      "teoteo iebat",
      "eea a",
      "eaaeeetot tea",
      "otai aoteaiee",
      "etas a",
      "oel otc",
      "teea 1",
      "etho ar",
      "eaieaieaie f",
      "teato ar",
      "taeetotoieeoh aieeetc",
      "oeeeaiet jhn",
      "erdoeote gte",
      "tee v",
      "eaiea eto",
      "lloooo eaeaie",
      "eaieetn o",
      "o uoto",
      "eaaee e",
      "a eae",
      "et teeae",
      "etn eae",
      "aieae ouoo",
      "hrd oeltto",
      "ai aiee",
      "eaie otd",
      "tae uo",
      "tootoh hn",
      "eaaee etneae",
      "ts iec",
      "oohto eae",
      "eaa eto",
      "aiee oeaierto",
      "teato aieeeae",
      "asad o",
      "tea too",
      "tta eatoo",
      "ttaeatoo eer",
      "eea etmtn",
      "et ero",
      "oeeeai etasee",
      "oeeeaietasee etero",
      "llollo eatn",
      "eaieea e",
      "taiee llolloeatn",
      "oeeeaietn easeaa",
      "lloooo as",
      "oeeeaiet eea",
      "ot to",
      "oeeeaiet eaaie",
      "hrd tetn",
      "teatoo oea",
      "eeadero dtno",
      "ead uo",
      "ta teea1",
      "taoeeeae hn",
      "aieeeto ar",
      "eaae mtn",
      "eaieeae oero",
      "iet eaaemtn",
      "eas to",
      "s to",
      "aieee 2",
      "eaiee etc",
      "ta oeote",
      "aito e",
      "erd aieeeaetn",
      "ta saie",
      "ta r",
      "etn 0",
      "ai eaieetno",
      "ea eto",
      "eaaaiee etn",
      "g teea",
      "n eerto",
      "th ooh",
      "thooh neerto",
      "t ai",
      "tho ao",
      "ai aieee",
      "ai aieea",
      "aiaieea aiaieee",
      "ea eead",
      "eaet hrdtetn",
      "ta eaaeaiee",
      "oeto etteeae",
      "gg gt",
      "gggt aitoe",
      "aiea r",
      "aaote otee",
      "eaiee eae",
      "eaaaiee asado",
      "aieaieetno aieaie",
      "o etoto",
      "i etn0",
      "ta aiee",
      "oeto tn",
      "tsee gggtaitoe",
      "tat eae",
      "oetod easto",
      "aaoteotee eatn",
      "tetn 0",
      "ta a",
      "ood ietn0",
      "t llorto",
      "ouoo thn",
      "lloooo oelotc",
      "taeaaeaiee eae",
      "o i",
      "too ieet",
      "tooieet aiear",
      "m tetn0",
      "ie mtetn0",
      "od to",
      "oo oh",
      "erd eahn",
      "aieai eaieeea",
      "as tn",
      "eaaaieaieta oeeea",
      "eaaaieaietaoeeea eaieeetc",
      "lo lo",
      "taeiee tc",
      "eaa etc",
      "oh asa",
      "eaaetc ohasa",
      "aie iettc",
      "etaiee eta",
      "eta oeeeae",
      "eaeto eadtv",
      "oohto tv",
      "er t",
      "oh taoeeeae",
      "etaie ohtaoeeeae",
      "oooh aieie",
      "eaa eaieeeto",
      "ieem to",
      "oeeeaiee eaduo",
      "hot saie",
      "thot hotsaie",
      "me u",
      "s tar",
      "ai eaieeeto",
      "ea 1",
      "aie star",
      "aiestar 0",
      "ai eaiee",
      "aiee teeae",
      "taaiee atn",
      "ead aieeetstt",
      "to eatn",
      "thn tv",
      "aehtec thntv",
      "teaee ouoo",
      "h tahn",
      "ee ead",
      "eaaee eeead",
      "ohao eae",
      "eaaeeeeead etaiaaeeouoo",
      "taoeeea eea",
      "a eaea",
      "aeaea tt",
      "th aietktttn",
      "tea etc",
      "ot eatoo",
      "aieae oooo",
      "th aieaeoooo",
      "etoo wn",
      "toto toto",
      "ea ead",
      "m tsee",
      "oe mtsee",
      "oemtsee eeae",
      "etno 0",
      "erd euto",
      "oh eaieeeaown",
      "o etn",
      "tho aie",
      "eaaeaieeeto taoeeeae",
      "ee erto",
      "eaiaa eeerto",
      "tk t",
      "ieemo sa",
      "sa hn",
      "a eaiee",
      "aieai eaie",
      "ooh gte",
      "eto asa",
      "etoasa totototo",
      "eae oteea",
      "aieeoeaierto ttt",
      "e otea",
      "oeeeaie oeoteaieeuto",
      "ote oef",
      "llooooas oteoef",
      "ta c",
      "oeeeaie oeltto",
      "ot eaie",
      "ea aietc",
      "erd aehtec",
      "erdaehtec etktttn",
      "th iaec",
      "d tn",
      "oeoteaiee tc",
      "o easa",
      "tn eea",
      "m tc",
      "tso e",
      "oe lo",
      "eeae oteea",
      "ood tefsoeo",
      "oteeea own",
      "lloooo aieee",
      "oe ll",
      "et hn",
      "eai eato",
      "st 0",
      "aieeetc 1",
      "x x",
      "eae oteeeaown",
      "lloooo taoeeeae",
      "xx eae",
      "r o",
      "ohao aieeetc",
      "th oe",
      "tai thoe",
      "th aietc",
      "eaa easaee",
      "oeeeaiee eaaeasaee",
      "oto ao",
      "otoao a",
      "e b",
      "ie meu",
      "eaieotd etaieeeto",
      "t m",
      "aieea eeasoooo",
      "eta hre",
      "aieeteeae 0",
      "taa thn",
      "otaiee rto",
      "aie st0",
      "as lo",
      "tneaie sa",
      "eaeeasoooo tneaieaietoto",
      "eaead tetn",
      "eai eta",
      "teoteo eaeero",
      "aeaiee l",
      "teaiee thn",
      "hot tneaie",
      "tnoh o",
      "hottneaie ote",
      "oha to",
      "eae xxeae",
      "tc aiee",
      "t aie",
      "eaaeeetot see",
      "teev oteato",
      "taieee ouoo",
      "eeta ttt",
      "t tsoe",
      "aiaa eeaeoteea",
      "ea aietetn",
      "oeeeai ettea",
      "oeeeaiettea o",
      "ao tasee",
      "a ot",
      "oestt e",
      "oh toeatn",
      "taithoe ouoo",
      "eaiea ee",
      "teote ooohaieie",
      "oeeeaie iec",
      "eato eaaaieeetn",
      "ood ooh",
      "ohao aieea",
      "ta ethoar",
      "eto eaier",
      "iod iod",
      "ta eaieeaeoero",
      "eaaeed ho",
      "erd er",
      "eae 1",
      "oodooh eaieaeto",
      "tetn eaeae",
      "eaieato tetneaeae",
      "eaeaetn em",
      "eaeaetnem uto",
      "too e",
      "eeaa easaee",
      "ead etaieeeto",
      "aiee d",
      "ot tn",
      "oelo tac",
      "taiee rhtn",
      "pa thoohneerto",
      "erd eaeero",
      "aiaa ets",
      "aiaaets aieaeo",
      "eaa ts",
      "to etasa",
      "aieed st",
      "ts to",
      "ot toot",
      "aie 0",
      "iec iec",
      "tn aie",
      "ooh tooe",
      "taieee oohtooe",
      "sto wn",
      "taieeeoohtooe stown",
      "oeaie oh",
      "ieet aie",
      "odthtn aieeeto",
      "aiee staie",
      "tno ieemto",
      "et eeto",
      "eteeto f",
      "tjho eaitfee",
      "eteetof tjhoeaitfee",
      "aieestaie oooo",
      "eaa etoown",
      "ieciec eaaetoown",
      "aieaead thnaie",
      "ieemo pa",
      "e llollof",
      "llollo ellollof",
      "ooh hre",
      "lloooo aieae1",
      "aot etc",
      "aie iaec",
      "ttt etaieeeto",
      "aieiaec 0",
      "ea eaiaaeaieeeto",
      "aieai eaieeeae",
      "aieaieaieeeae uto",
      "toot ieer",
      "h oe",
      "et hot",
      "ethot c",
      "aieeee ta",
      "teoteo aieeeeta",
      "eeta ar",
      "oeeeaieea a",
      "s od",
      "ot eatn",
      "aieaieeeto 0",
      "ood oelotac",
      "ottoot tn",
      "eea tn0",
      "tta etaiaaeeouoo",
      "tootoh ouoothn",
      "aieeee to",
      "aie sa",
      "toto aiesa",
      "etas eaa",
      "eae ia",
      "eaeia et",
      "tjhn eaaeee",
      "eaeiaet tjhneaaeee",
      "ttea aieeeto",
      "ttea tteaaieeeto",
      "l h",
      "lloooo tso",
      "eato eaiaaeeerto",
      "tn ttt",
      "m ta",
      "llollo mta",
      "eaaeed llollomta",
      "eaaeedllollomta ae",
      "d c",
      "lloooo taithoeouoo",
      "ood ettaieerto",
      "aie ma",
      "oo aietn",
      "ood aieeetoar",
      "lloooo taieerhtn",
      "teeasaar oetmtn",
      "e c",
      "tneea ote",
      "et teato",
      "etteato teatn",
      "eaa aietn",
      "oe otd",
      "ieb eaeeemtn",
      "pa eaier",
      "aieaead ieemtn",
      "fa aslo",
      "taathn erto",
      "te o",
      "eaieaf teo",
      "toto eae",
      "oeto faaslo",
      "ieea sa",
      "eaats aietetn",
      "to ieemopa",
      "ll toieemopa",
      "oeeeaie ottoottn",
      "eaeaie oteaie",
      "ma tetn",
      "m n",
      "eetaar eae",
      "stt mn",
      "oeota sttmn",
      "eaet tc",
      "as otea",
      "etteatoteatn aeae",
      "ood loaie",
      "eaa tatc",
      "eaaee eatn",
      "ea eaieta",
      "eaeaieta toown",
      "oeeeaie 0",
      "em st",
      "er otaiee",
      "eaeead erotaiee",
      "eaeeaderotaiee asa",
      "r t",
      "aieeaee 1",
      "o etaieeeto",
      "etn eea",
      "eaet eb",
      "o st",
      "teoteo ieeaaseeaiee",
      "t aieaeo",
      "oeot eaieeaee",
      "otea ee",
      "eea eaieeeto",
      "aiaaeeaiet mtn",
      "eead aiaaeeaietmtn",
      "oteaee oooo",
      "d tc",
      "ood oeeae",
      "tee tn0",
      "tta a",
      "taie ieeasa",
      "oeeeaiee aieaie",
      "ieb ta",
      "aie hoe",
      "hr aiehoe",
      "ie f",
      "e ief",
      "eato hraiehoe",
      "eai eead",
      "eaieeea eaieead",
      "eaieeeaeaieead oero",
      "h aetn",
      "ho etaieeeto",
      "ieeea eaiee",
      "too ieem",
      "eaieai eae",
      "fa tjhn",
      "eaieeea fatjhn",
      "ttea own",
      "aiee llo",
      "lloooo oetaieeeto",
      "aieello lloooooetaieeeto",
      "eaaaieaieta oee",
      "eaet htn",
      "eaaaieaietaoee eaethtn",
      "tv taieaeo",
      "ot too",
      "aiee 0",
      "oetofaaslo taoeeeae",
      "s eaie",
      "too hoetaieeeto",
      "ttsoe ot",
      "otetaieeeown ero",
      "eato eeaaeasaee",
      "ood otoaoa",
      "eto e",
      "ooh gteea",
      "oohgteea tn",
      "oet eaa",
      "oel tc",
      "d tjhn",
      "tsee 1",
      "taee dtjhn",
      "oe loasee",
      "v to",
      "to ta",
      "aiea ee",
      "tv tota",
      "vto tvtota",
      "taiee tc",
      "p t",
      "eaeaie otd",
      "ea aieeea",
      "oi etaseaa",
      "eaaaieaieta oeeeae",
      "lltoieemopa oeoteaiee",
      "to dc",
      "eaaeeeto f",
      "t aiaa",
      "eta tttn",
      "taiaa etatttn",
      "ood aotasee",
      "ta oeeae",
      "ieb lo",
      "ieblo aieaeo",
      "ood aietc",
      "eetc 0",
      "ieem oeltc",
      "eaiee eatn",
      "ood to",
      "oeotasttmn taee",
      "ts oooo",
      "eaeaetn eaaeedho",
      "taeiee tsoooo",
      "lh ero",
      "faet eae",
      "thn oo",
      "iodiod taiee",
      "ead oeoteaieetc",
      "oteatoo oea",
      "ooh taeieetsoooo",
      "faa r",
      "asotea faar",
      "taiee eto",
      "ead etsuto",
      "tta oeeeae",
      "r odto",
      "ta sa",
      "aiaae hn",
      "eaieafteo aiaae",
      "h e",
      "euto euto",
      "aiee ro",
      "eato ieemtn",
      "erd tcaiee",
      "toeeaotd eaaeaiee",
      "eai eae",
      "aieae st",
      "ai etn1",
      "tsee sahn",
      "aie seetpa",
      "lloooo eaeaiaaeaieeeto",
      "oe otoh",
      "ai tf",
      "aitf e",
      "tt ooh",
      "lo tnttt",
      "oeoteerto aieeetc",
      "lolo lotnttt",
      "oetoto tetn",
      "taieetc lo",
      "taoeeeaeea tn",
      "eaa eaieea",
      "lhero dtn",
      "ieeea eaieaee",
      "et eaeasee",
      "ottoo ttooh",
      "tn eerto",
      "tee c",
      "oohto tnaie",
      "aiee aiaaehn",
      "oeteaa eaieaeto",
      "eaiea eaier",
      "aiee eaa",
      "oo uoo",
      "ts eaeaie",
      "tme uo",
      "aiaa eea",
      "eato thnaie",
      "iebta aieeeto",
      "e oteea",
      "tee toh",
      "oha etn",
      "oel a",
      "teetoh ohaetn",
      "oe oteea",
      "oestte hre",
      "to teato",
      "ai oteaeeoooo",
      "oeeeai ets",
      "erd th",
      "a eaee",
      "tt uto",
      "tea ttuto",
      "eteaeasee own",
      "aeaee teattuto",
      "teato too",
      "aiee eea",
      "oeeeaie oteeaeterduto",
      "ooh eloeae",
      "el he",
      "tme sa",
      "eaeaetn staie",
      "faet etno",
      "etn otaieerto",
      "ieba 1",
      "oeeeaie hottneaieote",
      "tasa ee",
      "teatotoo tasaee",
      "aieaeo aieaeo",
      "eaa ood",
      "ta eaa",
      "etas eea",
      "taeaa etaseea",
      "aiee tstt",
      "eato eaaaieaietaoeeeae",
      "todc to",
      "taee aieaie",
      "ood ohtoeatn",
      "ta eaieetn",
      "ood oeotasttmntaee",
      "ero dtno",
      "iee eto",
      "taeeaieaie ieeeto",
      "oteeea 0",
      "ieetaie oteeea0",
      "oteato eeaeasee",
      "lloooo thnoo",
      "oetta ero",
      "ead eaieduto",
      "eai eatoo",
      "eaieatoo wn",
      "erd oell",
      "e f",
      "oet i",
      "taea aieeee",
      "ta eaaeto",
      "tthn st",
      "hohr tthnst",
      "ood taoeeeaeea",
      "oetod etnotaieerto",
      "ta eaiaaeaieeeto",
      "iet otaiaoteaiee",
      "ae dtc",
      "el rt",
      "ooh ouoto",
      "lloooo oeoteaieeuto",
      "etn rodto",
      "to ar",
      "eato ieemoeltc",
      "ta moto",
      "llolloellollof ttea",
      "ood eaa",
      "ee ea",
      "aeaieel a",
      "loaseetctc ouoo",
      "o iet",
      "pa eteaeaseeown",
      "oeeeaiets eaeaie",
      "toeeaotd eutoeuto",
      "e oooo",
      "tot er",
      "aieee ieemtn",
      "erdoell ttaoeeeae",
      "eeto aieeetc",
      "ood taiee",
      "oeota s",
      "etao aie",
      "oeotd aeaie",
      "oeeeaiee eaeasee",
      "aiaaeea aieeee",
      "teea fa",
      "ood eeaeasee",
      "oodto ea",
      "faeteae oetmtn",
      "teoteo tneaie",
      "oeeeaieeaa taoeeeaehn",
      "pa ot",
      "ead otaiaoteaiee",
      "erd aiaaeeaeoteea",
      "erd oohtoeae",
      "etaiee a",
      "o eta",
      "tsee tsee",
      "teoteo ieemosa",
      "otee tn",
      "aieetstt 1",
      "oet tmeuo",
      "erd tjhn",
      "y tetn",
      "faet ytetn",
      "ttaa faetytetn",
      "teote ot",
      "eae wn",
      "aieeea tn0",
      "ea oh",
      "ie hn",
      "erto taoeeeae",
      "hohr etaieeeto",
      "oetoto ertotaoeeeae",
      "et k",
      "o eaiaa",
      "ea odto",
      "oeaiaa eaodto",
      "oeaiaaeaodto tmtn",
      "ta ero",
      "oodtaiee oesttetn",
      "eaeoteea sahn",
      "tnoh ouoo",
      "paot etktttn",
      "a eea",
      "oi etoe",
      "oietoe st",
      "sto aie",
      "oetod eaeae",
      "oesttehre own",
      "eaieaf hn",
      "etk tt",
      "ohato teaieethn",
      "eoooo aiaae",
      "oh eloeae",
      "eaeaie oheloeae",
      "fa t",
      "aehtec tv",
      "oodeaa easatoto",
      "eai oteato",
      "oell oodtoea",
      "oeotee tsto",
      "eoteea 0",
      "oeoteetsto eoteea0",
      "oee lo",
      "eaa eaetoeadtv",
      "eaaeaetoeadtv oeelo",
      "eai eas",
      "eaieea oero",
      "ta oeoteaieeouoo",
      "et e",
      "otee et",
      "eloead tetn",
      "teatn aieae",
      "eaa taoeeeaehn",
      "aiaae llooootaoeeeae",
      "et eer",
      "tneai eteer",
      "eaie ote",
      "tsee tsiec",
      "tc teetohohaetn",
      "tm ost",
      "ee eaie",
      "eaetoeadtv ooooo",
      "oeota stoaie",
      "o eatn",
      "aii aeaieel",
      "aiiaeaieel ae",
      "t eaewn",
      "st iaec",
      "lloooo stiaec",
      "ooh eea",
      "eero dtn",
      "t aieaee",
      "eead eetc",
      "taieaee iehn",
      "aieeeaa etnrodto",
      "eto tn",
      "eatn aieee0",
      "ets c",
      "aeae 1",
      "eae 0",
      "oeltto ar",
      "oteaa oteaiee",
      "teoteot etn",
      "m etaieeeto",
      "tta oeeae",
      "oo et",
      "eatoo etotn",
      "ooh thoohneerto",
      "oh eaieeea",
      "eaieas otea",
      "eaa taieellolloeatn",
      "er oe",
      "eaieeeae gggeae",
      "taeeex aiee",
      "aiee eetn",
      "eead o",
      "iee ouoo",
      "aieai eeado",
      "aieaieeado eroe",
      "teato thotho",
      "tkt eaataoeeeaehn",
      "aiee ae",
      "eeae llorto",
      "lloooo iec",
      "tta eaeero",
      "ooh eaieaieae",
      "eaatsaietetn eaeeasoooo",
      "oohouoto afa",
      "ooheea aetn",
      "erd eaa",
      "ts aie",
      "pa tneaieaietoto",
      "aieeeetn otaieerto",
      "pa tneerto",
      "easeea o",
      "oeaie hre",
      "me uo",
      "b aehtectv",
      "aiee baehtectv",
      "ttsoeot jhn",
      "ai eato",
      "a et",
      "ee eaaie",
      "ooh eeeaaie",
      "etaie 1",
      "tat meuo",
      "aieeea 0",
      "tee tn",
      "ettaieerto etaieeeto",
      "aeea o",
      "oo wn",
      "erd taoeeeae",
      "too teatn",
      "toeeaotd lherodtn",
      "eea aee",
      "thaietc o",
      "iee ead",
      "lloooo thnaie",
      "eaoh llorto",
      "to tn2",
      "ieeead aieero",
      "tmost aieae",
      "oeeeaieea eaiaaeaieeeto",
      "ta etaiee",
      "aeaeatt etaieeeto",
      "st etn",
      "pa ooheetc",
      "ts ts",
      "th etsc",
      "eaieeeafatjhn teer",
      "eai eaed",
      "taeeexaiee etneea",
      "gte hn",
      "oeaieoh er",
      "aiet see",
      "oteeet eae",
      "aieea asee",
      "aieae 0",
      "eaaeed tetn",
      "ieeoh asa",
      "aiaa eaieeeto",
      "eeae fsoeo",
      "oeti eerodtn",
      "pa thn",
      "aiee mtc",
      "teoteo eadtv",
      "teoteoeadtv oeatn",
      "aieemtc thaietco",
      "th aieemtcthaietco",
      "lloooo thaieemtcthaietco",
      "th aieeeto",
      "oohto etno",
      "ieeea eaieaed",
      "ieeeaeaieaed ar",
      "to tn",
      "taiee eeawn",
      "aa ee",
      "ta oeaieoher",
      "erd ohtoeatn",
      "aehtec eaieotd",
      "aehteceaieotd euto",
      "e x",
      "ea aieeaasee",
      "erd aeeeaeee",
      "eaaieeaasee eaioteato",
      "oh ouoothn",
      "toteato aiaaeeaeoteea",
      "tooieem ot",
      "ooh thnaie",
      "aieeeea stetn",
      "etaiee asee",
      "sod sod",
      "aiee mtn",
      "tat llorto",
      "etaieeasee etno",
      "aie oeoteea",
      "oeeeaies eaie",
      "i aee",
      "eadtv oouoo",
      "et too",
      "ettoo eeeaie",
      "oet totoeae",
      "afa etasaa",
      "oetod teetn",
      "eato ee",
      "oeeeai etaoeeeae",
      "iet aieoeoteea",
      "lloooo twn",
      "eeaa eto",
      "aiea eeaaeto",
      "a to",
      "aiee etot",
      "easee ex",
      "easeeex ec",
      "ea aieown",
      "oeotas eaaieown",
      "tkt aiaaetsaieaeo",
      "ea eaieeaoero",
      "erd taiee",
      "asad oown",
      "tme u",
      "aito etn",
      "aieato e",
      "eaaood thnaie",
      "ee mtn",
      "et eemtn",
      "v o",
      "th r",
      "oeai eaieae",
      "ta tnst",
      "e fa",
      "eatoo own",
      "oeeeaiee ro",
      "easeeexec eee",
      "oeotoh asa",
      "afa 1",
      "f aee",
      "a eaieeea",
      "ood aieae0",
      "aiet wn",
      "toeeaotd oeoteaieeaee",
      "aieae oo",
      "otee etno",
      "oteeetno ieemto",
      "eaaee eeaaee",
      "eaaeeeeaaee d",
      "aieeoeaierto 0",
      "eaieeea oetotn",
      "eaeaieotd ero",
      "eaa et",
      "f et",
      "eaieaeaier thtn",
      "eaaeeeeaaeed eaaeee",
      "to teatnaieae",
      "el a",
      "eaieaf uto",
      "fet eaieafuto",
      "teeto aieaiee",
      "eaee eaeee",
      "eaaet feteaieafuto",
      "eato eaaieeee",
      "pathn ela",
      "erd eaaeeeeaaeedeaaeee",
      "llooooas to",
      "ooh eer",
      "ieb od",
      "ttaiee eea",
      "tsto f",
      "oo m",
      "taiee t",
      "ead taieetclo",
      "aaee mtc",
      "s taieea",
      "oo u",
      "oom oou",
      "ea as",
      "aietc aiee",
      "p aieemtn",
      "oohto elrt",
      "oeoteaiee ea",
      "eai eaaeaiee",
      "thn 0",
      "oet teaewn",
      "gteea eeasoooo",
      "iet eloeae",
      "ta tn",
      "aito eaiaae",
      "tho n",
      "ta teaiee",
      "tateaiee etstt",
      "eteaie uto",
      "eae ieeouoo",
      "ood oteeea",
      "toot eaeieeouoo",
      "oha oeaieaieae",
      "oeta thon",
      "to erto",
      "toerto tjhn",
      "o ieemtn",
      "aehtec aieaeouoo",
      "ood eteaieuto",
      "o n",
      "ta pt",
      "aieaiee th",
      "lloooo llolloellollof",
      "taseeet ero",
      "pa aieeetstt",
      "eaas oteea",
      "t eaieaieaie",
      "tta teaieethn",
      "eaieaf teaieaieaie",
      "erd aeaieeea",
      "iet eaaie",
      "et m",
      "taieee soooo",
      "ee tn1",
      "aotoh aietcaiee",
      "t aiaae",
      "ts c",
      "ea eetc",
      "aie paeaier",
      "tee mtn",
      "aieaaee teemtn",
      "ta oetmtn",
      "ooh aieae",
      "oeot eai",
      "erd toteatnaieae",
      "aiee thaietc",
      "gte uto",
      "ee etn",
      "ete gteuto",
      "aieethaietc 1",
      "erd tooteatn",
      "teeto eaieote",
      "ee b",
      "erdth aitoetn",
      "ood aitoeaiaae",
      "ood tv",
      "oodtv eatn",
      "tee thn",
      "ieem toown",
      "tk tt",
      "eatoee etneea",
      "aee eatn",
      "etaie htahn",
      "etaieeaseeetno eae",
      "aieaieeth eaaeedtetn",
      "teato eeaeaieeeto",
      "aieai ea",
      "too teethn",
      "d too",
      "ero dtoo",
      "erodtoo tetn",
      "ead oeaiaaeaodtotmtn",
      "oet hohr",
      "erd todcto",
      "lloooo tmeu",
      "eaieeeafatjhn llorto",
      "ood htahn",
      "aiet eer",
      "aotoh aieteer",
      "eto aiaae",
      "ai aeaieela",
      "oet v",
      "eatn eatoeatn",
      "eaa tn",
      "tt aiaeaieela",
      "taieea eooooaiaae",
      "ood atot",
      "ttaiaeaieela eer",
      "easa tn",
      "tv o",
      "aietn eaie",
      "ot etoaiaae",
      "ai etaoeeeae",
      "eai oteatn",
      "aiee asadoown",
      "oteeea oteaie",
      "eato eaeaieotdero",
      "toeeaotd ea",
      "tk tsc",
      "eaiee etn",
      "i etao",
      "d to",
      "eaeaieotd eahn",
      "erdth ettooeeeaie",
      "t eta",
      "eai eatn",
      "eaeead eaeetc",
      "ood teev",
      "ooa taiee",
      "gtehn st",
      "ta tttn",
      "eaaeedho tatttn",
      "aedtc asee",
      "oeeeai eaieeeatn",
      "ooh aieie",
      "eatoo el",
      "eatooel tto",
      "ietao dto",
      "a eaeasee",
      "ote fat",
      "tm sa",
      "oeeeai eaieeetn",
      "eato ert",
      "eaieeea ttea",
      "erd teaaie",
      "tseaeaie own",
      "ea aietsee",
      "as toto",
      "ooa aieeaiaaehn",
      "eaetoeadtv ost",
      "teoteo easatn",
      "thtseea aiaaetsaieaeo",
      "aieai eaiea",
      "oetod aieaieaiea",
      "oetodaieaieaiea fa",
      "to e",
      "aieee mtc",
      "otefat tsee",
      "i aaeemtc",
      "et eae1",
      "eai oeai",
      "ooet iaaeemtc",
      "eaioeai ooetiaaeemtc",
      "oeot easeeexeceee",
      "oeotoh oest",
      "too ieemo",
      "ta etasa",
      "hr eee",
      "tea eaieaee",
      "erdeaa aieae",
      "hreee htn",
      "teaeaieaee eaeee",
      "E D",
      "a n",
      "et eetn",
      "aieaiea ouoo",
      "s c",
      "efa metaieeeto",
      "toeeaotd oeoteaieetc",
      "etaieea eeasoooo",
      "ottoottooh aieaie",
      "tno ieetaie",
      "etaie 0",
      "tooieem ooohaieie",
      "oestt eteetn",
      "otee toown",
      "erd oetv",
      "tt tmtn",
      "oestt etmtn",
      "ooh eerto",
      "eato tthn",
      "lloooo eae",
      "oestte sac",
      "aiee eato",
      "eaiee e",
      "aieai eaieeatn",
      "toto e",
      "ta oeoteaie",
      "aehtec etktt",
      "eaieaieaief thtn",
      "aehtecetktt toar",
      "eaieea totoe",
      "aieai eaieeatotoe",
      "eohaoooo aieaieaieeatotoe",
      "e iee",
      "i n",
      "er etaieeeto",
      "aieaeoaieaeo aieaeo",
      "tn aietc",
      "eaaieeea tneea",
      "erd ttea",
      "eaiee eas",
      "teoteo eaieeeas",
      "easee tetn",
      "teoteoeaieeeas c",
      "l ot",
      "hn eae",
      "od rhtn",
      "eaieafhn llorto",
      "otee ta",
      "ooa hneae",
      "eaeee lot",
      "iee eea",
      "tta eaeead",
      "ttaeaeead eer",
      "ead aieee1",
      "T ED",
      "aiea eaieta",
      "aieaeaieta toe",
      "tv 0",
      "emtc taiee",
      "taetaiee ohouoothn",
      "h oela",
      "teeaaa aet",
      "teeaaaaet hoela",
      "t aito",
      "teato etn",
      "tatn easeaa",
      "taito teatoetn",
      "f tcaiee",
      "tme ftcaiee",
      "ef tmeftcaiee",
      "ai teato",
      "eaa aiteato",
      "eaaaiteato e",
      "et eaaaieeasado",
      "t aieie",
      "lloooo iaee",
      "oteetn sc",
      "ai eaae",
      "oteatoo wn",
      "tn ta",
      "toeeaotd ieeeeawn",
      "teote oo",
      "tt ie",
      "ood eftmeftcaiee",
      "ohato st",
      "taieie own",
      "oetod hoaseea",
      "otto hottneaieote",
      "too thr",
      "aiea eaieeeto",
      "gteea aeeeatn",
      "etaoeeeae hn",
      "ietaodto aiaaetsaieaeo",
      "taathn ttt",
      "j aie",
      "tn s",
      "taoeeea etaoeeeaehn",
      "oeeeaieea etaiee",
      "ote llollo",
      "pa oest",
      "ta taiee",
      "aieaieae o",
      "ttsoeot jaie",
      "aieaieaeo taoeeeae",
      "lloooo eaioteatn",
      "ead eer",
      "tta teaiee",
      "ttateaiee eadeer",
      "tns taieeeto",
      "taei tthn",
      "oeotd afaetasaa",
      "lloooo oietaseaa",
      "tnoh aie",
      "otefattsee eae",
      "aieeetot etn",
      "aiea saie",
      "th oela",
      "eaieeea thtn",
      "i ets",
      "eaa aiaae",
      "eaaaiaae oh",
      "ta oee",
      "ooheeaaetn aieeeto",
      "tetn aieasaie",
      "eaaaiaaeoh tho",
      "eaatsaietetn oeeeaie",
      "to wn",
      "staieea tn",
      "aiee etoo",
      "tn aeae",
      "tta n",
      "ieb aieaieaieeea",
      "iets aie",
      "eaeeelot tt",
      "ea eeae",
      "te fs",
      "oeot etn",
      "tefs oeotetn",
      "eea tn",
      "eaaeed oeoteaieeuto",
      "eaitfee iec",
      "eaieeeatn easeear",
      "aiee tstof",
      "tn 3",
      "eaelo aiaae",
      "oeeeaiee otea",
      "oo atn",
      "erd oohgte",
      "eea r",
      "eea eaduo",
      "a faet",
      "toeatn haetn",
      "oeeeaieeaa etaie",
      "etaieea toeatnhaetn",
      "sa fa",
      "taieee safa",
      "oeeeaiet aa",
      "eaaeed aieeeae",
      "eaet etn",
      "ttaa faee",
      "ttaafaee eaetetn",
      "ot eaitfee",
      "eato eato",
      "oeaieoh tv",
      "pa tooteaeieeouoo",
      "eeaa eea",
      "i etn1",
      "eatoeato haetn",
      "ts fat",
      "aieaead todcto",
      "h eaee",
      "heaee aieero",
      "eaa eeaaeea",
      "aiaa eaeeeaeee",
      "oietaseaa own",
      "eaa eaeloaiaae",
      "eteaaaieeasado st",
      "ai eaaeto",
      "aiea eto",
      "pa emtctaiee",
      "eaaee aieaeto",
      "eato tneaieaietoto",
      "ieeaasee eaaeee",
      "aehtec aiea",
      "aieaead tsiec",
      "l oteetn",
      "f aietn",
      "teea faietn",
      "tk to",
      "eas tsts",
      "eaststs t",
      "too tho",
      "tootho aslo",
      "to tnaie",
      "tai aeaieela",
      "eaa eaaie",
      "taoeeea ee",
      "ot eeae",
      "aiea ethn",
      "aiee et",
      "aieaethn aie0",
      "easa oooo",
      "aiee oeoteaiee",
      "tso d",
      "ead tsod",
      "ooa oeaiaaeaodtotmtn",
      "taseeet ieb",
      "g teato",
      "oiet tetn",
      "gteato t",
      "eaa tneaie",
      "toteato aieae",
      "ood eaier",
      "ood aseaie",
      "oiet taoeeeaee",
      "oiettaoeeeaee taieeeto",
      "ead eaatneaie",
      "oiettetn aie",
      "toteatoaieae sodsod",
      "too tktt",
      "oohto taseeetieb",
      "ot er",
      "aiet oter",
      "eaieafhn eae",
      "ee lo",
      "ieea eooooaiaae",
      "eaieasotea aieaeo",
      "l rt",
      "N A",
      "eaa eaieafteoaiaae",
      "t eaae",
      "eaaieeea tsee",
      "teaae dtc",
      "ood eaitfee",
      "eead oteeae",
      "r toouoo",
      "eaa pa",
      "aet hoh",
      "ieea atn",
      "oteato eaieaaeaiee",
      "erd easeeao",
      "ietaieoeoteea own",
      "astoto 1",
      "etn taoeeea",
      "etntaoeeea eaieae",
      "oeot etteeae",
      "ef e",
      "eeetn eeto",
      "ta eloeadar",
      "ieeaasee to",
      "to eai",
      "ta s",
      "othn eeea",
      "a ea",
      "ood aieeemtc",
      "et lo",
      "lloooo lherodtn",
      "ead loteetn",
      "etot tn",
      "eaapa oeotetteeae",
      "o tnoieemto",
      "asa eaieaieae",
      "ttea aieee",
      "aethoh otnoieemto",
      "aotoh aieeae",
      "teoteo ieeeea",
      "eaet rto",
      "oeta eaie",
      "taiee tea",
      "et aiea",
      "eato ero",
      "ieea hn",
      "eato ttea",
      "eaiee etoown",
      "aiea eaieeetoown",
      "eaee elo",
      "tae ieeahn",
      "eaexxeae ouoo",
      "ea eea",
      "ttsoe ooet",
      "ttsoeooet v",
      "eaa taoeeea",
      "eta eiee",
      "eaataoeeea etaeiee",
      "faet ottn",
      "taa etaieeeto",
      "etaiea faetottn",
      "etoto etoto",
      "ood tttmtn",
      "teato lo",
      "aieaead eief",
      "aieeaiea gte",
      "ood eaieeeattea",
      "oeeeaieea eero",
      "tk teeae",
      "etotoetoto fa",
      "e ieea",
      "llo s",
      "te v",
      "gte fsoeo",
      "oeaie hrd",
      "ottoottooh st",
      "oha oo",
      "oef tac",
      "faetthooero etno",
      "ooh taetaiee",
      "tsee totoaiesa",
      "haetn aieaeo",
      "aea etotoetotofa",
      "ood thnaie",
      "od tnoho",
      "gte ieeohasa",
      "sa toto",
      "aieeeto ert",
      "tae ieem",
      "taeieem oomoou",
      "ea eaaee",
      "eea eaeea",
      "oteea tn",
      "eohaoooo tnoho",
      "ead eb",
      "otee tar",
      "tv ooooo",
      "oeaiehrd tvooooo",
      "p town",
      "eaa eaetaiee",
      "thn eeea",
      "teatn ptown",
      "ooheeaaetn eae",
      "iebod iebod",
      "etktt toown",
      "eaa eeatn",
      "oelo eaaeeatn",
      "ho c",
      "erd tcteetohohaetn",
      "ooa eaa",
      "toothoaslo hoc",
      "aiee aa",
      "aiea eeto",
      "toeeaotd ieemtn",
      "aieeet eaeaaee",
      "ethn o",
      "etn eaeeelo",
      "aieae own",
      "tk taiee",
      "ohaoo uoto",
      "et ta",
      "ead oeoteaie",
      "eato aieeaieagte",
      "eaitfee aieeteeae",
      "teev oteeea",
      "tsee tneaieaietoto",
      "oeeeaietn ttt",
      "eaa aieeea",
      "pa aieee",
      "aieae othneeea",
      "eaa aieeeto",
      "eato totn",
      "aiet htn",
      "em oomoou",
      "ggg aito",
      "erto thtn",
      "eaee ertothtn",
      "eatototn tho",
      "gggaito emoomoou",
      "th aieaeeto",
      "ood ete",
      "tta thaieaeeto",
      "teato atot",
      "otto uto",
      "oodete ottouto",
      "ttathaieaeeto eer",
      "ee eato",
      "eaa etotoatn",
      "gtet meu",
      "gtetmeu aiee",
      "eaiaa etta",
      "eaiaaetta teaieethn",
      "erd aieaieaieeatn",
      "oeeeaie oest",
      "ooa oeoteaieeouoo",
      "oetoto ea",
      "tktaiee teeae",
      "eaa easeetetn",
      "eato toeai",
      "eatotoeai aiee",
      "eea eeta",
      "oeaieoh teec",
      "tn eer",
      "ood aieeaiaaehn",
      "tneer toown",
      "v ea",
      "oeeeai eeae",
      "m on",
      "tsee tnaietc",
      "ta oteea",
      "oeeeaieeae ouoo",
      "faet eatotoeaiaiee",
      "thaieaeoooo aiee",
      "aieeea tn",
      "teaetc aieeeto",
      "ohao aieee",
      "eaieeeatn easeaa",
      "erd tootohhn",
      "ooh eead",
      "teeafa aieeeto",
      "ooheead teeafaaieeeto",
      "ieea aie",
      "ee eaieetno",
      "otto teaee",
      "otto thooetnooooo",
      "eaaaieeetn asa",
      "tkto eeeaieetno",
      "eaeoteea tvo",
      "totn iaec",
      "ieeaasee ert",
      "eae heaeeaieero",
      "ta aeaie",
      "ta oietaseaa",
      "lloooo llorto",
      "aieaiee aiee",
      "i c",
      "ood oieemtn",
      "oetod tjhn",
      "i etaseaa",
      "ood oetathon",
      "ooh eaieee",
      "aiee eaiee",
      "taei taieetea",
      "etm oeoteai",
      "oeoteai etmoeoteai",
      "oeoteaietmoeoteai etc",
      "d hohr",
      "erd oeteaaeaieaeto",
      "faet eatn",
      "aieeae dhohr",
      "oh tv",
      "teea easee",
      "pa eaeto",
      "eohaoooo eteemtn",
      "tk teeaeasee",
      "paeaeto eae",
      "D NA",
      "eaieato thaieeeto",
      "ooa aieeeaiee",
      "ooaaieeeaiee etaoeeeae",
      "eaaeaieea st",
      "easa toar",
      "taiee soooo",
      "to hn",
      "tsee eaaetfeteaieafuto",
      "tkt tsaie",
      "ai oteetnsc",
      "aioteetnsc e",
      "taea aie",
      "tae metaieeeto",
      "e n",
      "ood ohtv",
      "em vo",
      "tas aietetn",
      "oet rto",
      "otto aieeeaaetnrodto",
      "toeeaotd aotasee",
      "etaiee ohouoothn",
      "aiet erduto",
      "aietoe ouoo",
      "oteato etn",
      "aiaa eaieeetc",
      "aieeee eaeasee",
      "oef ouoo",
      "eaieafteo aiaaeaieeetc",
      "f wn",
      "tae fwn",
      "oteato tnst",
      "ot eatooteeae",
      "etlo taoeeeae",
      "oteatooteeae oooo",
      "etn eeb",
      "eeaeasee tootieer",
      "pa oeoteaieeea",
      "eead afaetasaa",
      "lloooo oohtaetaiee",
      "otee tnst",
      "ttsoeotjhn aiaae",
      "erd oeaieasaie",
      "eieea gte",
      "ta oteeaeterduto",
      "eaaeed taithoeouoo",
      "ooaeaa teaieeaee",
      "eaa oeotohasa",
      "oetod tvtaieaeo",
      "l a",
      "as t",
      "tta egggeae",
      "too teato",
      "ooa eai",
      "tooteato ttt",
      "eaaieeea tev",
      "teea eterduto",
      "taie i",
      "aieaeoo teeaeterduto",
      "tefsoeotetn llorto",
      "t llo",
      "aa faee",
      "iet oteeta",
      "aeeeaeee ouoo",
      "aieeeaa eea",
      "ee eaee",
      "tath rtoouoo",
      "aieai etoe",
      "eeaeaeea er",
      "eaiee eaea",
      "eato toto",
      "ieem ot",
      "eaieeeaea satoto",
      "erd aieaieeeto",
      "thoo teeafa",
      "eeeaee eaiee",
      "o ieemot",
      "eohaoooo aieae",
      "oieemot see",
      "eea ee",
      "taiee own",
      "lloooo eaeeadeaeetc",
      "aieai oteaeeoooo",
      "aieaietoe ouoo",
      "aiee taieeeto",
      "ooh tho",
      "eeeato teec",
      "oohtho aieetaieeeto",
      "et pa",
      "ead taoeeeae",
      "oet eaieeea",
      "thaieaeoooo teatn",
      "ee t",
      "ee etpa",
      "eato eaaeaiee",
      "asee tctc",
      "uoo etmtn",
      "aiaa elo",
      "teoteo taero",
      "tae uooetmtn",
      "aiaaelo aseetctc",
      "aehtec eaieasotea",
      "aehteceaieasotea etno",
      "ts a",
      "eato tnoieetaie",
      "ood otellollo",
      "tm tsa",
      "aioteaedoooo etno",
      "tta htahn",
      "tt mon",
      "ood eaiaaeeerto",
      "erd tsiec",
      "eaead ieeohasa",
      "taiei eaeadieeohasa",
      "eatoeatn eerto",
      "o r",
      "o etao",
      "aiee ast",
      "ho aieeast",
      "el r",
      "toothr dc",
      "oetao tasaietetn",
      "ethoar oooo",
      "b ta",
      "tsee ieemtoown",
      "aehtec aafaee",
      "aieeaa eee",
      "ohao aieaaeeaieote",
      "ooatn eaie",
      "ts tto",
      "oeeeai eai",
      "oeloasee tetn",
      "e ote",
      "eaaeed tmtsa",
      "ea eeadero",
      "pa taero",
      "eohaoooo aieaeadthnaie",
      "erd oheaieeea",
      "erd taeieeahn",
      "ta oohetktttn",
      "tatc aieeeto",
      "eaieeea aieeaaeee",
      "eaieaaeaiee own",
      "oeeeaieai eaeasee",
      "eaiee ead",
      "aieeea uto",
      "tsee oteetnst",
      "eaee aieeeauto",
      "oteatoo et",
      "toeeaotdea eaieeead",
      "toeeaotdeaeaieeead uto",
      "th ieeouoo",
      "hr htn",
      "tta tteaaieee",
      "ooa etasa",
      "tath oela",
      "tathoela eatn",
      "eato tnlo",
      "oodts iec",
      "oteatooet ieeaaie",
      "ta oeeeaieeaetaiee",
      "g tee",
      "l e",
      "t ooooo",
      "erd ieteloeae",
      "etaie oteaaote",
      "lloooo staie",
      "ead tjhn",
      "aieeeto aieeeto",
      "taeiee eadtjhn",
      "oeto et",
      "asotea fa",
      "l otc",
      "oetoet tttetaieeeto",
      "eaeeelottt ethno",
      "aeaetotoetotofa tnoho",
      "ta ottn",
      "lloooo eaetaiee",
      "pa eaieasotea",
      "eaeeeaeee duto",
      "aieaead etneeb",
      "oteaitfee ero",
      "to thn",
      "aieeeto eeaaeasaee",
      "teoteoo ietaseaa",
      "et h",
      "lo tothn",
      "teoteo eatoaieee",
      "oohto teatnaieae",
      "ood aiiohasee",
      "tetn 1",
      "ood teaetc",
      "et aietc",
      "etaietc teetohohaetn",
      "lloooo tneaiaoteaiee",
      "th taeiee",
      "ieeaaseeto aietc",
      "oh eet",
      "oheet ktttn",
      "aieae llorto",
      "eaa thaieaeooooteatn",
      "ot iebat",
      "erd tooteethn",
      "aieeetoaieeeto gte",
      "eeto eetn",
      "iodiod taoeeeae",
      "oe llo",
      "eetoeetn aiee",
      "ood sac",
      "erd emtc",
      "iet teec",
      "ood eeb",
      "aeaiee eatn",
      "tstto uoo",
      "oodeeb 1",
      "d pa",
      "tea eaae",
      "teaeaae dpa",
      "ggg ottn",
      "oeotasttmn ta",
      "taoee eaeaie",
      "erd oeoteaieeaee",
      "hoe uto",
      "aiias aie",
      "aieeeato etaieeeto",
      "ea aieaiee",
      "oeeeaielloooolloooo ouoo",
      "oteatoo eote",
      "staie 1",
      "eeetn aiee",
      "i fa",
      "etaiee ethn",
      "ethoar oetmtn",
      "et hoeuto",
      "oo e",
      "staieea eeasoooo",
      "ethoeuto euto",
      "m sa",
      "teato tooteaeieeouoo",
      "tat msa",
      "ifa ea",
      "eeeaeeeaiee ouoo",
      "h eaaeedtetn",
      "teato aotasee",
      "eaeeasoooo aietn1",
      "erd ttan",
      "ooh aieee",
      "tea etm",
      "teaetm teaetcaieeeto",
      "eth oteeatn",
      "aieeeto aeaie",
      "eaeeasoooo eaieaieaief",
      "oef aietsee",
      "oestte haetn",
      "ta aieaetn",
      "ote ieeaatn",
      "oeeeaielloooolloooo ieb",
      "eaitfee teaeaie",
      "ta eatn",
      "oeotasttmnta eear",
      "ia eaiee",
      "aieeetot vo",
      "oefaietsee aieeetotvo",
      "eato etoeaier",
      "taea eto",
      "oeteatoeatn teer",
      "ato taieee",
      "taeieeeadtjhn 0",
      "tj aie",
      "ooh ero",
      "oeteatoeatn taieetclo",
      "ooa fiaeaieeeto",
      "ooaeai ooe",
      "taiee oh",
      "erd aiaaeloaseetctc",
      "tsee iaec",
      "taieeoh hn",
      "ta terduto",
      "gte pt",
      "taoeeeae oooo",
      "eaaef eatn",
      "aiee aieee0",
      "ottoottooh eatn",
      "s tsts",
      "tasee 0",
      "aieaead ttatotoaetn",
      "ststs tasee0",
      "i s",
      "ea fa",
      "eaa etaie",
      "oet hottniebtjho",
      "pa thtaeiee",
      "toeeaotd eaieeeaown",
      "aiea see",
      "eaaeed pa",
      "ta hre",
      "erd teaewn",
      "eaa oheetktttn",
      "eead eaeeasoooo",
      "tmsa own",
      "erd tec",
      "erdtec 0",
      "toothr e",
      "iet faafa",
      "iodiod tnttt",
      "ai aieaieeeto",
      "erd ieeohasa",
      "teea 0",
      "aiaieaieeeto e",
      "ea fs",
      "tho eafs",
      "thaieaeoooo oteeea",
      "eatototo thoeafs",
      "erd aieae",
      "tsts e",
      "eeta uto",
      "etho eaaieeee",
      "todc toown",
      "tsee eahn",
      "tj eatn",
      "eaea r",
      "eaieai eaear",
      "afaet eea",
      "aiee tn",
      "aiee aieee",
      "taiee oestt",
      "ood eea",
      "oeeeai eaiaa",
      "taieeoestt etoown",
      "oeeeaieaiaa eeaeoteea",
      "aieaead oetrto",
      "ee eaaee",
      "taee ifaea",
      "tooieemo tneerto",
      "eeeaaee eafa",
      "etaie oetotoea",
      "tnoh eelo",
      "eead tstse",
      "oet eaaeeeeeadetaiaaeeouoo",
      "taie bta",
      "elr ttaoeeeae",
      "ead tetn1",
      "tsee tjhn",
      "aieaiee tstof",
      "teea tn",
      "toot llo",
      "aehtecaiea easee",
      "etoto tn",
      "teatn aiee",
      "ood oesttehre",
      "teatn gte",
      "to ttt",
      "taieea tottt",
      "etaiee aieetn",
      "ood eeaaeasaee",
      "teato taieeatottt",
      "teatn ouoo",
      "otto etaieeeto",
      "r d",
      "erd tmsa",
      "ll oouoo",
      "llo lloouoo",
      "ote llolloouoo",
      "tta oeloaseetetn",
      "ec efe",
      "lh etktttn",
      "eae ouoo",
      "ao tasaie",
      "ood toothre",
      "teatn pt",
      "htec tv",
      "eaa tooteatn",
      "aioteaeeoooo eae",
      "taaiee asado",
      "ta aieea",
      "tn easeear",
      "aiee atn",
      "pa tnoheelo",
      "eohaoooo iee",
      "tta e",
      "erd afa",
      "oohouoto aieaeo",
      "eaieee 1",
      "to teatnouoo",
      "oeeeai eta",
      "asa taiee",
      "ts t",
      "lloooo lhetktttn",
      "teaaedtc toar",
      "tee eea",
      "tee teeeea",
      "to eeeaie",
      "th os",
      "ood aeaeatt",
      "oeotee toeeeaie",
      "otto eaeeadeaeetc",
      "ohato easeeao",
      "efa c",
      "oeoteetoeeeaie oeoteea",
      "etaie otellollo",
      "htectv own",
      "ttae htectvown",
      "eaa aieae1",
      "ttan iaec",
      "aehtecaiea eaiaae",
      "m vo",
      "o u",
      "aieaiee ecefe",
      "o eaiee",
      "otee tae",
      "oeteatoeatn etaie",
      "oteetae mvo",
      "eea tn1",
      "ood tetn",
      "ooa oef",
      "etsuto aiaae",
      "eeeaaeeeafa eaieote",
      "thos c",
      "eaa eaaefeatn",
      "afa thneeea",
      "ef wn",
      "oeeeaieta efwn",
      "afathneeea 0",
      "r a",
      "aiea eaiea",
      "eaieeea tv",
      "teaaedtc tn",
      "ta oest",
      "oteato thoela",
      "ieeaasee eaioteato",
      "eead eaaietsee",
      "oohto taithoe",
      "oteatothoela pa",
      "fa tc",
      "ood tjaie",
      "gt eaieee1",
      "aotoh aieaioteaeeoooo",
      "hrd ttmon",
      "iaeaiee la",
      "tkt gggaitoemoomoou",
      "tsfat tsfat",
      "eaa aieae",
      "erdeaa easeetetn",
      "aiee tooteethn",
      "ttsoe o",
      "ea eaiea",
      "aiee lrt",
      "eaa taeaier",
      "eeaa etouto",
      "eaaeaieea eaeeae",
      "eaeaiea eeaaetouto",
      "oeeeaiee lrt",
      "erd aieasee",
      "aehtec efe",
      "e ot",
      "eaa aeeeaeee",
      "eaeaetn tsfattsfat",
      "tootktt eaaaieae",
      "eot easeeexeceee",
      "r toown",
      "ead oeote",
      "ead twn",
      "lloooo tooteethn",
      "tsee teaieeeae",
      "ea eaieeeto",
      "tvo 1",
      "eatn 0",
      "ieea taeeifaea",
      "tooieemot htn",
      "gtee eatn0",
      "ts uto",
      "oeeeaie oteaaoteaiee",
      "oeeeaiee tsuto",
      "aiee rd",
      "erd etaieeohouoothn",
      "eohaoooo eelo",
      "erd hrhtn",
      "th ettooeeeaie",
      "erdhrhtn e",
      "tk tot",
      "erd tmeuo",
      "oeaie hrdtetn",
      "aieeeae 0",
      "ooa etottn",
      "aieaead iodiodtaoeeeae",
      "tn rodto",
      "oetod tmostaieae",
      "ta oiet",
      "eae oh",
      "eato tetnaieasaie",
      "lloooo efac",
      "taoiet taoeeeae",
      "ea eai",
      "tta eaeaetn",
      "hrd tllo",
      "ato etn",
      "hrdtllo rtoown",
      "eaetn oh",
      "eeaee eaetnoh",
      "ea eaaaieeeto",
      "eaa aieeetc",
      "ooh eaaaieeetc",
      "ooheaaaieeetc o",
      "aieaeo eaeeasoooo",
      "erdeaa tneaie",
      "oodto hn",
      "eaaeaieeeto ieemtn",
      "aieerd oeote",
      "to uto",
      "tsee taieerhtn",
      "aieeeto eeaeaduo",
      "tn sodsod",
      "aotoh aieaieeeto",
      "eaaieeea tnsodsod",
      "tooieemot thn",
      "aietc 0",
      "eaaieaiee mtn",
      "s toouoo",
      "tatn easeear",
      "aiet aie",
      "ai oteatoetn",
      "tsee tttmtn",
      "to tetn",
      "aiet aioteatoetn",
      "eaaaiee etn1",
      "tn asee",
      "oeeeaie vea",
      "tneai eaiaae",
      "toeeaotd eaaieeeeto",
      "odto tnasee",
      "erd c",
      "teote oto",
      "erd eteemtn",
      "h a",
      "eto taoeeeae",
      "ood eeea",
      "st llorto",
      "tootllo etotaoeeeae",
      "oodeeea stllorto",
      "aie hohr",
      "ood eaaieeeatsee",
      "toto aiethtn",
      "toeea aiehohr",
      "toeeaotd asoteafa",
      "ts eaeai",
      "aieaeoo etn",
      "eaeeelottt eatotnlo",
      "ood eaaaieeetn",
      "hoh oh",
      "erd eief",
      "te ieeaatn",
      "oettaero astoto",
      "aieeetoo teieeaatn",
      "tseaeai etaoeeeae",
      "thr e",
      "oeoteaseeexeceee oetmtn",
      "eatoo h",
      "eaaaiee asadoown",
      "aieaee eaeee",
      "ietaieoeoteea asee",
      "aie staie",
      "eaaee eatoeaaeaiee",
      "rto hn",
      "aee rtohn",
      "tsee tv0",
      "aieea eaaaieeeto",
      "aieaee mtn",
      "aieeeato thotho",
      "eaa llollo",
      "ooh teea",
      "tneaseear ouoo",
      "otai ato",
      "otaiato tetn",
      "etaie oeteaaeaieaeto",
      "oeotas eaaietetn",
      "erd ttsoeotjhn",
      "taea eeae",
      "ooh etoeaier",
      "eato eetauto",
      "n e",
      "etaieee soooo",
      "eaitfee lotothn",
      "oodatot thaieaeoooo",
      "eea elo",
      "teatn hre",
      "gtehn ouoo",
      "aieaeaiea eaieae",
      "ai etaiee",
      "oeeeaieeaa oeftac",
      "erdttea aie",
      "llo st",
      "thaieaeoooo oeaierto",
      "oeteaa easa",
      "vea own",
      "ee etnrodto",
      "as eaa",
      "eaa oeftac",
      "tta eiee",
      "to aie",
      "erd eaaeaiee",
      "aieea et",
      "taaieeatn eae",
      "oeotas eaaie",
      "oh aieee",
      "ood aieetstof",
      "eead htahn",
      "toto eoteea",
      "etasaa ero",
      "oeeeaiet ec",
      "oeotee totoeoteea",
      "aieaeaieaeaieae ohaieee",
      "C A",
      "erd thooteeafa",
      "eohaoooo taoeeeae",
      "eato etao",
      "tsee easa",
      "p thre",
      "eaeaetn aieeeea",
      "ood iet",
      "tsee iodiodtnttt",
      "hrd c",
      "afa tseetsee",
      "aiee aietn",
      "tsee thetsc",
      "aieea 2",
      "i etasaa",
      "erd staie1",
      "aieetsee aiaae",
      "ietasaa r",
      "eato ttt",
      "eato teeafa",
      "tooooo fatc",
      "eatooh tooooofatc",
      "eatoteeafa eatoohtooooofatc",
      "eatoteeafaeatoohtooooofatc ttt",
      "otaiatotetn asa",
      "oh eetc",
      "gte seetpa",
      "aieee iemeu",
      "etasaa gte",
      "tktot eaitfee",
      "aiee tmsa",
      "eaa faeteae",
      "oeaiee tmtn",
      "oestt eeaaee",
      "taieeesoooo 0",
      "oestteeaaee eto",
      "terduto taieeesoooo0",
      "hohr t",
      "ta aieeetoar",
      "aieeee rto",
      "eaeeasoooo oietaseaa",
      "tktt aieteetn",
      "eaa tnst",
      "eaieeea aieae",
      "erd eaaaieeetn",
      "ood tootieer",
      "oeaieoh etktttn",
      "ooa eaeaaaieeeto",
      "a c",
      "s eear",
      "eato eaaeeaieaeto",
      "tea seear",
      "oeti aaeemtc",
      "teoteoo teaseear",
      "a l",
      "eato taiee",
      "ietaieoeoteea eae",
      "d utoouoo",
      "ea ttaiee",
      "eaie dutoouoo",
      "erd tea",
      "ooh tn",
      "eaeoh et",
      "eattaiee eto",
      "etc f",
      "eaieeeattea aiee",
      "erd pt",
      "tc thtseea",
      "oeai aieeaieee",
      "aieaead tcthtseea",
      "eatoo t",
      "ea etaoeeeae",
      "eead tnttt",
      "eaetaoeeeae uto",
      "eaet othn",
      "aiee eteemtn",
      "eae f",
      "eatoee eaef",
      "toh thoela",
      "eaaood atot",
      "aieeetoo tohthoela",
      "et eeae",
      "oteatn thoela",
      "pathn eteeae",
      "ta aieeeeto",
      "oef aieee",
      "ohato aieae",
      "taaieeeeto 0",
      "thooteeafa own",
      "ood eaaeaiee",
      "teato tst",
      "ohao aietc",
      "oodeaaeaiee etn",
      "teatotst tnrodto",
      "ead eaaieeeeto",
      "o tasa",
      "hn o",
      "ood oeeeaielloooollooooieb",
      "otasa totetn",
      "r e",
      "lloooo ooheerto",
      "od sod",
      "tai oteatoetn",
      "aiaaeea etaiee",
      "etktt to",
      "oeeeaie oeeae",
      "lloooo taoeeeaeown",
      "teato tnaietc",
      "aiaae llooootaoeeeaeown",
      "oello aieae",
      "r od",
      "erd tnst",
      "ood aieeetstt",
      "ttea thtn",
      "erd iodiodtaiee",
      "oeto eoteaseeexeceee",
      "taeiee 0",
      "hohoh oeatn",
      "erdtea taeiee0",
      "eaa teatoar",
      "too ttaeiee",
      "afaet aie",
      "r oo",
      "oeeeaieea aeeeatn",
      "ooh eeea",
      "eato tefsoeo",
      "eaa aeaeattetaieeeto",
      "aieaead eutoeuto",
      "taoeeea easto",
      "erdafa taoeeeaeasto",
      "erdafataoeeeaeasto aie",
      "to eaeeeaeeeduto",
      "tea eai",
      "eaeead ao",
      "e ggg",
      "ea r",
      "tsee loaie",
      "aot aieeeto",
      "ood oeto",
      "aiet mtn",
      "aeea tohn",
      "oodoeto aietmtn",
      "aeeatohn aieee",
      "erd oteeta",
      "ood taioteatoetn",
      "eead oetofaaslo",
      "ieb tn",
      "ta afa",
      "loaseetctc oooo",
      "oeeeaiet eatn",
      "eaaieeeeto etaieeeto",
      "ooheeea aiear",
      "e h",
      "afa eaieotd",
      "teoteoto toeaeeeaeeeduto",
      "roo o",
      "oeeeaieteatn pt",
      "o m",
      "etn aieec",
      "erd tv",
      "aieaead eeaeaieeeto",
      "erdtv st1",
      "ood tneerto",
      "toto eaeeeaeeeduto",
      "etn taoee",
      "etntaoee eaeero",
      "h i",
      "erd te",
      "erd tootieer",
      "tae uto",
      "tooieemo aieaeaieeeto",
      "erdte sac",
      "ot sa",
      "ood iettc",
      "lloooo ttatotoaetn",
      "oeaie hr",
      "tm otsa",
      "afaeaieotd tv",
      "taeuo aieeeto",
      "oodiet easaoooo",
      "aieae oteeatn",
      "eaiaa eeto",
      "iec own",
      "aieea 3",
      "eaeeasoooo etoeaier",
      "oeeeaiets aiee",
      "oodtneerto eae",
      "eaiaaeeto iecown",
      "eaa ethotc",
      "tsto fa",
      "eaaethotc eta",
      "lloooo totoeaeeeaeeeduto",
      "oteeet iaee",
      "eaie uto",
      "aa eh",
      "teote oee",
      "eaaeeetot htn",
      "lh e",
      "oeti aaeh",
      "thneeea own",
      "oetiaaeh ouoothn",
      "a m",
      "i eerodtn",
      "m touto",
      "eae oet",
      "oh aieeeatn",
      "lloooo eeaeaieeeto",
      "tsee tcaiee",
      "eaiea eeta",
      "lhe ohaieeeatn",
      "eaeoet mtouto",
      "o tasee",
      "taiee eaieaeeta",
      "aieea eeae",
      "hrd st",
      "eaoh hrdst",
      "e d",
      "to eerto",
      "gte gte",
      "eaaood eaieeaoero",
      "teoteoee eatoeaaeaiee",
      "toeerto tetn",
      "aieaead toottaeiee",
      "aiaiee own",
      "erd eaeeadao",
      "ood ottoottn",
      "tsee oteea",
      "toeeaotd teaetmteaetcaieeeto",
      "etkttto eaetaiee",
      "aie oeteatoeatn",
      "aieeaet rto",
      "eatoot iebat",
      "er oown",
      "eato aotohaieaieae",
      "oet eaeaieotdero",
      "tooieemot erduto",
      "oteaitfee eroown",
      "erd aieetstof",
      "ooh aiee",
      "pa eaieeea",
      "etaie oeotohoest",
      "ood thaieaeoooo",
      "aiiohasee eteaeaseeown",
      "aietn easeear",
      "etaiee hre",
      "tead tetn",
      "oeeeai ear",
      "gt eai",
      "eeae stt",
      "aiaae oeeeaiear",
      "in g",
      "aieeaetrto eaetrto",
      "pa etaiee",
      "eeetnaiee aieaeoaieaeo",
      "aiee teaee",
      "asa eaeeemtn",
      "oetod thnoo",
      "gteai etoe",
      "A l",
      "e s",
      "t eaieuto",
      "tc lo",
      "toeeaotd ar",
      "tmost toeeaotdar",
      "erd oohto",
      "ood thtn",
      "pa eaieeatn",
      "ieeaasee tsee",
      "os taieeeto",
      "oi etasee",
      "tm ostaieeeto",
      "erdoohto v",
      "teoteo eaeheaeeaieero",
      "totoaiethtn ouoo",
      "etn iec",
      "tsee eaaaieeetn",
      "aieeeato ttea",
      "tllo rtoouoo",
      "aieeeerto tllortoouoo",
      "t er",
      "erd aieeetstt",
      "tmotsa o",
      "ets odsod",
      "oteato eaaietsee",
      "taiee eeae",
      "ooh eattaieeeto",
      "aead eahn",
      "oetod aehtecefe",
      "erd ietfaafa",
      "ood eaaef",
      "oh toeea",
      "ood oeotaseaaie",
      "lloooo oetn",
      "eatoo eeae",
      "aieaeo aieaieeecefe",
      "eeaee eae",
      "u b",
      "ote fa",
      "od eaeeasoooo",
      "hrd tllorto",
      "iaeaieela own",
      "otefa town",
      "t thoo",
      "erd aieaetn",
      "etaie llolloetouto",
      "eeaestt etn",
      "eeaeeeae ouoto",
      "tthoo wn",
      "i ll",
      "tsee etktttn",
      "iet rhtn",
      "tooieemot easa",
      "aietaiee tea",
      "o eaiea",
      "s eea",
      "oo aieemtn",
      "eaa oesttnoo",
      "otaiee tclo",
      "u s",
      "y tjhn",
      "eaats teeafa",
      "eaats easeeao",
      "ottoo tto",
      "eaeohet ytjhn",
      "i P",
      "t aiet",
      "ee aieeea",
      "aiee asad",
      "aee eaee",
      "tootktt taieetc",
      "aieeasad oouoo",
      "a eai",
      "oo g",
      "etaiee aee",
      "tsee tstofa",
      "eaieeea eaieeea",
      "gteea aie",
      "h oo",
      "n d",
      "ooh thosc",
      "oetod tneaseearouoo",
      "rhtn aiee",
      "aot etm",
      "ottoot tn0",
      "aeeeaee eeaieeea",
      "ot eatoaieee",
      "erd oeaiaieeaieee",
      "ood eaaietsee",
      "oet ieea",
      "oodthtn aiaae",
      "oetieea seea",
      "ee l",
      "ood eaaaieaietaoeeeae",
      "tsee oeotohoest",
      "eatoo oh",
      "toeeaotd aotaieeeto",
      "aietn 3",
      "et aietaoeeeae",
      "ta eaie",
      "etaietaoeeeae oooo",
      "i d",
      "eato hoaseea",
      "teoteo tneaieaietoto",
      "u r",
      "eato eb",
      "ooh aietaie",
      "aieaead rhtnaiee",
      "oheetc ero",
      "eel otaieetclo",
      "teato aieee",
      "oet oteieeaatn",
      "oteaseear st",
      "otto eaaeeeatn",
      "eaetrto eaetrto",
      "ote ieea",
      "teev egggeae",
      "ato thtn",
      "oteieea atothtn",
      "h aead",
      "aiee aseea",
      "ood oshtn",
      "ouoo aiaa",
      "ooa lololotnttt",
      "haead oelotac",
      "aieeaseea o",
      "ouooaiaa eer",
      "eaa ohn",
      "ood aehtecaieaeouoo",
      "ood eaaeaieeetotaoeeeae",
      "ood aiaaeeaeoteea",
      "tsee gggaitoemoomoou",
      "eaatsaietetn teer",
      "ooatn easeear",
      "m teaetcaieeeto",
      "ood oeteaaehn",
      "eaiaa eeae",
      "oeeeaiet eaet",
      "oeeeaiee r",
      "taafa taoeeeae",
      "oog le",
      "oeeeaieteaet mteaetcaieeeto",
      "aiee tno",
      "aiee aiee0",
      "eaa odthtn",
      "aie ieeasa",
      "eato eerto",
      "ead oeaieaieeeaaetmtn",
      "oteato aeaie",
      "eaieai etoto",
      "eatoeerto ieerodtn",
      "ood hoaieeast",
      "x etn",
      "ood aieaeaieeeto",
      "od eaieeatn",
      "tead teeae",
      "eaeeasoooo eaaeedhotatttn",
      "otto eaiaaeeae",
      "e ood",
      "i t",
      "ood tmosttoeeaotdar",
      "taoeeeae f",
      "eood taoeeeaef",
      "a y",
      "aiee fa",
      "aiee aaee",
      "ood ieeeea",
      "tea eaaee",
      "gteaie xetn",
      "eatotnlo 0",
      "aieefa metaieeeto",
      "G oogle",
      "ood aieaaeeteemtn",
      "teato toetasa",
      "ta oteeta",
      "eato eieeagte",
      "oeeeaie oteeea",
      "eaa ouoo",
      "aead em",
      "aieeeto eaeeemtn",
      "od eaetothn",
      "eaitfee oetotoea",
      "erdttea o",
      "aeadem taoeeeae",
      "i k",
      "et eaeeae",
      "aiee teaieuto",
      "aieai eaieaee",
      "od tcteetohohaetn",
      "eteemtn ero",
      "aieaieaieaee aieetno",
      "S A",
      "eead eatoeatn",
      "tsee thettooeeeaie",
      "eetn o",
      "ood aieee0",
      "ohao aiiasaie",
      "ietaodto teea",
      "iet eaetaiee",
      "iet eerto",
      "hohr teatn",
      "iodiod aieaeeaaeto",
      "aiee aieeaiee0",
      "erd oeotasttmntaee",
      "tooieem oo",
      "odeaeeasoooo ouoo",
      "erd iaee",
      "eaa oeoteertottea",
      "M ar",
      "erd oteetnsc",
      "ood ieeaasee",
      "ood otefattsee",
      "lloooo aieaieeecefe",
      "tee ta",
      "tooieemoo teeta",
      "eea ar",
      "ead htahn",
      "oodieeaasee eeae",
      "a d",
      "tsee oteetn",
      "etot htn",
      "eaaeaiee etothtn",
      "aieeeea etaiee",
      "eaatn erto",
      "hr odto",
      "tsee aieeetstt",
      "taieetclo eeatn",
      "eaaood aieaieaieeatn",
      "oodeaa etniec",
      "ooatn aietc",
      "hrodto fa",
      "eai eaieeatn",
      "aieai eaieaieeatn",
      "oteato aieeeaieeaee",
      "oetaieeeto ar",
      "thosc ouoo",
      "ttsoeo taeieeahn",
      "ta tv",
      "erd tnoieetaie",
      "eaa oelloaieae",
      "eato eaieeatn",
      "ood eaieafteoaiaae",
      "tea aieeaaee",
      "etao tasaie",
      "tasee etaotasaie",
      "elrt taieeesoooo",
      "tatv easa",
      "ead aieeaee",
      "otto eaeteb",
      "tooieemot v",
      "eaieeea easeeao",
      "aaote oteea",
      "ieem oero",
      "ohaoeae heaeeaieero",
      "ooh ouooaiaaeer",
      "oeotd aieetstof",
      "ieteerto er",
      "a llollo",
      "oetod patooteaeieeouoo",
      "taiet saie",
      "allollo fa",
      "tt eaie",
      "gte iettc",
      "eaieeea eaieaieae",
      "oetod tcteetohohaetn",
      "taseeet tjeatn",
      "eaeaieotd ttt",
      "ai etaieeesoooo",
      "erd aotohaieaieae",
      "eato aieeeatn",
      "ooh etlo",
      "toeeaotd easeeao",
      "eaieaf teaeai",
      "ooheeaaetn oo",
      "tooooo eaiaae",
      "eaieafteaeai toooooeaiaae",
      "s on",
      "ea eta",
      "aeadtc llorto",
      "tsee eea",
      "an d",
      "oetiaaeemtc eae",
      "i eaee",
      "o b",
      "lloooo thneeeaown",
      "eead teeatn",
      "aieaeo aieaellorto",
      "tkto ieemtn",
      "oohaiee asado",
      "et othn",
      "ead eaetaiee",
      "oha ot",
      "aito etothn",
      "tat aitoetothn",
      "eggg eadst",
      "e llollo",
      "aiee eai",
      "aiee eeaa",
      "erd ethno",
      "ood ellollo",
      "etoto ea",
      "tk thr",
      "ieaee iehn",
      "oodellollo eae",
      "tkthr eaiaae",
      "C hr",
      "aiiohasee thnaie",
      "ohaot tea",
      "v taieaeo",
      "erd seetpa",
      "odthtn gte",
      "ttaafaeeeaetetn ouoo",
      "a b",
      "d toar",
      "ta totnaie",
      "etn eaeta",
      "as toaie",
      "oee eaieetn",
      "eaa etot",
      "eaa hrhtn",
      "eato ieeaaseeeaioteato",
      "ead sa",
      "ead eaaeeetof",
      "teea eadsa",
      "aiet h",
      "oeto ieemopa",
      "oooh tc",
      "lhero dtoar",
      "ieteertoer oouoo",
      "oeeeaieetn eeb",
      "eaaetot jhn",
      "eaahrhtn eoooo",
      "s iec",
      "erd aotoh",
      "lloooo eeetpa",
      "oetmtn astoaie",
      "teeafa eaaaieaietaoeeeae",
      "erdaotoh aieelrt",
      "tn totototo",
      "ooa oteatnthoela",
      "ieeoh hn",
      "oeeeaiet vtaieaeo",
      "ao tas",
      "faetthooero eaitfee",
      "tntotototo ea",
      "aotas eear",
      "o l",
      "erd tteaown",
      "aieeeto eaetaiee",
      "otto ieeaaseeeaioteato",
      "ottoottooh ottn",
      "aieetstof thtn",
      "i m",
      "tsee eaeeemtn",
      "etaie f",
      "oetoto pa",
      "toothoaslo hoo",
      "toothoaslohoo eoteea",
      "e otoh",
      "i l",
      "et eatoeb",
      "ta etno",
      "aiet stt",
      "oteea eteatoeb",
      "eaieeae oouoo",
      "eotoh oest",
      "oteeaeteatoeb uto",
      "Y ou",
      "etn oeeeaie",
      "hr eaiaae",
      "aieae otee",
      "tai aoteaiee",
      "taeeexaiee etnoeeeaie",
      "tooieemo aieaeemtn",
      "aieeetoo taiaoteaiee",
      "aieaeotee toaie",
      "ee etneea",
      "oo k",
      "eaaeed ouoo",
      "u l",
      "ood eteaeeae",
      "tead oteeaeteatoebuto",
      "toeeaotd eaieafteoaiaae",
      "ietaodtoteea own",
      "ta eeaeaieeeto",
      "erd aie",
      "eato eae0",
      "eead oeto",
      "iet ethotc",
      "oteatn aieaeeaaeto",
      "aieaeoo ieemopa",
      "eeadoeto eeae",
      "t ieer",
      "ic k",
      "oeaiea tmtn",
      "aieth aitoetn",
      "ot etc",
      "aieae oeaieaieae",
      "ai er",
      "ood ieeohhn",
      "ieeaasee aieaieaieeea",
      "eeae o",
      "tooieemot siec",
      "aieeetot thn",
      "oo aa",
      "tta oest",
      "ggg aieeeatn",
      "toeeaotd iaee",
      "c h",
      "et aiethtn",
      "ta eeaesttetn",
      "taaiee aiee",
      "totn eaaeedpa",
      "ub e",
      "eeaeo 0",
      "D P",
      "a v",
      "ar d",
      "ooa eaaeaiee",
      "eohaoooo hohrtthnst",
      "etaieea eeae",
      "u n",
      "oo ea",
      "aiee eeae",
      "ta aietaie",
      "ead aeae",
      "ood eetn",
      "eaieeeto f",
      "teoteo eaieafteoaiaae",
      "eaiea eaieeetof",
      "oteatoo etotoea",
      "aieaeoo ietaseaa",
      "tootktt tso",
      "erdafa taoeeeae",
      "oodeetn rooo",
      "a t",
      "ai eaieeeaaetmtn",
      "et eaieeea",
      "ta oetieeaseea",
      "too eteaieeea",
      "oh aieaieeeaaetmtn",
      "lloooo tnst",
      "oha tooeteaieeea",
      "aieae hn",
      "ttea o",
      "oeaieas aieaehn",
      "aieato t",
      "i tt",
      "ea aieeeai",
      "aiee etaoeeeae",
      "tn rod",
      "eato etn",
      "eato tnrod",
      "oeeeaie oteatoown",
      "tta tjhn",
      "tsee eatotnrod",
      "eaiea ohaieaieeeaaetmtn",
      "oiet etno",
      "eatototo eatoetn",
      "eaaieeeai aeaieela",
      "aieeetaoeeeae oooo",
      "tseeeatotnrod oo",
      "erd loaie",
      "ead taieesoooo",
      "ood oietetno",
      "taea satoto",
      "ia n",
      "thaieaeoooo tsiec",
      "tneea aie",
      "ta staie0",
      "aieae ooohtc",
      "Chr is",
      "erd eieea",
      "oet ieeaaie",
      "aieea aieeetstt",
      "aieaeo eaeeae",
      "erdeieea etn",
      "tsee eaeaieotdttt",
      "asa aieeaieee",
      "eeta 1",
      "aiiohasee eaaethotceta",
      "eaaaiee etneae",
      "afa ooheerto",
      "ma n",
      "mtc taiee",
      "to eer",
      "erd oohthoohneerto",
      "too oea",
      "tsee teaieethn",
      "aaoteoteea eaaeedhn",
      "toeer toooea",
      "P S",
      "e y",
      "ooa eteaieutoouoo",
      "oeeeaiee mtctaiee",
      "eeaa etaief",
      "ooaeai eaie",
      "ero easa",
      "eeaeaeea eroeasa",
      "eaaieaiee aieaiee",
      "eatotaiee asa",
      "eatototoeatoetn teer",
      "tta afa",
      "oell oohteea",
      "G DP",
      "r y",
      "eer 1",
      "ieeaasee oodteaaie",
      "tsee oest",
      "oetod ieemtn",
      "eb ook",
      "tktt aieieeasa",
      "afaet ottn",
      "p tho",
      "eaieaieae own",
      "ptho aiaae",
      "to eaieaietoto",
      "aiea ouoo",
      "oohto ietfaafa",
      "oeteaae oooo",
      "oodto tnaie",
      "erd etaie",
      "eaa tnoieetaie",
      "ho ne",
      "eetn aie",
      "aiaae ieemoero",
      "toot aiaaeieemoero",
      "ato tst",
      "aotetm iodiodtaoeeeae",
      "to rod",
      "ta eaeoteea",
      "ta eae0",
      "ood eer",
      "teato torod",
      "ooa eaie",
      "aieaeo ieaeeiehn",
      "oi etsodsod",
      "eaieaee aieaee",
      "aieeeea 1",
      "eeea stetn",
      "ic h",
      "elr tpa",
      "teatotorod ooaeaie",
      "B r",
      "aiee eer1",
      "eato thaietktttn",
      "lloooo ma",
      "tta oodeer",
      "teato eaataoeeeaehn",
      "teatoo eaieas",
      "aaoteotee etn",
      "teatooeaieas aie",
      "F ac",
      "o w",
      "erd hottniebtjho",
      "aie bta",
      "tt aiebta",
      "eato eahn",
      "afa etototn",
      "oeeeaieeaa eaieeeae",
      "i p",
      "u d",
      "taiee eetno",
      "ts teeafa",
      "pa oeoteaie",
      "aiaa ea",
      "ieeaasee aieaieaie",
      "eatoo eotohoest",
      "eaeeelot ttea",
      "etaiee aieeae",
      "oetod htahn",
      "afa asoteafa",
      "erdoell oodtoea",
      "aiaaea eaieeea",
      "etaieeaieeae oero",
      "ood hrodtofa",
      "eahn sodsod",
      "toeaieaietoto ar",
      "Fac ebook",
      "eaeeelotttea aietsee",
      "ood iebeaeeemtn",
      "tsee oohtoeae",
      "teoteo eatne",
      "tseeoteetn eaeeasoooo",
      "l as",
      "oetod eaaeaieeetotaoeeeae",
      "ttsoeot eaewn",
      "gtegte gte",
      "A nd",
      "a p",
      "erd thaietc",
      "eead eaeetc",
      "aieeeae 1",
      "eaaaieeetn st",
      "teec ottootto",
      "a f",
      "i eero",
      "tn easeaa",
      "toot tn",
      "toot gte",
      "eaitfee taieetclo",
      "aieeae xxeae",
      "a g",
      "ot tooe",
      "ts fa",
      "erd teeaaaaeoooo",
      "ood eutoeuto",
      "tsfat tsfa",
      "toeeaotd eeaetmtn",
      "oeaiehr oooo",
      "eatoooh eerto",
      "erd etnaieec",
      "th aitoetn",
      "aie oodtefsoeo",
      "aieeea tsee",
      "aieea aieeeatsee",
      "iP hone",
      "R I",
      "taiee asa",
      "tta teeaeadsa",
      "eaaeed tnoho",
      "gtet eeae",
      "eaieaf tn",
      "s too",
      "aiea easee",
      "oeeeaie odthtn",
      "etc eaieafteoaiaae",
      "etc tnta",
      "ood eatoeatn",
      "toto tnaie",
      "oha tototnaie",
      "ooa tefsoeo",
      "oeeeaieodthtn aie",
      "etceaieafteoaiaae 1",
      "G PS",
      "tta eaeae",
      "eaaaiee aiaaehn",
      "eaaeaiee eadst",
      "gteea eeae",
      "etteatoteatn aiee",
      "ai aec",
[...]
